#version: 0.2
Å Ĥ
i e
č Ċ
Ġ p
Ġ s
Ġ w
Ä Ļ
Ġ n
Ġ z
a ÅĤ
r z
Ä ħ
Å ¼
c z
Ġ t
o w
c h
Ã ³
Ġ d
Ġ m
Å Ľ
Ġ o
Ġ k
g o
i ÄĻ
r a
d z
Ġ i
n i
s z
Ġn a
Ġ j
l i
s t
Ġ b
n ie
Ġp o
r o
rz e
i l
â Ģ
Ġs iÄĻ
Ä ĩ
l e
e go
âĢ ĵ
c i
n y
a k
y ÅĤ
a m
Ġn ie
Ġ B
a r
e m
Ġd o
Ġ Å¼
il l
k a
ill y
rz y
n a
Ã³ w
dz i
Ġz a
e r
w i
Ġj e
n e
Ġ *
a t
k i
ĠB illy
ĠÅ¼ e
cz y
Ġw y
ÅĤ a
Ġs t
c ie
k o
Ġ g
Ġp rze
Ġ u
ÅĤ o
Äħ c
d y
Ġ P
Ġ a
d a
ow ie
o r
dz ie
Ġ W
Ġ âĢĵ
w a
Ġb yÅĤ
n o
r e
l a
m i
Ġk t
e n
r y
Ġt o
b y
Ġ c
Ġj ak
w o
Ġkt Ã³
Ġo d
Ġ cz
Ġ N
Å Ħ
ow a
k u
Ġ T
Ġk o
aÅĤ a
Ġ ÅĽ
Ġp rzy
n Äħ
t y
s i
Ġ ro
k ie
c y
Ġm i
a d
t a
e j
Ġt y
ni a
ÅĤ y
a s
Ġs p
o b
Ġ Z
j Äħc
w ie
ÅĽ ci
dzi aÅĤ
r u
Ġ ch
sz y
Ġ l
am i
Ġs z
Ġn i
Ġ D
Ġ go
aÅĤ y
ra z
Ġw o
cz e
m ie
Ġ M
a n
Ġpo d
Ġp owie
Ġt ak
Ġm u
ny ch
j e
c e
Ġ C
Ġt e
ÅĤ u
b i
o m
Ġd z
st a
t e
j a
Ġ J
Ġ S
Ġw ie
r Ã³
a le
Å º
ow y
i m
Ġm o
sz e
Ġ A
ow i
Ġc o
Ġ O
o t
ĠN ie
o s
Ġwo j
B illy
Ġ f
Ġje st
Ġ K
aÅĤ o
Ġo b
ny m
p i
Ġro z
o n
c a
er y
Ġm a
z y
ÅĽ Äĩ
rz a
ĠktÃ³ ry
m a
m y
Ġj ego
ar y
j Äħ
ĠB yÅĤ
n ego
Ġm ie
Ġw i
Ġs wo
l u
Ġdz ie
b ie
Ġk a
Ġje d
Å¼ e
ĠbyÅĤ o
o d
ne j
w y
Ġz e
t u
Ġl u
Ġ R
nÄħ ÅĤ
n ÄĻ
r ÄĻ
Å¼ y
Ġcz as
Ġp a
g i
Ġ I
ery ka
p ie
ie dy
ow aÅĤ
g a
Ġz na
c j
u m
Ġw szy
Ġpowie dziaÅĤ
Ġi n
Ġp ra
Äħ d
Ġ czy
Ġs ob
w aÅĤ
Ġo p
t em
Ġp ie
g l
si Äħ
Ġ L
z a
ĠN a
Ġty m
l o
e z
m u
u Å¼
Ã³ ÅĤ
da rza
k ÄĻ
nie j
Ġprze z
Ġd la
kie m
g r
cz yÅĤ
a li
k Ã³w
Ġ rze
ÅĽ cie
k Äħ
Ġ le
sz cze
l ko
t o
Ġs am
Ġb y
ĠP il
p o
p u
Ġsob ie
gr im
e k
t aÅĤ
Ġmi aÅĤ
ĠPil grim
b o
Ġt ego
a l
ra l
Ġa le
Ġwszy st
sz cz
âĢ ľ
ĠÅ¼ y
e ÅĤ
s ki
a Äĩ
u t
Ã³w i
j ÄĻ
Ġ ra
wi at
Ġ h
Ġl at
a z
Ġk u
Ġp i
Ġp ro
Ġi ch
Ġj uÅ¼
Ġty lko
e w
Ġp u
ci Äħ
e t
e ary
f i
y ch
Ġt am
ow o
ÅĽ li
Ġn o
owie dziaÅĤ
b a
m eryka
Ġprze d
Ġb ÄĻ
g ie
ow ej
ch o
Ġk siÄħ
c Ã³w
o st
Ġk iedy
Ġje szcze
ĠktÃ³ re
ĠD re
a ch
f am
dz e
dz o
k t
ni u
Ġb ar
ci a
em u
Ġza p
d ÅĤ
g ÅĤ
Ġ r
st y
dzi ÅĤ
a jÄħc
o ny
ĠP o
ĠZ darza
Ġte Å¼
ral fam
ralfam ad
a j
Ġp iÄĻ
Ġw iÄĻ
ra w
Ġna j
ĠbyÅĤ a
ralfamad or
d u
m o
Ġ âĢľ
Ġw ÅĤa
Ġd ale
ĠW eary
g li
s u
s y
s kie
c ja
Ġ li
Ġ raz
Ġm Ã³wi
ni k
Ġsp y
ĠA meryka
g u
n iÄĻ
o ÅĤ
Ġ ci
Ġg dy
Ġp ow
Ġw z
rz yÅĤ
Ġm y
Ġa by
wa Å¼
s a
Ġs k
Ġst ra
Ġg ÅĤ
w Ã³
z u
ie d
ow Äħ
Ġo t
Ġb o
ĠÅĽ mie
s iÄĻ
Ġ E
Ġ G
Ġb u
Ġpo z
Ġod p
ĠJ e
d ÄĻ
e l
Ġt en
Ġb ez
ĠÅ¼e by
Ġst o
ĠT ralfamador
ĠÅĽ wiat
cj i
t er
Ġz d
ÅĽ nie
ÅĽ my
st o
i aÅĤ
o no
s k
Ġs Äħ
Ġw a
Ġst a
Ġg dzie
en t
b u
Ġw s
Ġm Ã³
Ġni ch
Ġte raz
n Ã³w
Ġt a
st u
ro d
Ġa ni
ĠT o
ĠZ ie
sze dÅĤ
Ġz am
Ġd wa
owa Äĩ
ĠT ro
ob a
ĠbÄĻ dzie
ĠksiÄħ Å¼
o ne
p a
s cy
w ar
Ġ 1
Ġ cie
cz ÄĻ
cz nie
Ġo g
mi a
ĠktÃ³ rzy
k ami
Ġ ÅĤ
cz Äħ
Ġd ru
st ÄĻ
nie m
ĠbyÅĤ y
Ġdale j
i i
w il
z na
no ÅĽci
ĠC zy
rÃ³ Å¼
Ġlu dzi
Ġpie r
gl Äħd
c u
i ch
o sta
s ie
Ġs y
Ġna d
er by
k ÅĤa
Ġ e
Ġs ie
rz wi
ĠW y
Ġr Ã³w
ĠwiÄĻ c
Ġ Å
Ġ re
Ġp an
Ġz ro
Ã³ Å¼
la n
ĠC h
Ġbar dzo
d ni
z i
Ġ rÄĻ
Ġd rzwi
Ġi m
d Äħ
i a
r Äħ
Ġ U
Ġz oba
rz u
Ġb a
Ġni m
Ġka Å¼
j s
ow ego
Ġj a
owy ch
b ra
Ġ am
Ġs ÅĤy
Ġpo tem
Ġje j
ale n
Ġrze czy
g ra
r owa
s ÅĤ
cz as
Ġt u
nie Å¼
Ġro ku
Ġch ÅĤo
ĠD erby
Ġmo Å¼
Ġmie js
Ġam eryka
o l
s ka
s ko
ÅĤ owie
Ġt rzy
ny mi
Ġjak ie
Ġsp o
Ġsz e
Ġby li
Ġ1 9
ÅĤ em
Ġz n
rz aÅĤ
ÅĽ l
Ġo czy
dz y
st rze
ci u
wa li
Ġc aÅĤ
Ġwoj nie
Ġdzie ci
Ġameryka ÅĦ
g dy
n u
p y
Ġ ru
ow e
Ġdo b
at er
Ġg ÅĤo
ĠW alen
la z
Ġko n
Ġch o
ot em
Ġczas u
f o
g ar
Å¼ yÅĤ
Ġt rze
Ã³ r
Ġm nie
Ġo k
Ġb i
ar d
Ġch wil
Ġzna j
gl Äħ
Ġspy taÅĤ
z ie
sz a
Ġpo t
ki ch
da Äĩ
Ġcz ÅĤowie
Ġwoj ny
ĠÅĽmie r
ĠmÃ³ gÅĤ
ĠrÃ³w nieÅ¼
d o
k nÄħÅĤ
p ad
Ġ F
sz ka
Ġnie go
wi ÅĽcie
Ġmu si
Ġdz i
ĠA n
Ġczas ie
Ġwa go
d e
g ÄĻ
Ġz ie
Ġt ej
Ġb om
ci aÅĤ
ĠÅ¼ oÅĤ
czy Äĩ
or d
ĠT e
ĠZ a
ĠNie m
ĠR os
b li
p raw
y m
Ġ H
Ġp owi
Ġz ost
ni cy
wi Äħ
Ġa l
ĠW ie
ĠÅĽ rod
Ġpra w
ski ch
az za
ciÄħ g
Ġodp owiedziaÅĤ
e ÅĽ
o na
aÅĤ em
cz ego
ow u
Ġd ÅĤu
le g
ar e
Ġdo mu
wi ad
Ġkt o
ĠktÃ³ ra
ĠÅĽ wie
Ġmi a
mie c
owy m
Ġco ÅĽ
Ġgdy Å¼
Ġpier w
e ra
j u
m ar
w iÄĻ
Ġs ÅĤu
Ġw e
Ã³ b
Ġd ro
Ġk il
Ġje ÅĦ
Ġjak o
si ÅĤ
ĠM iaÅĤ
rÃ³ d
ĠÅ¼oÅĤ nie
j cie
w ego
ÅĤ Äħ
rz Äħ
li ÅĽmy
ĠÅ¼ ad
dzi aÅĤa
Ġza bi
Ġwoj en
pi s
ĠwÅĤa ÅĽnie
ĠTro ut
Ġzro bi
cz u
Ġm at
li um
Ġb ied
Ġg Ã³
sta wi
ĠJ ego
ma wi
ĠR o
um fo
ĠL azza
Ġal bo
. .
d en
i st
n ak
p om
Ġo n
ĠP rze
or y
Ġni c
Ġwie l
Åº nie
Ġob o
Ġswo je
ĠI lium
ĠpiÄĻ k
ĠÅĤ Ã³Å¼
ĠAn gli
Ġbom b
e s
Ġ ÅĤa
ch a
sz aÅĤ
Ġj Äħ
ci ÅĤ
er e
da li
ÅĦ st
owa li
Ġko ÅĦ
Ġsp os
Ġjed en
stÄĻ p
c ami
ÄĻ Å¼
ch u
Ġd a
iÄĻ dzy
ak i
ka ch
Ġza w
Ġst ar
dzie j
wa Äĩ
ĠT ak
Ġwi dziaÅĤ
cj ÄĻ
ĠmoÅ¼ na
H are
t rz
Ġp Ã³
Ġz osta
rz ÄĻ
Ġt em
Ġza ÅĽ
da l
dzie Äĩ
re sz
Ġjak i
si Äħc
wie r
Åº ni
ĠktÃ³ry ch
ĠByÅĤ a
Ġwszy scy
Ġwszyst ko
ĠDre zna
glÄħd aÅĤ
Ġspos Ã³b
N a
d nie
s o
t aÅĤa
w et
Ġ rÃ³Å¼
Ġp ÅĤa
Ġs ÅĤ
Ġz da
Å¼ aÅĤ
ÅĽ rÃ³d
ra fi
Ġnie miec
Ġza s
Ġcz u
Ġko bie
ty ch
Ġch ciaÅĤ
Ġpowie dziaÅĤa
Ġswo j
Ġswo ich
Ġjed nak
nÄĻ ÅĤa
Ġin nych
Ġby Äĩ
Ġwszyst kie
Ġpow ro
Ġtem at
. "
l ÄĻ
s ku
Ġp y
Ġk ie
ra n
sz li
Ġpo p
ro n
ka z
ki m
Ġst an
ĠP rzy
Ġmi aÅĤa
Ġni gdy
te dy
ĠTralfamador czy
ĠZie mi
ĠkaÅ¼ dy
ĠchÅĤo p
umfo ord
0 0
Z darza
b r
i n
n aÅĤ
u k
w aÅĤa
Ġs i
ow aÅĤa
Ġd nia
Ġm ar
Ġm ÅĤo
Ġwy da
dzie li
Ġty ch
ĠC o
Åº niej
ĠK iedy
Ġmie li
wÃ³ j
ĠTralfamador ii
Ġzn owu
ĠWalen cja
praw dÄĻ
p eÅĤ
t om
y li
z e
Ġ ar
Ġo raz
ni c
Ġna z
Ġpo m
dzi Äĩ
at y
Ġst aÅĤ
Ġst ary
Ġg az
or u
ĠW szy
Ġcz ter
ĠN i
nÄħ Äĩ
te k
Ġf a
ĠK a
ĠktÃ³ry m
Ġzna laz
Ġpierw szy
Ġzaw sze
p e
t Äħ
t nie
w Äħ
Ġw tedy
Ġz ÅĤo
Ġt ÄĻ
Ã³ sÅĤ
Ġm aÅĤ
ni kÃ³w
st Äħ
il go
am y
Ġnie z
wi li
dzie ÅĽci
Ġjak by
Ġprzy ja
mie ni
ĠC z
Ġte le
Ġjed no
Ġh ist
ew ater
ĠDre Åºnie
Ġsta nie
kÅĤa d
Ġsie bie
Ġzoba czyÅĤ
ĠTe raz
ĠLazza ro
Ġpowro tem
j em
p ra
s ÅĤy
t rzy
w u
Ġ la
Ġs wego
cz ne
Ġt wa
Ã³ d
ra Å¼
ni Ã³sÅĤ
Ġna s
st aÅĤ
st at
am p
ĠB o
no ÅĽÄĩ
Ġc iÄĻ
owa nia
Ġmi mo
ĠO d
on ta
Ġdzie c
Ġlu dzie
Ġczy m
ĠktÃ³re j
b ÄĻ
b el
k sz
w e
Ġ ak
ÅĤ k
ÅĤ ÄĻ
Ġs ÅĤo
Ġs wÃ³j
cz a
Ġd u
Ġk rzy
Ġna dal
Ġna wet
ĠB ar
ĠktÃ³ rÄħ
Ġcz ÄĻ
Ġko le
Ġro bi
cy j
Ġsz y
aÅĤy ch
Ġmu sz
ĠJ a
Ġmie szka
Ġswo im
po mi
ĠAmeryka nÃ³w
Ġdru gie
Ġkil ka
ĠjeÅĦ cÃ³w
ilgo re
" .
s em
u r
u ta
z d
Ġz u
Ġt ÅĤu
Ġk ar
dz Äħc
ni cz
sz u
sz ÅĤo
st e
Ġpo ko
czy n
wo j
ĠktÃ³ r
Ġko l
Ġtak ie
pi ta
Ġswo jÄħ
Ġwszyst kich
dze nia
skie j
skie go
Ġot wo
ĠE d
ĠÅ »
Ġznaj d
K iedy
t Ã³w
u d
w aÅĤy
cz ki
Ġt ru
ch aÅĤ
Ã³ j
sz ego
nie c
ro m
ci w
Ġdo m
na ch
Ġza ch
Ġg ru
ĠP otem
Ġc y
Ġc aÅĤy
Ġro dzi
jÄħc y
jÄħc ych
Ġsz ko
ĠM i
Ġpod ob
Ġmo Å¼e
Ġf il
ĠK ilgore
ĠpiÄĻ Äĩ
ĠAmeryka nie
ĠczÅĤowie k
Ġzost aÅĤ
ĠpÃ³ Åºniej
resz cie
Ġznalaz ÅĤ
a da
g Äħ
j m
n em
n ka
u n
Ġs ko
Ġs ku
Ġw yÅĤ
Ġw ÅĽrÃ³d
Ġz ak
Å¼ a
Ġt ale
ow ÄĻ
Ġd e
Ġk ra
ni ka
Ġna u
Ġb ra
nie waÅ¼
Ġpo k
ĠB yli
cie l
Ġjak Äħ
Ġcz e
Ġcz ego
ĠÅĽ re
ty cz
ad aÅĤ
ĠS t
rÃ³ t
ĠK o
Å¼e k
ĠR umfoord
Ġpra c
Ġsob Äħ
Ġsam o
ĠÅ¼y cie
Ġno cy
Ġmy ÅĽl
ĠTro uta
jcie c
Ġswoj ej
Ġpy ta
Ġhist or
J e
d Åº
i o
m aÅĤ
o nych
o ÅĽÄĩ
r g
z no
Ġs en
Ġw ar
Ġw raz
Ġz gi
ch od
Ġd Ã³ÅĤ
Ġm om
Ġm ÄĻÅ¼
ÅĽ mie
ar ÄĻ
Ġg ra
ĠP a
Ġa Å¼
Ġcz ar
ĠÅĽ cia
szy ch
Ġgo dzi
Ġwie dziaÅĤ
ĠO p
Ġma jÄħ
Ġpra wie
siÄħ t
ĠmÃ³wi ÅĤ
Ġspy taÅĤa
wÃ³ r
war te
ĠÅ ļ
ĠsÅĤy n
ol ot
glÄħ da
ĠRos ewater
ĠpÅĤa szcz
amp bel
ÅĤk ow
c Äħ
g le
j rzaÅĤ
l ar
n ami
s ÅĤu
Ġ V
ÅĤ am
Ġp ÅĤ
Ġp re
Ġp Ã³ÅĤ
Ġs ch
Ġw rÃ³
Ġz wy
Ã³ l
Ġm aÅĤy
Ġm iÄĻdzy
ra bi
Ġi st
ni m
ni ÅĤ
sz ÄĻ
sz czy
Ġb ro
ro p
il y
Ġdo p
Ġu waÅ¼
Äħc y
mi aÅĤ
ry ty
Ġch wili
Ġni Å¼
ĠD o
ĠM a
te l
Ġwie cz
nÄĻ li
jÄĻ cie
Ġpro stu
Ġno c
ĠbÄĻ dÄħ
ĠksiÄħ Å¼ek
Ġmy ÅĽli
lan d
Ġdob rze
ĠgÅĤo s
Ġmusi aÅĤ
wiad ow
mar ÅĤ
pom ni
B yÅĤ
P rze
P otem
Z a
c aÅĤ
d aÅĤ
d niej
k ro
m iÄĻ
p li
r aÅĤ
w ÄĻ
Ġ at
Ġ ÅĤy
Ġp at
Ġp eÅĤ
Ġp ew
Ġw p
Ġt ro
Ġd ni
Ġd wie
Ġm il
ÅĽ le
Ġo s
Ġk siÄĻ
Ġna le
Ġpo ÅĽ
Ġpo my
Ġpo niewaÅ¼
rze m
Ġnie j
at a
ĠBilly m
Ġwy pad
ko na
ÅĤo ÅĽci
Ġa n
by t
Ġc Ã³r
wo li
ÅĦ czyÅĤ
owa ny
kie go
ta ch
Ġsp od
ru sz
Ġl ot
ĠD la
ĠM o
ĠM onta
ĠJ ak
ĠS z
Ġwoj sk
Ġob u
Ġop ty
ĠL e
ba ra
Ġkiedy ÅĽ
ĠDre zno
sty cz
Ġstra Å¼
ĠksiÄħÅ¼ ki
ĠksiÄħÅ¼ kÄĻ
stÄĻ pu
ĠNiem cy
Ġpowi n
ĠdÅĤu go
Ġjaki ÅĽ
Ġkobie ty
Ġdrugie j
ĠktÃ³r ego
b le
c k
c em
i ÅĤ
p ot
t k
u ra
Ġp la
Ġp rÃ³
Ġn um
Ġz w
Å¼ d
ch ali
Ġm e
Ġm as
Ġo jciec
dz Äħ
ni Äħ
Ġna prawdÄĻ
rze Äĩ
ĠB er
Ġje ÅĽli
ne k
Ġwy ob
ĠP owie
Ġa ut
or em
ĠW i
owa rzy
owa ne
Ġsp ra
jÄħc e
Ġsz ere
ĠD zi
Ġwo l
Ġpowie t
Ġtak Å¼e
Å¼y Äĩ
pie ro
lo ne
Ġlat a
Ġlat ajÄħc
Ġpi s
dze nie
Ġodp owie
ĠÅĽwiat owej
ĠZie mia
mia st
Ġzoba czyÄĩ
Ġsze ÅĽÄĩ
ĠÅĽrod ka
ĠÅ¼oÅĤnie rzy
Ġmat ka
ĠgÃ³ rÄĻ
Ġbomb ard
ĠsÅĤ owa
peÅĤ nie
stÄħ pi
ĠBo Å¼e
ĠBar bara
ĠEd gar
N ie
P o
k ÅĤ
o mi
r ow
t ej
w aÅĤo
Ġp owo
Ġw szedÅĤ
Ġz wie
Ġz wiadow
Ġt emu
ch ni
ch aÄĩ
Ã³ z
Ġd wu
Ġo j
Ġo stat
Ġk ro
Ġk re
sz ÅĤa
Ġna pis
ci ÅĤa
am ie
am iÄĻ
dzi a
Ġje dy
Ġwy p
Ġwy so
Ġprze ciw
ĠP od
dzie siÄħt
ĠÅĽ pie
ty m
Ġty siÄħc
ÅĽci Äħ
Ġsz pita
Ġni Äħ
cze nie
mie nia
ĠC ampbel
te ra
ĠJ or
ĠByÅĤ o
Ġdzie w
Ġjed nym
Ġpa l
Ġzna le
Ġczy ta
ĠL ily
ez u
Ġdla czego
Ġsam olot
ski m
Ġprzed stawi
cho dzi
ĠwÅĤa s
ĠgÅĤ owÄħ
ĠJe st
Ġws p
Ġzam knÄħÅĤ
ĠkaÅ¼ d
czas em
Ġmiejs ca
Ġ19 4
Ġ19 6
ĠamerykaÅĦ skich
Ġtrze ch
Ġchwil ÄĻ
ĠÅĽmier ci
.. .
ĠÅĤÃ³Å¼ ka
ĠkaÅ¼dy m
Ġotwo rzyÅĤ
Ġszko ÅĤy
Ġmom en
ĠmÄĻÅ¼ czy
d no
e c
e ch
k aÅĤ
k owi
l aÅĤ
l at
n d
n g
Ġp as
Ġw ra
Ġz mieni
Ġt or
ow aÅĤy
Ġd Åº
Ġd uÅ¼
Ġo kie
go t
sz Äħ
st an
Ġpo mo
le p
le t
ak a
ak u
yÅĤ a
er m
Ġwy jÄħ
Ġst ro
Ġu p
or ma
by m
nÄħ trz
si ad
kie j
Ġni kt
Ġmu sie
ĠJ ezu
Ġwie le
Ġwie lu
Ġmo g
Ġmo gli
sze ch
owi adaÅĤ
Ġf ron
Ġroz mawi
on u
ĠByÅĤ y
bie ra
Ġpa ra
Ġin nymi
Ġop u
Ġrze cz
pu szcz
ĠÅ¼y cia
Ġpu ÅĤkow
ĠgÅĤ owÄĻ
Ġba ra
ĠsÅĤy szaÅĤ
Ġrzeczy wiÅĽcie
Ġpot rafi
ym czasem
Ġmia sta
Ġwojen nych
Ġbied ny
ÅĦst wa
Ġstan owi
ĠTralfamadorczy cy
Ġfa ce
Ġzu peÅĤnie
Ġnum er
P rzy
e cja
o o
o nej
r Ã³w
r ga
s p
s kÄħ
t ego
t wa
Ġ Åº
ÅĤ Ã³
Ġp rowa
Ġs re
Ġw Äħ
Ġw reszcie
Ġz ami
rz Äħd
cz o
cz ni
cz nym
Ġt ra
Ġt yÅĤ
ow aÅĤo
Ġd rze
Ġd re
Ġo fi
ni Äĩ
sz ej
Ġj ÄĻ
st ra
st ro
Ġpo czÄħ
Ġnie p
Ġnie wie
ar ÅĤ
ka zy
Ġza le
Ġza czÄħ
ne ty
Ġwy glÄħd
Ġg ro
Ġg wi
Ġg ÅĤu
Ġprze niÃ³sÅĤ
Ġu k
Ġu ro
ÅĤo Å¼yÅĤ
Ġc e
ÅĦ ce
Ġko ÅĤo
Ġprzy pomi
ta j
Ġty le
Ġsp rze
Ġsp ecja
jÄħc Äħ
ĠM ie
ĠM Ã³wi
bi ÅĤ
Åº Äĩ
Ġwoj nÄĻ
on ego
ĠR ob
Ġpa ni
ga ra
Ġrze Åºni
Ġle Å¼
jÄĻ cia
Ġku r
Ġpu d
cho dziÅĤ
Ġbar dziej
Ġraz em
Ġbu ty
Ġpoz ost
ent Ã³w
Ġdwa dzieÅĽci
Ġzro zu
Ġoczy wiÅĽcie
ĠÅĽmier Äĩ
Ġpraw dzi
Ġkto ÅĽ
ĠÅ¼ad nego
wier dziÅĤ
00 0
Ġnaz wi
ĠWszy scy
Ġpoko ju
Ġznajd owaÅĤ
ĠDla czego
ĠdwadzieÅĽci a
A meryka
W eary
d wie
g n
g ÅĤo
h a
h ater
n er
n ku
o gra
s po
t or
t ery
u f
w em
Ġ 000
Ġp ÅĤy
Ġw k
Ġw al
Ġw ÅĤÄħ
Ġz wiÄħ
Ġd y
Ġd ÅĤo
Ġm or
Ġo ch
Ġo to
Ġk r
sz taÅĤ
Ġna stÄĻpu
Ġj as
Ġpo r
rze b
le m
le kt
ak Ã³w
Ġst al
cie li
Ġprze sta
Ġprze kona
Ġu marÅĤ
ĠP owiedziaÅĤ
Ġcz tery
ĠÅĽ nie
ÅĤy ch
Ġsp raw
Ġch or
ĠD z
ĠM y
Ġdz wo
ĠA le
Ġf i
Ġob ie
Ġroz leg
Ġma szy
Ġjed nÄħ
wy ch
Ġin ter
Ġop owie
gie l
aj em
su nÄħÅĤ
ĠgÅĤ ÄĻ
siÄĻ cy
Ġpoz osta
ĠJe ÅĽli
pa ni
Ġmiejs ce
Ġjakie ÅĽ
ĠcaÅĤ kowi
Ġru sz
ĠF ran
ĠRo land
ĠkoÅĦ ca
ĠmaÅĤ e
Ġtwa rz
ĠciÄĻ Å¼
ksz oÅĽÄĩ
Ġan giel
Ġszere g
Ġpud eÅĤ
G dzie
b ar
c o
c en
c om
d li
d ÅĤu
f ie
f on
g ze
h o
j i
k li
l ny
n k
n ki
s er
s ÅĤa
Ġ en
Ġs er
Ġs ÅĤa
Ġw ÄĻ
Ġz im
Ġz byt
rz mi
cz aÅĤ
cz nÄħ
cz nego
cz ony
Ġt owarzy
ow nie
ch e
Ã³ p
Ġd owie
Ġd wÃ³
Ġo ÅĽ
Ġo ko
Ġo kaz
Ġk sztaÅĤ
ni n
Ġna zy
Ġna gle
Ġb r
nie n
Ġpo ma
Ġdo t
Ġdo sko
rzy tom
Ġza czÄĻ
Ġza trzy
at o
czy wiÅĽcie
Ġwy j
Ġwy ja
Ġwy glÄħdaÅĤ
Ġst u
Ġst Ã³p
Ġprze wo
Ġu m
Ġu dziaÅĤ
Ġu mie
Ġu Å¼y
Äħc e
ĠP ie
dzie stu
ĠW il
wa nie
wa no
no si
Ġod wie
Ġko ÅĤ
Ġko mu
Ġko pu
Ġko niec
ĠÅĽ ci
Ġmi aÅĤy
ta l
jÄħc o
ÅĽci u
ÅĽci Äĩ
Ġl o
Ġl od
Ġsz k
Ġsz cze
Ġsz tu
Ġsz czÄĻ
ĠD zie
cze nia
ĠM ary
Ġpod rÃ³Å¼
Ġpod czas
Ġpowie dzieÄĩ
Ġwie m
rÃ³ j
ĠO n
ot ogra
Ġjest eÅĽ
Ġob ec
Ġwi do
Ġdzie ÅĦ
Ġlu b
Ġlu dz
ĠpowiedziaÅĤ em
Ġin nego
Ġpra cy
ĠNa j
lo nych
czyÅĤ a
Ġle ka
Ġle Å¼aÅĤ
ciÄħ gu
ĠwÅĤa ÅĽci
Ġgdy by
rzyÅĤ o
Ġbo hater
Ġbu dy
ĠrÄĻ kami
Ġmiejs cu
Ġspo ko
Ġznaj du
Ġzie m
ĠÅĽrod ku
ciÄħg nÄħÅĤ
ĠÅĽwie cie
Ġmia sto
pom nie
Ġar ty
nic ÄĻ
ĠWszy st
ĠNi gdy
Ġkole j
Ġmusz kie
ĠÅĽre dniej
Ġhistor ii
ĠÅĽcia nie
Ġmusie li
Ġsre br
ĠzaczÄħ ÅĤ
Ġchor ych
bar dziej
gze ku
ĠdwÃ³ ch
" ,
P od
a ra
c iÄĻ
c er
c je
c jÄħ
d em
g na
g ry
i t
i Äħ
k le
k niÄĻ
l nym
p ÄĻ
s Ã³w
s kiem
t ÄĻ
t pli
u l
y ba
Ġ ry
Ġp ry
Ġp lu
Ġp amiÄĻ
Ġw ÅĤÃ³
Ġz b
Ġz ni
cz ka
Ġt rafi
Ġt ajem
ch y
ch em
Ã³ le
Ã³ ki
Ġd wo
Ġm iÄĻ
Ġm Ã³w
go ÅĽ
go dnie
ra g
ra ch
dz ÄĻ
Ġi z
ni ki
Ġna stÄĻp
Ġna tych
st ar
Ġb li
Ġb iaÅĤ
Ġb ÅĤÄĻ
Ġpo le
Ġpo za
Ġpo szedÅĤ
Ġpo rzÄħd
ak ie
Ġnie bo
Ġdo ro
na ÅĽcie
er wo
wi a
wi ÅĤ
at u
czy m
Ġwy ko
Ġst rze
Ġg a
Ġu rzÄħ
Äħc ych
da w
Ġc ud
Ġod leg
ÅĦ cz
ÅĦ czy
owa niu
ku jÄĻ
ĠT y
Ġmi li
as em
Ġsp ot
jÄħc ego
szy m
Ġni ko
Ġgo r
ĠM u
an ta
Ġpowie rz
ma Äĩ
Ġmie siÄħc
Ġze w
Ġze bra
Ġpa cj
owaÅĤ em
ĠNa prawdÄĻ
szcz ÄĻ
ĠÅ¼y je
ĠÅ¼y ciu
eÅĤ nia
ciÄħ ga
sty m
Ġci aÅĤa
Ġpow ta
Ġwz iÄĻ
ĠÅĽmie sz
ĠG dzie
ĠÅĽwiat ÅĤa
Ġcie m
Ġcie bie
Ġog rom
Ġe gzeku
ĠwiÄĻc ej
Ġtu taj
Ġkon woj
Ġchwil a
glÄħ daÄĩ
glÄħ dali
ĠczÅĤowie ka
Ġwago nu
bli Å¼
Ġpowi nien
Ġdro dze
Ġkil ku
Ġzrobi ÅĤ
ĠgÃ³ ry
ĠRo z
Ġobo k
ĠAngli k
ĠkoÅĦ cu
Ġkie row
ĠmÅĤo dy
Ġczter ech
Ġprzyja ci
ĠwyÅĤ Äħ
Ġnau czy
rÃ³t ce
ĠKo p
warte t
lar Ã³w
Ġdop Ã³ki
pomni aÅĤ
ĠksiÄĻ Å¼y
Ġmomen cie
ĠdÅº wiÄĻ
ĠpuÅĤkow nik
ĠRob er
Ġinter e
Ġnatych miast
C z
T e
b Äħ
c ale
g aÅĤ
g ni
g ro
l ni
l ne
o ÅĤa
p rowa
s ied
t rze
t wo
t ku
w or
Ġ Y
Ġ ÅĤo
Ġp le
Ġs u
Ġz bu
Ġz mia
cz nej
Ġt wo
ch ÄĻ
ch niÄĻ
Ã³ g
Ġd ia
Ġm am
Ġo ku
Ġo sie
Ġo strze
Ġk li
Ġk rze
Ġk ru
Ġk Ã³ÅĤ
Ġk rÃ³t
ra p
dz iÄĻ
ni os
sz ty
Ġna p
Ġna dzie
st wa
st wo
st ru
Ġpo ÅĤu
rze nia
Ġdo staÅĤ
ka li
ka Äĩ
dzi ÅĤa
Ġza ba
ki t
Ġwy raz
Ġst aÅĤa
Ġst aÅĤy
Ġst os
Ġst aÅĤo
Ġst ud
Ġprze czy
Ġu z
Ġu bra
Ġu ÅĽmie
ĠP an
ĠP al
da ch
ĠW szech
no gra
re s
en ci
Ġod dali
ÅĦ cy
ÅĦ ca
owa no
Ġko ÅĽci
Ġprzy by
Ġprzy tom
Ġprzy kÅĤad
Ġro b
Ġro k
Ġty tu
Ġsz czy
Ġni mi
ĠD ob
cze ÅĽnie
Ġtak im
je Å¼d
ĠJ ej
rÃ³ ciÅĤ
Åº li
os en
Ġf or
Ġjest em
Ġob ej
Ġob raz
Ġroz m
on t
jÄħ ÅĤ
Ġmie Äĩ
Ġdzie siÄĻ
Ġka waÅĤ
ĠI ch
pie j
Ġzna cznie
Ġop owiedziaÅĤ
Ġpie cho
gl ÄĻ
lo ny
Ġsam ym
al ni
Ġpi osen
dzo no
ĠmÃ³wi Äħc
Ġstra sz
ĠgÅĤ owy
Ġsto p
Ġzd r
Ġws pani
Ġog Ã³le
noÅĽci Äħ
ĠchÅĤo pie
ĠWalen cji
Ġcho Äĩ
Ġtrze ba
Ġok ru
Ġbi t
Ġwago nie
rzÄħ s
ĠÅĤÃ³Å¼ ku
ĠTralfamadorczy kÃ³w
ĠZiemi an
Ġpom iÄĻdzy
ĠKa Å¼
Ġdziec ko
Ġczym ÅĽ
Ġkrzy Å¼
Ġtakie go
Ġfil m
Ġsku tek
Ġtro chÄĻ
Ġos ob
Ġopty kÃ³w
ĠprÃ³ b
ĠtysiÄħc e
ĠCampbel l
Ġwsp Ã³ÅĤ
ĠkaÅ¼d ego
ĠmÄĻÅ¼czy z
ĠduÅ¼ o
Ġmog ÅĤa
ĠÅº le
Ġzale dwie
Ġwk rÃ³tce
lekt ry
Ġzew nÄħtrz
ĠKop ciu
M a
b yÅĤ
c ÄĻ
d ny
d aÅĤo
d nik
d ha
e wie
g Ã³l
i ru
l ami
m em
m os
n nie
p at
s ÄĻ
t on
ÅĤ e
ÅĤ owa
Ġp ÅĤo
Ġp owa
Ġp sa
Ġs o
Ġs ami
Ġs ied
Å¼ nie
Å¼ ony
cz ny
cz ach
Ġt rz
ch en
Ġm niej
ÅĽ ni
ÅĽ wiat
Ġo ni
Ġo gie
Ġo rga
Ġo glÄħdaÄĩ
iÄĻ kujÄĻ
dz aÅĤ
Ġi le
ni ami
sz t
Ġna m
st ej
Ġb la
Ġb rzmi
Ġpo g
Ġpo li
Ġpo ro
ci Äĩ
Ġnie u
Ġnie woli
ĠB i
Ġdo larÃ³w
ĠÅ¼ ona
rzy sta
na le
na wi
na jm
Ã³w czas
Ġza d
Ġza strze
wi z
wi ÅĤa
ki mi
ĠÅ¼e laz
Ġwy b
Ġst ali
ko l
ko mo
Ġu li
Ġu siÅĤ
Ġu sÅĤy
or e
or da
wa nia
ĠbyÅĤ em
no m
mi u
en ty
Ġc u
wo ÅĽci
owa nych
Ġko p
Ġko nie
ĠÅĽ lu
Ġprzy pad
Ġprzy szÅĤo
si aÅĤ
Ġro dz
Ġmi ÅĤo
Ġty siÄĻcy
jÄħc ej
ÅĽci ÅĤ
Ġch le
Ġch cieli
Ġsz a
cze k
cze s
ĠM er
Ġtak i
ÅĤu ch
om o
ĠS ta
Ġmo gÄĻ
sze k
ĠO czywiÅĽcie
Ġf un
Ġf otogra
Ġroz po
Ġroz strze
on woj
ca ch
Å¼e li
Å¼e nia
tu a
nÄĻ ÅĤy
ga ch
ĠNa zy
Ġle k
to ÅĽ
Ġra d
Ġra mi
Ġku chni
Ġpi sa
Ġpu nk
Ġnaj lep
sy j
Ġli st
Ġraz u
Ġraz ie
Ġci aÅĤo
rzyÅĤ a
Ġsk ÅĤa
Ġstra chu
ĠÅĽwiat a
Ġgdzie ÅĽ
Ġsy tua
ĠrÄĻ kÄĻ
ĠU waÅ¼
ĠcaÅĤ Äħ
Ġcho dzi
Ġzie mi
ĠNiem cÃ³w
ĠH m
Ġzost aÅĤy
Ġdro gÄĻ
ĠLazza ra
Ġobo z
Ġzas nÄħÅĤ
Ġswoj ego
ĠchÅĤop cy
ĠNi kt
raÅ¼ ajÄħc
Ġkol or
ĠÅ» e
Ġpodob nie
ĠÅĽre dni
ĠPa ul
ĠpÅĤ ci
ryty j
Ġlot ni
ĠMonta na
Ġpowin ni
Ġpla ne
Ġpowiet rzu
ĠZiemia nie
ĠszeÅĽÄĩ dziesiÄħt
ĠJor ku
lat ego
stan owi
Ġfron t
Ġoch ot
ĠgÅĤÄĻ bo
ĠcaÅĤkowi cie
Gdzie ÅĽ
ĠWil dha
ĠÅĽci an
ĠwÅĤÃ³ czÄĻ
ĠbÅĤÄĻ kit
akie m
Ġodleg ÅĤoÅĽci
Ġprzyjaci Ã³ÅĤ
Ġintere su
Ġosie m
nogra fi
ewie n
iru rg
Ġogie ÅĦ
najm niej
Ġrozstrze la
ĠWildha ck
R o
R umfoord
T ro
T ak
a st
b ro
b ry
b ez
c ka
d ne
f a
f y
g nÄħÅĤ
g gie
j nie
j an
k Ã³ÅĤ
m Ã³w
m ent
n ny
n kiem
n du
o nÄħ
o ta
o te
r Å¼
r em
r wy
s on
t n
t Äħd
u waÅ¼
w ni
z ÄĻ
z aÅĤ
z ja
z mawi
Ġ ek
Ġ rzu
ÅĤ aÅĤ
Ġp ÄĻ
Ġp il
Ġp ar
Ġp arÄĻ
Ġw ro
Ġw sze
Ġw cale
Ġn owo
Ġn Ã³Å¼
Ġz ÄĻ
Ġz go
Ġz aÅĤo
Ġz mar
Å¼ Ã³ÅĤ
cz aj
cz noÅĽci
Ġt wierdziÅĤ
Ġt rÃ³j
ow cÃ³w
Ġd ow
Ġo na
Ġo cze
Ġk ry
Ġk rÄĻ
Ġk ata
Ġk wartet
iÄĻ ki
ra ca
dz a
ni i
sz am
sz ki
sz ko
Ġna gie
st em
st rzy
Ġb ry
Ġpo l
Ġpo Å¼
Ġpo go
Ġpo dzi
am a
am tÄħd
ĠB Ã³g
ar ni
Ġdo le
ĠÅ¼ Ã³ÅĤ
ka nie
rzy Äĩ
rzy maÅĤ
Ã³w ki
Ġza da
Ġza raz
Ġza uwaÅ¼
Ġje zi
Ġwy bu
Ġst Äħd
cie la
Ġprze Å¼y
Ġprze szÅĤo
Ġu cie
Ġu ko
Ġu wa
Ġu sta
Ġu trzy
Ġu siad
Äħc ego
ĠP ra
ĠW a
ĠW rÃ³Å¼
wa ch
wa jÄħ
Ġjak im
Ġod bi
Ġod ez
Ġcz erwo
ÅĦ ski
owa nie
ĠT a
ĠT en
ĠT ymczasem
ĠÅĽ wi
ĠÅĽ wiad
Ġprzy najmniej
Ġmi ÅĤoÅĽci
ad ill
ta Äĩ
ÅĤy m
ĠZ oo
wie k
wie ra
wie ni
Ġch yba
Ġsz u
Ġsz ty
Ġni czym
Ġgo ÅĽci
raz i
Ġwo kÃ³ÅĤ
Ġpod ry
Ġpowie ÅĽci
ĠC adill
ĠS am
ĠS ÅĤy
rÃ³ cz
Ġmo im
Ġmo ich
ĠO stat
Ġwoj na
Ġf anta
ĠK rzy
ĠK siÄĻ
Ġma j
my ÅĽl
Ġwi n
Ġka pe
Ġka rabi
Ġjed nej
wy Å¼
Ġze gar
Ġlu dÅº
nÄĻ ÅĤo
gi i
Ġzna czy
Ġin ne
za no
lo no
Ġle p
po ÅĤu
ĠÅ¼y w
Ġh eÅĤ
Ġpro te
Ġno gi
dze niem
kt Ã³
kt or
Ġzap ew
ĠPo za
Ġnaj bardziej
Ġdale ko
niÄĻ ty
Ġwz ro
Ġaby m
Ġsk le
Ġsk ar
ĠgÅĤ Ã³w
ĠE u
ĠG dy
Ġbu tel
Ġpoz woli
ĠJe den
Ġsto li
Ġzd jÄĻcie
sto ty
sto let
ĠmÃ³ z
Ġzam kniÄĻ
Ġcie p
Ġcie r
Ġsie dziaÅĤ
ĠÅ ģ
ĠCh ry
Ġsze dÅĤ
do p
Ġwago nÃ³w
Ġzie lo
ĠRos ja
ĠWie tn
Ġpraw da
ĠdÅĤu Å¼
ĠÅĽwie ce
ĠÅ¼oÅĤnie rze
ĠÅ¼ad nych
Ġzrobi Äĩ
ĠAngli cy
Ġda w
Ġzosta li
ĠrÃ³Å¼ nych
Ġmar t
Ġgaz et
Ġfa bry
wÄħ tpli
Ġjedno czeÅĽnie
Ġdziec iÄĻ
ĠsÅĤo ÅĦce
ĠczÄĻ ÅĽÄĩ
ĠczÄĻ sto
cyj nym
Ġszy b
ĠtÅĤu szcz
Ġcy wil
Ġtale rz
Ġde szcz
Ġczego ÅĽ
Ġsamo chod
ĠmyÅĽl aÅĤ
ĠOp ty
ĠmaÅĤy m
Ġist nie
Ġbro ni
kro tnie
ĠÅĤy Å¼
Ġnale Å¼
ĠcÃ³r ka
ĠSz ko
Ġobu dziÅĤ
ĠstraÅ¼ nikÃ³w
Ġpis aÅĤ
Ġoj ca
Ġwyso ko
Ġtor tu
Ġokie n
Ġbara ku
ĠjÄĻ zy
ĠpoczÄħ tku
Ġniep rzytom
Ġniewie le
Ġgwi az
ĠMie li
Ġznajdu je
ĠporzÄħd ku
Ġnauczy ciel
ĠY on
ĠWszech ÅĽwiat
Ġrob ot
ĠKaÅ¼ dy
Ġrodz aj
Tro ut
bez pie
Ġkata stro
ĠludÅº mi
wÄħtpli wie
! "
D erby
M onta
O p
R os
S t
T ymczasem
d Ã³w
d ki
d ÅĤo
d ry
g e
g ami
g an
g im
k owy
l nie
l ot
n t
n nych
n nym
n emu
n owu
o Å¼
o ra
p or
p ral
s et
t r
t ry
t kiem
u dy
u dzie
w Ã³w
w at
z m
Å »
Ġs e
Ġs ce
Ġw pad
Ġw Ã³z
Ġw eÅĤnia
Ġz nik
Å¼ o
cz nych
cz one
Ġt le
Ġt ar
Ġt ralfamador
ch i
ch aÅĤa
Ġd aÅĤ
Ġd ach
Ġd latego
Ġm Äħ
Ġm ru
Ġm Äħd
ÅĽ wiad
Ġo glÄħdaÅĤ
Ġo czach
Ġk i
Ġk amie
ni ce
sz em
Ġj ad
li ÅĤ
li Äĩ
st w
Ġb ie
Ġb rze
Ġpo ka
Ġpo da
Ġpo mie
Ġpo je
Ġpo sta
Ġpo zy
Ġpo nu
Ġpo ciÄħg
Ġpo leg
Ġpo czu
Ġpo rusz
Ġpo jÄĻcia
Ġpo poÅĤu
ro sz
ro zu
Äĩ mi
le k
le ci
ci li
ak aÅĤ
Ġnie m
Ġnie co
Ġnie szczÄĻ
Ġnie wÄħtpliwie
ĠB ost
ar da
ĠÅ¼ yÅĤ
na j
dzi ÅĤo
Ġza t
Ġza wi
Ġza czy
Ġza jm
er s
wi asem
at ru
czy ch
Ġwy s
Ġwy ra
Ġwy ma
Ġwy mia
Ġwy bra
Ġwy szli
Ġwy stÄħpi
Ġwy star
Ġst ru
Ġst amtÄħd
cie Å¼
Ġg ry
Ġu de
ĠW iÄĻ
no c
no siÅĤ
no Å¼Ã³ÅĤ
la dy
la jÄħc
ry ch
Ġod e
Ġod w
Ġod es
Ġod raÅ¼ajÄħc
ĠN owy
ÅĦ cÃ³w
ĠT u
ĠT ru
Ġko m
Ġko ni
Ġko goÅĽ
Ġprzy got
si aj
ob nie
ĠZ e
Ġch ci
Ġsz ale
Ġgo t
aÅĤy m
cze ni
cze niu
Ġpod ÅĤo
Ġtak ich
Ġmu ndu
ĠC i
bi ne
Ġdz iaÅĤ
ĠS y
Ġwie ku
Ġmo c
Ġmo dli
owi a
ĠNie miec
Ġwoj ska
Ġroz p
on ami
Ġma sz
Ġmie ÅĽcie
Ġwi ad
Ġjed na
Å¼e nie
od u
Ġczas em
Ġin f
Ġin ny
Ġin nym
Ġczy taÅĤ
Ġop era
Ġop owiadaÅĤ
Ġpie lÄĻ
za ny
niej sza
Ġle piej
szcze nia
po ko
ĠPilgrim a
bo k
Ġwszyst kim
Ġra miÄĻ
Ġku pi
Ġpro f
Ġpro du
Ġpro sto
fi k
ajÄħc ych
ĠpiÄĻ ciu
ĠwiÄĻ kszoÅĽÄĩ
ĠmÃ³wi Äĩ
Ġci aÅĤ
Ġci sza
Ġwz iÄħ
Ġwz glÄĻ
Ġsk ra
Ġsk Äħd
Ġot war
Ġot warte
Ġbo g
ĠE wa
ĠG lu
Ġbu r
ĠJe d
ĠÅĽwiat ÅĤo
ĠsÄħ sied
Ġta bli
ĠZie lonych
Ġzam ie
Ġdwa j
ĠksiÄħÅ¼ ka
Ġog ro
Ġdru gim
Ġsy m
Ġe lektry
Ġre k
Ġpan u
ĠCh i
ĠCh ciaÅĤ
ĠrÄĻ ka
Ġdrzwi ami
Ġdrzwi ach
ia ÅĦ
Ġzoba czy
ĠmoÅ¼ li
Ġtrzy ma
Ġjakie j
Ġspo dzie
Ġ19 5
Ġzn aÅĤ
ÅĽl aÅĤ
ĠcaÅĤ e
ĠcaÅĤ ej
ĠamerykaÅĦ ski
ĠgÅĤo ÅĽ
Ġkon t
Ġcho le
ĠczÅĤowie kiem
ĠÅĽmier ciÄħ
ĠmÃ³gÅĤ by
Ġdzi w
Ġwago n
ĠWie l
ĠdÅĤu gie
ĠÅĽwie Å¼o
Ġwe tera
ĠjeÅĦ cami
pis aÅĤ
Ġmat ki
ĠgÃ³ rze
Ġobo zu
ĠpiÄĻk na
ĠAngli kÃ³w
Ġstar ego
trz nych
Ġzosta nie
resz tÄħ
Ġzda rzyÅĤo
Ġwszystkie go
kaz aÅĤ
ĠchÅĤop ca
in g
Ġsi noÅ¼Ã³ÅĤ
Ġpom Ã³
Ġgaz u
Ġczter dzieÅĽci
Ġniez wy
Ġtele fon
Ġtele wiz
pra szam
ĠczÄĻ ÅĽci
ĠMi aÅĤa
Ġpyta nie
Je den
ĠÅļ wiat
ĠpÅĤaszcz a
Ġzwy ciÄĻ
ĠMa ggie
Za p
Ġat om
tk owo
Ġwol no
ĠlatajÄħc ych
Ġzwie rzÄĻ
Ġnapis aÅĤ
Ġszpita lu
ĠJor k
Ġznale ÅºÄĩ
Ġczyta Äĩ
Ġ194 4
Ġpomo cÄħ
Ġface t
Ġzami ar
Ġsprze daw
ĠleÅ¼ aÅĤy
Ġpozost aÅĤych
Ġzrozu mie
Ġnazwi skiem
Ameryka nie
ĠwÅĤÄħ czyÅĤ
Ġmor fi
ĠpudeÅĤ ku
Ġdosko nale
Ġwyja ÅĽ
Ġumie ra
Ġwido cznie
Ġbudy nku
ĠWszyst ko
Ġtrafi ÅĤ
Ġdwo rze
ĠmÃ³w iÄĻ
Ġniebo szczy
ĠwyÅĤÄħ cznie
ĠksiÄĻÅ¼y c
ĠRober t
gni ar
Ġnadzie jÄĻ
Ġtytu ÅĤem
ĠKopciu szka
Ġporo zmawi
kol wiek
Ġwsze l
Ġbry lan
ĠKsiÄĻ Å¼y
ĠEu ro
ĠChry stu
ĠOpty ki
Monta na
Ġodes ÅĤa
ĠpielÄĻ gniar
A n
J ak
O d
W y
W szy
a lu
b rzy
d at
d nia
d owy
d owaÅĤ
d niu
e cz
e li
g nie
g Ã³w
g en
h an
h um
i s
i na
i ne
i um
j Ã³w
k owo
k Ã³j
l iÄĻ
l ary
m ery
m niej
o by
r gu
s ami
t s
t ki
t wie
t ami
w er
w ej
z mu
z ent
z de
Ġ Äĩ
Ġ ÅĤu
ÅĤ ego
ÅĤ Ã³w
Ġp t
Ġs a
Ġs il
Ġs ek
Ġs cen
Ġw d
Ġw as
Ġw nÄĻ
Ġw ew
Ġn owy
Ġn owi
Ġn orma
Ġz m
Ġz wi
Ġz re
Ġz ja
Ġz ga
aÅĤ Äħ
rz Äħc
rz ono
cz kÄĻ
Ġt uÅ¼
ch nia
Ġd nie
Ġd owiedziaÅĤ
Ġm ord
Ġo go
Ġo sz
Ġo pi
Ġo zd
Ġk at
Ġk or
Ġk ryty
iÄĻ k
ra t
ni na
ni ca
ni kiem
sz nie
Ġna k
Ġna tu
Ġna rzÄĻ
Ġj u
li z
li nie
st Ã³w
st ych
Ġb e
Ġb ÅĤa
Ġb as
Ġb ut
Ġb rzÄĻ
nie go
nie si
Ġpo cz
Ġpo ÅĤo
Ġpo ja
Ġpo gar
Ġpo szli
Ġpo szu
Ġpo ciÄħgu
Ġpo ÅĤowa
ro k
ro pu
rze j
rze nie
ci s
ci ÅĤo
Ġnie d
ĠB u
ĠB y
Ġdo sta
Ġdo ÅĽÄĩ
Ġdo tych
ĠÅ¼ ony
ka jÄħc
rzy ja
dzi li
Ġza g
Ġza wo
Ġza nim
er en
wi Äĩ
wi aÄĩ
at ÄĻ
at era
czy cy
Ġwy glÄħda
ÅĤa ÅĽnie
Ġst y
cie le
Ġg i
Ġg u
Ġg nie
Ġg rze
Ġg Ã³r
Ġprze j
Ġprze p
Ġprze sko
Ġprze strze
Ġu cz
Ġu kÅĤad
Ġu spo
Äħc Äħ
Ġa d
Ġa lko
owie c
dzie siÄĻ
re dni
la ch
Ġjak a
wo l
Ġod by
Ġod daÅĤ
Ġcz ek
ĠN owego
ÅĦ cu
ÅĦ skiej
owa nego
ĠT am
Ġko mi
Ġprzy je
Ġprzy tu
Ġprzy jÄĻ
Ġprzy wiÄħ
Ġprzy jem
Ġprzy pomnie
ty mi
Ġmi od
Ġty go
Ġty mi
Ġsp ad
ob ie
ĠZ nowu
Ġch ce
Ġch irurg
Ġni czego
ĠD a
ĠD ru
Ġgo rz
cze ch
an d
an k
Ġpod sta
Ġpod szedÅĤ
Ġpod niÃ³sÅĤ
Ġmu f
Ġmu zy
je dno
Ġdz iÄĻki
te ro
ĠS e
ĠS p
ĠS ÅĤ
ĠS ie
ĠS iÅĤ
Ġwie r
Ġwie lo
Ġwie lko
Ġwie dzieÄĩ
Ġmo gÄħ
sze li
Ġco f
ĠO na
Ġf ut
Ġf rag
ĠK u
Ġob a
pi sa
Ġroz pa
Ġma g
rza ny
ĠktÃ³ry mi
ma rz
my sÅĤ
ĠByÅĤ em
lu m
Ġdzie Äĩmi
Ġka na
Ġka zaÅĤ
Ġjed nego
tu zja
ĠR umfo
Ġpa li
Ġpa pie
Ġpa ÅĦst
Ġpa piero
gi czne
Ġin ni
waÅĤ em
ĠL uk
ĠL udzie
mu jÄħc
to f
Ġsam a
Ġsam e
pu lar
ĠÅ¼y Äĩ
Ġlat ry
Ġku l
Ġpi Äħ
Ġpro gra
Ġpro mieni
Ġzap ad
dziÅĤ em
ĠPo l
Ġnaj bliÅ¼
Ġnaj mniej
Ġli ÅĽcie
nik ami
Ġwz rusz
Ġmy ÅĽle
Ġsk rzy
Ġot w
ĠÅĽmie chu
ĠG e
Ġpoz wa
ĠJe dy
Ġsto i
Ġzd e
Ġzd oby
sk aÅĤ
Ġwa Å¼
Ġsta ro
Ġsta nÄħÅĤ
bu rgu
ĠmÃ³ j
Ġzam y
ĠbÄĻdzie cie
czÄĻ ta
Ġdru gÄħ
Ġpier ÅĽci
Ġsy pi
Ġsy ropu
kÅĤa da
Ġe cho
ĠWy glÄħdaÅĤ
ĠCh ÅĤo
ĠrÄĻ ce
ia na
ĠU hum
Ġrzeczy wi
Ġtrzy dziestu
Ġspo j
Ġsze ÅĽciu
Ġbyli ÅĽmy
Ġzn ak
ĠcaÅĤ kiem
Ġok re
zie nki
Ġpot wor
Ġpot rzÄħs
ĠF e
Ġdzi aÅĤa
Ġzie miÄĻ
ĠNiem czech
Ġpraw dÄħ
Ġdro gi
ĠÅ¼ad nej
Ġwojen ny
Ġwiel ki
Ġwiel kÄħ
ĠpiÄĻk ny
ĠÅĤÃ³Å¼ ko
ĠÅĤa zienki
ere nie
ÅĦst wo
aki ÅĽ
ĠwidziaÅĤ em
ĠsÅĤ owo
Ġczu ÅĤ
Ġczu je
Ġpop ro
br aÅĤa
Ġsi ÅĤy
Ġnaz wÄħ
Ġgaz e
ĠzÅĤo ci
Ġkole k
pomi na
ur go
ciw ko
Ġzach wy
Ġsko ÅĦczyÅĤ
Ġtale rzy
Ġtale rza
ĠjakÄħ ÅĽ
dÅº cie
Ġzgi nie
Ġgodzi ny
Ġgodzi nÄĻ
ĠsÅĤyn nych
ĠV erm
Ġsch ro
ĠwrÃ³ ci
Ġist ot
szÄĻ dzie
ĠuwaÅ¼ aÅĤ
ByÅĤ o
Ġpat rzeÄĩ
Ġos Ã³b
Ġwypad ÅĤ
Ġwypad ek
ĠcÃ³r ki
Ġspod nie
ĠBer n
ĠBer et
Ġwyob ra
Ġwyob razi
ĠPowie trznych
Ġaut om
ĠlatajÄħc y
Ġbombard owania
Nie m
Ġzwiadow cami
Ã³z ÅĤ
Ġostat ni
Ġjedy nym
Ġprzeciw ko
Ġszpita la
Ġdziew czy
Ġdziew czyn
Ġwsp Ã³l
Ġ194 5
Ġ196 7
Ġokie nka
ĠwyjÄħ tkiem
ĠJezu sa
Ġopu szcz
Ġpotrafi ÅĤ
ĠtyÅĤ u
ĠtyÅĤ em
Ġofi cer
ĠgÅĤu pi
Ġprzypomi na
Ġspecja li
ĠzwiÄħ z
ĠnastÄĻpu jÄħco
ĠÅĽnie gu
Ġspraw dziÄĩ
ĠDz iÄĻkujÄĻ
Ġopowie ÅĽci
dÅĤu Å¼
ser w
Ġen er
Ġen tuzja
ĠksztaÅĤ cie
Ġbr yÅĤ
Ġzatrzy maÅĤ
Ġprzewo dnik
ĠPie r
Ġszk lan
ĠszczÄĻ ÅĽli
gna jcie
Ġga bine
Ġniko go
Ġpowta rzaÅĤ
Ġegzeku cyjnym
Te raz
Ġoku lary
Ġstud i
ĠPal ce
ĠdziesiÄĻ Äĩ
Ġpiecho ty
ĠchÅĤopie c
Ġbit wy
ĠmÄĻÅ¼czyz n
Ma giczne
Ġtrz as
Ġnieu stan
komo ty
ĠMer ble
onwoj enci
Ġoboz owej
stanowi ÅĤ
Ġwybu ch
ĠWrÃ³Å¼ ka
Ġodez waÅĤ
Ġmaj or
ĠGdy by
Ros ewater
Ġtralfamador iaÅĦ
Ġmru knÄħÅĤ
Ġinf orma
ĠEwa ng
ĠChi ca
Ġwetera nÃ³w
Ġporozmawi aÄĩ
An gli
Ġmord er
Ġozd ob
Ġbut Ã³w
Ġdotych czas
Ġprzypomnie Äĩ
Ġwielo krotnie
ĠRumfo orda
ĠVerm ont
? "
C o
K toÅĽ
M o
N i
N aj
T o
b ÅĤy
b so
c knÄħÅĤ
d r
f era
g Ã³
h u
i rosz
j aÅĤ
k ra
k ÅĤo
k aÅĤy
k Äħd
l nych
l ory
l aty
l brzy
m an
n ni
o ÅĤo
o ty
o pis
p ni
p Ã³w
p ki
p re
r i
t ka
t ne
u jÄħc
w z
w ki
w nia
w szy
z wo
z wy
z du
z osta
z naÅĤ
Å ļ
Ġ rz
Ġp er
Ġp lan
Ġp ewien
Ġs kie
Ġs et
Ġw ÅĤo
Ġw staÅĤ
Ġw dziÄĻ
Ġw Ã³wczas
ÄĻ dz
Ġn os
Ġn owÄħ
Ġn owe
Ġz nie
Ġz ÅĤa
Ġz mi
Ġz bi
Ġz bie
Ġz mu
Ġz nÃ³w
Ġz ÅĤam
Ġz resztÄħ
Å¼ em
Å¼ one
cz em
cz ej
cz ona
Ġt Äħ
Ġt war
Ġt wier
Ġt eren
Ġt erenie
ch nÄħÅĤ
ch Ã³d
Ġd um
Ġd niu
Ġd rabi
Ġm ÄĻ
Ġm le
Ġm aÅĤa
Ġm ater
Ġm amy
Ġo no
Ġo bi
Ġo glÄħda
Ġk l
Ġk ÅĤo
Ġk la
Ġk ale
Ġk im
Ġk ÅĤam
ra m
ra mi
dz Ã³w
dz aÄĩ
Ġi dzie
ni ku
ni one
ni onu
ni wer
sz ku
sz ÅĤy
sz on
sz ajÄħc
sz ono
Ġna sz
Ġna szych
li wie
li wy
st ego
st ki
st wie
Ġb ÅĤy
Ġb ru
Ġb os
Ġb el
Ġb rzu
Ġb rytyj
nie ÅĽli
Ġpo s
Ġpo cie
Ġpo kÅĤa
Ġpo ÅĤÄħ
Ġpo jÄĻcie
ro biÅĤ
rze ba
rze niem
rze ciwko
le c
le gÅĤ
Ġnie wi
Ġnie dzie
Ġnie sko
Ġnie bezpie
ĠB a
ĠB ÄĻ
ĠB ra
ĠB ied
Ġdo ty
Ġdo strze
Ġdo piero
ĠÅ¼ ar
ĠÅ¼ on
ka nia
rzy li
na stu
Ġza pu
Ġza bra
Ġza jrzaÅĤ
er ry
wi ajÄħc
wi ony
Ġje chaÅĤ
ne ral
at r
at ka
at ry
Ġwy d
Ġwy na
Ġwy bi
Ġwy sta
Ġwy su
Ġwy szedÅĤ
Ġwy rzu
Ġwy stÄĻpu
Ġwy szÅĤa
Ġst rzaÅĤ
Ġst wierdziÅĤ
ko m
Ġg ard
Ġg rom
Ġg raÅĤ
Ġprze m
Ġprze sz
Ġprze Å¼yÅĤ
Ġprze mawi
Ġprze chodzi
Ġprze kazy
Ġprze rwy
Ġu da
Ġu dzie
Ġu si
Ġu pi
Ġu miaÅĤ
ÅĤo ÅĦce
Äħc ej
da je
dzie Å¼
dzie nnie
ĠW ol
ĠW reszcie
wa j
wa ne
wa jÄħc
ĠbyÅĤ eÅĽ
no na
la na
la no
mi na
en ta
Ġto n
Ġto ny
Ġc aÅĤo
Ġjak ich
Ġod dziaÅĤ
Ġcz a
Ġcz ÅĤo
Ġcz war
ĠN owym
ÅĦ skie
owa ni
ku r
ĠÅĽ la
Ġprzy j
Ġprzy go
Ġprzy pomni
Ġprzy pomniaÅĤ
Ġprzy byÅĤ
ty cznie
si Äĩ
si ada
Ġro syj
Ġmi aÅĤo
as y
Ġsp i
Ġsp aÄĩ
ĠZ ost
ĠZ jedno
wie sz
Ġch ara
szy Äĩ
szy mi
Ġl os
Ġsz czu
Ġgo ÅĽcie
ĠM ar
Ġpod nie
Ġpod rÃ³
Ġpod sze
Ġtak a
je ni
je chali
Ġte ore
bi Äĩ
om y
om oÅĽÄĩ
sta ura
sta nawi
ĠS u
ĠS po
ĠS pot
ĠS ÅĤuch
ĠS kur
Ġwie sz
sze ni
sze nie
sze Äĩ
ĠA d
ĠA mery
owi Äħ
owi ada
ĠO b
ĠO two
ĠNie ch
os mos
Ġf urgo
ĠK lu
ĠK osmos
Ġob ja
Ġma ne
Ġma jÄħc
zy gn
rza Äĩ
ma ch
ma na
Ġwi daÄĩ
Ġwi dzÃ³w
lu tnie
Ġka pita
Å¼e ÅĦ
tu je
Ġlu d
ĠR ze
rÄĻ Å¼y
Å¼y li
Ġczas Ã³w
Ġpa na
gi ch
gi waÅĤ
gi cznym
Ġpra k
Ġpra cu
Ġczy li
Ġpie cy
Ġpie niÄĻ
ĠL wÃ³w
za ne
ĠNa stÄĻp
Ġprzez na
czyÅĤ em
Ġrze Åº
Ġle cz
to ÅĽÄĩ
Ġsam ego
Ġby d
ĠmiaÅĤ em
Ġra nka
Ġh u
Ġpi w
Ġpu sty
ciÄħ Å¼
Ġno siÅĤ
Ġno gach
owiedziaÅĤ em
Ġprzed mi
gie m
Ġzap a
Ġr owie
ony mi
ĠpiÄĻ t
Ġnaj wiÄĻ
Ġdale ka
sy te
Ġli z
Ġspy taÄĩ
ĠAmeryka nom
niÄĻ tego
oÅĤ e
Ġpow odu
Ġwz dÅĤuÅ¼
Ġstra ch
Ġstra ciÅĤ
zu ÅĤ
Ġot wÃ³r
Ġot rzymaÅĤ
Ġbo ga
Ġsto py
ter Ã³w
Ġzd Äħ
Ġws pomnie
Ġws pomniaÅĤ
Ġta ra
ĠksiÄħÅ¼ kÄħ
ĠÅĤ zy
Ġludzi om
Ġpier si
ĠWy omi
Ġre staura
ĠrÄĻ ku
ĠrÄĻ kÄħ
Ġim p
Ġba w
ĠchÅĤo dni
Ġtrzy dzieÅĽci
Ġspo jrzaÅĤ
ÅĽl ÄĻ
Ġdzieci ÅĦstwa
ĠamerykaÅĦ skie
Ġdob re
Ġcho ro
fo nicz
Ġok no
Ġok rop
Ġchwil e
Ġdzi u
Ġdzi siaj
ĠRos jan
ĠH irosz
Ġpowi ada
Ġzost aÅĤo
ĠWie m
Ġpierw szego
ĠsÅĤu Å¼yÄĩ
Ġwe dÅĤu
Ġdro b
Ġjako ÅĽ
ĠÅ¼oÅĤnie rz
Ġzabi je
Ġzabi ja
Ġmat era
ĠPrze d
ĠPrze z
Ġwiel kie
Ġwiel kim
ĠpiÄĻk ne
cha na
Ġniemiec ki
Ġniemiec kie
Ġniemiec kich
Ġzas ÅĤu
Ġkobie ta
Ġpop rze
br aÅĤ
uk aÅĤ
ĠmÅĤo d
Ġwyda w
ĠCo dy
Ġar mia
nic Äħ
nic twa
ĠNi c
ĠKa nionu
Ġpierwszy m
ĠCz as
Ġtwa rzy
raÅ¼ nicy
Ġak sami
Ġrobi Äĩ
cyj ny
Ġdrugie go
czyn aÅĤa
ĠktÃ³r emu
ĠEd gara
Ġdom Ã³w
Ġcy gara
Ġrodzi ny
ĠMi aÅĤy
Ġsku r
Ġzak o
Ġzak ÅĤa
Ġpok ry
Ġpok Ã³j
Ġcze ko
tycz ny
ĠSt ra
Ġhistor ia
Ġpre zy
ĠwrÃ³ ciÅĤ
ĠuwaÅ¼ a
Ġwiecz Ã³r
Ġwiecz oru
ĠpeÅĤ ne
Ġpew ne
Ġwp ÅĤy
Ġnale Å¼y
ĠpoÅĽ wiÄĻ
ĠMo gli
ĠLe Å¼aÅĤ
ĠstraÅ¼ nicy
Ġpla nety
Ġzw rÃ³ciÅĤ
Ġmas ak
Ġwyob raÅ¼
Ġaut orem
Ġpowiet rze
Ġodpowie dni
Ġbombard owa
Ġzwiadow cÃ³w
Ġdwu dziestu
Ġkro k
Ġkre w
Ġkre ty
ĠPod obnie
ĠCampbel la
Ġwra caÅĤ
Ġzmieni Äĩ
Ġstro nÄĻ
ĠJezu s
Ġfron cie
Ġstanowi ÅĤa
sp ery
Ġdre zde
Ġniewie l
Ġgwi zd
Ġuk ry
ĠMÃ³wi ÅĤ
Ġzrozu mienia
ĠdÅĤo ni
Ġpor nografi
Ġprzesta li
ĠMy ÅĽlÄĻ
Ġrusz aÄĩ
ĠwÄĻ d
ĠoÅĽ miu
Ġokaz aÅĤo
Ġstu den
ĠudziaÅĤ u
ĠkoÅĤ nie
Ġspoko jnie
ĠWszyst kie
ĠpamiÄĻ taÅĤ
Ġiz bie
ĠbiaÅĤ e
Ġdoro sÅĤy
Ġcud ow
Ġmili on
Ġniko mu
Ġpacj ent
Ġciem noÅĽci
Ġkonwoj ent
Ġzmia Å¼d
Ġtwo rzÄħc
ĠkÃ³ÅĤ ko
nios ÅĤa
Ġnap rzeciwko
ĠpoÅĤu dnie
Ġprzeczy taÅĤ
Ġuz bro
jeÅ¼d Å¼
Ġobej rzaÅĤ
Ġrozm owy
Ġokru t
ĠprÃ³b owaÅĤ
ĠwspÃ³ÅĤ czes
Ġpowa Å¼
Ġso li
Ġsied em
Ġzad owo
Ġwyb oru
ĠusiÅĤ owaÅĤ
ĠÅĽlu bu
Ġchle b
Ġrozpo czÄħ
ĠNazy waÅĤ
Ġrad io
Ġrami ona
ĠÅĽcian ÄĻ
ĠwÅĤÃ³czÄĻ ga
ĠzÄĻ by
ĠpoÅ¼ ar
ĠzauwaÅ¼ yÅĤ
Ġuwa gi
Ġusiad ÅĤ
ĠOstat e
Ġfanta stycz
ĠheÅĤ mu
ĠmÃ³z gu
dop od
ĠWietn amie
Ġfabry ce
Ġszyb ko
Ġnieprzytom ny
Ġrodzaj u
ĠmÄħ Å¼
ĠnieszczÄĻ ÅĽli
Ġzat ru
Ġwymia rze
Ġwystar czy
owia daÄĩ
ĠGlu ck
Ġbur szty
Ġsym bo
Ġrek l
ĠpomÃ³ gÅĤ
Ġniezwy kle
ĠKsiÄĻÅ¼y ca
Ġscen ÄĻ
Ġwew nÄħtrz
Ġzre zygn
Ġju ni
ĠpoÅĤo Å¼yÄĩ
rzyja Åºni
Ġalko ho
ĠprzywiÄħ zany
Ġtygo dni
Ġmag nety
ĠpaÅĦst w
ĠLuk sem
Ġsypi alni
Ġrzeczywi sto
ĠBeret Ã³w
Niem cy
ĠwspÃ³l nego
ĠEwang eli
ĠChica go
bso lutnie
Ġrz ad
Ġskie rowa
niwer syte
Ġusi ÅĤu
Ġchara kt
ĠpodrÃ³ Å¼y
Ġpodsze w
ĠKosmos u
ĠWyomi ng
ĠHirosz im
ĠwedÅĤu g
A le
C h
C ampbel
D o
D zie
J akiÅĽ
L azza
P os
S z
a rz
a ny
b aÅĤ
c Äħc
c ta
c ej
c ony
c ent
d Å¼
d ami
d kÄħ
d niem
d owali
e b
e le
f e
f iÄĻ
f or
f ry
g iÄĻ
g owi
g Ã³r
h e
h i
i one
j ad
j ej
j ski
k re
k aÅĤa
k owaÅĤ
k to
k owÄħ
k owaÄĩ
k owego
k nÄĻÅĤa
l nej
l owym
m m
n na
n aÅĤa
n nÄħ
n aÅĤo
n nego
n kÃ³w
n kÄħ
n kt
n ownie
n stru
o h
o nie
o nym
p l
p rz
p cy
p ali
p el
r owaÅĤ
r owego
s e
t li
t ar
t en
t ard
u ÅĤkow
w ne
w ÅĤa
w en
w sze
w kami
y mi
y ta
z er
z en
© li
Â «
Â »
Ã ¼
Ã ©li
Ġ 2
Ġ 7
Ġ owa
Ġ ciÄħ
Ġ ciÄħg
Ġ rzÄĻ
Ġ ciÄħgu
Ġ Â«
ÅĤ ku
ÅĤ aki
ÅĤ akaÅĤ
ie n
Ġp ÅĤu
Ġp sem
Ġs ka
Ġs Äħd
Ġs ali
Ġs al
Ġs cho
Ġw st
Ġw am
Ġw ej
Ġw sta
Ġw rzu
Ġw stÄħpi
Ġw ÅĤoÅ¼yÅĤ
Ġw ciÄħÅ¼
Ġz g
Ġz aÅĤ
Ġz em
Ġz dzi
Ġz wo
Ġz je
Ġz za
Ġz darza
Ġz bo
Ġz du
Ġz rzu
Ġz arÄĻ
Ġz oo
Ġz marz
Ġz jad
aÅĤ u
rz aÅĤa
rz aÅĤo
Å¼ ÄĻ
Å¼ Äħc
Å¼ ono
cz ar
cz ajÄħc
cz kach
cz onych
Ġt erm
ow ce
ow ard
ow lÄĻ
ch am
Ġd ie
Ġd am
Ġd er
Ġd owo
Ġd ajÄħc
Ġd wÃ³r
Ġd rap
Ġd enty
Ġm ak
Ġm aÅĤych
ÅĽ la
ÅĽ wie
Ġo r
Ġo st
Ġo rze
Ġo ka
Ġo ne
Ġo by
Ġo Å¼e
Ġo pie
Ġo zna
Ġo rg
Ġo pisaÅĤ
Ġo lbrzy
Ġk am
Ġk ÅĤa
Ġk as
Ġk lu
Ġk ory
ra li
ra Åºniej
ra ÅĦcz
ra fy
Ġi Å¼
Ġi ÅĽÄĩ
ni aÅĤy
ni ony
sz Äħc
sz kÄĻ
Ġna ro
Ġna ci
Ġna mi
Ġna lot
li Å¼
li we
st rz
st er
st ami
st aÅĤy
Ġb an
Ġb lu
Ġpo ch
Ġpo ra
Ġpo ci
Ġpo lu
Ġpo sÅĤu
Ġpo ÅĤoÅ¼yÅĤ
Ġpo pular
Ġpo stanowiÅĤ
Ġpo nownie
ro st
rze li
rze waÅĤ
le r
le nie
le tnie
ci arni
ak ami
ak owaÅĤ
Ġnie nawi
Ġnie ktÃ³
ĠB oba
ĠB rytyj
ar owaÅĤ
em o
em y
Ġdo ko
Ġdo bie
Ġdo py
Ġdo daÅĤ
Ġdo ÅĽwiad
Ġdo dat
ka ja
ka zu
rzy ma
dzi al
Ġza cie
Ġza in
Ġza wiera
Ġza stanawi
Ġza czynaÅĤa
er b
er ie
er ii
wi ÅĤo
wi ÅĤy
wi ono
ne cta
czy by
czy taÅĤ
Ġwy t
Ġwy le
Ġwy stawi
Ġwy rusz
Ġwy ciÄħgnÄħÅĤ
Ġwy glÄħdali
Ġwy myÅĽl
ÅĤa szcz
Ġst aj
cie j
Ġg e
Ġg wo
Ġprze ra
Ġprze pra
Ġprze biera
Ġprze prowa
Ġu st
Ġu ja
Ġu czyÅĤ
Ġu zna
Ġu mar
Ġu daÅĤo
Ġu szko
ĠP ro
ĠP la
ĠP en
ĠP ali
ĠP it
Ġa bsolutnie
da nia
da wano
or ge
ĠW s
ĠW ÅĤaÅĽnie
wa ny
no ÅĽ
re n
la li
la cji
la cjÄĻ
en u
en tem
ry z
Ġto bÄħ
by ÅĽ
by ÅĽmy
Ġc ali
wo ÅĽÄĩ
Ġod Å¼y
Ġcz aj
ĠN o
ĠN at
owa na
owa nÄħ
owa nym
ku jÄħc
ĠT ego
ĠT owarzy
Ġko go
Ġko ja
Ġko lo
Ġko szu
Ġko szt
Ġko rzysta
Ġko lum
Ġprzy chodzi
Ġprzy puszcz
si a
si ÅĤa
Ġro li
cy d
cy fik
Ġmi arÄĻ
Ġmi ner
Ġmi ota
ad el
ta li
Ġty lu
nia jÄħc
ÅĤy nÄĻÅĤa
Ġsp a
Ġsp rÄĻÅ¼y
ob ra
ĠZ ni
ĠZ ach
ĠZ godnie
wie zi
ÅĽci ÅĤa
ru sza
Ġch ÄĻ
Ġch mu
Ġch ory
szy li
Ġl amp
Ġl ÅĽni
Ġsz p
Ġsz ali
Ġsz kÅĤa
Ġgo d
Ġgo spo
Ġwo z
Ġwo dy
Ġwo zie
cze ka
ĠM Ã³j
an ego
an Ã³w
Ġpod ko
Ġpod ej
Ġpowie trz
Ġpowie dzenia
ce nia
ĠC y
bi a
om a
ĠJ erry
ĠJ oh
ĠS ch
ĠS ÅĤu
ĠS tu
ĠS zu
ĠS che
ĠS ÅĤoÅĦce
Ġwie rzyÅĤ
Ġwie dzieli
Ġwie rzyÄĩ
rÃ³ ciÅĤa
ale ÅĦ
Åº dzi
owy mi
owy waÅĤ
im o
Ġmo nografi
ĠA u
Ġco raz
Ġco dziennie
ĠO j
ĠO ni
ĠO bie
ĠO bok
ĠNie ktÃ³
Ġwoj nÄħ
Ġwoj sku
Ġf aÅĤ
Ġf ar
Ġf ote
ĠK siÄħ
ĠK to
ĠK toÅĽ
Ġob li
Ġob jÄĻ
Ġob aj
Ġob sÅĤu
pi k
pi aÅĤ
pi Äħ
Ġroz wo
Ġroz nosi
Ġroz legÅĤ
on owaÄĩ
ca li
Ġma li
Ġma lu
rza li
my sÅĤu
Ġmie sza
Ġmie siÄĻcy
Ġwi si
Ġwi os
Ġwi dzieÄĩ
Ġwi dzenia
Ġwi dzÄħ
Ġwi dzia
Ġwi siaÅĤ
Ġdzie li
Ġka bi
Ġka zano
Ġka pral
Ġka lory
Ġze gara
tu ry
rÄĻ cz
rÄĻ dz
Ġczas opis
Ġpa nie
ĠI nd
ĠI dÅºcie
ga Äĩ
Ġzna li
cj ata
cj onowaÄĩ
Ġpra wo
Ġop raw
Ġop rÃ³cz
Ġpie s
Ġpie ca
Ġpie prz
ĠL a
ĠL o
ĠL uf
za li
za Äĩ
ĠNa wet
ĠNa gle
lo cie
lo nym
niej szych
niej szÄħ
czyÅĤ y
Ġrze ki
Ġrze czÄħ
Ġle gowi
szcze nie
Ġsam Äħ
po li
al aÅĤ
szcz one
eÅĤ ko
Ġra m
Ġra ny
Ġra ju
Ġra cjÄĻ
Ġh a
Ġh i
Ġh aÅĤa
Ġh on
az dy
Ġku chen
Ġpi stolet
ew ni
ew nego
ew atera
Ġpu bli
Ġpu ÅĤku
Ġprzed mie
Ġprzed sta
cho dzie
cho dziÄĩ
ach u
Ġzap le
Ġzap ach
Ġzap rzyjaÅºni
gÅĤ ÄĻ
Ġr Äħ
ĠPo ÅĤu
ĠPo zosta
aj cie
ĠwiÄĻ k
Ġnaj p
Ġnaj wyÅ¼
mo c
Ġli n
Ġli cz
Ġli li
ĠmÃ³wi li
ĠmÃ³wi ÅĤa
ĠAmeryka nin
gu jÄħc
niÄĻ te
niÄĻ cia
Ġpow strzy
Ġmy dÅĤo
Ġsk Ã³
Ġsk lep
Ġstra szli
wÃ³ d
Ġot wiera
siÄĻ Å¼
ĠE l
ĠE li
ĠG o
Ġbu tach
Ġsto le
ĠTralfamador iÄĻ
ter es
Ġzd ra
Ġzd ob
sk aki
ĠsÄħ dziÅĤ
bu rg
ĠmÃ³ c
Ġta niec
Ġta ÅĦca
ĠZie miÄĻ
Ġzam arz
ĠksiÄħÅ¼ ce
one k
pa ÅĽÄĩ
Ġog ni
Ġog nia
ĠÅĤ at
Ġdru gi
glÄħd aÅĤo
Ġsy na
Ġre pre
lan da
ĠU niwersyte
ĠkaÅ¼ da
ĠsÅĤy chaÄĩ
gra nia
sÅĤ aÅĤ
ĠmoÅ¼ emy
Ġmiejs c
Ġtrzy maÅĤ
Ġtrzy maÄĩ
Ġjakie goÅĽ
Ġspo czy
Ġsze s
Ġsze ro
ĠamerykaÅĦ skiego
ĠamerykaÅĦ skÄħ
py taÅĤ
Ġru i
Ġdob ry
ĠgÅĤo sy
ĠWalen cjÄħ
laz ÅĤ
Ġkon du
Ġcho dziÅĤ
gar ni
Å¼yÅĤ a
Ġtrze wi
Ġtrze ma
Ġok na
Ġchwil Äħ
Ġznaj dzie
Ġpot rzeb
ĠÅĽmier tel
ĠF il
Ġwago nach
de ch
Ġbom by
ĠRos ewatera
ĠH ar
ĠWie dziaÅĤ
ĠWie dzieli
ĠÅĽrod ek
Ġpraw dÄĻ
ĠsÅĤu chaÅĤ
Ġwe szli
Ġdro gÄħ
ĠÅ¼oÅĤnie rza
Ġzabi Äĩ
Ġzabi ci
Ġzabi tych
czu ÅĤ
czu cie
Ġbied nego
mawi aÅĤ
ĠRo landa
ĠPrze cieÅ¼
ĠPrze praszam
ĠpiÄĻk nych
ĠpiÄĻk nego
Ġbomb owcÃ³w
ĠÅĤa godnie
ĠÅĤa ÅĦcu
Ġda nej
ĠpÃ³ j
ĠpÃ³ Åº
ĠzaÅĽ pie
wier aÅĤa
ĠpÅĤa szczy
Ġniemiec ku
Ġniemiec kiego
Ġzas ÅĤo
Ġczu b
Ġkie szon
kaz aÅĤo
Ġmar mo
Ġwyda waÅĤ
Ġar chi
ĠzÅĤo Å¼yli
Ġniez byt
Ġprzyja ciela
ĠCz ÄĻ
Ġla sku
ĠBo gu
Ġdziec ka
ksz taÅĤ
ĠsÅĤo ÅĦca
Ġdu Å¼y
Ġdu cha
Ġrobi ÅĤ
Ġmusz ÄĻ
Ġmusz Äħ
Ġmusz tard
Ġmieszka ÅĦcy
Ġzu py
ĠtÅĤu m
ĠtÅĤu ma
Ġkar mi
Ġkar tof
nicz ej
Ġkol cza
Ġtakie j
Ġznajd owali
Ġtru m
Ġgru dki
ĠcaÅĤy m
Ġrodzi nnym
jÄħcy mi
Ġfil mie
ĠpiÄĻÄĩ dziesiÄħt
ĠpiÄĻÄĩ dziesiÄĻ
ĠwyÅĤ oÅ¼
Ġkra ju
tycz nego
Ġprac ÄĻ
Ġprac owaÅĤ
Ġprac owaÄĩ
Ġprac owaÅĤem
Ġpyta nia
Ġwar gi
Ġwar to
Ġzgi nÄħÅĤ
Ġmom entÃ³w
Ġgra li
Ġgra ciarni
Ġczar ny
Ġczar ne
ĠÅĽcia ny
Ġgodzi n
ĠsÅĤyn nÄħ
ĠsÅĤyn nej
ĠpÅĤ ak
ĠpÃ³ÅĤ wy
ĠwrÃ³ ble
Ġzwy czaj
Ġbro ÅĦ
rop ej
miaÅĤ e
ĠDo piero
Prze d
ĠÅĤy Å¼e
ĠksiÄĻ garni
ĠpoÅĽ wiat
Ġpomy ÅĽlaÅĤ
Ġwypad ku
ĠMo Å¼e
Ġpowin na
ĠprÃ³ cz
Ġzw raca
Ġmas a
niÄħ dze
ĠDzi kiego
ĠlatajÄħc ego
Po ciÄħg
Ġpowo li
Ġpowo dzeniem
Ġzwiadow cy
Ġkro ku
Ġnapis aÄĩ
dzia no
Ġprzeciw nika
Ġznale Åºli
Ġsamolot Ã³w
ĠwÅĤas nych
ĠkaÅ¼d ej
Ġ196 8
ĠmÄĻÅ¼czy Åºni
Ġpas y
Ġwra Å¼enie
ĠdÅº wi
Ġpomo c
ĠwyjÄħ ÅĤ
Ġstro nie
Ġup ÅĤy
Ġmog ÅĤy
Ġrozmawi aÅĤ
Ġrozmawi ali
Ġrozmawi aÄĩ
biera Äĩ
Ġpotrafi Äħ
Ġface ta
Ġprowa dzÄħc
ĠwÄħ t
Ġzami ast
Ġdrze w
Ġdrze wa
Ġdre wni
arÅĤ at
ĠwyglÄħd aÅĤy
Ġce lu
Ġprzypomi naÅĤ
Ġprawdzi wÄħ
Ġnazwi sko
Ġwal czyÄĩ
ĠzwiÄħ zane
Ġdy mu
ĠdÅĤo nie
Ġkr wi
Ġkr wa
Ġprzekona Äĩ
ĠÅĽnie g
Ġspraw ÄĻ
Ġdzwo niÅĤ
Ġdzwo nek
Ġobie caÅĤ
Ġrozleg aÅĤ
Ġmaszy n
Ġmaszy na
Ġrusz yÅĤ
ĠciÄĻÅ¼ ar
Ġszereg owcÃ³w
ĠpudeÅĤ ecz
Ġdowie dzieli
Ġoko li
Ġoko ÅĤo
ĠksztaÅĤ t
Ġpoma raÅĦcz
Ġdot ar
ĠzaczÄĻ li
ĠzaczÄĻ ÅĤa
Ġum rzeÄĩ
ĠuÅ¼y te
ĠkoÅĤ dry
Ġkomu ÅĽ
Ġkomu ni
Ġkopu ÅĤy
Ġlo ka
Ġszcze gÃ³l
Ġsztu ki
ĠDzie wi
Ġwido k
Ġludz kie
ĠNaj bardziej
Ġleka rz
Ġspoko ju
Ġarty le
Ġarty ku
Ġmuszkie tera
Ġsrebr ne
Ġsrebr nych
gry z
Ġplu ton
ĠmiÄĻ so
ĠnastÄĻp nego
ĠbiaÅĤ ego
Ġpole ga
wia jÄħ
Ġwyko ny
Ġcud ownie
ÅĦczy kÃ³w
ĠMu siaÅĤ
Ġpowierz chni
Ġpowierz chniÄĻ
ĠwziÄĻ li
Ġkierow nicy
ĠdÅºwiÄĻ k
ĠdÅºwiÄĻ ki
ĠRober ta
Cz tero
Ġple cami
Ġkli niki
Ġkru cyfik
ĠkrÃ³t ko
ĠpoÅĤu dniu
Ġuz naÅĤ
ĠkoÅĽci oÅĤa
Ġprzyby li
Ġprzytom ny
Ġprzytom noÅĽÄĩ
Ġszczy t
ĠDob ra
Ġobej rzeÄĩ
Ġwspani aÅĤych
Å¼ony mi
Ġorga ni
Ġpog rzeb
Ġuli cy
ĠusÅĤy szaÅĤ
ĠprzyszÅĤo ÅĽÄĩ
Ġchle ba
ÅĤuch ajcie
Ġfun k
Ġfun tÃ³w
Ġrozpo czÄĻ
Ġrami onami
Ġpunk tu
ĠskÅĤa d
Ġsytua cji
ĠÅĽredni m
Ġochot ÄĻ
Ġrozstrzela ny
Ġek spery
Ġpil n
Ġwro gÃ³w
ĠtrÃ³j grania
Ġocze ki
Ġpodzi ura
Ġjezi orem
ĠprzeÅ¼y waÅĤ
ĠprzeszÅĤo ÅĽÄĩ
Ġuko ÅĦczyÅĤ
Ġutrzy ma
ĠPra c
ĠCadill akiem
Ġkape lana
Ġkarabi nÃ³w
ĠÅ¼yw noÅĽci
Ġskle pu
ĠgÅĤÃ³w nie
Ġbutel kÄĻ
Ġpozwoli ÅĤ
stolet ni
ĠRosja nie
ĠdÅĤuÅ¼ ej
ĠdzieciÄĻ ca
Ġistnie Äĩ
ĠnaleÅ¼ aÅĤo
ĠYon son
ĠWszechÅĽwiat a
Ġkatastro fie
Ġse ku
ĠweÅĤnia ne
Ġpozy cji
Ġniem owlÄĻ
ĠBost onu
naj dowaÅĤ
Ġzaczy na
Ġwyra Åºnie
Ġwybra li
ĠwystÄħpi Äĩ
ĠWiÄĻ kszoÅĽÄĩ
ĠTru mana
Ġprof es
Ġprodu k
ĠwziÄħ ÅĤ
ĠmoÅ¼li woÅĽci
Ġ195 8
Zap an
Ġatom owej
ĠzwierzÄĻ ta
Ġzrozumie Äĩ
Ġnieboszczy kiem
ĠEuro pie
ts burg
ĠÄĩ wi
Ġpt aki
Ġnatu ral
niesi ono
Ġposzu ki
Ġprzesko czyÅĤ
Ġuspo kaja
redni o
Ġczek aÅĤ
Ġmiod owy
Ġchce sz
Ġgorz kie
Ġwielko ÅĽci
Ġcof nÄħÅĤ
Ġfrag ment
Ġpapiero sÃ³w
Ġznak omi
Ġpopro siÅĤ
Ġgaze ty
Ġkolek cjÄĻ
Ġwyobrazi Äĩ
Ġener gii
Ġzmi an
Ġbru tal
ĠpokÅĤa dzie
Ġniesko ÅĦcz
ĠÅ¼on ÄĻ
Ġzabra Äĩ
Ġgrom ad
Ġprzem Ã³wi
Ġprzemawi a
Ġupi or
nona uk
Ġczwar tym
Ġrosyj skich
asy fam
ĠZost aÅĤ
ĠSkur czyby
Ġmane w
ĠpieniÄĻ dzy
Ġpiw nicy
Ġcudow ne
ĠrozpoczÄħ Äĩ
ĠOstate cznie
Ġfantastycz nonauk
Ġsymbo li
Ġjuni or
ĠLuksem burgu
Ġrzeczywisto ÅĽci
Campbel l
Lazza ro
Pos ÅĤuchajcie
gÃ³r ki
uÅĤkow nik
Ã©li ne
Ġdenty stycz
Ġzastanawi aÅĤ
necta dy
Ġstaj ni
ĠPit tsburg
adel fi
ĠSche nectady
ĠKsiÄħ Å¼
ĠInd iana
Ġarchi tek
Ġmusztard owego
ĠpudeÅĤecz ko
Cztero o
ĠPittsburg hu
. Â»
4 1
? ",
C zy
D ru
D obra
I t
J a
K o
K onwojenci
L e
L ily
M ie
M Ã³wi
M Ã³j
N o
O bok
P a
P ie
P ro
P raw
P owiedziaÅĤem
P uÅĤkownik
S ta
T a
T ego
T am
T en
W iÄĻ
W alen
W reszcie
Z as
a Å¼
a nÄħ
b e
b rz
b iÄĻ
b ni
b nÄħ
b liÄĻ
c t
c ki
c ono
c ona
d i
d ra
d na
d Äħc
d el
d ent
d io
e la
e ÅĽmy
f Äħ
f ek
f ory
f erm
g ÅĤa
g aÅĤa
g ÅĤy
g ary
g rzany
i mi
i om
j ny
j nÄħ
j ony
k ni
k rÄĻ
k nÄħÄĩ
k ÅĤych
l t
l aÅĤa
l nÄħ
l aÅĤy
l nego
l owany
m e
m at
m enty
n f
n s
n am
n ne
n um
n ut
n nymi
n Äħcy
o j
o ni
o rze
o le
o ÅĽci
p aÅĤ
p ry
p aÅĤy
p et
p aty
p chniÄĻ
r v
r w
r ego
r ko
r kÄĻ
r owo
r ia
s h
s ow
s nÄħÅĤ
s owej
t Ã³
t ro
t am
t nÄħ
t owy
t nej
t owaÅĤ
t kami
t owych
t ho
t nicÄĻ
u ch
u dzi
u ropej
v re
w am
w raca
w czÄĻta
y a
y ty
z nÄĻ
Ġ (
Ġ 3
Ġ 8
Ġ owi
Ġ are
ÅĤ b
ÅĤ ej
ÅĤ Ã³d
ÅĤ owÄĻ
Ġp e
Ġp ami
Ġp rzyÅĤa
Ġs m
Ġs wa
Ġs owy
Ġs mu
Ġs uk
Ġs ur
Ġw ez
Ġw ali
Ġw pu
Ġw sty
Ġw ciÄħgnÄħÅĤ
Ġw ers
Ġw szÄĻdzie
Ġn er
Ġn ot
Ġn owego
Ġn owym
Ġn ÄĻdz
Ġz i
Ġz le
Ġz aÅĤa
Ġz ÅĤy
Ġz mie
Ġz ÅĤu
Ġz bli
Ġz marÅĤ
Ġz got
Å¼ ej
Å¼ owaniu
cz na
cz Äħc
cz ami
cz aÅĤo
cz kÄħ
cz nik
cz ono
cz nymi
cz Äħcy
cz onego
cz nicÄĻ
Ġt re
Ġt an
Ġt ran
ow bo
ow Ã³d
ch ami
ch ajÄħc
Ã³ cie
Ġd ar
Ġd aÅĤo
Ġd aÄĩ
Ġd rg
Ġd rga
Ġd rÅ¼
Ġd ram
Ġm ro
Ġm nÄħ
Ġm aka
Ġm aleÅĦ
Ġm gÅĤÄĻ
ÅĽ ma
ÅĽ pie
ÅĽ nikÃ³w
Ġo dz
Ġo Å¼y
Ġo siÄħ
Ġo cho
Ġo dzy
Ġo kÅĤad
Ġo ferm
Ġk aÅĤ
Ġk rz
Ġk an
Ġk wiat
go r
go sÅĤu
ra c
ra kt
ra tor
dz wo
dz twie
Ġi lo
Ġi stoty
ni aÅĤo
ni nem
sz yÅĤ
sz aÅĤy
sz ony
sz kaÅĤ
Ġna r
Ġna czy
Ġna to
Ġna uk
Ġna stÄħpi
Ġna gro
Ġna try
Ġna wiasem
Ġna gich
li nÄĻ
st os
st wem
Ġb rz
Ġb Äħ
Ġb ato
nie ni
nie rze
nie nia
nie sie
Ġpo na
Ġpo dzie
Ġpo Å¼y
Ġpo cho
Ġpo stu
Ġpo praw
Ġpo kazy
Ġpo sÅĤa
Ġpo bliÅ¼
Ġpo czeka
ro czy
ro ku
ro du
ro linie
rze ÅĽci
rze bie
le s
le ni
le ga
ci d
ci ak
ci aÅĤy
ci sk
ak om
ak tu
am ent
Ġnie ch
Ġnie raz
Ġnie to
Ġnie do
Ġnie praw
Ġnie pot
ĠB ob
ĠB el
ĠB ere
ar ia
Ġdo j
Ġdo ÅĤ
Ġdo my
Ġdo ÅĤÄħ
Ġdo tk
ĠÅ¼ mi
ĠÅ¼ yÅĤa
ĠÅ¼ onÄħ
ka rze
rzy m
na li
na sty
na sto
na stego
na stoletni
Ã³w ka
Ã³w no
dzi k
dzi ale
Ġza j
Ġza ro
Ġza ÅĽcie
Ġza sa
Ġza war
Ġza zwy
Ġza wiesz
er u
er ÄĻ
er Å¼y
er et
er ner
wi aÅĤ
wi ali
wi azdy
Ġje chaÄĩ
ne g
ki nie
czy li
czy na
czy kÃ³w
Ġwy m
Ġwy r
Ġwy Å¼
Ġwy ch
Ġwy ci
Ġwy pi
Ġwy bie
Ġwy to
Ġwy po
Ġwy sy
Ġwy zna
Ġwy sÅĤ
Ġwy do
Ġwy ciÄħg
Ġwy peÅĤ
Ġwy pra
Ġwy raÅ¼
Ġwy puszcz
Ġwy daÅĤo
ÅĤa ch
ÅĤa Äĩ
ÅĤa niaÅĤy
Ġst ad
Ġst oÅĤ
cie r
cie lem
ko ra
ko je
ko ÅĽÄĩ
ko ÅĦczyÅĤ
Ġg ÄĻ
Ġg ar
Ġg en
Ġg im
Ġg um
Ġg aÅĤÄħ
Ġprze ch
Ġprze ko
Ġprze su
Ġprze szedÅĤ
Ġprze peÅĤ
Ġprze chod
Ġprze cieÅ¼
Ġprze paÅĽÄĩ
Ġu j
Ġu r
Ġu sz
Ġu wie
Ġu szy
Ġu cze
Ġu zy
Ġu lu
Ġu czÄĻ
Ġu daÄĩ
Ġu leg
Ġu wiÄĻ
Ġu stawi
Ġu stÄĻp
Ġu nd
Ġu got
Ġu ÅĽwiad
Ġu nosiÅĤ
dy waÅĤ
ĠP e
ĠP i
ĠP at
ĠP ale
ĠP owi
ĠP ot
ĠP Ã³ÅĤ
ĠP raw
ĠP ewien
ĠP iÄĻk
ĠP yta
ĠP ewnego
Ġa u
Ġa udy
da nie
da no
or ÄĻ
or st
or tu
dzie cie
dzie liÅĽmy
ĠW e
ĠW szedÅĤ
ĠW ÅĽrÃ³d
ĠW Ã³wczas
ĠW szÄĻdzie
wa gi
wa niu
wa gÄĻ
la ne
la jÄħcych
la liÄĻ
mi ni
mi ar
mi ja
en ne
ry li
Ġto dze
by sz
Ġc aÅĤa
Ġc el
Ġc ent
Ġc Ã³Å¼
wo dnik
Ġod czu
Ġod ÅĤam
Ġod gÅĤo
Ġod byÅĤ
ĠN or
ĠN ew
ĠN asyfam
ÅĦ czyÄĩ
ÅĦ skich
ÅĦ skiego
owa liÅĽmy
ku je
ĠT ato
ĠT rzeba
Ġko t
Ġko cem
ĠÅĽ le
ĠÅĽ wiÄĻ
ĠÅĽ liz
Ġprzy sz
Ġprzy wie
Ġprzy sta
Ġprzy wy
Ġprzy szedÅĤ
Ġprzy war
Ġprzy szli
Ġprzy czyn
Ġprzy szÅĤa
ty kÄĻ
si k
Ġro cznie
Ġro lÄĻ
Ġro dem
kie r
cy ch
cy waÅĤ
Ġmi ÅĤy
Ġmi ÅĤe
Ġmi nut
ad ne
ta rz
ta nia
ta czajÄħc
Ġty to
nia ch
Ġsp u
Ġsp ÄĻ
Ġsp ÅĤo
Ġsp ry
Ġsp lu
Ġsp Ã³ÅĤ
Ġsp in
Ġsp oÅĤe
ob nÄħ
ob ec
ĠZ ami
ÅĽci a
ÅĽci li
ÅĽci Ã³ÅĤ
ÅĽci ach
ru m
Ġch rap
Ġch cÄĻ
Ġch udy
Ġch cÄħc
Ġch rzeÅĽci
szy sz
Ġl Ã³d
Ġsz kie
Ġsz os
Ġsz ukaÅĤ
Ġsz orst
Ġgo l
aÅĤy mi
Ġwo ÅĤa
Ġwo la
Ġwo zu
Ġwo dÄĻ
Ġwo dÄħ
Ġwo ÅĤaÅĤ
cze ÅĦstwa
mie ÅĦ
mie niu
ĠM am
ĠM ot
ĠM ÄĻÅ¼
ĠM iÄĻdzy
ĠM atka
ĠM imo
an ce
an owaÄĩ
an tÃ³w
Ġpod u
Ġpod daÄĩ
Ġpod sunÄħÅĤ
Ġpod arowaÅĤ
Ġpod ÅĽciÃ³ÅĤ
Ġpowie ÅĽÄĩ
Ġpowie dzieli
Ġtak sÃ³w
ce p
ce nie
ce niem
ce de
ĠC ie
ĠC zuÅĤ
ĠC Ã©line
Ġte at
Ġte ÅĽÄĩ
bi j
bi te
Ġdz iÄĻkujÄĻ
te li
te pi
te sk
ja ch
ja jÄħc
ja dali
ja zdu
ĠJ aki
ĠJ ank
ĠS pÄĻ
ĠS ÅĤowa
ĠS pytaÅĤ
Ġwie rz
Ġwie dzÄħc
rÃ³ b
ale rz
ale nie
owy waÄĩ
Ġmo cz
Ġmo je
Ġmo ja
Ġmo jÄħ
Ġmo jej
Ġmo siÄĻÅ¼
sze nia
ĠA ni
ĠA ha
owi ad
ĠO jciec
ot u
ot Ã³w
os fory
Ġf ran
Ġf ryz
Ġf osfory
Ġjest eÅĽmy
ĠK or
ĠK onwojenci
Ġob cy
Ġob serw
Ġob owiÄħ
Ġob erÅ¼y
Ġroz e
Ġroz u
Ġroz ciÄħg
Ġroz grzany
on owaÅĤ
ca Äĩ
ca jÄħc
ma c
my waÅĤ
jÄħ Äĩ
Ġmie szkaÅĤ
Ġwi dni
Ġwi dzieli
Ġwi tami
Ġwi Ã³zÅĤ
Ġdzie l
Ġdzie je
Ġdzie wiÄĻ
Ġdzie siÄħt
bie nie
Ġka wa
Ġka wÄĻ
ĠbyÅĤo by
od e
od ora
od por
tu r
tu ra
Ġlu nety
Ġczas y
Ġpa rze
Ġpa gÃ³rki
ĠI owa
ĠI stoty
ĠI rv
pie c
ga Å¼
Ġin nej
Ġin sty
Ġin dziej
Ġin teli
Ġpra gnÄħÅĤ
Ġop ar
Ġop owiadaÄĩ
Ġop eret
tem pl
Ġpie kie
Ġpie kÅĤo
Ġpie niÄħdze
siÄħ ÅĽÄĩ
ĠL i
lo dy
lo nÄħ
lo odpor
ez er
niej szej
Ġrze komo
ÅĽcie m
Ġle Å¼eli
szcze niu
to nie
to pni
Ġby le
pu jÄħc
pu je
pu ÅĽciÅĤ
bo rator
al ne
ral ne
szcz onymi
eÅĤ ni
eÅĤ ny
ut or
Ġh ote
Ġh and
Ġku le
Ġku cem
Ġpi j
Ġpi ÅĤ
Ġpi ja
Ġpi sze
Ġpro ble
Ġpu szka
Ġpu szek
Ġpu kanie
Ġpu nkt
ych ali
Ġno gami
Ġno Å¼em
Ġkiedy kolwiek
dzo ny
dzo ne
cia Å¼
Ġzap ar
Ġzap amiÄĻ
Ġzap rag
Ġzap obie
Ġzap yty
Ġzap alenie
gÅĤ em
Ġr ow
ĠPo czÄħ
ĠPo stawi
aj or
ĠwiÄĻ zie
ĠwiÄĻ ksz
Ġnaj waÅ¼
Ġnaj gor
mo Å¼
ĠWeary m
su jÄħc
sy l
Ġli nia
Ġli czyÄĩ
Ġli tera
Ġli nii
Ġli toÅĽÄĩ
Ġraz y
ĠmÃ³wi Äħ
ĠAmeryka nina
ĠAmeryka ninem
oÅĤ em
oÅĤ ÄĻÅ¼
oÅĤ nierze
Ġci che
Ġpow szech
Ġpow tÃ³
Ġwz mac
rzyÅĤ y
Ġmy Äĩ
Ġstra Å¼y
zu je
ied mi
Ġbo chen
ĠE ak
ĠE wÄĻ
ĠG Ã³wno
ĠG wiazdy
Ġpoz ba
Ġpoz dr
Ġpoz iom
Ġodp owiadaÅĤ
ĠJe dno
el l
Ġbez pie
Ġsto ÅĤy
Ġsto ÅĤu
Ġsto jÄħcÄħ
ter owie
Ġzd ej
Ġzd jÄĻ
Ġzd jÄĻcia
ÅĽnie ÅĦ
ĠsÄħ sie
ĠsÄħ siad
Ġwa bi
Ġsta ra
bu d
bu sh
Ġws chod
Ġws pomina
Ġws chÃ³d
Ġzam ro
Ġdwa naÅĽcie
ĠbÄĻdzie my
ĠksiÄħÅ¼ kach
Ġ1 2
Ġ1 8
Ġcie ka
Ġog rze
Ġog Ã³l
ĠÅĤ eb
Ġdru h
Ġdru ga
Ġludzi ach
Ġsy n
Ġe la
Ġe fek
Ġe uropej
Ġsie dzieli
ĠWy p
ĠWy glÄħdali
ĠWy glÄħdaÅĤo
ĠrÃ³w nie
Ġre sz
Ġre li
Ġre je
Ġre gu
Ġre zu
Ġre szty
Ġpan owaÅĤ
lan dz
ĠCh o
ĠCh yba
ĠCh cÄĻ
zi Äħ
zi one
ĠU marÅĤ
Ġba na
Ġja dal
ĠsÅĤy szeÄĩ
gra my
rowa dzono
ÅĤowie k
Ġjakie go
Ġspo ÅĽrÃ³d
Ġspo kÃ³j
Ġsze p
wali Äĩ
wali ÅĽmy
ĠcaÅĤ ego
ĠamerykaÅĦ ska
ĠamerykaÅĦ skim
Ġru ch
Ġru chu
Ġdob rÄħ
Ġdob rych
ĠgÅĤo siÅĤ
ĠgÅĤo sem
laz nej
Ġkon ty
Ġkon serw
Ġkon cent
Ġkon templ
Ġcho ciaÅ¼
gar bush
Ġok rÄĻ
Ġbi or
Ġbi bli
Ġbi ur
Ġbi twa
Ġpot ÄĻÅ¼
pad ÅĤ
Ġmusi aÅĤa
Ġmusi my
Ġdzi ÅĽ
Ġdzi ale
ĠÅ¼oÅĤ Äħd
ĠTe Å¼
ĠZa p
ĠNiem com
ĠH oward
Ġzost aÅĤa
wiÄħ z
wiÄħ te
wiÄħ zy
ĠWie sz
ĠWie lu
Ġpraw Äħ
Ġmia st
Ġmia stem
Ġpierw szej
ĠsÅĤu p
ĠsÅĤu Å¼
ĠsÅĤu Å¼yÅĤ
ĠsÅĤu cha
ĠsÅĤu cham
Ġwe st
ĠjeÅĦ com
ĠÅ¼oÅĤnie rzem
rzÄħ t
ĠÅ¼ad en
Ġzabi ÅĤ
Ġzrobi li
Ġzrobi ÅĤy
Ġzrobi ÅĤem
Ġbied nych
Ġbied akÃ³w
ory s
Ġwiel ka
Ġwiel kiego
ĠAngli ka
ĠÅĤa go
ere g
ÅĦst wie
ĠkoÅĦ czyÅĤa
Ġstar t
Ġstar ca
Ġstar cÃ³w
Ġzosta wili
Ġzosta wiono
Na wiasem
ĠrÃ³Å¼ ne
ĠrÃ³Å¼ owÄħ
ĠsÅĤ ow
ĠsÅĤ Ã³w
Ġzda rzy
Ġzda nia
Ġzda niem
Ġniemiec kiej
Ġzas nÄħÄĩ
Ġczu jÄħc
Ġkobie t
Ġpowro cie
Ġpy taÅĤ
Ġkie szeni
Ġkie ÅĤb
Ġpop ra
ĠchÅĤop cÃ³w
ĠchÅĤop cem
Ġsi ÅĤ
ĠmÅĤo dzi
ĠmÅĤo da
ĠmÅĤo de
Ġwyda waÅĤo
Ġwyda rzenie
ĠCo ca
Ġar mi
Ġstary m
ĠKa rolinie
ĠmaÅĤ ego
stÄħ pie
Ġniez mie
Ġprzyja ciel
ĠCz ter
ĠCz war
ĠCz erwo
Ġtele fonicz
Ġjedno st
jem y
Ġla borator
Ġtwa rze
Ġtwa rzÄħ
ĠBo ga
ĠOd p
ĠOd by
Ġak tu
Ġak ura
Ġdu sz
Ġdu sza
Ġkrzy Å¼a
ĠBar b
ĠBar dzo
Ġkole i
Ġrobi ÅĤa
cyj nych
Ġszy bÄĻ
Ġmieszka li
Ġmieszka ÅĦ
Ġmieszka ÅĦcÃ³w
dzÄħc e
szu lek
Ġpoko jÃ³w
Ġkol ce
Ġkol oru
ĠÅ» y
ĠÅ» oÅĤnierze
Ġtru pÃ³w
Ġzach ÄĻ
Ġcy f
Ġfil mu
Ġsko nstru
Ġsku rwy
Ġzak rÄĻ
Ġde kora
Ġkra j
Ġkra dzieÅ¼
Ġnau czyÅĤ
Ġbra Äĩ
Ġbra my
Ġpok ra
Ġpok ryty
Ġcze ÅĽÄĩ
Ġcze kali
Ġcze kaÄĩ
tycz nych
tycz nej
ĠSt aÅĤo
ĠSt rach
ĠÅ¼ycie m
Ġhistor iÄĻ
io mie
Ġsen s
Ġwar stw
Ġzgi nÄĻli
ÅĽmie sz
Ġgra nicy
Ġczar nego
ĠÅĽcia nach
ĠOp owiedziaÅĤ
ĠOp owiadaÅĤ
ĠsÅĤyn nego
glÄħda jÄħc
ĠpÅĤ akaÅĤ
ĠpÅĤ Ã³cie
Ġpre zent
Ġpre num
Ġsch owaÅĤ
Ġzwy kle
rop onowaÅĤ
Ġdop as
ĠuwaÅ¼ aÅĤa
tel nik
Ġwiecz or
Ġwiecz noÅĽÄĩ
Ġnoc nym
Ġnoc nej
ĠmyÅĽli w
ĠmusiaÅĤ by
wiadow cy
Prze z
Ġat aku
Ġat mos
Ġpat rzyÅĤ
ĠpeÅĤ ni
Ġpew nie
Ġwp atru
Ġwp atry
Ġwp akowaÅĤ
ÅĽle Äĩ
ĠksiÄĻ gi
Ġpomy sÅĤ
Ġpomy ÅĽleÄĩ
ĠcÃ³r kÄħ
Ġlot nictwa
Ġlot niczej
ĠMonta nie
ĠMonta nÄħ
Ġwojsk owy
Ġwojsk owÄħ
Ġwojsk owego
Ġopty ka
stycz nych
Ġpowin no
Ġzw rÃ³
Ġzw ÅĤaszcz
Ġme dali
Ġme tal
Ġme lody
ĠPowie dz
ĠPowie dzieli
Ġaut or
Ġaut en
Ġspra wie
Ġspra wy
Ġszere gu
ĠDzi ki
ĠDzi aÅĤo
Ġwol noÅĽÄĩ
Ġpowiet rza
Ġpis aÄĩ
Ġpis aÅĤem
Ġodpowie dÅº
Ġbombard owaniu
kÅĤ ego
omi ÅĤ
Ġostat nie
Ġostat nim
Ġostat niego
Ġjedy nie
Ġwyso kie
ĠÅĽpie w
Ġdziew czÄĻta
Ġpal ce
Ġpal cÃ³w
Ġczyta nia
Ġsamolot u
Ġprzedstawi aÅĤ
Ġprzedstawi aÄĩ
ĠwÅĤas ne
ĠwÅĤas nej
ĠJest em
Ġmiejsca ch
Ġ196 4
lat or
Ġtor bÄĻ
Ġstro ny
siad ÅĤ
Ġmusie liÅĽmy
Ġmogli by
Ġpara pe
Ġopu ÅĽciÄĩ
Ġstanowi sko
ĠwÄħ tpli
czni ku
Ġtra kt
Ġdrze wo
Ġdre wnia
Ġofi ce
Ġofi cja
ĠjÄĻ ki
stra cyj
ĠpoczÄħ tkowo
ĠwyglÄħd aÅĤa
Ġgro na
Ġgro tesk
ĠgÅĤu pie
Ġuk ra
Ġce ny
ĠMÃ³wi ÅĤa
ĠleÅ¼ Äħc
Ġkur ty
Ġpozost aÅĤo
Ġprawdzi wego
tor Ã³w
ĠpÅĤy t
Ġmor skiej
ĠnastÄĻpu jÄħcÄħ
Ġpor wany
Ġstal owego
Ġstal owych
Ġprzesta Äĩ
ĠPowiedziaÅĤ em
Ġcztery sta
ĠDz wo
ĠMy ÅĽli
ĠAle Å¼
Ġfi liÅ¼
Ġobie tnicÄĻ
Ġopowie dzieÄĩ
Ġpozosta nie
ĠFran k
ĠFran cji
ĠFran cu
ĠRoland em
Ġangiel sku
Ġszereg ow
Ġser ce
Ġser ca
Ġdowie dzieÄĩ
ĠoÅĽ wiad
Ġokaz ji
Ġnazy wajÄħ
Ġbr aÅĤa
Ġdot knÄħÅĤ
Ġdot arÅĤ
Ġdosko n
Ġzatrzy maÄĩ
Ġwyj ÅĽÄĩ
Ġprzewo dni
Ġum il
Ġumie raÅĤ
ĠWil li
nosi li
ĠkoÅĤ d
Ġkopu ÅĤÄħ
Ġlo dzie
Ġlo komoty
Ġlod em
Ġlod Ã³wki
Ġobec nych
Ġleka rza
ĠwÅĤaÅĽci wie
ĠwÅĤaÅĽci ciel
Ġbohater Ã³w
Ġbudy nkiem
Ġznajdu jÄħ
Ġziem skie
Ġziem skiej
Ġkolej owej
Ġmuszkie terÃ³w
kle j
Ġpry wat
Ġplu tonie
Ġzb rod
Ġzni szczone
Ġtrafi ÅĤa
Ġtajem nicy
Ġtajem nicÄħ
Ġdwo ma
Ġbli ska
Ġpole cenia
Ġwyko rzysta
Ġstrze l
ĠurzÄħ dzenia
ĠurzÄħ dzenie
ÅĦczy cy
ĠTy le
Ġmili ony
Ġspot ka
Ġgor sze
ĠMu si
Ġpowierz chnia
Ġzebra nie
Ġpacj entÃ³w
ciÄħga li
Ġpowta rza
ĠÅĽmiesz nego
ĠGdzie ÅĽ
Ġogrom nie
Ġogrom ne
Ġkonwoj entÃ³w
Ġkierow nicÄĻ
ĠmÅĤody ch
ĠksiÄĻÅ¼y ca
Cz as
ĠÅĤo Å¼a
Ġple cÃ³w
Ġzmia nie
Ġdia bli
Ġmam o
Ġkli nice
Ġkrze ÅĽle
Ġkru cjata
Ġubra nie
ĠuÅĽmie chem
res aria
Ġtytu ÅĤ
jeÅ¼d Å¼aÅĤ
Ġfor tepi
Ġpiecho cie
Ġpiosen ki
Ġpiosen kÄĻ
Ġstrasz ne
Ġstop ni
Ġzdr owy
Ġokru cie
Ġbit wie
Ġpowa Å¼nie
szt owany
Ġbla sku
Ġbrzmi aÅĤa
Ġpog rzebie
Ġpoli cji
ĠBi bliÄĻ
Ġzastrze liÄĩ
Ġwyb ory
Ġcu ch
Ġkonie czne
ĠprzyszÅĤo ÅĽci
Ġsza f
ĠMer cede
omo ÅĽci
ĠSta nÃ³w
Ġfotogra fi
Ġfotogra fie
onwoj ent
Ġlek ka
Ġpisa rz
Ġpunk tem
ĠskÅĤa daÅĤ
Ġsytua cjÄĻ
ĠUwaÅ¼ aÅĤ
ĠÅ»e gnajcie
ĠÅ»e laznej
Ġlotni czych
Ġplane cie
ĠszeÅĽÄĩdziesiÄħt ce
Ġfront owych
ĠgÅĤÄĻbo ko
rÅ¼ nÄħÅĤ
Ġrzu ciÅĤ
Ġpar Äħ
ĠnÃ³Å¼ kami
ĠzÄĻ b
Ġzgo dziÅĤ
ĠzaÅĤo Å¼onymi
Ġdow ci
Ġdow Ã³d
Ġocze ku
ĠkrÄĻ gosÅĤu
Ġpogo dÄĻ
ĠÅ¼Ã³ÅĤ tej
Ġuwa gÄĻ
Ġutrzy maÄĩ
Ġusiad ÅĤa
ĠPra wie
Ġszu kaÄĩ
Ġszty w
Ġszty let
Ġpodry giwaÅĤ
ĠOstat niÄħ
Ġfanta sty
ĠKrzy Å¼a
Ġwin dÄħ
Ġkape lu
Ġzapew ne
Ġwzro ku
Ġwzro stu
Ġskle pie
Ġstoli ku
ĠmÃ³z g
Ġciep ÅĤo
Ġcier piaÅĤ
Ġzielo nym
ĠRosja nin
ĠWietn am
ĠdzieciÄĻ cej
ĠtÅĤuszcz u
Ġsamochod u
Ġsamochod Ã³w
ĠÅĤyÅ¼ ki
ĠÅĤyÅ¼ kÄĻ
ĠSzko ÅĤy
Ġwysoko ÅĽci
Ġtortu r
Ġtortu rach
ĠjÄĻzy ku
St raÅ¼nicy
Ġsce nie
Ġwpad aÅĤo
ĠwÃ³z ka
ĠmÄħd ro
Ġkamie ÅĦ
Ġbie gn
Ġpoka zaÄĩ
Ġpomie szczenia
Ġposta ci
Ġpoleg aÅĤa
Ġpoleg ÅĤych
Ġpoczu ÅĤ
ĠpopoÅĤu dniem
Ġzawi as
Ġzaczy naÅĤ
Ġzajm owaÅĤ
Ġstru mienia
ĠpodÅĤo gi
Ġmundu r
ĠdziaÅĤ aÅĤ
ĠdziaÅĤ ka
Ġmoc no
Ġmodli t
Ġrozp ro
Ġwiad omo
Ġwiad omoÅĽÄĩ
Ġkupi ÅĤ
ĠciaÅĤ ami
ĠwziÄħ Äĩ
ĠwzglÄĻ du
ĠwzglÄĻ dem
Ġskra j
Ġotwar tym
Ġbog at
Ġbog aty
ĠJed nak
ĠsÄħsied nim
Ġzamie szka
Ġogro dzie
Ġzobaczy li
Ġtrzyma no
Ġjakiej ÅĽ
ĠamerykaÅĦski mi
ĠgÅĤoÅĽ nik
ĠsinoÅ¼Ã³ÅĤ tymi
Ġtelewiz ji
ĠczÄĻÅĽci owo
Ġsprzedaw ca
ĠwyjaÅĽ niÄĩ
Ġwszel kÄħ
Ġbrylan t
ĠChrystu sa
ĠodesÅĤa no
Wszy st
Wszy scy
gen cji
Ġsek su
ĠwnÄĻ t
Ġzwi s
Ġzja wi
Ġopi sy
Ġkat ak
Ġkor dzik
Ġnak ry
Ġnied oÅĤÄĻÅ¼
Ġdosta Äĩ
Ġzawo ÅĤaÅĤ
Ġsty lu
Ġgrze cznie
Ġprzej ÅĽÄĩ
Ġprzestrze ni
ĠukÅĤad aÅĤ
Ġad res
lach tho
ĠprzyjÄĻ ciu
ĠDru gi
Ġmuf ki
Ġmuzy ka
ĠSÅĤ owi
ĠSÅĤ owo
Ġkana py
Ġlatry ny
Ġkul mina
ĠmyÅĽle li
ĠmyÅĽle Äĩ
Ġskrzy Å¼owaniu
Ġotw ory
ĠGe neral
ĠGe orge
Ġzde cyd
Ġzamy ka
ĠpierÅĽci on
ĠpierÅĽci onek
Ġecho laliÄĻ
Ġspoj rzenia
ĠpotrzÄħs nÄħÅĤ
ĠFe vre
Ġzachwy tu
ĠskoÅĦczyÅĤ a
ĠBern ard
ĠBern arda
Ġdziewczyn ki
ĠgÅĤupi o
Ġspecjali sta
ĠzwiÄħz ku
Ġentuzja zmu
Ġgabine tu
Ġnieustan nie
Angli k
Angli cy
Ni kt
wz glÄĻ
zwo i
ĠzÅĤam anÄħ
Ġmater iaÅĤ
Ġobi ad
ĠoglÄħda nia
Ġkl ien
ĠkÅĤo pot
Ġnasz pik
Ġbrzu ch
ĠBied ny
Ġzapu kaÅĤ
Ġwyd osta
ĠoddziaÅĤ u
Ġprzygo da
Ġprzypomni aÅĤa
ĠZjedno czonych
ĠSu garbush
ĠSÅĤuch am
ĠAd ama
ĠAmery ce
ĠOtwo rzyÅĤ
ĠKlu bu
ĠRze czywiÅĽcie
Ġprak tykÄĻ
Ġbyd ÅĤa
Ġhu kiem
Ġpusty ni
ĠnajwiÄĻ ksz
Ġtara s
Ġimp resaria
Ġbaw eÅĤnia
Ġdziu ry
Ġdrob ne
Ġaksami tem
Ġzako ÅĦczyÅĤ
Ġczeko la
Ġprezy den
ĠwyobraÅ¼ aÄĩ
Ġbombardowa niem
Ġdrezde ÅĦczykÃ³w
ĠkoÅĤnie rz
ĠdorosÅĤy ch
Ġmilion Ã³w
Ġramiona ch
ĠpoÅ¼ar nej
dopod obnÄħ
Ġszybko ÅĽciÄħ
Ġburszty nie
Ġrekl amy
Ġzrezygn owaÄĩ
Ġmagnety zm
ĠEwangeli i
ĠusiÅĤu jÄħc
Ġcharakt ery
Ġpodszew kÄħ
ĠHiroszim ÄĻ
Ã¼ nf
ĠciÄħ Å¼y
ĠpÅĤu c
ĠzaÅĤ at
Ġzoo lo
Ġoka Å¼e
Ġoby wat
Ġkam erÄĻ
Ġpoci ski
ĠniektÃ³ rych
Ġdopy ty
kazu jÄħc
Ġzain teres
Ġgwo Åºdzi
Ġprzera Åºli
ĠPla cid
ĠPen syl
ĠWs chod
ĠNat han
Ġkolo rze
Ġkorzysta jÄħc
Ġminer aÅĤy
wiezi ono
Ġgod noÅĽÄĩ
Ġwoz em
Ġpodko szulek
Ġpodej rzewaÅĤ
ĠJoh na
ĠSch lachtho
ĠSÅĤu sznie
Ġmonografi i
Ġfar bÄħ
Ġmalu tki
Ġmiesza ni
Ġkabi ny
Ġkalory fera
Ġczasopis m
ĠLo komoty
Ġlegowi ska
poli s
Ġhon oru
Ġprzedmie ÅĽciu
Ġzaple cze
ĠPoÅĤu dni
ĠPozosta li
Ġnajp iÄĻk
Ġlicz bÄĻ
ĠEli ot
ĠUniwersyte tu
Ġkondu ktor
Ġtrzewi ki
ĠÅĽmiertel nie
ĠFil adelfi
Ġmarmo lady
Ġtrum ny
ĠpiÄĻÄĩdziesiÄĻ ciu
ĠpÅĤak aÄĩ
ĠpÃ³ÅĤwy s
ĠpoÅĽwiat a
Ġokoli cznoÅĽci
Ġloka lu
ĠDziewi cy
Ġartyle rzy
gryz ÅĤa
Ġpluton em
Ġfunk cjonowaÄĩ
ĠskÅĤad aÅĤa
Ġseku n
Ġprofes orem
Ġznakomi cie
ĠnieskoÅĦcz ono
ĠSkurczyby kÃ³w
Ġmanew rÃ³w
Ġfantastycznonauk owych
ĠIndiana polis
Czteroo kich
Walen cja
Ġare sztowany
Ġpami Äħ
Ġswa sty
ĠzaÅĤa d
Ġtran sp
Ġodz na
Ġnato miast
Ġbato nik
Ġpona d
ĠpobliÅ¼ u
Ġnieto pe
Ġniepraw dopodobnÄħ
Ġniepot rzeb
Ġzazwy czaj
Ġwydo by
Ġgen er
Ġgim nasty
ĠgaÅĤÄħ z
Ġulu bi
ĠuÅĽwiad omiÅĤ
ĠPale sty
Ġcent rum
ĠÅĽliz gaÅĤ
Ġprzywy kÅĤ
Ġspin ki
ĠZami ast
ĠchrzeÅĽci ja
ĠMÄĻÅ¼ czy
Ġfran cu
Ġfosfory zu
topni owo
Ġhote lu
Ġzaprag nie
ĠPoczÄħ tkowo
ĠsÄħsie dztwie
Ġskurwy sy
Ġprenum era
ĠzwÅĤaszcz a
ĠfiliÅ¼ an
ĠSchlachtho f
ĠFiladelfi i
1 2
3 5
3 9
A ch
A utor
B o
B ar
B ied
C i
D ro
D wa
D ale
D owo
D waj
F re
I stoty
K ilgore
K wartet
K obie
K onwojent
M i
M ajor
N ad
R e
S p
S Äħ
S am
S py
S ze
S topniowo
T rze
T ej
T ralfamador
W i
W ie
W ÅĤa
W tedy
W ÅĤaÅĽnie
W erner
Z ie
Z at
Z najdowaÅĤ
a c
a g
a sz
a pi
a un
b ÅĤ
b nie
b rze
b em
b er
b ki
b ÅĤa
b ru
b nego
b od
b aÄĩ
b ard
b ÅĤÄĻ
b yÅĤa
b rzmi
c kie
c one
c aÅĤem
c Äħcy
c onego
c two
c kimi
d ro
d ak
d re
d by
d nÄħ
d nych
d om
d nej
d ol
d owe
d Äħcy
d omy
e v
e nie
e ta
e bu
e sie
e szÅĤa
e lektry
e gnajcie
f il
f ery
f el
f es
f ur
f szty
f fe
f Ã¼nf
g rze
g ne
g at
g la
g nÄħ
g ÅĤu
h ard
i w
i Äĩ
i ÅĤo
i aÅĤy
i ÅĽcie
i ament
j er
j aÅĤy
j nym
j skiego
j onu
j czycy
k am
k ar
k rzy
k cie
k ary
k owej
k raw
k owych
k aÅĤem
k owaÅĤa
k Ã³d
k owany
k arÅĤat
l l
l s
l Äħ
l Ã³
l li
l ak
l ki
l owaÅĤ
l Äħd
l owaÄĩ
l noÅĽÄĩ
l nicz
l syj
m Äħ
m ki
m en
m ami
m et
n ko
n nej
n owaÅĤ
n ga
n owego
n kach
n Äħcego
n ÄħcÄħ
o k
o x
o z
o ro
o cie
o lo
o gni
p s
p ÅĤ
p iÄĻ
p nie
p le
p la
p on
p nÄħÅĤ
p ek
p ter
p era
p rzytom
p tr
p chnÄħÅĤ
p pel
q u
r na
r aÅĤa
r owy
r owi
r waÅĤ
r pu
r owej
r che
r ing
r owiec
r tne
s f
s m
s ch
s ÅĤo
s en
s nÄħ
s aÅĤy
s Äħd
s kÄĻ
s kÃ³w
s ek
s eÅĤ
s ych
s sa
s owe
s yÅĤa
s ji
s pomina
s achu
t ra
t ny
t ak
t nego
t kÄĻ
t rÄħ
t amy
t niki
t owano
t han
u li
u en
u je
u tem
u za
u pe
u jÄħcych
u szek
v arda
v ox
w ak
w za
w kÄĻ
w owej
w emu
w szÄħ
w rÃ³ciÅĤ
w ren
y ne
y mo
y dra
z aÅĤa
z nÄħ
z jÄħ
z owej
z el
z dni
z nem
z ji
z wanie
z mem
Ġ ow
Ġ Ã³w
Ġ ew
Ġ rzÄħd
Ġ rzym
Ġ vox
ÅĤ owi
ÅĤ Äħd
ÅĤ owÄħ
ie ÅĤ
ie nie
ie rÄĻ
Ġp l
Ġp ne
Ġp ta
Ġp ale
Ġp owy
Ġp ary
Ġp rÄĻ
Ġp rzyÅĤo
Ġs no
Ġs owa
Ġs era
Ġs nach
Ġs wemu
Ġw cze
Ġw ÅĽcie
Ġw et
Ġw su
Ġw sa
Ġw praw
Ġw ciÄħg
Ġw stÄĻp
Ġw ilgo
Ġw puszcz
Ġw chodziÅĤ
Ġw ciÄĻ
Ġw nios
Ġw cis
Ġw pisa
Ġw rÄĻcz
Ġw obec
Ġw trÄħ
ÄĻ cz
ÄĻ dzie
Ġn owych
Ġn Ã³g
Ġz ar
Ġz er
Ġz or
Ġz wa
Ġz ej
Ġz my
Ġz war
Ġz gra
Ġz wali
Ġz ÅĤÄħ
Ġz mienia
Ġz biera
Ġz ÅĤych
Ġz bliÅ¼
Ġz ÅĤego
Ġz noÅĽ
aÅĤ e
aÅĤ ÄĻ
aÅĤ Ã³w
aÅĤ ej
aÅĤ os
aÅĤ ek
rz ak
rz aÅĤy
rz ona
rz onych
rz aku
rz Äħcych
Äħ b
Å¼ on
Å¼ onego
Å¼ noÅĽciÄħ
Å¼ niku
cz ak
cz am
cz er
cz kÃ³w
cz nicy
cz Äħce
cz Äħcego
Ġt ow
Ġt ch
Ġt raw
Ġt wÃ³r
Ġt kli
Ġt ato
ow ÅĤo
ow od
ow emu
ow sku
ow nikÃ³w
ow nika
ch Äħ
ch no
ch ÅĤy
ch aÅĤy
ch ce
ch ot
ch aÅĤem
ch nÄĻli
ch anego
Ã³ rz
Ã³ ra
Ã³ Åºniej
Ã³ Å¼ek
Ã³ stwo
Ġd em
Ġd aÅĤa
Ġd ali
Ġd al
Ġd aj
Ġd es
Ġd wÃ³j
Ġd amy
Ġd woj
Ġd rzem
Ġd iament
Ġm ego
Ġm owa
Ġm ary
Ġm rok
ÅĽ mi
ÅĽ ÅĦ
ÅĽ wiÄĻ
ÅĽ miu
ÅĽ niÄĻty
ÅĽ rednio
Ġo cie
Ġo kiem
Ġo su
Ġo glÄħd
Ġo szu
Ġo ÅĽle
Ġo stro
Ġo kazy
Ġo ÅĤÃ³w
Ġo cknÄħÅĤ
Ġo dzieÅ¼
Ġo czami
Ġo taczajÄħc
Ġo ÅĽmiesz
Ġk Äħ
Ġk wi
Ġk ami
Ġk lo
Ġk raw
Ġk rÄħ
Ġk ran
Ġk ÅĤÄĻ
Ġk warte
Ġk rop
Ġk ÅĤÃ³
Ġk ato
go n
go dziÅĤ
iÄĻ ci
iÄĻ cie
iÄĻ gnÄħÅĤ
ra j
ra k
ra Äĩ
ra ne
ra ki
ra do
ra nicz
ra caÅĤ
ra dny
ra stÃ³w
dz aÅĤa
dz ce
dz ali
dz ajÄħc
dz ajÄħcych
Ġi na
Ġi de
Ġi den
Ġi gn
ni o
ni ny
ni Ã³w
ni Äħc
ni aÅĤa
ni cami
ni onych
ni arni
ni czych
sz Ã³w
sz er
sz kie
sz nego
sz czyÅĤ
sz kÃ³w
sz kÄħ
sz emu
sz pa
sz oÅĽÄĩ
sz yÅĤa
sz alni
Ġna t
Ġna rze
Ġna wo
Ġna szy
Ġna pi
Ġna po
Ġna bo
Ġna rod
Ġna stawi
Ġna pra
Ġna szego
Ġna pot
Ġna braÅĤa
Ġna ÅĽla
Ġna dawano
Ġna locie
Ġna klej
Ġna elektry
Ġna wza
Ġj od
Ġj ach
Ġj emu
li li
li na
li ÅĤo
li ÅĤy
li kiem
li met
st am
st kÄĻ
st rÃ³j
Ġb aÅĤ
Ġb il
Ġb al
Ġb et
Ġb eÅĤko
Ġb ÅĤÄħd
nie nie
nie poko
nie wieraÅĤa
Ġpo la
Ġpo by
Ġpo si
Ġpo ÅĤy
Ġpo dziaÅĤ
Ġpo ru
Ġpo Å¼e
Ġpo pie
Ġpo gr
Ġpo szcze
Ġpo to
Ġpo bo
Ġpo ciÄħ
Ġpo sy
Ġpo sa
Ġpo glÄħd
Ġpo rzu
Ġpo siÅĤ
Ġpo stÄĻp
Ġpo kaz
Ġpo jem
Ġpo ÅĽmie
Ġpo ÅĤam
Ġpo chodzi
Ġpo chodziÅĤ
Ġpo ciÄħga
Ġpo kazaÅĤ
Ġpo szÅĤy
Ġpo bud
Ġpo eta
ro bi
ro tnie
ro dzenie
rze kÅĤ
rze daw
rze niami
rze mija
il le
il erie
le n
le Äĩ
le ry
le nia
le tek
le bÄĻ
le piej
ci na
ci aÅĤo
ci od
ci ÅĤem
ci liÅĽmy
ci aka
am ki
am pa
am ul
am kni
Ġnie na
Ġnie ce
Ġnie Åº
Ġnie bie
Ġnie Å¼y
Ġnie ba
Ġnie tk
Ġnie spo
Ġnie daw
Ġnie poko
Ġnie wol
Ġnie bia
ĠB aÅĤ
ĠB om
ĠB rÄħ
ar ny
ar wi
ar ki
ar mi
ar kÄħ
ar sa
Ġdo ry
Ġdo rÄĻ
Ġdo kÅĤa
Ġdo tycz
Ġdo kona
Ġdo chodzi
Ġdo puszcz
Ġdo lny
Ġdo star
Ġdo ktor
Ġdo kÄħd
Ġdo znaÅĤ
Ġdo staÅĤy
ĠÅ¼ er
ĠÅ¼ ÅĤo
ĠÅ¼ alu
ĠÅ¼ onie
ka ni
ka ne
ka te
rzy Å¼
rzy dzenia
na Å¼
na Äĩ
na dy
na rod
na cje
Ã³w nieÅ¼
dzi n
dzi ny
dzi wa
dzi ÅĤy
dzi ono
dzi liÅĽmy
Ġza o
Ġza dy
Ġza by
Ġza cze
Ġza ga
Ġza ÅĽli
Ġza gu
Ġza sk
Ġza rzu
Ġza sko
Ġza daÄĩ
Ġza stawi
Ġza stÄĻp
Ġza staÅĤ
Ġza szÅĤo
Ġza rabi
Ġza daÅĤ
Ġza uf
Ġza stanowi
Ġza strzy
Ġza cis
Ġza braÅĤa
Ġza stanowiÅĤ
Ġza dzwo
Ġza stos
Ġza niepoko
er Ã³w
er re
er ek
er emo
er hard
wi aÅĤy
wi den
wi oru
wi czki
wi onych
wi alni
wi dzial
Ġje ÅĽÄĩ
Ġje dzenia
Ġje niec
Ġje chali
Ġje dzenie
Ġje zdni
at ego
at ki
at ali
at ek
czy sz
czy ny
czy my
czy sto
czy liÅĽmy
czy naÅĤ
Ġwy go
Ġwy la
Ġwy wo
Ġwy wie
Ġwy sze
Ġwy my
Ġwy gi
Ġwy ÅĽcie
Ġwy war
Ġwy daÄĩ
Ġwy siÅĤ
Ġwy stÄĻp
Ġwy chu
Ġwy jrzaÅĤ
Ġwy daÅĤ
Ġwy kona
Ġwy chodziÅĤ
Ġwy gÅĤo
Ġwy ciÄħgu
Ġwy trze
Ġwy nosiÅĤ
Ġwy pisa
Ġwy kÅĤada
Ġwy jeÅ¼dÅ¼
Ġwy chodziÄĩ
Ġwy dech
Ġwy ksztaÅĤ
Ġwy bieraÄĩ
Ġwy stÄħpie
Ġwy lÄħd
Ġwy zwanie
ÅĤa szcze
Ġst er
Ġst wo
Ġst ÅĤu
Ġst ale
Ġst Ã³ÅĤ
Ġst ew
Ġst et
Ġst ere
Ġst ron
Ġst uk
Ġst rÃ³j
cie m
cie Äĩ
cie liÅĽmy
Ġg rz
Ġg nia
Ġg ale
Ġg ary
Ġg et
Ġg nieÅ¼
Ġg arni
Ġg ieÅĤ
Ġg aÅĤÄĻ
Ġg lebÄĻ
Ġprze t
Ġprze st
Ġprze wi
Ġprze ÅĤo
Ġprze by
Ġprze pi
Ġprze siÄħ
Ġprze jÄĻ
Ġprze nik
Ġprze bra
Ġprze szka
Ġprze pis
Ġprze stÄĻp
Ġprze raÅ¼
Ġprze staÅĤ
Ġprze ÅĤam
Ġprze kro
Ġprze sunÄħÅĤ
Ġprze nosi
Ġprze gro
Ġprze raÅ¼ajÄħc
Ġprze mÃ³w
Ġprze kazaÅĤ
Ġprze praszam
Ġprze laty
Ġprze niesiono
Ġprze gryzÅĤa
Ġu ci
Ġu wi
Ġu czy
Ġu ÅĤo
Ġu ry
Ġu ru
Ġu ma
Ġu cho
Ġu czÄħ
Ġu cha
Ġu dali
Ġu jrzaÅĤ
Ġu sÅĤu
Ġu bezpie
Ġu poko
Ġu rat
Ġu mysÅĤ
Ġu mysÅĤu
Ġu czucie
Ġu siÄħÅĽÄĩ
ÅĤo tniki
dy n
dy ni
dy nie
dy waÄĩ
dy kujÄĻ
dy dat
ĠP ÅĤy
ĠP rowa
ĠP amiÄĻ
ĠP res
ĠP ine
ĠP omy
ĠP ÅĤakaÅĤ
ĠP ÅĤaszcze
Ġa pa
Ġa uf
Ġa pat
Ġa pel
da n
da rzy
da na
da cy
da jÄħc
da pter
owie ÅĽÄĩ
or ny
or ki
or ia
dzie Å¼y
dzie lajÄħc
ĠW z
ĠW ar
ĠW al
ĠW es
ĠW in
ĠW staÅĤ
ĠW ÅĤoÅ¼yÅĤ
ĠW cale
ĠW rÃ³ciÅĤ
ĠW hi
ĠW oj
wa ni
wa nymi
wa nii
ĠbyÅĤ ych
no ty
no zie
no is
no szÄħc
no ll
re b
re k
re ny
re na
re cja
re alu
la ny
la ga
la zna
la czego
mi aÅĤem
ry w
Ġto rze
Ġto ale
Ġto bie
Ġto nÄĻ
Ġto nem
Ġto czyÅĤa
Ġc em
Ġc yli
Ġc entÃ³w
Ġc owbo
Ġc eremo
wo jÄħ
wo ÅĽciÄħ
Ġod k
Ġod er
Ġod czy
Ġod da
Ġod dzie
Ġod po
Ġod waÅ¼
Ġod daÄĩ
Ġod gry
Ġod chy
Ġod nale
Ġod czytaÅĤ
Ġod skaki
Ġod dech
Ġod dziale
Ġod wagi
Ġod byÅĤa
Ġcz wo
Ġcz oÅĤ
Ġcz wÃ³r
Ġcz tero
Ġcz oÅĤo
ĠN ad
ĠN an
ĠN ale
ĠN um
ÅĦ ska
ÅĦ skim
ĠT im
ĠT ym
ĠT atu
ĠT rzymaÅĤ
ĠT rzej
ĠT alerz
Ġko sz
Ġko ta
Ġko ÅĤy
Ġko ce
Ġko pi
Ġko py
Ġko cha
Ġko lÄĻ
Ġko stki
Ġko chana
Ġko lacjÄĻ
ĠÅĽ cie
ĠÅĽ nia
ĠÅĽ ciÄħg
ĠÅĽ miaÅĤ
Ġprzy m
Ġprzy wi
Ġprzy bi
Ġprzy wil
Ġprzy zna
Ġprzy glÄħdaÅĤ
Ġprzy trzy
Ġprzy jm
Ġprzy jÄĻcie
Ġprzy kro
Ġprzy chodziÅĤ
Ġprzy sÅĤa
Ġprzy glÄħdali
Ġprzy znaÅĤ
Ġprzy szÅĤy
Ġprzy nieÅĽli
Ġprzy niosÅĤa
Ġprzy ÅĽpie
Ġprzy cisk
Ġprzy zwoi
Ġprzy czyny
ty w
ty fik
si u
si ÅĤo
Ġro bie
Ġro kiem
Ġro bo
Ġro sÅĤy
Ġro man
Ġro lki
kie t
cy nacje
Ġmi r
Ġmi nÄħÅĤ
Ġmi tÃ³w
Ġmi kro
Ġmi jaÅĤ
Ġmi neral
Ġmi strz
ad ÅĤ
ad ÄĻ
ad ÅĤa
ad ek
ta sa
ta jcie
ta rzem
Ġty pu
Ġty lnym
nia rz
nia nia
nia jÄħ
ÅĤy by
ÅĤy nÄħÄĩ
as ki
as ÅĤo
as ÅĤy
as sachu
Ġsp aÅĤ
Ġsp or
Ġsp ali
Ġsp ada
Ġsp eÅĤni
ob rze
ob em
ĠZ d
ĠZ u
ĠZ as
ĠZ wie
ĠZ aÅĤo
ĠZ az
ĠZ oba
ĠZ osta
ĠZ gÅĤo
ĠZ gro
ĠZ resztÄħ
ĠZ robiÅĤ
ĠZ daje
ĠZ najdowaÅĤ
ĠZ wiÄħz
ĠZ wiadowcy
ĠZ amkni
wie c
wie j
wie nie
wie ci
wie nia
wie rzyÅĤ
ÅĽci ÅĤo
ÅĽci owych
ÅĽci ciel
ru s
ru ch
ru Å¼yÅĤ
ru dno
ru nku
Ġch i
Ġch u
Ġch od
Ġch owaÅĤ
Ġch cÄħ
Ġch ÅĤÃ³d
Ġsz ar
Ġsz ÅĤa
Ġsz an
Ġsz pi
Ġsz et
Ġsz nu
Ġsz uf
Ġsz ok
Ġsz ampa
Ġni by
Ġni ski
Ġni skich
Ġni kim
ĠD u
ĠD er
ĠD wie
ĠD ale
ĠD ali
ĠD ost
ĠD aj
ĠD rzwi
ĠD latego
ĠD ela
ĠD arwi
Ġgo ry
Ġgo ÅĽÄĩ
Ġgo rÄħ
Ġgo ÅĤÄħ
Ġgo ng
Ġgo dÅĤo
Ġgo liÄĩ
Ġgo rzej
raz iÅĤ
Ġwo d
Ġwo li
Ġwo da
Ġwo sk
cze li
cze ÅĦ
mie li
mie waÅĤ
mie rzyÅĤ
mie nieni
ĠM nie
ĠM od
ĠM al
ĠM yli
ĠM ont
ĠM assachu
Ġpod wo
Ġpod pi
Ġpod rÄĻ
Ġpod jÄĻ
Ġpod trzy
Ġpod wÃ³r
Ġpod wyÅ¼
Ġpod kowy
Ġpod niosÅĤa
Ġpod dano
Ġpod jadali
Ġpowie dz
Ġpowie szono
Ġpowie siÄĩ
Ġpowie dziano
Ġtak Äħ
Ġmu ze
je ra
je kt
je chaÅĤ
je chaÅĤa
ce k
ce ni
ce ro
ce wa
ce sie
ce syj
ĠC od
ĠC Ã³Å¼
ĠC aÅĤÄħ
Ġte ni
Ġte atru
Ġte raÅºniej
ÅĤu ma
bi li
bi na
om os
om et
te lu
te ran
te rom
te sik
ja Äĩ
ĠJ akiÅĽ
ĠS en
ĠS an
ĠS taÅĤ
ĠS wego
ĠS kÅĤad
ĠS kali
ĠS ina
ĠS kÄħd
ĠS aun
ĠS qu
ĠS iÄĻgnÄħÅĤ
ĠS wojÄħ
Ġwie cie
Ġwie ÅĽÄĩ
Ġwie Å¼y
Ġwie jski
rÃ³ l
rÃ³ bu
ale dwie
ale Å¼nie
Åº dzie
Åº nia
Åº niÄĻ
owy wali
im a
Ġmo rzu
Ġmo rzem
Ġmo tor
Ġmo del
Ġmo gÅĤem
Ġmo telu
sze niu
ĠA l
ĠA r
ĠA fry
owi ÅĤ
Ġco kolwiek
ĠO k
ĠO czy
ĠO fi
ĠO ba
ĠO zna
ĠO gÃ³l
ĠO cknÄħÅĤ
ĠO kazaÅĤo
ĠNie bie
os a
os ko
os ob
Ġwoj nach
Ġf ra
Ġf ak
Ġf as
Ġf orma
Ġf lami
Ġf rÄĻdz
Ġf laga
ĠK ru
ĠK in
ĠK enne
ĠK noll
Ġob c
Ġob wie
Ġob ma
Ġob rÄĻ
Ġob ol
Ġob Ã³z
Ġob jÄħÅĤ
Ġob rzydzenia
pi j
pi ÅĤ
pi onego
Ġroz ko
Ġroz ÅĤo
Ġroz bi
Ġroz sze
Ġroz ba
Ġroz dÄĻ
Ġroz kÅĤa
Ġroz eÅĽ
Ġroz czu
Ġroz kaz
Ġroz jem
Ġroz pra
Ġroz pÄĻ
Ġroz brz
Ġroz wiÄħzy
Ġroz ryw
ca l
Ġma nie
Ġma ci
Ġma cie
Ġma ga
Ġma jÄħcy
Ġma chi
zy su
zy jnÄħ
rza nym
ma dzenie
Ġjego mo
Ġmie nia
Ġmie ÅĽciÅĤ
Ġmie ÅĽciÅĤa
Ġwi Äħ
Ġwi na
Ġwi dzi
Ġwi no
Ġwi dzÄħc
Ġwi atr
Ġwi dywaÅĤ
Ġwi tajcie
Ġswo imi
Ġswo bod
bie go
bie gÅĤ
bie raÅĤ
Ġka wy
Ġka pra
Ġka ste
Ġka zali
Ġka fel
Ġka zaÅĤa
Ġka wioru
Å¼e Äĩ
od Ã³w
od Åº
od rÃ³Å¼
od wagÄĻ
wy m
wy ciÄĩ
wy raÅºniej
Ġze gary
Ġze pchniÄĻ
Ġze chce
tu ÅĤ
tu jÄħc
Ġlu k
Ġlu ne
Ġlu bi
Ġlu tego
Ġlu biÅĤ
Ġlu bia
ĠR e
ĠR az
ĠR Ã³Å¼
nÄħÅĤ em
nÄĻ dz
Å¼y ny
Å¼y nka
Ġczas ach
Ġpa czki
Ġpa chni
Ġpa czka
Ġpa chami
Ġpa uza
gi a
gi cznego
ĠI n
ĠI le
ĠI nny
ĠI nni
ĠI lli
pie ÅĦ
ga li
Ġzna Äĩ
Ġzna ny
Ġzna nej
cj ami
cj an
um aty
Ġin na
Ġin nÄħ
Ġin stru
Ġpra ca
Ġpra sÄĻ
Ġczy sto
Ġczy taÅĤa
Ġczy telnik
Ġop ra
Ġop arÅĤ
Ġop owiada
Ġop anowaÄĩ
Ġop tycznej
Ġpie c
ĠL ot
ĠL os
ĠL ance
za ch
za cji
ĠNa sz
ĠNa rod
ĠNa rodzenie
lo gii
lo giÄĻ
ez e
niej si
niej szy
niej sze
niej szymi
Ġprzez roczy
czyÅĤ o
ali ÅĤ
ali ÅĽmy
Ġrze ka
Ġrze kÄĻ
Ġrze zi
Ġle mo
Ġle zie
Ġle wych
Ġle ciaÅĤy
to ra
to stra
Ġsam ej
Ġsam ych
Ġsam ol
Ġsam ymi
po ki
po ty
po pular
po ÅĽrednio
ek su
bo je
bo ga
bo gat
al t
al nie
al ny
al aÅĤa
al aÅĤy
Ġwszyst kimi
szcz Äħc
ĠÅ¼y ra
ĠÅ¼y wi
ĠÅ¼y czyÅĤ
ĠÅ¼y rafy
ĠÅ¼y letek
ut h
ut Äħ
ut kie
Ġra sy
Ġra dÄĻ
