{
  "version": "1.0",
  "truncation": null,
  "padding": null,
  "added_tokens": [
    {
      "id": 0,
      "content": "[PAD]",
      "single_word": false,
      "lstrip": false,
      "rstrip": false,
      "normalized": false,
      "special": true
    },
    {
      "id": 1,
      "content": "[UNK]",
      "single_word": false,
      "lstrip": false,
      "rstrip": false,
      "normalized": false,
      "special": true
    },
    {
      "id": 2,
      "content": "[CLS]",
      "single_word": false,
      "lstrip": false,
      "rstrip": false,
      "normalized": false,
      "special": true
    },
    {
      "id": 3,
      "content": "[SEP]",
      "single_word": false,
      "lstrip": false,
      "rstrip": false,
      "normalized": false,
      "special": true
    },
    {
      "id": 4,
      "content": "[MASK]",
      "single_word": false,
      "lstrip": false,
      "rstrip": false,
      "normalized": false,
      "special": true
    }
  ],
  "normalizer": null,
  "pre_tokenizer": {
    "type": "ByteLevel",
    "add_prefix_space": false,
    "trim_offsets": true,
    "use_regex": true
  },
  "post_processor": {
    "type": "ByteLevel",
    "add_prefix_space": true,
    "trim_offsets": false,
    "use_regex": true
  },
  "decoder": {
    "type": "ByteLevel",
    "add_prefix_space": true,
    "trim_offsets": true,
    "use_regex": true
  },
  "model": {
    "type": "BPE",
    "dropout": null,
    "unk_token": null,
    "continuing_subword_prefix": null,
    "end_of_word_suffix": null,
    "fuse_unk": false,
    "byte_fallback": false,
    "vocab": {
      "[PAD]": 0,
      "[UNK]": 1,
      "[CLS]": 2,
      "[SEP]": 3,
      "[MASK]": 4,
      "!": 5,
      "\"": 6,
      "#": 7,
      "$": 8,
      "%": 9,
      "&": 10,
      "'": 11,
      "(": 12,
      ")": 13,
      "*": 14,
      "+": 15,
      ",": 16,
      "-": 17,
      ".": 18,
      "/": 19,
      "0": 20,
      "1": 21,
      "2": 22,
      "3": 23,
      "4": 24,
      "5": 25,
      "6": 26,
      "7": 27,
      "8": 28,
      "9": 29,
      ":": 30,
      ";": 31,
      "<": 32,
      "=": 33,
      ">": 34,
      "?": 35,
      "@": 36,
      "A": 37,
      "B": 38,
      "C": 39,
      "D": 40,
      "E": 41,
      "F": 42,
      "G": 43,
      "H": 44,
      "I": 45,
      "J": 46,
      "K": 47,
      "L": 48,
      "M": 49,
      "N": 50,
      "O": 51,
      "P": 52,
      "Q": 53,
      "R": 54,
      "S": 55,
      "T": 56,
      "U": 57,
      "V": 58,
      "W": 59,
      "X": 60,
      "Y": 61,
      "Z": 62,
      "[": 63,
      "]": 64,
      "^": 65,
      "_": 66,
      "a": 67,
      "b": 68,
      "c": 69,
      "d": 70,
      "e": 71,
      "f": 72,
      "g": 73,
      "h": 74,
      "i": 75,
      "j": 76,
      "k": 77,
      "l": 78,
      "m": 79,
      "n": 80,
      "o": 81,
      "p": 82,
      "q": 83,
      "r": 84,
      "s": 85,
      "t": 86,
      "u": 87,
      "v": 88,
      "w": 89,
      "x": 90,
      "y": 91,
      "z": 92,
      "|": 93,
      "~": 94,
      "¡": 95,
      "¢": 96,
      "¤": 97,
      "¥": 98,
      "¦": 99,
      "§": 100,
      "¨": 101,
      "©": 102,
      "ª": 103,
      "«": 104,
      "®": 105,
      "¯": 106,
      "°": 107,
      "±": 108,
      "²": 109,
      "³": 110,
      "´": 111,
      "¶": 112,
      "¸": 113,
      "¹": 114,
      "º": 115,
      "»": 116,
      "¼": 117,
      "½": 118,
      "¾": 119,
      "¿": 120,
      "Â": 121,
      "Ã": 122,
      "Ä": 123,
      "Å": 124,
      "Ì": 125,
      "Î": 126,
      "Ï": 127,
      "Ù": 128,
      "á": 129,
      "â": 130,
      "ð": 131,
      "ĉ": 132,
      "Ċ": 133,
      "č": 134,
      "Ġ": 135,
      "Ģ": 136,
      "ģ": 137,
      "Ĥ": 138,
      "ĥ": 139,
      "Ħ": 140,
      "ħ": 141,
      "Ĩ": 142,
      "ĩ": 143,
      "Ī": 144,
      "ī": 145,
      "Ĭ": 146,
      "ĭ": 147,
      "Į": 148,
      "į": 149,
      "İ": 150,
      "Ĳ": 151,
      "Ĵ": 152,
      "ĵ": 153,
      "Ķ": 154,
      "ĸ": 155,
      "Ĺ": 156,
      "ĺ": 157,
      "Ļ": 158,
      "ļ": 159,
      "Ľ": 160,
      "ľ": 161,
      "Ŀ": 162,
      "ŀ": 163,
      "Ł": 164,
      "ł": 165,
      "Ń": 166,
      "ie": 167,
      "čĊ": 168,
      "ÅĤ": 169,
      "ÄĻ": 170,
      "Ġp": 171,
      "Ġs": 172,
      "Ġw": 173,
      "Ġn": 174,
      "Äħ": 175,
      "Ġz": 176,
      "Ġm": 177,
      "rz": 178,
      "Å¼": 179,
      "cz": 180,
      "Ġt": 181,
      "âĢ": 182,
      "iÄĻ": 183,
      "aÅĤ": 184,
      "ch": 185,
      "Ġd": 186,
      "Ġj": 187,
      "ÅĽ": 188,
      "âĢĵ": 189,
      "ow": 190,
      "Ġo": 191,
      "st": 192,
      "ra": 193,
      "sz": 194,
      "nie": 195,
      "am": 196,
      "Ã³": 197,
      "dz": 198,
      "Äĩ": 199,
      "Ġna": 200,
      "Ġk": 201,
      "ĠsiÄĻ": 202,
      "Ġpo": 203,
      "Ġi": 204,
      "ni": 205,
      "ro": 206,
      "Ġb": 207,
      "go": 208,
      "le": 209,
      "na": 210,
      "Ġnie": 211,
      "ci": 212,
      "Ġje": 213,
      "rze": 214,
      "ak": 215,
      "ÅĤa": 216,
      "Å¼e": 217,
      "Ġdo": 218,
      "li": 219,
      "Ġza": 220,
      "em": 221,
      "ĠâĢĵ": 222,
      "ym": 223,
      "ar": 224,
      "wi": 225,
      "rzy": 226,
      "ĠÅ¼e": 227,
      "Ġu": 228,
      "ka": 229,
      "ne": 230,
      "ÅĤo": 231,
      "ko": 232,
      "Ġc": 233,
      "Ġa": 234,
      "jÄħ": 235,
      "czy": 236,
      "dzi": 237,
      "Ġg": 238,
      "aÅĤa": 239,
      "je": 240,
      "Ġwy": 241,
      "wa": 242,
      "dy": 243,
      "ny": 244,
      "la": 245,
      "ĠN": 246,
      "Ġto": 247,
      "Ġprze": 248,
      "Ġmo": 249,
      "re": 250,
      "ĠP": 251,
      "ta": 252,
      "da": 253,
      "Ġod": 254,
      "cie": 255,
      "cze": 256,
      "ki": 257,
      "dzie": 258,
      "ce": 259,
      "ĠC": 260,
      "po": 261,
      "owa": 262,
      "Ġmi": 263,
      "ĠA": 264,
      "Ġby": 265,
      "ob": 266,
      "no": 267,
      "ĠT": 268,
      "Ġte": 269,
      "ĠW": 270,
      "wo": 271,
      "ry": 272,
      "Ġch": 273,
      "by": 274,
      "ĠM": 275,
      "nÄħ": 276,
      "ia": 277,
      "Ġjak": 278,
      "Ġro": 279,
      "Ã³w": 280,
      "Ġprzy": 281,
      "te": 282,
      "ĠJ": 283,
      "sta": 284,
      "jÄĻ": 285,
      "Ġko": 286,
      "nia": 287,
      "Ġmnie": 288,
      "ku": 289,
      "Ġni": 290,
      "ru": 291,
      "Ġsz": 292,
      "Ġjej": 293,
      "jÄħc": 294,
      "ty": 295,
      "ÅĽci": 296,
      "Ġpa": 297,
      "Ġjest": 298,
      "wie": 299,
      "mie": 300,
      "Ġtak": 301,
      "si": 302,
      "ĠNie": 303,
      "owie": 304,
      "szy": 305,
      "ÅĦ": 306,
      "to": 307,
      "Ġcz": 308,
      "my": 309,
      "Ġco": 310,
      "ĠS": 311,
      "ÅĤy": 312,
      "bi": 313,
      "er": 314,
      "ja": 315,
      "tÃ³": 316,
      "nÄĻ": 317,
      "raz": 318,
      "ĠZ": 319,
      "Å¼y": 320,
      "mi": 321,
      "kie": 322,
      "Ġpod": 323,
      "ĠD": 324,
      "ĠB": 325,
      "ĠktÃ³": 326,
      "Ġwie": 327,
      "ami": 328,
      "Ġty": 329,
      "bie": 330,
      "Ġma": 331,
      "Ġdz": 332,
      "Ġroz": 333,
      "pa": 334,
      "ĠO": 335,
      "sze": 336,
      "lu": 337,
      "rÄĻ": 338,
      "rÃ³": 339,
      "ÅĽÄĩ": 340,
      "de": 341,
      "Ġgo": 342,
      "ÅĤu": 343,
      "ca": 344,
      "Ġst": 345,
      "ĠÅĽ": 346,
      "cy": 347,
      "lo": 348,
      "as": 349,
      "pra": 350,
      "Ġ-": 351,
      "Ġspo": 352,
      "Ġale": 353,
      "cho": 354,
      "ĠG": 355,
      "Ġmu": 356,
      "ga": 357,
      "Ġci": 358,
      "wia": 359,
      "obie": 360,
      "tu": 361,
      "Åº": 362,
      "aÅĤo": 363,
      "ĠK": 364,
      "ĠCh": 365,
      "ĠJe": 366,
      "en": 367,
      "ma": 368,
      "ÅĤam": 369,
      "ĠjÄħ": 370,
      "Ġob": 371,
      "nym": 372,
      "pie": 373,
      "pi": 374,
      "ĠPo": 375,
      "zy": 376,
      "aÅĤam": 377,
      "Ġjego": 378,
      "kÄĻ": 379,
      "wy": 380,
      "Ġtym": 381,
      "ej": 382,
      "owi": 383,
      "ĠmÃ³": 384,
      "Ġwi": 385,
      "uÅ¼": 386,
      "ĠgÅĤ": 387,
      "Ġpra": 388,
      "an": 389,
      "ri": 390,
      "uje": 391,
      "iedy": 392,
      "ĠR": 393,
      "Ġpowie": 394,
      "Ġra": 395,
      "cha": 396,
      "Äħd": 397,
      "Ġpro": 398,
      "do": 399,
      "Ġf": 400,
      "im": 401,
      "su": 402,
      "ĠNa": 403,
      "ĠTo": 404,
      "eÅĽ": 405,
      "dÄĻ": 406,
      "ez": 407,
      "szyst": 408,
      "ĠL": 409,
      "or": 410,
      "ba": 411,
      "et": 412,
      "aÅĤy": 413,
      "Ġdzie": 414,
      "nych": 415,
      "nego": 416,
      "mu": 417,
      "Ġmie": 418,
      "Ġtego": 419,
      "niej": 420,
      "Äħc": 421,
      "Ġze": 422,
      "Ġgdy": 423,
      "szÄĻ": 424,
      "owo": 425,
      "lko": 426,
      "Ġcie": 427,
      "Ġpot": 428,
      "nÄħÅĤ": 429,
      "ek": 430,
      "Ġle": 431,
      "Ġsobie": 432,
      "aÅĤem": 433,
      "ĠI": 434,
      "Ġdla": 435,
      "czÄĻ": 436,
      "ĠH": 437,
      "Ġsam": 438,
      "ĠÅ¼eby": 439,
      "nej": 440,
      "sy": 441,
      "ÅĽli": 442,
      "Ġpie": 443,
      "gi": 444,
      "Ġswo": 445,
      "ego": 446,
      "Ġraz": 447,
      "Ġin": 448,
      "owy": 449,
      "Ġwszyst": 450,
      "ona": 451,
      "Ġbar": 452,
      "Ġzna": 453,
      "Ġja": 454,
      "gl": 455,
      "on": 456,
      "sa": 457,
      "ĠbÄĻ": 458,
      "za": 459,
      "kiem": 460,
      "trz": 461,
      "du": 462,
      "owaÄĩ": 463,
      "Ġjed": 464,
      "Ġka": 465,
      "il": 466,
      "Ġsp": 467,
      "ew": 468,
      "cza": 469,
      "ÅĽmie": 470,
      "ĠjuÅ¼": 471,
      "szcze": 472,
      "Ġbo": 473,
      "ÅĽcie": 474,
      "Ġmoje": 475,
      "Ġprzez": 476,
      "Ġwz": 477,
      "Ġsta": 478,
      "ĠrÄĻ": 479,
      "Ġmog": 480,
      "Ġkiedy": 481,
      "ĠZa": 482,
      "dzo": 483,
      "ĠwiÄĻ": 484,
      "ciÄħ": 485,
      "Ġczy": 486,
      "mo": 487,
      "cia": 488,
      "praw": 489,
      "âĢ¦": 490,
      "ÅĤem": 491,
      "Ġtylko": 492,
      "..": 493,
      "ujÄĻ": 494,
      "Ġsie": 495,
      "Å¼a": 496,
      "ĉĉ": 497,
      "sk": 498,
      "niu": 499,
      "Ġlu": 500,
      "nÄĻÅĤa": 501,
      "Ġzro": 502,
      "ji": 503,
      "Ġcho": 504,
      "dziaÅĤ": 505,
      "ĠciÄĻ": 506,
      "Ġsk": 507,
      "rw": 508,
      "Ġmy": 509,
      "lÄĻ": 510,
      "Ġodp": 511,
      "sza": 512,
      "czu": 513,
      "ĠE": 514,
      "ĠbyÅĤo": 515,
      "bo": 516,
      "Ġno": 517,
      "ĠmÃ³wi": 518,
      "Ġmam": 519,
      "cÄĻ": 520,
      "ĠÅ¼y": 521,
      "Ã³ÅĤ": 522,
      "czego": 523,
      "Ġku": 524,
      "zna": 525,
      "ĠAle": 526,
      "âĢŀ": 527,
      "Ġwo": 528,
      "nt": 529,
      "Ġda": 530,
      "ĠMo": 531,
      "ĠktÃ³re": 532,
      "ĠU": 533,
      "ĠTak": 534,
      "niÄĻ": 535,
      "ĠgÅĤow": 536,
      "Ġbez": 537,
      "bym": 538,
      "Ã³j": 539,
      "owaÅĤ": 540,
      "âĢĿ": 541,
      "kÄħ": 542,
      "Ġzam": 543,
      "stia": 544,
      "ĠAna": 545,
      "rzu": 546,
      "ĠJest": 547,
      "Ġh": 548,
      "nu": 549,
      "Ġdob": 550,
      "Ġnaj": 551,
      "ÅĽmy": 552,
      "ĠmoÅ¼e": 553,
      "ĠbyÅĤ": 554,
      "ĠCo": 555,
      "Ġoczy": 556,
      "ristia": 557,
      "ĠbÄĻdzie": 558,
      "pu": 559,
      "Ġczas": 560,
      "czo": 561,
      "ska": 562,
      "Ġprzed": 563,
      "io": 564,
      "niem": 565,
      "Ġtu": 566,
      "Ġjeszcze": 567,
      "cji": 568,
      "Ġpy": 569,
      "dze": 570,
      "at": 571,
      "al": 572,
      "ĠwÅĤa": 573,
      "ÅĽl": 574,
      "Ġsze": 575,
      "Po": 576,
      "ĠcaÅĤ": 577,
      "Ġdzi": 578,
      "ĠktÃ³ry": 579,
      "ĠbyÅĤa": 580,
      "Ġre": 581,
      "ÅĽnie": 582,
      "waÅĤ": 583,
      "Ġzap": 584,
      "Ġbardzo": 585,
      "Ġzrobi": 586,
      "zu": 587,
      "ĠniÄħ": 588,
      "Ġniej": 589,
      "ĠWy": 590,
      "eÅĤ": 591,
      "rÄħ": 592,
      "ÅĽmiech": 593,
      "Ġchwi": 594,
      "Ġsto": 595,
      "ĠgÅĤo": 596,
      "ĠF": 597,
      "rowa": 598,
      "ĠcoÅĽ": 599,
      "sie": 600,
      "Ġzo": 601,
      "Ġpoz": 602,
      "ĠâĢŀ": 603,
      "Ġniego": 604,
      "sia": 605,
      "cu": 606,
      "Äħda": 607,
      "ĠJa": 608,
      "ĠPrze": 609,
      "tem": 610,
      "Ġta": 611,
      "ĠGre": 612,
      "now": 613,
      "dziaÅĤa": 614,
      "ĠChristia": 615,
      "sto": 616,
      "cja": 617,
      "rÃ³ci": 618,
      "noÅĽci": 619,
      "dzÄĻ": 620,
      "nio": 621,
      "gÅĤ": 622,
      "Ġla": 623,
      "Ġwe": 624,
      "jem": 625,
      "czÄħ": 626,
      "Ġtwa": 627,
      "rza": 628,
      "sko": 629,
      "ĠGrey": 630,
      "ĠsÄħ": 631,
      "tnie": 632,
      "Ġsiebie": 633,
      "Ġpew": 634,
      "el": 635,
      "Nie": 636,
      "Ġszy": 637,
      "Ġpani": 638,
      "kÅĤa": 639,
      "ĠÅĤ": 640,
      "Ġchci": 641,
      "dnie": 642,
      "cznie": 643,
      "chodzi": 644,
      "ich": 645,
      "wet": 646,
      "nik": 647,
      "dzy": 648,
      "ĠdÅĤo": 649,
      "gdy": 650,
      "Ġteraz": 651,
      "ĠteÅ¼": 652,
      "fi": 653,
      "Ġzd": 654,
      "rÃ³b": 655,
      "siÄĻ": 656,
      "lej": 657,
      "Ġmusi": 658,
      "dzieÄĩ": 659,
      "iÄĻk": 660,
      "oba": 661,
      "owaÅĤa": 662,
      "Ġpow": 663,
      "Ġwszystko": 664,
      "rzym": 665,
      "Ġkobie": 666,
      "Ġnad": 667,
      "art": 668,
      "Ã³Å¼": 669,
      "rÃ³w": 670,
      "glÄħda": 671,
      "in": 672,
      "Ġspoj": 673,
      "Ġsy": 674,
      "Ġswoje": 675,
      "spo": 676,
      "liÅĽmy": 677,
      "js": 678,
      "Ġde": 679,
      "ĠÅ¼": 680,
      "Ġrze": 681,
      "ĠbyÄĩ": 682,
      "ĠMa": 683,
      "ĠJak": 684,
      "chy": 685,
      "Ġbi": 686,
      "jÄħce": 687,
      "Ġjestem": 688,
      "Ġnim": 689,
      "Ġten": 690,
      "Ġbu": 691,
      "Ġdrz": 692,
      "gÄĻ": 693,
      "Ġpan": 694,
      "Ġli": 695,
      "Ġsamo": 696,
      "ĠDo": 697,
      "Ġusta": 698,
      "co": 699,
      "gu": 700,
      "sty": 701,
      "Ġich": 702,
      "ĠRo": 703,
      "ĠÅ": 704,
      "Ġba": 705,
      "Ġpu": 706,
      "ĠÅĤa": 707,
      "Ġpraw": 708,
      "ĠuÅĽmiech": 709,
      "Ġrobi": 710,
      "Ġcze": 711,
      "nak": 712,
      "ju": 713,
      "ĠWie": 714,
      "Ġtwo": 715,
      "Ġsu": 716,
      "dÅĤ": 717,
      "siÄħ": 718,
      "cjÄĻ": 719,
      "ĠNi": 720,
      "sp": 721,
      "ĠCzy": 722,
      "ĠwÅĤo": 723,
      "bra": 724,
      "amy": 725,
      "stÄĻ": 726,
      "Ġstro": 727,
      "ski": 728,
      "ĠmÄĻ": 729,
      "Ġpi": 730,
      "Ġtam": 731,
      "Ġog": 732,
      "waÅ¼": 733,
      "Ġe": 734,
      "ÅĤÄħ": 735,
      "Ġpyta": 736,
      "emu": 737,
      "dza": 738,
      "stu": 739,
      "czyÄĩ": 740,
      "trzym": 741,
      "...": 742,
      "tk": 743,
      "Ġ2": 744,
      "Na": 745,
      "Ġmiejs": 746,
      "Ġon": 747,
      "Ġdrzwi": 748,
      "owe": 749,
      "Ġwar": 750,
      "sÅĤ": 751,
      "ĠMi": 752,
      "owia": 753,
      "ĠDz": 754,
      "ĠgÅĤowÄħ": 755,
      "waÄĩ": 756,
      "ĠwiÄĻc": 757,
      "ĠsÅĤ": 758,
      "prawdÄĻ": 759,
      "dziej": 760,
      "Ch": 761,
      "dni": 762,
      "ĠkoÅĦ": 763,
      "Ġspra": 764,
      "Ġtej": 765,
      "tka": 766,
      "we": 767,
      "ĠBy": 768,
      "Ġpotem": 769,
      "Ã³r": 770,
      "jÄħcy": 771,
      "Ġop": 772,
      "âĢĻ": 773,
      "mia": 774,
      "kaz": 775,
      "bu": 776,
      "tÄĻ": 777,
      "nÄħÄĩ": 778,
      "ciÄħg": 779,
      "es": 780,
      "Ġona": 781,
      "cej": 782,
      "Ġtakie": 783,
      "ck": 784,
      "Ġnic": 785,
      "wczy": 786,
      "wiÄħ": 787,
      "Ġwzro": 788,
      "Ġru": 789,
      "Ġot": 790,
      "chu": 791,
      "Ġciebie": 792,
      "ĠCz": 793,
      "stÄĻp": 794,
      "Ġczym": 795,
      "tam": 796,
      "Ġdomu": 797,
      "ram": 798,
      "ĠOd": 799,
      "ĠPa": 800,
      "dziÄĩ": 801,
      "Ġnas": 802,
      "dam": 803,
      "noÅĽÄĩ": 804,
      "Ġdu": 805,
      "Ġ1": 806,
      "ĠdÅĤu": 807,
      "Ġnawet": 808,
      "ĠjesteÅĽ": 809,
      "ĠÅĽmie": 810,
      "Ġjednak": 811,
      "ĠkaÅ¼": 812,
      "ony": 813,
      "glÄħd": 814,
      "ĠPrzy": 815,
      "dÅº": 816,
      "ĠÅĽwia": 817,
      "ĠMu": 818,
      "Ġok": 819,
      "Ġkil": 820,
      "Ġpowi": 821,
      "Ġpal": 822,
      "Ġos": 823,
      "ter": 824,
      "gie": 825,
      "ciu": 826,
      "Ġwiem": 827,
      "Ġgdzie": 828,
      "Ġpierw": 829,
      "chÄĻ": 830,
      "wsze": 831,
      "ĠmiaÅĤ": 832,
      "Ġrodzi": 833,
      "wam": 834,
      "Ġzak": 835,
      "szka": 836,
      "Ġkie": 837,
      "tor": 838,
      "ĠmnÄħ": 839,
      "Ġszyb": 840,
      "Ġczu": 841,
      "ĠLu": 842,
      "strze": 843,
      "ran": 844,
      "trze": 845,
      "Ġdobrze": 846,
      "ĠLe": 847,
      "ymi": 848,
      "Ġzosta": 849,
      "raca": 850,
      "ĠmogÄĻ": 851,
      "Ġpowo": 852,
      "ĠmiaÅĤa": 853,
      "Ġwyda": 854,
      "Ġdru": 855,
      "Ġodpowie": 856,
      "kim": 857,
      "Ġwa": 858,
      "jm": 859,
      "ĠMoÅ¼e": 860,
      "nam": 861,
      "taÅĤ": 862,
      "rzÄħ": 863,
      "lan": 864,
      "kt": 865,
      "niÄĩ": 866,
      "Ġsko": 867,
      "Å¼czy": 868,
      "âĢĿ.": 869,
      "ent": 870,
      "ĠAnasta": 871,
      "ĠrÄĻkÄĻ": 872,
      "lie": 873,
      "tego": 874,
      "Ġnigdy": 875,
      "pad": 876,
      "Ġszep": 877,
      "ec": 878,
      "ÅĽcia": 879,
      "Ã³Åº": 880,
      "bli": 881,
      "ĠmÃ³j": 882,
      "ĠpowiedziaÅĤ": 883,
      "ĠchcÄĻ": 884,
      "so": 885,
      "Ġjakie": 886,
      "Ġchce": 887,
      "Ġrami": 888,
      "sem": 889,
      "Ġdziewczy": 890,
      "skie": 891,
      "ĠgÅĤowÄĻ": 892,
      "Ġpoli": 893,
      "ĠChristian": 894,
      "ĠBo": 895,
      "Za": 896,
      "szÄħ": 897,
      "Ã³b": 898,
      "ĠmojÄħ": 899,
      "wier": 900,
      "dÄħ": 901,
      "ele": 902,
      "waÅĤa": 903,
      "ĠjeÅĽli": 904,
      "ary": 905,
      "ha": 906,
      "ot": 907,
      "Ġtro": 908,
      "Ġaby": 909,
      "Ġrazem": 910,
      "ĠktÃ³ra": 911,
      "sÅĤu": 912,
      "ur": 913,
      "rac": 914,
      "peÅĤ": 915,
      "ĠniÅ¼": 916,
      "Ġspraw": 917,
      "yba": 918,
      "den": 919,
      "Ġuwa": 920,
      "Ġpier": 921,
      "ok": 922,
      "czyÅĤ": 923,
      "ĠTa": 924,
      "nÃ³w": 925,
      "szu": 926,
      "Ġspojrze": 927,
      "Ġga": 928,
      "dziÅĤ": 929,
      "Ã³l": 930,
      "ĠmyÅĽl": 931,
      "Ġzach": 932,
      "war": 933,
      "gle": 934,
      "ĠÅ¼a": 935,
      "ĠÅĤÃ³Å¼": 936,
      "Ġstra": 937,
      "Ġser": 938,
      "Ġpomy": 939,
      "Ġim": 940,
      "ĠwiÄĻcej": 941,
      "Ġmojej": 942,
      "ĠSte": 943,
      "ĠtÄĻ": 944,
      "ĠmiÄĻ": 945,
      "Ġsw": 946,
      "kry": 947,
      "Ġczego": 948,
      "ĠKa": 949,
      "py": 950,
      "ĠMam": 951,
      "szcz": 952,
      "nymi": 953,
      "Ġjakby": 954,
      "Ġkon": 955,
      "czas": 956,
      "pro": 957,
      "amiÄĻ": 958,
      "ĠmÄĻÅ¼czy": 959,
      "Ġzoba": 960,
      "Ġkto": 961,
      "one": 962,
      "Ġpoko": 963,
      "ĠwÅĤaÅĽnie": 964,
      "ÅĦst": 965,
      "Ġbra": 966,
      "Ġmoc": 967,
      "ĠprÃ³b": 968,
      "Ġlat": 969,
      "ĠTe": 970,
      "ĠpiÄĻ": 971,
      "ste": 972,
      "Ġspos": 973,
      "wrÃ³ci": 974,
      "kÃ³w": 975,
      "Ġkom": 976,
      "wiÄĻ": 977,
      "trzy": 978,
      "tych": 979,
      "Ġnich": 980,
      "tÄħ": 981,
      "Ġlo": 982,
      "tki": 983,
      "Ġdro": 984,
      "Ġmoim": 985,
      "prze": 986,
      "niÄħ": 987,
      "czyÅĤa": 988,
      "sÅĤa": 989,
      "ĠaÅ¼": 990,
      "kam": 991,
      "ud": 992,
      "szÅĤa": 993,
      "Ġzmie": 994,
      "Ġbardziej": 995,
      "ĠmogÅĤa": 996,
      "ĠDla": 997,
      "rafi": 998,
      "obÄħ": 999,
      "Ġoj": 1000,
      "tedy": 1001,
      "Ġznaj": 1002,
      "wiÄĩ": 1003,
      "owych": 1004,
      "ÅĽciÄħ": 1005,
      "byt": 1006,
      "Ġchwili": 1007,
      "ÅĽwia": 1008,
      "ÅĤysz": 1009,
      "kami": 1010,
      "wiÅĽcie": 1011,
      "Ġosta": 1012,
      "taj": 1013,
      "Ġpotrze": 1014,
      "Ġrzeczy": 1015,
      "Ġkilka": 1016,
      "ciÅĤ": 1017,
      "ĠNo": 1018,
      "ĠKiedy": 1019,
      "prowa": 1020,
      "Ġjako": 1021,
      "Prze": 1022,
      "cham": 1023,
      "Ġzost": 1024,
      "owej": 1025,
      "rÃ³Å¼": 1026,
      "ĠEl": 1027,
      "Ġtele": 1028,
      "ĠrÃ³w": 1029,
      "szedÅĤ": 1030,
      "tek": 1031,
      "rew": 1032,
      "ĠnaprawdÄĻ": 1033,
      "nem": 1034,
      "um": 1035,
      "ĠjÄĻ": 1036,
      "ĠpÃ³Åº": 1037,
      "Ġwym": 1038,
      "czne": 1039,
      "rym": 1040,
      "nosi": 1041,
      "owanie": 1042,
      "Ġ20": 1043,
      "kujÄĻ": 1044,
      "ĠzrobiÄĩ": 1045,
      "ĠTy": 1046,
      "wiÅĤ": 1047,
      "dem": 1048,
      "Ġtwarz": 1049,
      "Ġkolej": 1050,
      "res": 1051,
      "ĠrÄĻce": 1052,
      "Ġsa": 1053,
      "ĠmÃ³gÅĤ": 1054,
      "Ã³d": 1055,
      "Ġtwarzy": 1056,
      "owÄħ": 1057,
      "ĠmoÅ¼": 1058,
      "Ġjaki": 1059,
      "rzÄĻ": 1060,
      "Ġzawsze": 1061,
      "Wy": 1062,
      "lem": 1063,
      "ĠchwilÄĻ": 1064,
      "Å¼yÅĤ": 1065,
      "ĠCho": 1066,
      "Ġnadzie": 1067,
      "ĠÅĽwie": 1068,
      "Ġal": 1069,
      "Ġodpowia": 1070,
      "nim": 1071,
      "lika": 1072,
      "sku": 1073,
      "nek": 1074,
      "rwi": 1075,
      "Ġzda": 1076,
      "ĠwÅĤosy": 1077,
      "Ġprzyja": 1078,
      "caÅĤ": 1079,
      "Ġdwa": 1080,
      "ĠsÅĤo": 1081,
      "zie": 1082,
      "szcza": 1083,
      "rywa": 1084,
      "Ġczasu": 1085,
      "rod": 1086,
      "nika": 1087,
      "ĠSteele": 1088,
      "owego": 1089,
      "ĠpowiedziaÅĤa": 1090,
      "daÄĩ": 1091,
      "ĠgÅĤÄĻ": 1092,
      "ĠciÄħ": 1093,
      "dzÄħ": 1094,
      "rzyma": 1095,
      "for": 1096,
      "mawia": 1097,
      "ĠsÅĤowa": 1098,
      "ĠsposÃ³b": 1099,
      "nowu": 1100,
      "ÅĽle": 1101,
      "Ġzau": 1102,
      "ĠpowiedzieÄĩ": 1103,
      "Ġust": 1104,
      "dal": 1105,
      "ĠkoÅĦcu": 1106,
      "dob": 1107,
      "zn": 1108,
      "ĠdÅĤoÅĦ": 1109,
      "ciÄħÅ¼": 1110,
      "rzaÅĤ": 1111,
      "ĠszczÄĻ": 1112,
      "ĠPro": 1113,
      "cieÅ¼": 1114,
      "cÃ³w": 1115,
      "scy": 1116,
      "Å¼yÅĤa": 1117,
      "Od": 1118,
      "ĠsobÄħ": 1119,
      "lnie": 1120,
      "Ġkrzy": 1121,
      "Ġzaczy": 1122,
      "raÅ¼": 1123,
      "ĠGdy": 1124,
      "Ġprostu": 1125,
      "knÄħÅĤ": 1126,
      "Ġzde": 1127,
      "dziÅĤa": 1128,
      "ĠczÄĻ": 1129,
      "ĠtrochÄĻ": 1130,
      "Ġani": 1131,
      "Ġwszystkie": 1132,
      "dziaÅĤam": 1133,
      "ĠchÅĤo": 1134,
      "Ġrzu": 1135,
      "ĠÅ¼ad": 1136,
      "Ġfa": 1137,
      "ĠmiÄĻdzy": 1138,
      "towa": 1139,
      "kol": 1140,
      "Ġfi": 1141,
      "Ġmoja": 1142,
      "niÅĤ": 1143,
      "Ġsek": 1144,
      "ĠsÅĤu": 1145,
      "domo": 1146,
      "Ġzamie": 1147,
      "ut": 1148,
      "Ġszybko": 1149,
      "chaÄĩ": 1150,
      "suwa": 1151,
      "br": 1152,
      "cje": 1153,
      "kich": 1154,
      "taÅĤa": 1155,
      "Ġmieszka": 1156,
      "ÅĤowie": 1157,
      "Ġ(": 1158,
      "ĠDob": 1159,
      "ĠmyÅĽli": 1160,
      "ÅĽniej": 1161,
      "Ġlek": 1162,
      "Ġdy": 1163,
      "fon": 1164,
      "rzÄħd": 1165,
      "owym": 1166,
      "pom": 1167,
      "tar": 1168,
      "nki": 1169,
      "Ġbie": 1170,
      "Ġmoich": 1171,
      "ĠchciaÅĤ": 1172,
      "biÄĻ": 1173,
      "Ġsi": 1174,
      "jÄĻcia": 1175,
      "Ġzw": 1176,
      "ĠwrÃ³ci": 1177,
      "nku": 1178,
      "Ġpowin": 1179,
      "nowi": 1180,
      "ĠJestem": 1181,
      "est": 1182,
      "Ġtru": 1183,
      "ÅĽmiecha": 1184,
      "Å¼ej": 1185,
      "nawi": 1186,
      "Ġdoty": 1187,
      "Ġmojego": 1188,
      "Ġtra": 1189,
      "szym": 1190,
      "Ġwiele": 1191,
      "Ġwcze": 1192,
      "kach": 1193,
      "Ġkro": 1194,
      "cÄħ": 1195,
      "emat": 1196,
      "ĠAr": 1197,
      "Ġszcze": 1198,
      "Ġzbyt": 1199,
      "Ġwsp": 1200,
      "zi": 1201,
      "ĠJesteÅĽ": 1202,
      "Ġmru": 1203,
      "miÄĻ": 1204,
      "pÅĤy": 1205,
      "lam": 1206,
      "cem": 1207,
      "ĠtakÅ¼e": 1208,
      "bÄħ": 1209,
      "pli": 1210,
      "lni": 1211,
      "ĠpeÅĤ": 1212,
      "Ġnam": 1213,
      "Ana": 1214,
      "ĠÅ»": 1215,
      "gar": 1216,
      "ĠmÃ³w": 1217,
      "Ġpoczu": 1218,
      "Ro": 1219,
      "Ġple": 1220,
      "Ġry": 1221,
      "kaÄĩ": 1222,
      "erw": 1223,
      "stro": 1224,
      "Ġstar": 1225,
      "gÄħ": 1226,
      "gra": 1227,
      "rzaÅĤa": 1228,
      "ĠRa": 1229,
      "ĠpÃ³Åºniej": 1230,
      "Ġpatrzy": 1231,
      "wiek": 1232,
      "Ġzapy": 1233,
      "ĠbyÅĤy": 1234,
      "ĠgÅĤos": 1235,
      "Ġpokoju": 1236,
      "tni": 1237,
      "dzÄħc": 1238,
      "gÅĤa": 1239,
      "ĠproszÄĻ": 1240,
      "Ġbli": 1241,
      "sio": 1242,
      "Ġwtedy": 1243,
      "daje": 1244,
      "mal": 1245,
      "ĠstronÄĻ": 1246,
      "piÄĻ": 1247,
      "kolwiek": 1248,
      "stra": 1249,
      "raÅ¼e": 1250,
      "Ġchodzi": 1251,
      "czym": 1252,
      "ĠDziÄĻ": 1253,
      "ĠbÄĻdÄĻ": 1254,
      "Ġzapa": 1255,
      "ĠzÅĤo": 1256,
      "Ġjedy": 1257,
      "Ġwiel": 1258,
      "Ġsza": 1259,
      "Ġtrze": 1260,
      "piej": 1261,
      "lor": 1262,
      "Ġpotrzeb": 1263,
      "ĠKo": 1264,
      "era": 1265,
      "biera": 1266,
      "daw": 1267,
      "chem": 1268,
      "Ġkola": 1269,
      "Ġniez": 1270,
      "Ġzm": 1271,
      "szam": 1272,
      "star": 1273,
      "szego": 1274,
      "Ġmasz": 1275,
      "ĠWi": 1276,
      "ĠpiÄĻk": 1277,
      "eth": 1278,
      "cami": 1279,
      "ciÄħga": 1280,
      "raÅº": 1281,
      "szÅĤo": 1282,
      "Ġposta": 1283,
      "ĠÅ¼ycie": 1284,
      "ĠchciaÅĤa": 1285,
      "ujÄħc": 1286,
      "ol": 1287,
      "Ġ201": 1288,
      "ciw": 1289,
      "ciÅĤa": 1290,
      "Ġwia": 1291,
      "tÃ³w": 1292,
      "Ġgdyby": 1293,
      "pia": 1294,
      "wiÅĤa": 1295,
      "ĠwÅĤas": 1296,
      "ĠÅļ": 1297,
      "Ġtutaj": 1298,
      "rem": 1299,
      "tra": 1300,
      "leÅ¼": 1301,
      "ĠzaczÄĻ": 1302,
      "Ġwyj": 1303,
      "szej": 1304,
      "nd": 1305,
      "ÅĤe": 1306,
      "ĠMy": 1307,
      "Ġwzrok": 1308,
      "ĠAli": 1309,
      "wyk": 1310,
      "ĠOch": 1311,
      "Ġtych": 1312,
      "ĠswojÄħ": 1313,
      "czny": 1314,
      "Ġalbo": 1315,
      "gam": 1316,
      "ĠnadziejÄĻ": 1317,
      "rzyÄĩ": 1318,
      "tyw": 1319,
      "Ġtwoje": 1320,
      "Ġpiersi": 1321,
      "Ġgodzi": 1322,
      "ĠwyglÄħda": 1323,
      "Ġroku": 1324,
      "ĠrÃ³wnie": 1325,
      "Ġme": 1326,
      "ĠduÅ¼": 1327,
      "Ġlecz": 1328,
      "czej": 1329,
      "rt": 1330,
      "ĠmÅĤo": 1331,
      "rez": 1332,
      "Ġrozm": 1333,
      "zumie": 1334,
      "Ġinte": 1335,
      "pomi": 1336,
      "ĠChristianie": 1337,
      "Ġprac": 1338,
      "Ġpracy": 1339,
      "Ġak": 1340,
      "mÃ³": 1341,
      "Ġkla": 1342,
      "miast": 1343,
      "liÅĤ": 1344,
      "Ġgar": 1345,
      "sti": 1346,
      "dzenia": 1347,
      "Ġkont": 1348,
      "Ġludzi": 1349,
      "tru": 1350,
      "owana": 1351,
      "fa": 1352,
      "ĠczÅĤowie": 1353,
      "Ġsku": 1354,
      "Ġdw": 1355,
      "dÅĤa": 1356,
      "Ġtrzy": 1357,
      "Ġbio": 1358,
      "Ġtelefon": 1359,
      "ĠWiem": 1360,
      "Ġobok": 1361,
      "Ġpoja": 1362,
      "ze": 1363,
      "be": 1364,
      "ĠktÃ³rÄħ": 1365,
      "ĠktÃ³rym": 1366,
      "ĠPod": 1367,
      "ĠmÃ³wiÄĻ": 1368,
      "Ġramiona": 1369,
      "se": 1370,
      "dek": 1371,
      "Ġwol": 1372,
      "ren": 1373,
      "Ġtaki": 1374,
      "szo": 1375,
      "ĠciaÅĤo": 1376,
      "Ġgru": 1377,
      "ĠGa": 1378,
      "To": 1379,
      "Ġchole": 1380,
      "Ġpytam": 1381,
      "laz": 1382,
      "ĠzwiÄħ": 1383,
      "ĠgÃ³": 1384,
      "Å¼yÄĩ": 1385,
      "Ġswoim": 1386,
      "ĠBar": 1387,
      "siÅĤ": 1388,
      "koj": 1389,
      "nÄĻÅĤam": 1390,
      "Do": 1391,
      "ad": 1392,
      "ote": 1393,
      "Ġczar": 1394,
      "Ġdelika": 1395,
      "piero": 1396,
      "Ġpar": 1397,
      "ĠGra": 1398,
      "ĠwczeÅĽniej": 1399,
      "sÃ³w": 1400,
      "Ġtemu": 1401,
      "liÄĩ": 1402,
      "ĠtobÄħ": 1403,
      "racam": 1404,
      "Ġzasta": 1405,
      "god": 1406,
      "szych": 1407,
      "ciaÅ¼": 1408,
      "ĠwciÄħÅ¼": 1409,
      "ciÄĩ": 1410,
      "Ġwyja": 1411,
      "czenie": 1412,
      "Ġosob": 1413,
      "niewaÅ¼": 1414,
      "Ġode": 1415,
      "ĠskÃ³": 1416,
      "Ġmocno": 1417,
      "Ġzie": 1418,
      "roz": 1419,
      "Ġcicho": 1420,
      "ujesz": 1421,
      "ÅĽwiad": 1422,
      "Ġchyba": 1423,
      "kro": 1424,
      "gnie": 1425,
      "Mo": 1426,
      "Ġokaz": 1427,
      "ĠchoÄĩ": 1428,
      "lar": 1429,
      "ĠÅĽrod": 1430,
      "Ġprawda": 1431,
      "ĠpocaÅĤ": 1432,
      "aka": 1433,
      "czki": 1434,
      "Ġznowu": 1435,
      "Ġwiecz": 1436,
      "jemy": 1437,
      "szyscy": 1438,
      "resz": 1439,
      "ĠDlaczego": 1440,
      "Ġmar": 1441,
      "ner": 1442,
      "Ġstanie": 1443,
      "ĠÅĽwiat": 1444,
      "ĠRoz": 1445,
      "ĠcaÅĤy": 1446,
      "ĠstaÅĤo": 1447,
      "Ġspotka": 1448,
      "ĠProszÄĻ": 1449,
      "niÅĤa": 1450,
      "ĠTay": 1451,
      "two": 1452,
      "ĠgÅĤÄĻbo": 1453,
      "Przy": 1454,
      "Ġjedno": 1455,
      "osta": 1456,
      "ĠAnastasio": 1457,
      "aÅĤe": 1458,
      "Ġozna": 1459,
      "nka": 1460,
      "Ġocho": 1461,
      "czach": 1462,
      "ĠMusi": 1463,
      "Ġzanim": 1464,
      "ĠktÃ³rej": 1465,
      "ĠMar": 1466,
      "Ġwyko": 1467,
      "owania": 1468,
      "owany": 1469,
      "om": 1470,
      "ĠChci": 1471,
      "Ġuda": 1472,
      "ĠJeÅĽli": 1473,
      "Å¼ÄĻ": 1474,
      "czenia": 1475,
      "ĠDa": 1476,
      "stÄħ": 1477,
      "Roz": 1478,
      "Ġuro": 1479,
      "rwa": 1480,
      "Ġpozwo": 1481,
      "ĠPowie": 1482,
      "ĠporzÄħd": 1483,
      "od": 1484,
      "Ġciem": 1485,
      "ciec": 1486,
      "Ġzad": 1487,
      "dziaÅĤem": 1488,
      "tow": 1489,
      "iÄħ": 1490,
      "gÅĤo": 1491,
      "robi": 1492,
      "Ġtakiego": 1493,
      "kÃ³j": 1494,
      "Ġspa": 1495,
      "ĠJo": 1496,
      "ĠmieÄĩ": 1497,
      "rzyÅĤ": 1498,
      "czywiÅĽcie": 1499,
      "rÃ³t": 1500,
      "Ġwido": 1501,
      "ĠpomyÅĽl": 1502,
      "ĠznÃ³w": 1503,
      "Ġpe": 1504,
      "Ġwpa": 1505,
      "Ġrazie": 1506,
      "ĠpamiÄĻ": 1507,
      "ĠJej": 1508,
      "dÃ³w": 1509,
      "Ġud": 1510,
      "Ġgra": 1511,
      "nk": 1512,
      "knÄĻÅĤa": 1513,
      "ÅĽla": 1514,
      "lep": 1515,
      "ĠktoÅĽ": 1516,
      "dech": 1517,
      "ÅĽlÄĻ": 1518,
      "Ġus": 1519,
      "lega": 1520,
      "ĠrÃ³Å¼": 1521,
      "Ġdlaczego": 1522,
      "ĠgÅĤowy": 1523,
      "goÅĽ": 1524,
      "Ġdlatego": 1525,
      "ĠNigdy": 1526,
      "Ġpana": 1527,
      "ĠJego": 1528,
      "Ġpotrafi": 1529,
      "Ġzauwa": 1530,
      "czna": 1531,
      "Ġdnia": 1532,
      "jÄħco": 1533,
      "anna": 1534,
      "Ġtyle": 1535,
      "ĠÅ¼ycia": 1536,
      "wÄĻ": 1537,
      "Ġpatrz": 1538,
      "Ġkuch": 1539,
      "tach": 1540,
      "Ġbro": 1541,
      "is": 1542,
      "Ġpodczas": 1543,
      "wiera": 1544,
      "noÅĽciÄħ": 1545,
      "Ġpanie": 1546,
      "ĠczujÄĻ": 1547,
      "Ġmiejsce": 1548,
      "chodzÄĻ": 1549,
      "ĠChcÄĻ": 1550,
      "tychmiast": 1551,
      "Ġprowa": 1552,
      "Co": 1553,
      "Ġzatrzym": 1554,
      "Ġpomo": 1555,
      "Ġsamocho": 1556,
      "Ġkar": 1557,
      "Ġodpar": 1558,
      "zd": 1559,
      "Äħt": 1560,
      "ĠdziÄĻ": 1561,
      "Ġki": 1562,
      "ĠmuszÄĻ": 1563,
      "raj": 1564,
      "Ġdrugie": 1565,
      "ĠTeraz": 1566,
      "Ġoczach": 1567,
      "cyj": 1568,
      "ĠDobrze": 1569,
      "men": 1570,
      "ĠwraÅ¼e": 1571,
      "taÄĩ": 1572,
      "szczÄĻ": 1573,
      "tua": 1574,
      "Ġspojrzenie": 1575,
      "Ġwiadomo": 1576,
      "Ġjas": 1577,
      "ĠpÃ³ÅĤ": 1578,
      "ĠmiÅĤo": 1579,
      "Ġwspo": 1580,
      "wiel": 1581,
      "ĠktÃ³rych": 1582,
      "Å¼eli": 1583,
      "Kiedy": 1584,
      "ul": 1585,
      "dno": 1586,
      "Ġdzieci": 1587,
      "ĠÅ¼o": 1588,
      "cis": 1589,
      "Ġdalej": 1590,
      "Ġpla": 1591,
      "ĠsÅĤy": 1592,
      "wÃ³j": 1593,
      "Ġnagle": 1594,
      "ĠWszyst": 1595,
      "jmu": 1596,
      "ĠpÅĤa": 1597,
      "Ġodpowiada": 1598,
      "ĠAno": 1599,
      "Ġor": 1600,
      "Ġrozu": 1601,
      "ĠmoÅ¼na": 1602,
      "Ġzaczyna": 1603,
      "ĠtÅĤu": 1604,
      "Ġkocha": 1605,
      "Ġwszystkim": 1606,
      "naÅĤ": 1607,
      "staÅĤ": 1608,
      "Ġdom": 1609,
      "kÃ³ÅĤ": 1610,
      "ĠSz": 1611,
      "Ġchcesz": 1612,
      "Ġ3": 1613,
      "godnie": 1614,
      "ĠÅĤÃ³Å¼ka": 1615,
      "aÅĤaÅĽ": 1616,
      "Ġpierwszy": 1617,
      "ĠktÃ³rego": 1618,
      "ĠzaczÄħ": 1619,
      "kÄħd": 1620,
      "Ġprzyjem": 1621,
      "ĠAny": 1622,
      "gnÄĻ": 1623,
      "dzwo": 1624,
      "Ġobie": 1625,
      "rzyÅĤa": 1626,
      "Ġdziw": 1627,
      "ciem": 1628,
      "ĠnastÄĻp": 1629,
      "Ġdziec": 1630,
      "dzenie": 1631,
      "ĠduÅ¼o": 1632,
      "Ale": 1633,
      "ĠjÄĻzy": 1634,
      "Ã³sÅĤ": 1635,
      "ĠLucie": 1636,
      "Ġswojej": 1637,
      "Ġniepo": 1638,
      "ĠBÄĻ": 1639,
      "jÄħcych": 1640,
      "ĠV": 1641,
      "Ġkobiety": 1642,
      "cj": 1643,
      "Ġjeden": 1644,
      "suwam": 1645,
      "ng": 1646,
      "ĠciÄĻÅ¼": 1647,
      "Ġszu": 1648,
      "mawiaÄĩ": 1649,
      "ĠwokÃ³ÅĤ": 1650,
      "Ġszero": 1651,
      "Ġbrwi": 1652,
      "ĠÅĽci": 1653,
      "peÅĤnie": 1654,
      "stwo": 1655,
      "ĠÅĽmier": 1656,
      "cyd": 1657,
      "rzmi": 1658,
      "ĠwiÄĻk": 1659,
      "Ġprzeko": 1660,
      "IE": 1661,
      "nach": 1662,
      "ĠdÅĤonie": 1663,
      "Ġzu": 1664,
      "Ġocz": 1665,
      "ĠchÅĤop": 1666,
      "byÅĽ": 1667,
      "pis": 1668,
      "ĠNaprawdÄĻ": 1669,
      "spa": 1670,
      "Ġchwy": 1671,
      "liÅĤa": 1672,
      "puÅĽci": 1673,
      "ĠNic": 1674,
      "pomni": 1675,
      "kÅĤad": 1676,
      "Ġar": 1677,
      "Ġpalce": 1678,
      "liz": 1679,
      "Ġramion": 1680,
      "ĠporzÄħdku": 1681,
      "ly": 1682,
      "Ġzabi": 1683,
      "ĠdzieÅĦ": 1684,
      "ĠpodÅĤo": 1685,
      "ĠIn": 1686,
      "niec": 1687,
      "Ġwiesz": 1688,
      "Ġnadal": 1689,
      "Ġtrzyma": 1690,
      "dym": 1691,
      "Ġpowa": 1692,
      "Ġprzeciw": 1693,
      "krÄĻ": 1694,
      "th": 1695,
      "ĠAnastasia": 1696,
      "Ġ2011": 1697,
      "Ġpowro": 1698,
      "tku": 1699,
      "ĠJu": 1700,
      "Ġpewno": 1701,
      "Ġsama": 1702,
      "ĠMuszÄĻ": 1703,
      "ĠwyglÄħd": 1704,
      "powie": 1705,
      "Ġuczu": 1706,
      "przy": 1707,
      "ĠDziÄĻkujÄĻ": 1708,
      "Ġum": 1709,
      "rom": 1710,
      "ciska": 1711,
      "Åģ": 1712,
      "Ġwszystkich": 1713,
      "Ġspy": 1714,
      "ĠrÃ³wnieÅ¼": 1715,
      "Å¼d": 1716,
      "Ġubra": 1717,
      "tel": 1718,
      "Ġtakim": 1719,
      "Ġzale": 1720,
      "ĠjakiÅĽ": 1721,
      "cher": 1722,
      "Ġpowoli": 1723,
      "Ġopa": 1724,
      "czkÄĻ": 1725,
      "ĠJuÅ¼": 1726,
      "ĠdÅĤugo": 1727,
      "ĠSpo": 1728,
      "Ġpodob": 1729,
      "Ġnau": 1730,
      "Ġznalaz": 1731,
      "Ġlub": 1732,
      "Ġlepiej": 1733,
      "ĠmaÅĤ": 1734,
      "czona": 1735,
      "Ġdobry": 1736,
      "Ġtaka": 1737,
      "aÅĤeÅĽ": 1738,
      "ÅĤÄĻ": 1739,
      "ĠuÅĽmiecha": 1740,
      "Ġswoich": 1741,
      "kowi": 1742,
      "Ġce": 1743,
      "dra": 1744,
      "liwe": 1745,
      "Ġzaba": 1746,
      "siaj": 1747,
      "ĠksiÄħ": 1748,
      "Ġkra": 1749,
      "annah": 1750,
      "Ġodw": 1751,
      "leÅº": 1752,
      "tna": 1753,
      "jÄħÅĤ": 1754,
      "staÄĩ": 1755,
      "Ġbezpie": 1756,
      "ĠponiewaÅ¼": 1757,
      "ĠprzecieÅ¼": 1758,
      "ĠCi": 1759,
      "Ġzer": 1760,
      "cach": 1761,
      "ĠgwaÅĤ": 1762,
      "lÄħ": 1763,
      "jech": 1764,
      "Ġswojego": 1765,
      "Ġczeka": 1766,
      "tak": 1767,
      "Ġwyso": 1768,
      "owarzy": 1769,
      "ns": 1770,
      "lera": 1771,
      "tej": 1772,
      "Ġminu": 1773,
      "Ġsytua": 1774,
      "Ġodzy": 1775,
      "Ġporu": 1776,
      "Ġgro": 1777,
      "ed": 1778,
      "owaÅĤam": 1779,
      "pew": 1780,
      "ĠskoÅĦ": 1781,
      "Ġnimi": 1782,
      "ĠwidzÄĻ": 1783,
      "nÄĻÅĤy": 1784,
      "najm": 1785,
      "tora": 1786,
      "ĠkrÄĻ": 1787,
      "Ġoko": 1788,
      "woÅĽci": 1789,
      "der": 1790,
      "czek": 1791,
      "Ġhi": 1792,
      "ĠPra": 1793,
      "ĠSa": 1794,
      "Ġprob": 1795,
      "Ġsil": 1796,
      "Ġdowie": 1797,
      "dziemy": 1798,
      "ĠElli": 1799,
      "ĠzÅĤa": 1800,
      "bar": 1801,
      "Ġpowodu": 1802,
      "Ġkobieta": 1803,
      "Ġoczami": 1804,
      "Ġwal": 1805,
      "ĠChyba": 1806,
      "praszam": 1807,
      "tne": 1808,
      "Ġstwier": 1809,
      "Ġukry": 1810,
      "ura": 1811,
      "czÄħc": 1812,
      "wiam": 1813,
      "daÅĤ": 1814,
      "Ġbla": 1815,
      "tycz": 1816,
      "Ġtemat": 1817,
      "niÃ³sÅĤ": 1818,
      "rek": 1819,
      "ĠJace": 1820,
      "Ġdni": 1821,
      "ĠdziaÅĤa": 1822,
      "Ġek": 1823,
      "ĠwiedzieÄĩ": 1824,
      "szczy": 1825,
      "ĠjakÄħ": 1826,
      "Ġpodej": 1827,
      "rzo": 1828,
      "ĠÅ¼ebyÅĽ": 1829,
      "Ġsio": 1830,
      "Ġnatychmiast": 1831,
      "ĠTaylor": 1832,
      "Ġpowst": 1833,
      "Ġotwo": 1834,
      "Ġwzrokiem": 1835,
      "Ġopie": 1836,
      "kÅĤ": 1837,
      "wycza": 1838,
      "ĠodwrÃ³ci": 1839,
      "ciÃ³ÅĤ": 1840,
      "Ġciep": 1841,
      "ĠAlicja": 1842,
      "Ġzasko": 1843,
      "wem": 1844,
      "ĠCie": 1845,
      "Ġlubi": 1846,
      "Ã³le": 1847,
      "Ġdaw": 1848,
      "znaÄĩ": 1849,
      "Ġzamy": 1850,
      "ĠÅĽcia": 1851,
      "Ġnoc": 1852,
      "Ġnogi": 1853,
      "ĠOczywiÅĽcie": 1854,
      "chi": 1855,
      "cjÄħ": 1856,
      "nownie": 1857,
      "Ġtowarzy": 1858,
      "Ġprzypomi": 1859,
      "ĠswÃ³j": 1860,
      "ĠwraÅ¼enie": 1861,
      "ĠMÃ³": 1862,
      "ĠzrobiÅĤ": 1863,
      "braÄĩ": 1864,
      "najmniej": 1865,
      "ĠuÅĽmiechem": 1866,
      "Ġnami": 1867,
      "szyÅĤ": 1868,
      "ĠchociaÅ¼": 1869,
      "ĠTylko": 1870,
      "Å¼nie": 1871,
      "ĠzwiÄħz": 1872,
      "owÄĻ": 1873,
      "niach": 1874,
      "jÄħcÄħ": 1875,
      "Ġrozumie": 1876,
      "Ġoddech": 1877,
      "tuje": 1878,
      "ĠpiÄĻÄĩ": 1879,
      "Ġkoszu": 1880,
      "jÄħcego": 1881,
      "wanie": 1882,
      "ĠDzie": 1883,
      "ĠÅĤÃ³Å¼ku": 1884,
      "piÄĩ": 1885,
      "ĠHa": 1886,
      "krzy": 1887,
      "noszÄĻ": 1888,
      "ĠbÄĻdziesz": 1889,
      "ĠwyjaÅĽ": 1890,
      "ĠochotÄĻ": 1891,
      "Da": 1892,
      "ĠciaÅĤa": 1893,
      "Jest": 1894,
      "Å¼u": 1895,
      "ĠgÅĤowie": 1896,
      "ĠuwagÄĻ": 1897,
      "Ġostat": 1898,
      "kiego": 1899,
      "Ġserce": 1900,
      "Ġskrzy": 1901,
      "Ġkim": 1902,
      "ĠktÃ³rzy": 1903,
      "sunÄħÅĤ": 1904,
      "ĠÅ¼ebym": 1905,
      "ĠprzyjaciÃ³ÅĤ": 1906,
      "chyla": 1907,
      "Ġmia": 1908,
      "Ġcier": 1909,
      "row": 1910,
      "Ġzgo": 1911,
      "Ġczo": 1912,
      "cale": 1913,
      "jÄħca": 1914,
      "bÄĻ": 1915,
      "wszy": 1916,
      "czony": 1917,
      "cam": 1918,
      "pÄĻ": 1919,
      "Ġse": 1920,
      "kiej": 1921,
      "Ġkuchni": 1922,
      "Ġper": 1923,
      "Ġmiejscu": 1924,
      "ĠzÄĻ": 1925,
      "owane": 1926,
      "ĠogÃ³le": 1927,
      "ÅĤad": 1928,
      "ÅĦstwa": 1929,
      "oby": 1930,
      "Ġobej": 1931,
      "Ġznaczy": 1932,
      "Ġnocy": 1933,
      "mnie": 1934,
      "ĠwÅĤaÅĽci": 1935,
      "Ġude": 1936,
      "nna": 1937,
      "Ġwystar": 1938,
      "ĠkaÅ¼de": 1939,
      "Ġobs": 1940,
      "Ġczer": 1941,
      "Christia": 1942,
      "ĠEllie": 1943,
      "kaza": 1944,
      "nikÃ³w": 1945,
      "ĠÅ¼yciu": 1946,
      "ĠwÅĽcie": 1947,
      "Ġzapew": 1948,
      "Ġcud": 1949,
      "ĠHen": 1950,
      "Ġl": 1951,
      "staÅĤa": 1952,
      "Ġoraz": 1953,
      "Ġsen": 1954,
      "ĠwziÄħ": 1955,
      "nne": 1956,
      "sh": 1957,
      "Ġpowinie": 1958,
      "Ġucie": 1959,
      "ĠspÄĻ": 1960,
      "jÄħÄĩ": 1961,
      "Ġprawie": 1962,
      "ĠrobiÄĩ": 1963,
      "towaÄĩ": 1964,
      "wÄħ": 1965,
      "ĠszepczÄĻ": 1966,
      "ÅĦstwo": 1967,
      "Ġlekko": 1968,
      "Å¼Äħ": 1969,
      "leÅĦ": 1970,
      "Ġjedynie": 1971,
      "dzam": 1972,
      "Ġstrony": 1973,
      "dÅĤu": 1974,
      "Ġprez": 1975,
      "Pa": 1976,
      "kuje": 1977,
      "Ġkieru": 1978,
      "nic": 1979,
      "orem": 1980,
      "ĠsprawÄĻ": 1981,
      "Ġorga": 1982,
      "mak": 1983,
      "Ġobo": 1984,
      "ĠMasz": 1985,
      "ury": 1986,
      "ĠNaj": 1987,
      "Ġwszyscy": 1988,
      "ic": 1989,
      "Ġnale": 1990,
      "ĠHec": 1991,
      "Ġnieco": 1992,
      "skÄħ": 1993,
      "Ġramionami": 1994,
      "kniÄĻ": 1995,
      "ĠuwaÅ¼": 1996,
      "ĠpojÄĻcia": 1997,
      "Ġsprze": 1998,
      "lne": 1999,
      "rÃ³d": 2000,
      "Ġinfor": 2001,
      "IA": 2002,
      "glÄĻ": 2003,
      "Ġczasie": 2004,
      "Ġporoz": 2005,
      "reszcie": 2006,
      "tery": 2007,
      "Ġspokoj": 2008,
      "ĠHar": 2009,
      "ĠWszystko": 2010,
      "ĠBardzo": 2011,
      "tro": 2012,
      "cisk": 2013,
      "ĠOn": 2014,
      "Ġniemal": 2015,
      "wykle": 2016,
      "Åļ": 2017,
      "Ġcoraz": 2018,
      "bine": 2019,
      "ĠgÅĤoÅĽ": 2020,
      "tym": 2021,
      "Gdy": 2022,
      "Ġnaz": 2023,
      "ĠgÅĤu": 2024,
      "ĠznaleÅº": 2025,
      "ĠmÄĻÅ¼czyz": 2026,
      "dzia": 2027,
      "nnie": 2028,
      "Ġmart": 2029,
      "wio": 2030,
      "Å¼o": 2031,
      "ĠcÃ³r": 2032,
      "Ġszko": 2033,
      "Ġoch": 2034,
      "ĠcaÅĤÄħ": 2035,
      "ĠzupeÅĤnie": 2036,
      "kael": 2037,
      "Ġau": 2038,
      "pe": 2039,
      "ĠwiedziaÅĤa": 2040,
      "jÄħcym": 2041,
      "sÅĤo": 2042,
      "Ġpodnie": 2043,
      "Ġobu": 2044,
      "spie": 2045,
      "Cz": 2046,
      "rzeÄĩ": 2047,
      "Ġdelikatnie": 2048,
      "Ġ19": 2049,
      "Ġwska": 2050,
      "sznie": 2051,
      "ĠByÅĤa": 2052,
      "Ġface": 2053,
      "Ġmil": 2054,
      "ĠkaÅ¼dym": 2055,
      "ĠczegoÅĽ": 2056,
      "Ġojciec": 2057,
      "amie": 2058,
      "ĠNawet": 2059,
      "Christian": 2060,
      "ĠzaczÄħÅĤ": 2061,
      "ge": 2062,
      "stwa": 2063,
      "ĠmiaÅĤam": 2064,
      "myÅĽl": 2065,
      "ĠDe": 2066,
      "Ġmatka": 2067,
      "ment": 2068,
      "siÄĩ": 2069,
      "gry": 2070,
      "man": 2071,
      "âĢĿ,": 2072,
      "Ġponownie": 2073,
      "ley": 2074,
      "ĠpoÅĽ": 2075,
      "Cho": 2076,
      "ĠmusiaÅĤ": 2077,
      "ĠjakieÅĽ": 2078,
      "ĠKate": 2079,
      "lny": 2080,
      "Ġsypia": 2081,
      "ĠsÅĤod": 2082,
      "Ġwej": 2083,
      "Ġzaraz": 2084,
      "siÄĻcy": 2085,
      "ĠGabe": 2086,
      "kaÅĤ": 2087,
      "rzam": 2088,
      "ciel": 2089,
      "ciÄħgnÄħÅĤ": 2090,
      "tny": 2091,
      "danie": 2092,
      "ndy": 2093,
      "Ġdzisiaj": 2094,
      "Ġzako": 2095,
      "ĠmajÄħ": 2096,
      "Ġmamy": 2097,
      "try": 2098,
      "ĠBe": 2099,
      "ĠSta": 2100,
      "szyÄĩ": 2101,
      "ĠjednÄħ": 2102,
      "Ġdoda": 2103,
      "ĠmoÅ¼esz": 2104,
      "ĠGracie": 2105,
      "ciera": 2106,
      "Ġgnie": 2107,
      "ĠzaczÄĻÅĤa": 2108,
      "Ġwidok": 2109,
      "Ġkrze": 2110,
      "wiajÄħc": 2111,
      "ve": 2112,
      "Ġdopiero": 2113,
      "ĠbyÅĤam": 2114,
      "Ġrazu": 2115,
      "Mi": 2116,
      "rii": 2117,
      "dna": 2118,
      "ĠJac": 2119,
      "Ġniczym": 2120,
      "Ġzim": 2121,
      "Ġmat": 2122,
      "niosÅĤa": 2123,
      "Ġrazy": 2124,
      "Ġile": 2125,
      "ĠOb": 2126,
      "Ġludzie": 2127,
      "Ġnajlep": 2128,
      "Ja": 2129,
      "iÄĩ": 2130,
      "ĠwÄħt": 2131,
      "Ġdr": 2132,
      "Ġramie": 2133,
      "ÅĽleÄĩ": 2134,
      "dli": 2135,
      "DZ": 2136,
      "nicy": 2137,
      "dzisz": 2138,
      "czoraj": 2139,
      "ĠJack": 2140,
      "Ġem": 2141,
      "miaÅĤa": 2142,
      "ing": 2143,
      "Ġzadzwo": 2144,
      "Ġprzygo": 2145,
      "ĠRob": 2146,
      "ĠgÅĤosem": 2147,
      "naÄĩ": 2148,
      "cych": 2149,
      "Ġgabine": 2150,
      "Ġojca": 2151,
      "bez": 2152,
      "jeÅ¼d": 2153,
      "di": 2154,
      "ĠramiÄĻ": 2155,
      "**": 2156,
      "ĠByÅĤ": 2157,
      "ĠOna": 2158,
      "Ġwychodzi": 2159,
      "czka": 2160,
      "Ġdia": 2161,
      "ĠwiedziaÅĤ": 2162,
      "ĠksiÄĻ": 2163,
      "ĠdziÅĽ": 2164,
      "Ġprzyj": 2165,
      "nÄĻÅĤo": 2166,
      "Ġszczeg": 2167,
      "Ġklu": 2168,
      "Ġul": 2169,
      "jcie": 2170,
      "pierw": 2171,
      "Ġzapro": 2172,
      "owaÅĤo": 2173,
      "ĠrÄĻkÄħ": 2174,
      "kra": 2175,
      "szyÅĤa": 2176,
      "wiÄĻk": 2177,
      "ĠpoÅ¼": 2178,
      "naÅĤa": 2179,
      "skiej": 2180,
      "niam": 2181,
      "Ġprawdzi": 2182,
      "ciÄħgam": 2183,
      "ĠPan": 2184,
      "ĠdÃ³ÅĤ": 2185,
      "Ġodpowiedzi": 2186,
      "Ġzdecyd": 2187,
      "Ġwydaje": 2188,
      "tla": 2189,
      "tle": 2190,
      "Ġzdo": 2191,
      "nad": 2192,
      "Ġdostrze": 2193,
      "Ġbyli": 2194,
      "bia": 2195,
      "ryta": 2196,
      "ĠPrzez": 2197,
      "Jak": 2198,
      "gro": 2199,
      "owali": 2200,
      "mawi": 2201,
      "per": 2202,
      "sÄĻ": 2203,
      "skar": 2204,
      "ott": 2205,
      "ĠÅĤo": 2206,
      "ĠpoczÄħ": 2207,
      "Ġuli": 2208,
      "ĠÅĽli": 2209,
      "ĠPotem": 2210,
      "Ġbiur": 2211,
      "ĠwaÅ¼": 2212,
      "Tak": 2213,
      "Ġwraca": 2214,
      "ĠHannah": 2215,
      "Ġdwie": 2216,
      "niz": 2217,
      "ĠTh": 2218,
      "Ġso": 2219,
      "Ġpora": 2220,
      "ĠmusiaÅĤa": 2221,
      "Ġkilku": 2222,
      "jmuje": 2223,
      "ĠdziÄĻki": 2224,
      "skim": 2225,
      "Ġwyraz": 2226,
      "Ġszeroko": 2227,
      "ĠLa": 2228,
      "Ġpoza": 2229,
      "glÄħdam": 2230,
      "Ġpewna": 2231,
      "ĠArcher": 2232,
      "Ġjednym": 2233,
      "Ġznie": 2234,
      "Ġdotk": 2235,
      "Ġmiejsca": 2236,
      "tura": 2237,
      "Ġinnego": 2238,
      "lony": 2239,
      "Ġpytanie": 2240,
      "ple": 2241,
      "Ġpole": 2242,
      "Ġwyob": 2243,
      "ĠwspÃ³l": 2244,
      "raÅ¼a": 2245,
      "Ġniczego": 2246,
      "Ġbiodra": 2247,
      "ĠgÃ³rÄĻ": 2248,
      "Ġpowrotem": 2249,
      "ownie": 2250,
      "Ġrado": 2251,
      "ĠzrobiÅĤa": 2252,
      "miaÅĤ": 2253,
      "ĠracjÄĻ": 2254,
      "Ġpalcami": 2255,
      "Ġoczu": 2256,
      "ĠWo": 2257,
      "Ġprzedsta": 2258,
      "Ġkontro": 2259,
      "son": 2260,
      "bardziej": 2261,
      "By": 2262,
      "ĠMia": 2263,
      "gnÄħÅĤ": 2264,
      "un": 2265,
      "mysÅĤ": 2266,
      "ĠszczÄĻÅĽli": 2267,
      "rak": 2268,
      "Ġbym": 2269,
      "ĠBoÅ¼e": 2270,
      "utro": 2271,
      "wali": 2272,
      "cep": 2273,
      "Pod": 2274,
      "ĠWÅĤa": 2275,
      "ĠJeszcze": 2276,
      "Ġzadowo": 2277,
      "Ġumie": 2278,
      "kÅĤadnie": 2279,
      "ĠÅ»e": 2280,
      "gno": 2281,
      "ĠpÅĤy": 2282,
      "Ġpowietrze": 2283,
      "Ġbrzu": 2284,
      "Ġpas": 2285,
      "ĠzdÄħ": 2286,
      "ĠzobaczyÄĩ": 2287,
      "ger": 2288,
      "Ġszpi": 2289,
      "ĠChce": 2290,
      "Czy": 2291,
      "twie": 2292,
      "piÅĤ": 2293,
      "ess": 2294,
      "Ġdrugiej": 2295,
      "trzyma": 2296,
      "ĠwyjÄħ": 2297,
      "bezpie": 2298,
      "cznym": 2299,
      "Ġzawo": 2300,
      "ĠLucien": 2301,
      "usz": 2302,
      "Ġsia": 2303,
      "ĠdÅº": 2304,
      "etha": 2305,
      "ĠspojrzaÅĤ": 2306,
      "Ġkole": 2307,
      "fer": 2308,
      "dziesiÄħ": 2309,
      "Ġzdr": 2310,
      "Ġprzesta": 2311,
      "ĠMoja": 2312,
      "Ã³ch": 2313,
      "niaÅĤ": 2314,
      "ron": 2315,
      "kÅĤo": 2316,
      "waÅĤo": 2317,
      "dziesz": 2318,
      "Ġkobiet": 2319,
      "sach": 2320,
      "Data": 2321,
      "cznej": 2322,
      "Ã³ki": 2323,
      "Ġmimo": 2324,
      "Ġostro": 2325,
      "naj": 2326,
      "Ġszepcze": 2327,
      "Ġwcale": 2328,
      "Ġdobre": 2329,
      "skich": 2330,
      "Ġtor": 2331,
      "Ġinnych": 2332,
      "ĠpÃ³j": 2333,
      "Ġrozpo": 2334,
      "ĠkiedyÅĽ": 2335,
      "ĠmÄĻÅ¼czyzna": 2336,
      "Ġdzwo": 2337,
      "Ġdziewczyna": 2338,
      "cznych": 2339,
      "ĠSam": 2340,
      "ster": 2341,
      "kar": 2342,
      "skiego": 2343,
      "ĠZawsze": 2344,
      "Ġotwiera": 2345,
      "ethany": 2346,
      "dne": 2347,
      "ĠWiÄĻ": 2348,
      "Ġoba": 2349,
      "ĠUÅĽmiech": 2350,
      "Ġproce": 2351,
      "Ġsalo": 2352,
      "wyczaj": 2353,
      "Temat": 2354,
      "ĠtwÃ³j": 2355,
      "Ġszan": 2356,
      "ĠdÅĤoni": 2357,
      "Ġseks": 2358,
      "par": 2359,
      "ĠzapytaÅĤ": 2360,
      "nerw": 2361,
      "wania": 2362,
      "szek": 2363,
      "ĠSe": 2364,
      "ĠBeth": 2365,
      "ag": 2366,
      "kaÅĤa": 2367,
      "ktÃ³": 2368,
      "ĠMÃ³j": 2369,
      "Ġtrzeba": 2370,
      "Ġobserw": 2371,
      "ĠkogoÅĽ": 2372,
      "Ġmusisz": 2373,
      "Ġpry": 2374,
      "Ġpanno": 2375,
      "kajÄħc": 2376,
      "ĠusÅĤysz": 2377,
      "Wie": 2378,
      "imi": 2379,
      "Ġnikt": 2380,
      "Ġsmu": 2381,
      "Ġobraz": 2382,
      "ĠwspÃ³ÅĤ": 2383,
      "Ġznik": 2384,
      "Ġtrzym": 2385,
      "kÅĤada": 2386,
      "Ġwody": 2387,
      "usti": 2388,
      "Ġkry": 2389,
      "Ġgu": 2390,
      "Ġtobie": 2391,
      "ĠkoÅĦca": 2392,
      "ĠTen": 2393,
      "ĠzostaÅĤ": 2394,
      "Ġzja": 2395,
      "ĠdoÅĽÄĩ": 2396,
      "Ġhote": 2397,
      "daÅĤa": 2398,
      "ila": 2399,
      "obec": 2400,
      "skak": 2401,
      "ciÄĻ": 2402,
      "ĠdÅ¼": 2403,
      "jÄĻÅĤa": 2404,
      "Ġmniej": 2405,
      "Jego": 2406,
      "dre": 2407,
      "cznÄħ": 2408,
      "let": 2409,
      "Ġpotra": 2410,
      "Ġfak": 2411,
      "ĠdwÃ³ch": 2412,
      "ke": 2413,
      "ĠÅº": 2414,
      "ÅĤÃ³": 2415,
      "owaÅĤem": 2416,
      "Ġzabaw": 2417,
      "ĠtyÅĤu": 2418,
      "Ġblisko": 2419,
      "Och": 2420,
      "RO": 2421,
      "Ġinforma": 2422,
      "Ġsypialni": 2423,
      "Spo": 2424,
      "ÄħÅ¼": 2425,
      "ĠsÅĤoÅĦ": 2426,
      "Ġzwie": 2427,
      "Ġkiesze": 2428,
      "Ġminut": 2429,
      "ase": 2430,
      "Jej": 2431,
      "prawia": 2432,
      "Ġseksu": 2433,
      "szÄħc": 2434,
      "Ġsamochodu": 2435,
      "uj": 2436,
      "chnÄħÅĤ": 2437,
      "lona": 2438,
      "pisa": 2439,
      "ĠFury": 2440,
      "dopo": 2441,
      "jmujÄĻ": 2442,
      "ĠGdzie": 2443,
      "Ġpozosta": 2444,
      "Ġjednej": 2445,
      "ah": 2446,
      "mar": 2447,
      "sam": 2448,
      "Ġdzieje": 2449,
      "ĠszczÄĻÅĽcie": 2450,
      "Ġbok": 2451,
      "ciej": 2452,
      "ĠCÃ³Å¼": 2453,
      "Ġstoi": 2454,
      "ti": 2455,
      "Ġuspo": 2456,
      "dwie": 2457,
      "Ġnasze": 2458,
      "naczej": 2459,
      "Ġkana": 2460,
      "ĠudaÅĤo": 2461,
      "ĠAnÄĻ": 2462,
      "Åºni": 2463,
      "ĠcaÅĤe": 2464,
      "Ġdwu": 2465,
      "ĠpatrzÄħc": 2466,
      "ĠwzglÄĻ": 2467,
      "gami": 2468,
      "Ġzrozumie": 2469,
      "nÄĻtrz": 2470,
      "ĠRe": 2471,
      "ĠmÃ³wiÄĩ": 2472,
      "nkÄĻ": 2473,
      "nii": 2474,
      "ĠwyraÅº": 2475,
      "ĠChristiana": 2476,
      "os": 2477,
      "ĠpoÅĤo": 2478,
      "Ġpoma": 2479,
      "czeki": 2480,
      "Ġrozko": 2481,
      "ĠznaleÅºÄĩ": 2482,
      "me": 2483,
      "Ġofi": 2484,
      "Ġwybu": 2485,
      "Ġstara": 2486,
      "Ġjakim": 2487,
      "Ġfor": 2488,
      "puszcz": 2489,
      "rwaÅĤ": 2490,
      "ĠtakÄħ": 2491,
      "ĠspojrzaÅĤa": 2492,
      "wym": 2493,
      "dycha": 2494,
      "ĠmaleÅĦ": 2495,
      "ĠJed": 2496,
      "ach": 2497,
      "Ġspodzie": 2498,
      "trzeb": 2499,
      ").": 2500,
      "nowaÄĩ": 2501,
      "ÅĤym": 2502,
      "dziÄĻ": 2503,
      "Ġsamym": 2504,
      "ktor": 2505,
      "Ġprzynajmniej": 2506,
      "cenia": 2507,
      "Ġkosz": 2508,
      "jÄħcej": 2509,
      "ÅĽniÄĻ": 2510,
      "Ġobec": 2511,
      "ĠporozmawiaÄĩ": 2512,
      "Ġkur": 2513,
      "Ġopowie": 2514,
      "ĠmiÄĻk": 2515,
      "ĠPrzecieÅ¼": 2516,
      "ĠPrzepraszam": 2517,
      "Ġwest": 2518,
      "ĠkrÃ³": 2519,
      "nale": 2520,
      "woje": 2521,
      "ĠbÄĻdÄħ": 2522,
      "ĠjesteÅĽmy": 2523,
      "puszcza": 2524,
      "Ġpowinna": 2525,
      "ĠÅĤy": 2526,
      "czam": 2527,
      "ĠgÅĤosie": 2528,
      "ĠcaÅĤkowi": 2529,
      "ĠkÄħ": 2530,
      "czeÅĽnie": 2531,
      "ĠuwaÅ¼a": 2532,
      "Ġgniew": 2533,
      "Ġwchodzi": 2534,
      "ĠwpÅĤy": 2535,
      "Ġwspa": 2536,
      "Ġwreszcie": 2537,
      "chnie": 2538,
      "Ġstanowi": 2539,
      "ĠEle": 2540,
      "Ġnajbardziej": 2541,
      "ĠCar": 2542,
      "dopodob": 2543,
      "Ġmomen": 2544,
      "Ġrodziny": 2545,
      "Ġlata": 2546,
      "ĠkaÅ¼dy": 2547,
      "Ġuwie": 2548,
      "tycznie": 2549,
      "Ġcy": 2550,
      "cego": 2551,
      "Ġprzypad": 2552,
      "Ġodpowiadam": 2553,
      "Ġkoch": 2554,
      "Ġznajd": 2555,
      "gh": 2556,
      "gnÄĻÅĤa": 2557,
      "mÄĻ": 2558,
      "Ġszar": 2559,
      "kre": 2560,
      "ksi": 2561,
      "Ġsmak": 2562,
      "jÄĻcie": 2563,
      "ĠÅĽmiechem": 2564,
      "Ġostatni": 2565,
      "waÅĤy": 2566,
      "ĠsÅĤysz": 2567,
      "ĠstaÅĤ": 2568,
      "Ġwoj": 2569,
      "ho": 2570,
      "Ġdosta": 2571,
      "Ġlep": 2572,
      "chnÄĻÅĤa": 2573,
      "lec": 2574,
      "Ġotwar": 2575,
      "liby": 2576,
      "Ġpodoba": 2577,
      "Ġogrom": 2578,
      "Ġwczoraj": 2579,
      "ÅĽni": 2580,
      "czyÅĤo": 2581,
      "ĠPowi": 2582,
      "ĠleÅ¼": 2583,
      "Ġzmu": 2584,
      "Ġresz": 2585,
      "piÄħ": 2586,
      "Ġprzede": 2587,
      "ĠdÅ¼in": 2588,
      "ĠwÄĻ": 2589,
      "Ġwsta": 2590,
      "ĠtÄħ": 2591,
      "Ġplan": 2592,
      "rucho": 2593,
      "ĠSÄħ": 2594,
      "dny": 2595,
      "ĠbÅĤy": 2596,
      "ĠWiÄĻc": 2597,
      "cenie": 2598,
      "tom": 2599,
      "Ġzami": 2600,
      "ĠuÅ¼y": 2601,
      "than": 2602,
      "dÅĤo": 2603,
      "ziÄĻ": 2604,
      "ĠKto": 2605,
      "ĠkÅĤa": 2606,
      "stry": 2607,
      "Ġniespo": 2608,
      "Ġpart": 2609,
      "Ġzab": 2610,
      "chodzÄħ": 2611,
      "trzeÄĩ": 2612,
      "Ġinaczej": 2613,
      "Ġwyrzu": 2614,
      "woÅĽÄĩ": 2615,
      "Ġfo": 2616,
      "Ġkolejny": 2617,
      "ĠczÅĤowiek": 2618,
      "Ġnieu": 2619,
      "Ġproblem": 2620,
      "Ġzdu": 2621,
      "ĠbÃ³l": 2622,
      "fe": 2623,
      "rnie": 2624,
      "taÅĤam": 2625,
      "chÃ³d": 2626,
      "ĠBethany": 2627,
      "Ġdale": 2628,
      "ĠÅĽrodka": 2629,
      "Ġwieczorem": 2630,
      "urwa": 2631,
      "ĠgÅĤÃ³w": 2632,
      "ĠÅĤazie": 2633,
      "Ġzbli": 2634,
      "Ġoskar": 2635,
      "Ġzapach": 2636,
      "ĠgÅĤÄĻboko": 2637,
      "lone": 2638,
      "ĠDzi": 2639,
      "niÄħdze": 2640,
      "UÅĽmiech": 2641,
      "fiÄĻ": 2642,
      "ĠzostaÅĤa": 2643,
      "ĠdokÅĤadnie": 2644,
      "Ġoznaj": 2645,
      "Ġwsze": 2646,
      "ĠpomysÅĤ": 2647,
      "tlant": 2648,
      "czone": 2649,
      "Ġpozwa": 2650,
      "Ġwspomnie": 2651,
      "tlantic": 2652,
      "ĠkrÃ³t": 2653,
      "ĠWiesz": 2654,
      "liwie": 2655,
      "dania": 2656,
      "Ġostrze": 2657,
      "Ġzasa": 2658,
      "siÅĤa": 2659,
      "Ġwypa": 2660,
      "ĠgdzieÅĽ": 2661,
      "ranto": 2662,
      "esz": 2663,
      "ĠWyglÄħda": 2664,
      "Ġbudy": 2665,
      "ĠczÄĻsto": 2666,
      "ĠpÄĻ": 2667,
      "padÅĤa": 2668,
      "nny": 2669,
      "ĠmÃ³wiÄħc": 2670,
      "dzieli": 2671,
      "Ġsukie": 2672,
      "czeniu": 2673,
      "Ġcieka": 2674,
      "ĠksiÄħÅ¼": 2675,
      "ph": 2676,
      "Ġwil": 2677,
      "Ġprzytu": 2678,
      "Ġwargi": 2679,
      "ĠpomÃ³": 2680,
      "ĠtyÅĤ": 2681,
      "Ġmate": 2682,
      "Ġule": 2683,
      "raÅĤ": 2684,
      "twa": 2685,
      "Ġpsy": 2686,
      "Ġdziecko": 2687,
      "owaÅĤy": 2688,
      "szem": 2689,
      "Ġponad": 2690,
      "Ġsprawy": 2691,
      "bieram": 2692,
      "ĠMikael": 2693,
      "sÅĤy": 2694,
      "dziÅĤam": 2695,
      "ĠzmÄĻ": 2696,
      "Ġemo": 2697,
      "Ġkieszeni": 2698,
      "nowa": 2699,
      "Ġcu": 2700,
      "Ġczerwo": 2701,
      "ÅĤopo": 2702,
      "czyÅĤam": 2703,
      "ĠJes": 2704,
      "ĠÅ¼adnych": 2705,
      "Ġzastanawi": 2706,
      "ĠzÄĻby": 2707,
      "bÅĤa": 2708,
      "Ġrano": 2709,
      "Ġskar": 2710,
      "rÃ³j": 2711,
      "ĠszyjÄĻ": 2712,
      "ĠPaul": 2713,
      "Ġbrzmi": 2714,
      "rzyÅĤo": 2715,
      "ĠSt": 2716,
      "owiÄħ": 2717,
      "Ġpozo": 2718,
      "ĠCze": 2719,
      "ĠgwaÅĤtow": 2720,
      "Ġoka": 2721,
      "Ġho": 2722,
      "lna": 2723,
      "ĠChodÅº": 2724,
      "ir": 2725,
      "Ġzmia": 2726,
      "rzenia": 2727,
      "ton": 2728,
      "Ġdecy": 2729,
      "braÅĤ": 2730,
      "Ġwielu": 2731,
      "Ġnum": 2732,
      "sztaÅĤ": 2733,
      "ĠBez": 2734,
      "czaÅĤ": 2735,
      "Ġkrew": 2736,
      "ĠczoÅĤo": 2737,
      "ĠmÃ³wiÅĤ": 2738,
      "ĠnaleÅ¼y": 2739,
      "ana": 2740,
      "lubi": 2741,
      "wiaÄĩ": 2742,
      "Ġstronie": 2743,
      "IAÅģ": 2744,
      "ĠcaÅĤujÄĻ": 2745,
      "Ġpoch": 2746,
      "Ġide": 2747,
      "tyka": 2748,
      "Ġszk": 2749,
      "ina": 2750,
      "pÃ³ki": 2751,
      "Ġscho": 2752,
      "Ġniko": 2753,
      "ĠRam": 2754,
      "cznego": 2755,
      "Ġtwoja": 2756,
      "ĠÅĽwiecie": 2757,
      "Ġwam": 2758,
      "Ġspod": 2759,
      "piÅĤa": 2760,
      "ĠHector": 2761,
      "aki": 2762,
      "Ġkoniec": 2763,
      "wienie": 2764,
      "Ġinne": 2765,
      "ĠÅĽla": 2766,
      "Ġzain": 2767,
      "ĠodpowiedÅº": 2768,
      "ĠimiÄĻ": 2769,
      "ĠDziÄĻki": 2770,
      "ĠsÅĤa": 2771,
      "Ġodez": 2772,
      "iast": 2773,
      "sunÄĻÅĤa": 2774,
      "ĠCaÅĤ": 2775,
      "Ġzdra": 2776,
      "ĠjeÅ¼eli": 2777,
      "ĠdoÅĽwiad": 2778,
      "Ġustach": 2779,
      "ĠHo": 2780,
      "gÅĤy": 2781,
      "cznoÅĽci": 2782,
      "koÅĦ": 2783,
      "wien": 2784,
      "ĠpieniÄħdze": 2785,
      "Ġnosem": 2786,
      "Ġkieli": 2787,
      "nce": 2788,
      "chylam": 2789,
      "ĠbÅĤa": 2790,
      "ĠRozumie": 2791,
      "Ġfir": 2792,
      "ĠsÅĤucha": 2793,
      "Ġmieszkania": 2794,
      "ĠMyÅĽl": 2795,
      "Ġmocniej": 2796,
      "lnÄħ": 2797,
      "ĠAtlantic": 2798,
      "ÅĤaszcza": 2799,
      "Ko": 2800,
      "Ġpozy": 2801,
      "Ġmatki": 2802,
      "Ġskle": 2803,
      "ÅĤego": 2804,
      "ĠgorÄħ": 2805,
      "Ġpolicz": 2806,
      "dawca": 2807,
      "Ġseku": 2808,
      "ĠnaleÅ¼": 2809,
      "ĠodparÅĤ": 2810,
      "Ġprosto": 2811,
      "DZIAÅģ": 2812,
      "Ġrodza": 2813,
      "ĠtysiÄĻcy": 2814,
      "die": 2815,
      "wraca": 2816,
      "Ġkrwi": 2817,
      "bija": 2818,
      "Ġraczej": 2819,
      "ĠczÅĤo": 2820,
      "ĠsÅĤÃ³w": 2821,
      "ĠCity": 2822,
      "ĠuÅĽci": 2823,
      "lub": 2824,
      "wych": 2825,
      "ĠzostaÄĩ": 2826,
      "ĠiÅĽÄĩ": 2827,
      "Ġrozpa": 2828,
      "Ġspotk": 2829,
      "ĠÅĤzy": 2830,
      "lnej": 2831,
      "Ġist": 2832,
      "lii": 2833,
      "ĠMyÅĽlÄĻ": 2834,
      "ĠwiadomoÅĽÄĩ": 2835,
      "czekaÄĩ": 2836,
      "ruje": 2837,
      "Ġstu": 2838,
      "ĠdziesiÄĻ": 2839,
      "Ġkiedykolwiek": 2840,
      "ĠcaÅĤkiem": 2841,
      "Ġzachwy": 2842,
      "El": 2843,
      "hy": 2844,
      "ĠwyÅĤÄħ": 2845,
      "ĠbiaÅĤ": 2846,
      "ĠsÅĤowo": 2847,
      "rami": 2848,
      "nes": 2849,
      "Ġmor": 2850,
      "ĠOk": 2851,
      "beth": 2852,
      "ii": 2853,
      "ĠmoÅ¼emy": 2854,
      "ĠczuÅĤa": 2855,
      "mm": 2856,
      "ĠPie": 2857,
      "Ġgot": 2858,
      "ĠrÄĻka": 2859,
      "ĠMoje": 2860,
      "ĠpaniÄħ": 2861,
      "kazaÄĩ": 2862,
      "rzem": 2863,
      "niejsze": 2864,
      "Ġskoro": 2865,
      "Ġkrok": 2866,
      "dowa": 2867,
      "Ġpia": 2868,
      "Ġski": 2869,
      "niami": 2870,
      "dach": 2871,
      "syw": 2872,
      "ĠmyÅĽleÄĩ": 2873,
      "Ġrzecz": 2874,
      "jrzaÅĤa": 2875,
      "ris": 2876,
      "ĠbÄĻdziemy": 2877,
      "aÅĤbym": 2878,
      "Ġpopro": 2879,
      "Ġodda": 2880,
      "Ġgor": 2881,
      "Ġsprawi": 2882,
      "ĠosÃ³b": 2883,
      "Ġdziewczyny": 2884,
      "Ġpowstrzyma": 2885,
      "ĠHenry": 2886,
      "Ġzdzi": 2887,
      "ĠwypeÅĤ": 2888,
      "Ġtakich": 2889,
      "ĠkomÃ³r": 2890,
      "Å¼na": 2891,
      "Ġrobo": 2892,
      "teres": 2893,
      "Ġkoryta": 2894,
      "Ġrozba": 2895,
      "Ġucha": 2896,
      "Ġspe": 2897,
      "Wz": 2898,
      "ĠCzujÄĻ": 2899,
      "Ġbierze": 2900,
      "Ġjutro": 2901,
      "ĠprzyglÄħda": 2902,
      "Ġzwykle": 2903,
      "sat": 2904,
      "ĠdaÄĩ": 2905,
      "Ġsprawa": 2906,
      "Ġwpatru": 2907,
      "ĠElliot": 2908,
      "ĠgÅĤoÅĽno": 2909,
      "ĠChcesz": 2910,
      "powia": 2911,
      "ĠzaÅĤo": 2912,
      "ĠbyÅĤem": 2913,
      "Ġgabinetu": 2914,
      "zwo": 2915,
      "Ġochro": 2916,
      "Ġniebie": 2917,
      "czer": 2918,
      "Ġtygod": 2919,
      "entu": 2920,
      "Ġmama": 2921,
      "Ġtwoim": 2922,
      "ĠdrugÄħ": 2923,
      "Ġpewien": 2924,
      "lnym": 2925,
      "stor": 2926,
      "dzieÅĽcia": 2927,
      "zywa": 2928,
      "ber": 2929,
      "czni": 2930,
      "wego": 2931,
      "Ġtwar": 2932,
      "ĠbÃ³": 2933,
      "Ġwieczo": 2934,
      "Ġgotowa": 2935,
      "ĠpieniÄĻ": 2936,
      "ĠmogÅĤam": 2937,
      "ĠPani": 2938,
      "ĠpomyÅĽlaÅĤa": 2939,
      "Mam": 2940,
      "ney": 2941,
      "ĠmiaÅĤem": 2942,
      "ĠAl": 2943,
      "Je": 2944,
      "gna": 2945,
      "kowaÄĩ": 2946,
      "Ġsztu": 2947,
      "enta": 2948,
      "Mu": 2949,
      "Å»": 2950,
      "Ġjaka": 2951,
      "imo": 2952,
      "Ġdobra": 2953,
      "ĠÅĽnia": 2954,
      "log": 2955,
      "Ġsprawia": 2956,
      "Ġpojawia": 2957,
      "Ġcholery": 2958,
      "ĠJessi": 2959,
      "ĠMogÄĻ": 2960,
      "Ġpewnie": 2961,
      "Ġdra": 2962,
      "niaÅĤa": 2963,
      "ten": 2964,
      "Ġsprawie": 2965,
      "Ġuwagi": 2966,
      "ĠciÄħgu": 2967,
      "Ġsch": 2968,
      "Ġtem": 2969,
      "Ġnaszej": 2970,
      "Å¼enie": 2971,
      "ĠcaÅĤym": 2972,
      "ĠpoÅ¼Äħda": 2973,
      "koju": 2974,
      "Ġmieli": 2975,
      "ĠtuÅ¼": 2976,
      "ĠpoÅĤu": 2977,
      "Ġdotar": 2978,
      "ĠprzyszÅĤo": 2979,
      "ĠodparÅĤa": 2980,
      "nami": 2981,
      "Ġdosko": 2982,
      "Ġpowietrz": 2983,
      "mujÄĻ": 2984,
      "Ġtajem": 2985,
      "ĠchciaÅĤam": 2986,
      "ĠczymÅĽ": 2987,
      "Ġzmar": 2988,
      "Ġporusza": 2989,
      "),": 2990,
      "ĠwrÄĻ": 2991,
      "Ġprzej": 2992,
      "mienia": 2993,
      "sami": 2994,
      "Ġunosi": 2995,
      "Ġpropo": 2996,
      "ĠFly": 2997,
      "wielbi": 2998,
      "ĠwieczÃ³r": 2999,
      "ĠjÄĻzyk": 3000,
      "ÅĽwie": 3001,
      "Å¼yÅĤam": 3002,
      "Ġrozumiem": 3003,
      "dziesiÄħt": 3004,
      "ĠmaleÅĦka": 3005,
      "icho": 3006,
      "biega": 3007,
      "rzuca": 3008,
      "Ġserca": 3009,
      "ĠpocaÅĤu": 3010,
      "Cholera": 3011,
      "Ġwst": 3012,
      "lom": 3013,
      "Ġswego": 3014,
      "znaÅĤ": 3015,
      "Ġzwa": 3016,
      "ĠAnd": 3017,
      "Ġrzuca": 3018,
      "ÅĽrÃ³d": 3019,
      "Ġpoda": 3020,
      "Ġdoprowa": 3021,
      "ĠJeÅ¼eli": 3022,
      "Ġfil": 3023,
      "Ġopowia": 3024,
      "ĠprÃ³bujÄħc": 3025,
      "ROZ": 3026,
      "Ta": 3027,
      "paÅĤ": 3028,
      "stem": 3029,
      "ÄħdÅº": 3030,
      "ĠJoh": 3031,
      "ĠnapiÄĻ": 3032,
      "ĠKie": 3033,
      "wyraÅº": 3034,
      "ĠsprÃ³b": 3035,
      "chyliÅĤ": 3036,
      "ĠstÃ³": 3037,
      "ĠwziÄĻ": 3038,
      "Ġwyczu": 3039,
      "Ġcztery": 3040,
      "Ġleka": 3041,
      "ĠCoÅĽ": 3042,
      "Ġkierunku": 3043,
      "ĠWÅĤaÅĽnie": 3044,
      "Ki": 3045,
      "ĠzajÄĻ": 3046,
      "atrzy": 3047,
      "Ġreak": 3048,
      ".,": 3049,
      "gaÅĤ": 3050,
      "Ġniewi": 3051,
      "wiÄħza": 3052,
      "ROZDZIAÅģ": 3053,
      "dio": 3054,
      "niajÄħc": 3055,
      "szep": 3056,
      "Ġwina": 3057,
      "Ġzrozu": 3058,
      "ĠcaÅĤuje": 3059,
      "wu": 3060,
      "Ġtonem": 3061,
      "ĠMie": 3062,
      "Ġszyi": 3063,
      "ĠTu": 3064,
      "ĠbyÅĤoby": 3065,
      "Ġstole": 3066,
      "szeÄĩ": 3067,
      "Adre": 3068,
      "lek": 3069,
      "ĠmyÅĽlÄĻ": 3070,
      "znaÅĤa": 3071,
      "Ġwykorzy": 3072,
      "Ġniech": 3073,
      "sek": 3074,
      "Ġstop": 3075,
      "Nadawca": 3076,
      "ĠskÅĤa": 3077,
      "ÅĤos": 3078,
      "ĠBa": 3079,
      "Ġjednego": 3080,
      "ĠczÄĻÅĽÄĩ": 3081,
      "Ġkochanie": 3082,
      "ciskam": 3083,
      "Adresat": 3084,
      "waÅĤam": 3085,
      "cier": 3086,
      "ĠpoczÄħtku": 3087,
      "Ã©": 3088,
      "rie": 3089,
      "erba": 3090,
      "ĠjednoczeÅĽnie": 3091,
      "ĠoÅĽwiad": 3092,
      "rad": 3093,
      "Ġbru": 3094,
      "Ġsytuacji": 3095,
      "Ġinnym": 3096,
      "ĠdÅĤuÅ¼ej": 3097,
      "ĠGdyby": 3098,
      "Ġszpita": 3099,
      "iorÄĻ": 3100,
      "Ġprzekona": 3101,
      "Ġprzo": 3102,
      "logi": 3103,
      "trzÄĻ": 3104,
      "ĠrzekÅĤ": 3105,
      "pomnie": 3106,
      "Ġmomencie": 3107,
      "ĠY": 3108,
      "ĠÅģ": 3109,
      "ĠmÄĻÅ¼a": 3110,
      "Ġogar": 3111,
      "Ġokre": 3112,
      "ĠJednak": 3113,
      "Te": 3114,
      "mniej": 3115,
      "Ġdoj": 3116,
      "ĠchÄĻ": 3117,
      "Ġkciu": 3118,
      "Ġosobi": 3119,
      "Ġprysz": 3120,
      "rzenie": 3121,
      "nÄħtrz": 3122,
      "Ġfote": 3123,
      "ĠHy": 3124,
      "syÅĤa": 3125,
      "Ġzwraca": 3126,
      "Ġspotkanie": 3127,
      "ĠcaÅĤkowicie": 3128,
      "ĠoczywiÅĽcie": 3129,
      "Ġdecyz": 3130,
      "ĠposÅĤu": 3131,
      "it": 3132,
      "ĠBess": 3133,
      "ĠÅĽle": 3134,
      "Ġtale": 3135,
      "ĠpewnoÅĽciÄħ": 3136,
      "ĠmÄħÅ¼": 3137,
      "szko": 3138,
      "Ġruch": 3139,
      "ĠpomyÅĽlaÅĤ": 3140,
      "Ġideal": 3141,
      "siÄħc": 3142,
      "ĠsamochÃ³d": 3143,
      "ĠchÅĤopak": 3144,
      "Ġwyb": 3145,
      "Ġprodu": 3146,
      "Ġkontak": 3147,
      "ĠgÅĤÄĻboki": 3148,
      "Ġodwraca": 3149,
      "Ġzamiar": 3150,
      "Ġkwia": 3151,
      "ĠmoÅ¼li": 3152,
      "Ġszla": 3153,
      "ÅĽlad": 3154,
      "ĠdiabÅĤa": 3155,
      "ĠwyraÅºnie": 3156,
      "ĠpowstrzymaÄĩ": 3157,
      "ĠzwrÃ³ci": 3158,
      "Ġniebezpie": 3159,
      "Ġsty": 3160,
      "ĠdopÃ³ki": 3161,
      "Ġmuzy": 3162,
      "Ġznacznie": 3163,
      "ĠPanie": 3164,
      "prost": 3165,
      "dopodobnie": 3166,
      "ĠpÅĤo": 3167,
      "dycham": 3168,
      "ĠwiedziaÅĤam": 3169,
      "Ġsiedzi": 3170,
      "Ġtwojej": 3171,
      "Ġwew": 3172,
      "kaj": 3173,
      "wiach": 3174,
      "Ġdrodze": 3175,
      "ĠpoczuÅĤa": 3176,
      "ĠwyjÄħtk": 3177,
      "Ġciele": 3178,
      "domi": 3179,
      "ĠHol": 3180,
      "Ġstaje": 3181,
      "siem": 3182,
      "Ġgodziny": 3183,
      "tr": 3184,
      "ĠwdziÄĻ": 3185,
      "rok": 3186,
      "lenie": 3187,
      "ĠÅĤÄħ": 3188,
      "Ġzaczynam": 3189,
      "Ġplecy": 3190,
      "sey": 3191,
      "grze": 3192,
      "Ġodkry": 3193,
      "zajem": 3194,
      "ĠzamkniÄĻ": 3195,
      "ĠczÄĻÅĽci": 3196,
      "ĠzwiÄħza": 3197,
      "ĠpomÃ³c": 3198,
      "Ġwobec": 3199,
      "Ġnasz": 3200,
      "ĠbÅĤÄĻ": 3201,
      "dzieÅĦ": 3202,
      "braÅĤa": 3203,
      "Ni": 3204,
      "lnego": 3205,
      "ĠrobiÄĻ": 3206,
      "ĠLeah": 3207,
      "ĠOkej": 3208,
      "szli": 3209,
      "Ġjedna": 3210,
      "ĠpowtÃ³": 3211,
      "szoÅĽÄĩ": 3212,
      "ĠMÃ³wi": 3213,
      "Lu": 3214,
      "Ġzaw": 3215,
      "ĠDusti": 3216,
      "aÅĤych": 3217,
      "rymi": 3218,
      "dziÅĤem": 3219,
      "ĠHyde": 3220,
      "mp": 3221,
      "Ġpoprze": 3222,
      "gim": 3223,
      "Ġpoje": 3224,
      "ĠPoza": 3225,
      "siÄħce": 3226,
      "Ġokoli": 3227,
      "wiony": 3228,
      "ĠLuke": 3229,
      "ĠpieniÄĻdzy": 3230,
      "iem": 3231,
      "Ġniewiel": 3232,
      "Ġtrzydzie": 3233,
      "nc": 3234,
      "Ġnieza": 3235,
      "ĠCrew": 3236,
      "Ġcha": 3237,
      "Ġchro": 3238,
      "ĠpotrafiÄĻ": 3239,
      "ÅĤeÅĽ": 3240,
      "Ġoto": 3241,
      "Ġpopa": 3242,
      "Ġprzesuwa": 3243,
      "ĠJas": 3244,
      "dej": 3245,
      "Ġwzroku": 3246,
      "ĠrodzicÃ³w": 3247,
      "Ġzainteres": 3248,
      "lki": 3249,
      "liza": 3250,
      "wajÄħc": 3251,
      "ĠmiaÅĤo": 3252,
      "ĠDzieÅĦ": 3253,
      "zaÅĤ": 3254,
      "godni": 3255,
      "Ġnumer": 3256,
      "jesz": 3257,
      "Ġkocham": 3258,
      "Ġpanu": 3259,
      "ĠKu": 3260,
      "ĠÅ¼ona": 3261,
      "Ġwystarcza": 3262,
      "Dla": 3263,
      "Ġban": 3264,
      "Ġinny": 3265,
      "ĠwÅĤosÃ³w": 3266,
      "Ġcudow": 3267,
      "Ġspokojnie": 3268,
      "Ġdoktor": 3269,
      "jeÅ¼dÅ¼a": 3270,
      "ĠÅĽciÄħ": 3271,
      "naÅĽcie": 3272,
      "por": 3273,
      "ĠwidaÄĩ": 3274,
      "ĠwyjÅĽÄĩ": 3275,
      "ĠczÅĤowieka": 3276,
      "dwo": 3277,
      "Ġwas": 3278,
      "ĠmaÅĤo": 3279,
      "ÅĽciÄĩ": 3280,
      "paÄĩ": 3281,
      "ĠmogÅĤo": 3282,
      "Ġrobisz": 3283,
      "Ġopar": 3284,
      "ĠusÅĤy": 3285,
      "Ġoznajmi": 3286,
      "ux": 3287,
      "orie": 3288,
      "ĠAleksi": 3289,
      "ĠbliÅ¼ej": 3290,
      "Ġmiasta": 3291,
      "zo": 3292,
      "kÅĤadam": 3293,
      "terp": 3294,
      "Ġostatnie": 3295,
      "Ġramionach": 3296,
      "tkÄĻ": 3297,
      "Ġpomie": 3298,
      "Ġboga": 3299,
      "ĠlubiÄĻ": 3300,
      "Ġdrzwiach": 3301,
      "ĠtwojÄħ": 3302,
      "ĠdwadzieÅĽcia": 3303,
      "ĠspytaÅĤ": 3304,
      "ĠCzeÅĽÄĩ": 3305,
      "Ġwieku": 3306,
      "ĠrÄĻki": 3307,
      "ĠByÅĤo": 3308,
      "Ġustami": 3309,
      "ĠmiÅĤoÅĽÄĩ": 3310,
      "Å¼enia": 3311,
      "ĠstÄħd": 3312,
      "Ġnor": 3313,
      "Ġkas": 3314,
      "reb": 3315,
      "Ġpragnie": 3316,
      "ntÃ³w": 3317,
      "zm": 3318,
      "ĠzÅĤy": 3319,
      "ĠZosta": 3320,
      "attle": 3321,
      "ĠwargÄĻ": 3322,
      "Ġdrugi": 3323,
      "ĠmÄĻÅ¼czyzn": 3324,
      "aÅĤabym": 3325,
      "Ġhra": 3326,
      "resztÄħ": 3327,
      "Ġposzu": 3328,
      "ĠPi": 3329,
      "Ġkolo": 3330,
      "ĠkawaÅĤ": 3331,
      "MoÅ¼e": 3332,
      "RozdziaÅĤ": 3333,
      "Ġfu": 3334,
      "Ġpotwier": 3335,
      "ĠwrÃ³ciÄĩ": 3336,
      "Ġmruczy": 3337,
      "ĠspokÃ³j": 3338,
      "pliwoÅĽci": 3339,
      "Ġzre": 3340,
      "Ġpowta": 3341,
      "Ġpokaz": 3342,
      "Ġzaj": 3343,
      "Ġpiep": 3344,
      "ĠMad": 3345,
      "Ġoznacza": 3346,
      "ĠVan": 3347,
      "tami": 3348,
      "zra": 3349,
      "Ġska": 3350,
      "red": 3351,
      "Ġprzypomina": 3352,
      "Ġmoment": 3353,
      "Ġodej": 3354,
      "cer": 3355,
      "piera": 3356,
      "Ġbur": 3357,
      "ĠwziÄħÄĩ": 3358,
      "Le": 3359,
      "Ġmili": 3360,
      "Ġstud": 3361,
      "Ġzmieni": 3362,
      "ĠgÃ³ry": 3363,
      "Ġprzeciwko": 3364,
      "cio": 3365,
      "Ġfoto": 3366,
      "Ġwzru": 3367,
      "ĠCholera": 3368,
      "tkiem": 3369,
      "ĠDranto": 3370,
      "ĠÅ¼ar": 3371,
      "ĠsÄħd": 3372,
      "ĠopuÅĽci": 3373,
      "ĠPrÃ³b": 3374,
      "ĠpracÄĻ": 3375,
      "Ġspu": 3376,
      "Ġnajpierw": 3377,
      "ĠkolacjÄĻ": 3378,
      "ĠÅĽrodku": 3379,
      "Ġseksual": 3380,
      "Ġdie": 3381,
      "nar": 3382,
      "glÄħdaÅĤ": 3383,
      "ĠMoÅ¼esz": 3384,
      "ĠpowaÅ¼": 3385,
      "fek": 3386,
      "Ġsamego": 3387,
      "ĠRos": 3388,
      "cky": 3389,
      "rzaÅĤam": 3390,
      "Ġspecja": 3391,
      "dko": 3392,
      "Ġdrogi": 3393,
      ".-": 3394,
      "ĠszeÅĽÄĩ": 3395,
      "Ġcent": 3396,
      "Ġmaj": 3397,
      "ĠpodÅĤogÄĻ": 3398,
      "Ġnienawi": 3399,
      "ĠWz": 3400,
      "ĠSp": 3401,
      "Ġwywo": 3402,
      "wol": 3403,
      "ĠwidziaÅĤ": 3404,
      "Ġstoli": 3405,
      "ĠkobietÄħ": 3406,
      "Ġczerw": 3407,
      "ĠÅĽwiad": 3408,
      "Ġpowinnam": 3409,
      "tnym": 3410,
      "Ġzga": 3411,
      "Ġzez": 3412,
      "lia": 3413,
      "ĠprzeszÅĤo": 3414,
      "Ġkomple": 3415,
      "Ġzastana": 3416,
      "Ġnerw": 3417,
      "Ġzapomni": 3418,
      "ĠGe": 3419,
      "Ġherba": 3420,
      "lnych": 3421,
      "owni": 3422,
      "ÅĽciu": 3423,
      "ĠmogÄħ": 3424,
      "ĠjakoÅĽ": 3425,
      "snÄħÅĤ": 3426,
      "ĠSu": 3427,
      "ĠZam": 3428,
      "Ġprzyjacie": 3429,
      "Ġpostanowi": 3430,
      "Ġpre": 3431,
      "Ġmiesz": 3432,
      "ĠFran": 3433,
      "stety": 3434,
      "ĠrzeczywiÅĽcie": 3435,
      "ĠpatrzÄĻ": 3436,
      "nn": 3437,
      "stej": 3438,
      "Ġczter": 3439,
      "waÅ¼am": 3440,
      "bro": 3441,
      "ĠzaÅĤa": 3442,
      "Ġpoliczek": 3443,
      "adie": 3444,
      "ĠÅĽciska": 3445,
      "rach": 3446,
      "nienia": 3447,
      "Ġznajo": 3448,
      "Ġwolno": 3449,
      "Pro": 3450,
      "âĢĶ": 3451,
      "Ġdwo": 3452,
      "ĠCzu": 3453,
      "ĠpowiedziaÅĤam": 3454,
      "Ġkierow": 3455,
      "Ġbrata": 3456,
      "domoÅĽÄĩ": 3457,
      "ottie": 3458,
      "hyl": 3459,
      "Ġzi": 3460,
      "Ġtwier": 3461,
      "Ġrozmawia": 3462,
      "tujÄĻ": 3463,
      "ĠdziÄĻkujÄĻ": 3464,
      "ĠSeattle": 3465,
      "Mar": 3466,
      "stru": 3467,
      "ĠgÅĤa": 3468,
      "Ġrozmowy": 3469,
      "Ġinten": 3470,
      "Ġokazji": 3471,
      "ĠzasÅĤu": 3472,
      "Ġuzna": 3473,
      "obo": 3474,
      "ĠgoÅĽci": 3475,
      "Ġznajdu": 3476,
      "ĠÅ¼adnego": 3477,
      "ĠPowiedz": 3478,
      "Ġnazwi": 3479,
      "tnÄħ": 3480,
      "ĠwÅĤÄħ": 3481,
      "Ġpory": 3482,
      "ĠcaÅĤa": 3483,
      "Ġodwie": 3484,
      "eken": 3485,
      "Ġwymie": 3486,
      "Ġplecami": 3487,
      "krÃ³t": 3488,
      "muje": 3489,
      "wej": 3490,
      "Ġam": 3491,
      "Ġan": 3492,
      "Ġwyszep": 3493,
      "ĠLi": 3494,
      "Ġzew": 3495,
      "ĠHe": 3496,
      "giem": 3497,
      "ĠskÃ³rÄĻ": 3498,
      "nÃ³": 3499,
      "Ġzni": 3500,
      "szczo": 3501,
      "Ġgrze": 3502,
      "laÅĤ": 3503,
      "stki": 3504,
      "kom": 3505,
      "dajÄħc": 3506,
      "ĠTym": 3507,
      "Ġchoro": 3508,
      "Ma": 3509,
      "ĠkÅĤam": 3510,
      "Ġplecach": 3511,
      "ĠzapytaÅĤa": 3512,
      "ĠspytaÅĤa": 3513,
      "Ġprzyzna": 3514,
      "luz": 3515,
      "ĠEn": 3516,
      "Ġzdoby": 3517,
      "ciÄħgnÄĻÅĤa": 3518,
      "ĠnastÄĻpnie": 3519,
      "Ġwszystkiego": 3520,
      "dar": 3521,
      "tÅĤu": 3522,
      "ĠSÅĤu": 3523,
      "Ġprawo": 3524,
      "Ġbrak": 3525,
      "Ġsali": 3526,
      "ST": 3527,
      "Ġniepew": 3528,
      "ĠCzas": 3529,
      "Ġzostanie": 3530,
      "Ġwyma": 3531,
      "wyraÅºniej": 3532,
      "ĠÅĽpi": 3533,
      "ĠprzyjemnoÅĽÄĩ": 3534,
      "Ġoboje": 3535,
      "ĠÅĤazienki": 3536,
      "fo": 3537,
      "he": 3538,
      "Ġwku": 3539,
      "ĠstaÅĤa": 3540,
      "ĠsÅĤyszÄĻ": 3541,
      "ĠpodÅĤodze": 3542,
      "ĠWojcie": 3543,
      "kcie": 3544,
      "Ġpalec": 3545,
      "prac": 3546,
      "ĠzwiÄħzku": 3547,
      "Ġzje": 3548,
      "deÅĤ": 3549,
      "Ġha": 3550,
      "ĠdÅĤoniÄħ": 3551,
      "pliwie": 3552,
      "ĠCody": 3553,
      "ĠCzemu": 3554,
      "ĠrozmowÄĻ": 3555,
      "ĠPraw": 3556,
      "tÄħd": 3557,
      "Ġuprze": 3558,
      "ĠAch": 3559,
      "nione": 3560,
      "Ġszeptem": 3561,
      "ĠdÅºwiÄĻk": 3562,
      "Ġwykrzy": 3563,
      "Ġprzychodzi": 3564,
      "Äħco": 3565,
      "jam": 3566,
      "Ġposia": 3567,
      "gor": 3568,
      "ĠWtedy": 3569,
      "ĠrozmawiaÄĩ": 3570,
      "zyb": 3571,
      "Ġspojrzeniem": 3572,
      "Ġkwe": 3573,
      "ĠobowiÄħ": 3574,
      "ĠkawÄĻ": 3575,
      "czasem": 3576,
      "ĠtÅĤuma": 3577,
      "ĠJackie": 3578,
      "ĠAndre": 3579,
      "pÅĤa": 3580,
      "Ġczuje": 3581,
      "ĠskrÄĻ": 3582,
      "ĠuÅĽmiechnÄĻÅĤa": 3583,
      "Ġtakiej": 3584,
      "ĠRozumiem": 3585,
      "dr": 3586,
      "Ġosiem": 3587,
      "ĠidÄĻ": 3588,
      "noc": 3589,
      "tera": 3590,
      "pina": 3591,
      "ĠdÅĤugi": 3592,
      "ĠjakiegoÅĽ": 3593,
      "Ġchwyta": 3594,
      "Ġkre": 3595,
      "trzÄħ": 3596,
      "Ġgodzin": 3597,
      "jechaÅĤ": 3598,
      "?!": 3599,
      "niki": 3600,
      "Ġumy": 3601,
      "ĠmaÅĤÅ¼e": 3602,
      "ĠpokÃ³j": 3603,
      "Ġprzeprowa": 3604,
      "Ġkorzy": 3605,
      "ĠÅĽwiÄĻ": 3606,
      "Ġtrudno": 3607,
      "Ġklie": 3608,
      "ÅĤaÅĽ": 3609,
      "Ġusia": 3610,
      "waÅ¼a": 3611,
      "ĠprzykÅĤad": 3612,
      "Ġpodchodzi": 3613,
      "moÅ¼": 3614,
      "ĠDlatego": 3615,
      "larÃ³w": 3616,
      "Ġwysoko": 3617,
      "ding": 3618,
      "waÅĤem": 3619,
      "ĠChase": 3620,
      "dzaÄĩ": 3621,
      "ĠzobaczyÅĤa": 3622,
      "00": 3623,
      "wracam": 3624,
      "Ġ*": 3625,
      "ĠPew": 3626,
      "stanawi": 3627,
      "Ġkurwa": 3628,
      "Ġweeken": 3629,
      "Ġziemi": 3630,
      "Ġuczucie": 3631,
      "Ġhistor": 3632,
      "nuje": 3633,
      "Ġoczeki": 3634,
      "szÅĤam": 3635,
      "ĠZrobi": 3636,
      "ĠÅ¼oÅĤ": 3637,
      "ĠgwaÅĤtownie": 3638,
      "cona": 3639,
      "Ġoni": 3640,
      "ela": 3641,
      "kura": 3642,
      "niony": 3643,
      "Ġkwa": 3644,
      "rop": 3645,
      "ĠzaÅĽ": 3646,
      "ĠÅĤagodnie": 3647,
      "Ġjakiej": 3648,
      "pomnieÄĩ": 3649,
      "ÅĤaÅĤ": 3650,
      "ĠkÅĤÃ³": 3651,
      "ĠPotrzeb": 3652,
      "Ġpomieszcze": 3653,
      "ver": 3654,
      "lenia": 3655,
      "czyÅĤy": 3656,
      "ĠsamÄħ": 3657,
      "Ġproble": 3658,
      "ĠwziÄħÅĤ": 3659,
      "fie": 3660,
      "gaÅĤa": 3661,
      "czyÅĤem": 3662,
      "chodzÄħc": 3663,
      "ĠInc": 3664,
      "sÄħ": 3665,
      "Ġjakbym": 3666,
      "ÅĽciÅĤ": 3667,
      "ĠStra": 3668,
      "Ġsyna": 3669,
      "ĠpiÄĻkna": 3670,
      "krÃ³tce": 3671,
      "ĠEnterp": 3672,
      "Ġnarze": 3673,
      "Ġkart": 3674,
      "gach": 3675,
      "Ġzegar": 3676,
      "czÄħce": 3677,
      "ĠMusisz": 3678,
      "Bo": 3679,
      "NA": 3680,
      "Ġzg": 3681,
      "che": 3682,
      "ĠpoÅĤÄħ": 3683,
      "wajÄħ": 3684,
      "czes": 3685,
      "ĠZna": 3686,
      "ĠuÅĽmiechnÄħÅĤ": 3687,
      "kowa": 3688,
      "Äĺ": 3689,
      "ĠMimo": 3690,
      "trzymy": 3691,
      "rises": 3692,
      "Ob": 3693,
      "czar": 3694,
      "ĠNiech": 3695,
      "ĠbiorÄĻ": 3696,
      "ĠÅĽmierci": 3697,
      "ĠPamiÄĻ": 3698,
      "ĠSadie": 3699,
      "ĠdziewiÄĻ": 3700,
      "ĠÅĤatwo": 3701,
      "ĠNikt": 3702,
      "rani": 3703,
      "Ġniedo": 3704,
      "wiona": 3705,
      "Ġwyzna": 3706,
      "ĠwidziaÅĤa": 3707,
      "Ġodzywa": 3708,
      "ĠEnterprises": 3709,
      "raÅĤa": 3710,
      "Ġkamie": 3711,
      "Ġpor": 3712,
      "Ġzaciska": 3713,
      "ĠtaÅĦ": 3714,
      "Ġkolejne": 3715,
      "ĠzwÅĤaszcza": 3716,
      "Ġurodzi": 3717,
      "Ġzamyka": 3718,
      "Ra": 3719,
      "trÄħ": 3720,
      "Ġnaszych": 3721,
      "Ġwyk": 3722,
      "Ġwysta": 3723,
      "ĠÅ¼aÅĤ": 3724,
      "orient": 3725,
      "dle": 3726,
      "Ġab": 3727,
      "Ġboku": 3728,
      "ĠÅĽwiatÅĤo": 3729,
      "ĠÅºle": 3730,
      "urat": 3731,
      "Ġwieczoru": 3732,
      "ĠdaÅĤ": 3733,
      "Ġnieo": 3734,
      "ĠpatrzeÄĩ": 3735,
      "erwa": 3736,
      "Ġpode": 3737,
      "Ġsuk": 3738,
      "chniÄĻ": 3739,
      "Ġbrze": 3740,
      "wienia": 3741,
      "Ġnajmniej": 3742,
      "cisnÄħÅĤ": 3743,
      "ven": 3744,
      "Ġtrafi": 3745,
      "Ġodrobi": 3746,
      "tury": 3747,
      "Ġbud": 3748,
      "Ġblo": 3749,
      "ĠAsh": 3750,
      "Ġdup": 3751,
      "ĠzakÅĤa": 3752,
      "sÅĤucha": 3753,
      "Przez": 3754,
      "cjona": 3755,
      "Sz": 3756,
      "Ġwindy": 3757,
      "ĠHolding": 3758,
      "kty": 3759,
      "laÅĤa": 3760,
      "ĠpoznaÄĩ": 3761,
      "Ġnieprzy": 3762,
      "ĠFa": 3763,
      "Ġprzodu": 3764,
      "Ġnaszego": 3765,
      "Ġprzeszka": 3766,
      "resu": 3767,
      "Ġrozkaz": 3768,
      "ĠMiaÅĤ": 3769,
      "ĠJulie": 3770,
      "ĠjakÄħÅĽ": 3771,
      "ery": 3772,
      "Ġidzie": 3773,
      "nice": 3774,
      "ĠFlo": 3775,
      "Ġbada": 3776,
      "Ġrumie": 3777,
      "Ġczerwca": 3778,
      "rzej": 3779,
      "Å¼em": 3780,
      "Ġakurat": 3781,
      "Ġramieniu": 3782,
      "No": 3783,
      "nkiem": 3784,
      "stwie": 3785,
      "wione": 3786,
      "Ġge": 3787,
      "dajÄĻ": 3788,
      "Ġodczu": 3789,
      "Ġszczy": 3790,
      "ĠwÅĤosach": 3791,
      "ĠkimÅĽ": 3792,
      "nÃ³stwo": 3793,
      "Ġ4": 3794,
      "Ġdodaje": 3795,
      "tanie": 3796,
      "ĠTwo": 3797,
      "stoj": 3798,
      "isbeth": 3799,
      "ĠHoldings": 3800,
      "wszem": 3801,
      "szki": 3802,
      "ĠprÃ³bowaÅĤ": 3803,
      "ĠRay": 3804,
      "ĠTaylo": 3805,
      "Ġauto": 3806,
      "Ġwilgo": 3807,
      "Ġmateri": 3808,
      "ĠmiaÅĤy": 3809,
      "lot": 3810,
      "cony": 3811,
      "Ġkompu": 3812,
      "Ġprowadzi": 3813,
      "Ġbezpiecze": 3814,
      "Ġpowinien": 3815,
      "Ġdaleko": 3816,
      "Ġwszel": 3817,
      "wiaÅĤ": 3818,
      "ĠLottie": 3819,
      "ÄħcÄħ": 3820,
      "ĠchciaÅĤem": 3821,
      "ĠzdjÄĻcia": 3822,
      "ĠmÃ³gÅĤby": 3823,
      "ĠodwrÃ³ciÅĤ": 3824,
      "Ġupo": 3825,
      "prasza": 3826,
      "Ġpusty": 3827,
      "gnÄħÄĩ": 3828,
      "Ġwsty": 3829,
      "ers": 3830,
      "ĠkobietÄĻ": 3831,
      "ĠszczegÃ³l": 3832,
      "Ġpozwala": 3833,
      "ĠiÅ¼": 3834,
      "Ġzamiast": 3835,
      "Ġzamierza": 3836,
      "***": 3837,
      "puszczam": 3838,
      "gen": 3839,
      "rzony": 3840,
      "Ġpacje": 3841,
      "ĠSko": 3842,
      "ĠGrace": 3843,
      "Ġdowo": 3844,
      "Ġstwo": 3845,
      "Ġnogami": 3846,
      "ĠcaÅĤej": 3847,
      "ĠczujÄħc": 3848,
      "ĠciÄħgle": 3849,
      "ĠÅļwie": 3850,
      "ĠciepÅĤo": 3851,
      "Ġnikogo": 3852,
      "ĠMart": 3853,
      "tynu": 3854,
      "anta": 3855,
      "ĠÅĽwiata": 3856,
      "Ġosoby": 3857,
      "ĠmÄĻÅ¼czyzny": 3858,
      "Ġsalonu": 3859,
      "zwyczaj": 3860,
      "Ġdrze": 3861,
      "ĠprzeÅ¼y": 3862,
      "ĠWe": 3863,
      "Ġsiedem": 3864,
      "ĠMiaÅĤa": 3865,
      "ĠtÄĻsk": 3866,
      "ĠwrÃ³ciÅĤa": 3867,
      "Ġinteres": 3868,
      "Ġrodzaju": 3869,
      "uxley": 3870,
      "toÅĽÄĩ": 3871,
      "ĠZe": 3872,
      "ĠspoÅĤe": 3873,
      "etrÃ³w": 3874,
      "ĠstaÄĩ": 3875,
      "ĠzrobiÄĻ": 3876,
      "Ġmusimy": 3877,
      "Ġlun": 3878,
      "Ġpalcem": 3879,
      "Ġmarki": 3880,
      "Ġnierucho": 3881,
      "ĠdolarÃ³w": 3882,
      "kanie": 3883,
      "ĠTan": 3884,
      "wyÅ¼": 3885,
      "ĠdÅĤugie": 3886,
      "ĠsprawdziÄĩ": 3887,
      "ĠrzuciÅĤ": 3888,
      "Ġorganiz": 3889,
      "ĠbÃ³lu": 3890,
      "Ġprywa": 3891,
      "chaÅĤa": 3892,
      "Ġnaszym": 3893,
      "mina": 3894,
      "Ġrozmawi": 3895,
      "Ġnos": 3896,
      "ĠwzglÄĻdu": 3897,
      "ĠUÅĽmiecha": 3898,
      "dzeniu": 3899,
      "Ġbutel": 3900,
      "ĠpatrzyÅĤ": 3901,
      "ĠBÄĻdÄĻ": 3902,
      "Ġmorder": 3903,
      "wki": 3904,
      "ler": 3905,
      "Ġsamej": 3906,
      "ĠmoÅ¼liwe": 3907,
      "ĠSawy": 3908,
      "Kurwa": 3909,
      "vana": 3910,
      "Ġzajm": 3911,
      "Ġprzypomni": 3912,
      "toÅĽci": 3913,
      "ĠSI": 3914,
      "Äħcym": 3915,
      "Ġpowinienem": 3916,
      "trzymaÄĩ": 3917,
      "Ġbudynku": 3918,
      "dÅĤem": 3919,
      "ĠwÅĽrÃ³d": 3920,
      "dajÄħ": 3921,
      "ĠoglÄħda": 3922,
      "Ġpapie": 3923,
      "zyg": 3924,
      "Ġpromie": 3925,
      "ĠduÅ¼e": 3926,
      "Ġmaja": 3927,
      "Ġpierwsze": 3928,
      "ĠwiadomoÅĽci": 3929,
      "Ġpowstrzym": 3930,
      "93": 3931,
      "Ġpogo": 3932,
      "Ġczemu": 3933,
      "ĠChwy": 3934,
      "ĠrÄĻkami": 3935,
      "ĠspojrzeÄĩ": 3936,
      "ĠzobaczyÅĤ": 3937,
      "rywajÄħc": 3938,
      "jrzaÅĤ": 3939,
      "Ġznam": 3940,
      "lach": 3941,
      "ĠZer": 3942,
      "Ġrela": 3943,
      "ĠKaÅ¼": 3944,
      "ĠwÄħtpliwoÅĽci": 3945,
      "ciÅĤam": 3946,
      "Ġgry": 3947,
      "ĠNagle": 3948,
      "ĠHan": 3949,
      "Ġstosu": 3950,
      "Ġzdenerw": 3951,
      "ciÅĽniÄĻ": 3952,
      "Ġdoku": 3953,
      "ĠNe": 3954,
      "kimi": 3955,
      "Ġgdybym": 3956,
      "ĠmyÅĽlisz": 3957,
      "ĠzauwaÅ¼yÅĤ": 3958,
      "ĠpowaÅ¼nie": 3959,
      "ĠzakoÅĦ": 3960,
      "wielbiam": 3961,
      "Ġnowo": 3962,
      "Ġdre": 3963,
      "szona": 3964,
      "ĠminÄĻ": 3965,
      "ĠÅ¼ony": 3966,
      "ĠwewnÄĻtrz": 3967,
      "Ġpodzi": 3968,
      "len": 3969,
      "ĠprzeraÅ¼": 3970,
      "Ġdaje": 3971,
      "gÅĤÄĻ": 3972,
      "ĠtwarzÄħ": 3973,
      "Ġfacet": 3974,
      "Ġdwudzie": 3975,
      "Ġistnie": 3976,
      "ĠGÅĤos": 3977,
      "Ġprzym": 3978,
      "Ġmary": 3979,
      "Ġdam": 3980,
      "Ġniezna": 3981,
      "Ġulubi": 3982,
      "ĠrozeÅĽ": 3983,
      "del": 3984,
      "przeciw": 3985,
      "ĠchciaÅĤbym": 3986,
      "ĠmruknÄħÅĤ": 3987,
      "Ġtwojego": 3988,
      "Ġuspoko": 3989,
      "Ġidio": 3990,
      "ĠPhyl": 3991,
      "staÅĦ": 3992,
      "wieram": 3993,
      "ĠodpowiedziaÅĤ": 3994,
      "ĠukryÄĩ": 3995,
      "Ġeksp": 3996,
      "dÅĤuÅ¼": 3997,
      "hi": 3998,
      "towaÅĤ": 3999,
      "ĠpÅĤ": 4000,
      "Ġpodsta": 4001,
      "Ġspodnie": 4002,
      "siej": 4003,
      "Ġ~": 4004,
      "ĠkÅĤopo": 4005,
      "nica": 4006,
      "liÅĽcie": 4007,
      "czysz": 4008,
      "ĠwyszÅĤa": 4009,
      "ĠkaÅ¼dego": 4010,
      "iÅĤ": 4011,
      "jmy": 4012,
      "Ġmro": 4013,
      "aÅĤu": 4014,
      "Ġkomu": 4015,
      "ĠBie": 4016,
      "szenie": 4017,
      "niejszy": 4018,
      "Ġzmienia": 4019,
      "UÅĽmiecha": 4020,
      "bek": 4021,
      "knÄħÄĩ": 4022,
      "ĠwyszedÅĤ": 4023,
      "ĠAnie": 4024,
      "skam": 4025,
      "Ġpubli": 4026,
      "ĠkaÅ¼dej": 4027,
      "jona": 4028,
      "ĠstoÅĤu": 4029,
      "ĠparÄĻ": 4030,
      "ĠzauwaÅ¼yÅĤa": 4031,
      "ĠciÄĻÅ¼ko": 4032,
      "kÅĤy": 4033,
      "Ġpoka": 4034,
      "les": 4035,
      "ĠSto": 4036,
      "ĠOwszem": 4037,
      "ĠpragnÄĻ": 4038,
      "zujÄħc": 4039,
      "ĠzostaÅĤo": 4040,
      "ĠmruczÄĻ": 4041,
      "czymy": 4042,
      "Ġtrzech": 4043,
      "Ġkolana": 4044,
      "ĠzaleÅ¼y": 4045,
      "jeÅ¼dÅ¼": 4046,
      "Ġuko": 4047,
      "Ġtoreb": 4048,
      "Jestem": 4049,
      "her": 4050,
      "ĠkrÄħ": 4051,
      "liwy": 4052,
      "wiele": 4053,
      "Ġcof": 4054,
      "Ġelega": 4055,
      "ĠpeÅĤne": 4056,
      "sen": 4057,
      "nij": 4058,
      "kaÅĦ": 4059,
      "ĠwidzieÄĩ": 4060,
      "skaÄĩ": 4061,
      "nkÄħ": 4062,
      "ĠmnÃ³stwo": 4063,
      "Ġcel": 4064,
      "Ġwypad": 4065,
      "bio": 4066,
      "Ġpodnosi": 4067,
      "Ġlatach": 4068,
      "ĠuÅĽmiechu": 4069,
      "Ġszybciej": 4070,
      "Ġpomoc": 4071,
      "ĠHenri": 4072,
      "Ġhotelu": 4073,
      "Ga": 4074,
      "dia": 4075,
      "ĠPu": 4076,
      "Potem": 4077,
      "Ġstrach": 4078,
      "sÃ©": 4079,
      "Ġodwa": 4080,
      "ĠKat": 4081,
      "Ġludz": 4082,
      "nowaÅĤa": 4083,
      "Ġpunk": 4084,
      "Ġwyba": 4085,
      "ĠWszyscy": 4086,
      "tecznie": 4087,
      "ĠSkÄħd": 4088,
      "ĠAlex": 4089,
      "Ġzaufa": 4090,
      "ĠkoszulÄĻ": 4091,
      "Ġintensyw": 4092,
      "rowo": 4093,
      "ĠpoÅ¼e": 4094,
      "Ġzawie": 4095
    },
    "merges": [
      "i e",
      "č Ċ",
      "Å Ĥ",
      "Ä Ļ",
      "Ġ p",
      "Ġ s",
      "Ġ w",
      "Ġ n",
      "Ä ħ",
      "Ġ z",
      "Ġ m",
      "r z",
      "Å ¼",
      "c z",
      "Ġ t",
      "â Ģ",
      "i ÄĻ",
      "a ÅĤ",
      "c h",
      "Ġ d",
      "Ġ j",
      "Å Ľ",
      "âĢ ĵ",
      "o w",
      "Ġ o",
      "s t",
      "r a",
      "s z",
      "n ie",
      "a m",
      "Ã ³",
      "d z",
      "Ä ĩ",
      "Ġn a",
      "Ġ k",
      "Ġs iÄĻ",
      "Ġp o",
      "Ġ i",
      "n i",
      "r o",
      "Ġ b",
      "g o",
      "l e",
      "n a",
      "Ġn ie",
      "c i",
      "Ġj e",
      "rz e",
      "a k",
      "ÅĤ a",
      "Å¼ e",
      "Ġd o",
      "l i",
      "Ġz a",
      "e m",
      "Ġ âĢĵ",
      "y m",
      "a r",
      "w i",
      "rz y",
      "Ġ Å¼e",
      "Ġ u",
      "k a",
      "n e",
      "ÅĤ o",
      "k o",
      "Ġ c",
      "Ġ a",
      "j Äħ",
      "cz y",
      "dz i",
      "Ġ g",
      "aÅĤ a",
      "j e",
      "Ġw y",
      "w a",
      "d y",
      "n y",
      "l a",
      "Ġ N",
      "Ġt o",
      "Ġp rze",
      "Ġm o",
      "r e",
      "Ġ P",
      "t a",
      "d a",
      "Ġo d",
      "c ie",
      "cz e",
      "k i",
      "dz ie",
      "c e",
      "Ġ C",
      "p o",
      "ow a",
      "Ġm i",
      "Ġ A",
      "Ġb y",
      "o b",
      "n o",
      "Ġ T",
      "Ġt e",
      "Ġ W",
      "w o",
      "r y",
      "Ġ ch",
      "b y",
      "Ġ M",
      "n Äħ",
      "i a",
      "Ġj ak",
      "Ġ ro",
      "Ã³ w",
      "Ġp rzy",
      "t e",
      "Ġ J",
      "st a",
      "j ÄĻ",
      "Ġk o",
      "ni a",
      "Ġm nie",
      "k u",
      "Ġn i",
      "r u",
      "Ġs z",
      "Ġje j",
      "jÄħ c",
      "t y",
      "ÅĽ ci",
      "Ġp a",
      "Ġje st",
      "w ie",
      "m ie",
      "Ġt ak",
      "s i",
      "ĠN ie",
      "ow ie",
      "sz y",
      "Å Ħ",
      "t o",
      "Ġ cz",
      "m y",
      "Ġc o",
      "Ġ S",
      "ÅĤ y",
      "b i",
      "e r",
      "j a",
      "t Ã³",
      "n ÄĻ",
      "ra z",
      "Ġ Z",
      "Å¼ y",
      "m i",
      "k ie",
      "Ġpo d",
      "Ġ D",
      "Ġ B",
      "Ġk tÃ³",
      "Ġw ie",
      "am i",
      "Ġt y",
      "b ie",
      "Ġm a",
      "Ġd z",
      "Ġro z",
      "p a",
      "Ġ O",
      "sz e",
      "l u",
      "r ÄĻ",
      "r Ã³",
      "ÅĽ Äĩ",
      "d e",
      "Ġ go",
      "ÅĤ u",
      "c a",
      "Ġs t",
      "Ġ ÅĽ",
      "c y",
      "l o",
      "a s",
      "p ra",
      "Ġ -",
      "Ġs po",
      "Ġa le",
      "ch o",
      "Ġ G",
      "Ġm u",
      "g a",
      "Ġ ci",
      "wi a",
      "ob ie",
      "t u",
      "Å º",
      "aÅĤ o",
      "Ġ K",
      "ĠC h",
      "ĠJ e",
      "e n",
      "m a",
      "ÅĤ am",
      "Ġj Äħ",
      "Ġo b",
      "n ym",
      "p ie",
      "p i",
      "ĠP o",
      "z y",
      "aÅĤ am",
      "Ġje go",
      "k ÄĻ",
      "w y",
      "Ġt ym",
      "e j",
      "ow i",
      "Ġm Ã³",
      "Ġw i",
      "u Å¼",
      "Ġg ÅĤ",
      "Ġp ra",
      "a n",
      "r i",
      "u je",
      "ie dy",
      "Ġ R",
      "Ġp owie",
      "Ġ ra",
      "ch a",
      "Äħ d",
      "Ġp ro",
      "d o",
      "Ġ f",
      "i m",
      "s u",
      "ĠN a",
      "ĠT o",
      "e ÅĽ",
      "d ÄĻ",
      "e z",
      "szy st",
      "Ġ L",
      "o r",
      "b a",
      "e t",
      "aÅĤ y",
      "Ġdz ie",
      "ny ch",
      "ne go",
      "m u",
      "Ġm ie",
      "Ġte go",
      "nie j",
      "Äħ c",
      "Ġz e",
      "Ġg dy",
      "sz ÄĻ",
      "ow o",
      "l ko",
      "Ġc ie",
      "Ġpo t",
      "nÄħ ÅĤ",
      "e k",
      "Ġ le",
      "Ġs obie",
      "aÅĤ em",
      "Ġ I",
      "Ġd la",
      "cz ÄĻ",
      "Ġ H",
      "Ġs am",
      "ĠÅ¼e by",
      "ne j",
      "s y",
      "ÅĽ li",
      "Ġp ie",
      "g i",
      "Ġs wo",
      "e go",
      "Ġ raz",
      "Ġi n",
      "ow y",
      "Ġw szyst",
      "o na",
      "Ġb ar",
      "Ġz na",
      "Ġj a",
      "g l",
      "o n",
      "s a",
      "Ġb ÄĻ",
      "z a",
      "kie m",
      "t rz",
      "d u",
      "owa Äĩ",
      "Ġje d",
      "Ġk a",
      "i l",
      "Ġs p",
      "e w",
      "cz a",
      "ÅĽ mie",
      "Ġj uÅ¼",
      "sz cze",
      "Ġb o",
      "ÅĽ cie",
      "Ġmo je",
      "Ġprze z",
      "Ġw z",
      "Ġs ta",
      "Ġ rÄĻ",
      "Ġmo g",
      "Ġk iedy",
      "ĠZ a",
      "dz o",
      "Ġw iÄĻ",
      "ci Äħ",
      "Ġ czy",
      "m o",
      "ci a",
      "pra w",
      "âĢ ¦",
      "ÅĤ em",
      "Ġty lko",
      ". .",
      "u jÄĻ",
      "Ġs ie",
      "Å¼ a",
      "ĉ ĉ",
      "s k",
      "ni u",
      "Ġ lu",
      "nÄĻ ÅĤa",
      "Ġz ro",
      "j i",
      "Ġch o",
      "dzi aÅĤ",
      "Ġc iÄĻ",
      "Ġs k",
      "r w",
      "Ġm y",
      "l ÄĻ",
      "Ġod p",
      "sz a",
      "cz u",
      "Ġ E",
      "Ġby ÅĤo",
      "b o",
      "Ġn o",
      "ĠmÃ³ wi",
      "Ġm am",
      "c ÄĻ",
      "Ġ Å¼y",
      "Ã³ ÅĤ",
      "cze go",
      "Ġk u",
      "z na",
      "ĠA le",
      "âĢ ŀ",
      "Ġw o",
      "n t",
      "Ġd a",
      "ĠM o",
      "ĠktÃ³ re",
      "Ġ U",
      "ĠT ak",
      "n iÄĻ",
      "ĠgÅĤ ow",
      "Ġb ez",
      "b ym",
      "Ã³ j",
      "ow aÅĤ",
      "âĢ Ŀ",
      "k Äħ",
      "Ġz am",
      "st ia",
      "ĠA na",
      "rz u",
      "ĠJe st",
      "Ġ h",
      "n u",
      "Ġdo b",
      "Ġna j",
      "ÅĽ my",
      "Ġmo Å¼e",
      "Ġby ÅĤ",
      "ĠC o",
      "Ġo czy",
      "ri stia",
      "ĠbÄĻ dzie",
      "p u",
      "Ġcz as",
      "cz o",
      "s ka",
      "Ġprze d",
      "i o",
      "nie m",
      "Ġt u",
      "Ġje szcze",
      "c ji",
      "Ġp y",
      "dz e",
      "a t",
      "a l",
      "Ġw ÅĤa",
      "ÅĽ l",
      "Ġsz e",
      "P o",
      "Ġc aÅĤ",
      "Ġdz i",
      "ĠktÃ³ ry",
      "Ġby ÅĤa",
      "Ġ re",
      "ÅĽ nie",
      "w aÅĤ",
      "Ġza p",
      "Ġbar dzo",
      "Ġzro bi",
      "z u",
      "Ġni Äħ",
      "Ġnie j",
      "ĠW y",
      "e ÅĤ",
      "r Äħ",
      "ÅĽmie ch",
      "Ġch wi",
      "Ġs to",
      "Ġg ÅĤo",
      "Ġ F",
      "r owa",
      "Ġco ÅĽ",
      "s ie",
      "Ġz o",
      "Ġpo z",
      "Ġ âĢŀ",
      "Ġnie go",
      "s ia",
      "c u",
      "Äħ da",
      "ĠJ a",
      "ĠP rze",
      "t em",
      "Ġt a",
      "ĠG re",
      "n ow",
      "dzi aÅĤa",
      "ĠCh ristia",
      "st o",
      "c ja",
      "rÃ³ ci",
      "no ÅĽci",
      "dz ÄĻ",
      "ni o",
      "g ÅĤ",
      "Ġ la",
      "Ġw e",
      "j em",
      "cz Äħ",
      "Ġt wa",
      "rz a",
      "s ko",
      "ĠGre y",
      "Ġs Äħ",
      "t nie",
      "Ġsie bie",
      "Ġp ew",
      "e l",
      "N ie",
      "Ġsz y",
      "Ġpa ni",
      "k ÅĤa",
      "Ġ ÅĤ",
      "Ġch ci",
      "d nie",
      "cz nie",
      "cho dzi",
      "i ch",
      "w et",
      "ni k",
      "dz y",
      "Ġd ÅĤo",
      "g dy",
      "Ġte raz",
      "Ġte Å¼",
      "f i",
      "Ġz d",
      "rÃ³ b",
      "s iÄĻ",
      "le j",
      "Ġmu si",
      "dzie Äĩ",
      "iÄĻ k",
      "ob a",
      "ow aÅĤa",
      "Ġp ow",
      "Ġwszyst ko",
      "rz ym",
      "Ġk obie",
      "Ġna d",
      "ar t",
      "Ã³ Å¼",
      "r Ã³w",
      "gl Äħda",
      "i n",
      "Ġspo j",
      "Ġs y",
      "Ġswo je",
      "s po",
      "li ÅĽmy",
      "j s",
      "Ġd e",
      "Ġ Å¼",
      "Ġ rze",
      "Ġby Äĩ",
      "ĠM a",
      "ĠJ ak",
      "ch y",
      "Ġb i",
      "jÄħ ce",
      "Ġjest em",
      "Ġni m",
      "Ġte n",
      "Ġb u",
      "Ġd rz",
      "g ÄĻ",
      "Ġpa n",
      "Ġ li",
      "Ġsam o",
      "ĠD o",
      "Ġu sta",
      "c o",
      "g u",
      "st y",
      "Ġi ch",
      "ĠR o",
      "Ġ Å",
      "Ġb a",
      "Ġp u",
      "Ġ ÅĤa",
      "Ġpra w",
      "Ġu ÅĽmiech",
      "Ġro bi",
      "Ġ cze",
      "na k",
      "j u",
      "ĠW ie",
      "Ġt wo",
      "Ġs u",
      "d ÅĤ",
      "si Äħ",
      "c jÄĻ",
      "ĠN i",
      "s p",
      "ĠC zy",
      "Ġw ÅĤo",
      "b ra",
      "am y",
      "st ÄĻ",
      "Ġst ro",
      "s ki",
      "Ġm ÄĻ",
      "Ġp i",
      "Ġt am",
      "Ġo g",
      "wa Å¼",
      "Ġ e",
      "ÅĤ Äħ",
      "Ġpy ta",
      "em u",
      "dz a",
      "st u",
      "czy Äĩ",
      "trz ym",
      ".. .",
      "t k",
      "Ġ 2",
      "N a",
      "Ġmie js",
      "Ġo n",
      "Ġdrz wi",
      "ow e",
      "Ġw ar",
      "s ÅĤ",
      "ĠM i",
      "ow ia",
      "ĠD z",
      "ĠgÅĤow Äħ",
      "wa Äĩ",
      "ĠwiÄĻ c",
      "Ġs ÅĤ",
      "praw dÄĻ",
      "dzie j",
      "C h",
      "d ni",
      "Ġko ÅĦ",
      "Ġs pra",
      "Ġte j",
      "t ka",
      "w e",
      "ĠB y",
      "Ġpot em",
      "Ã³ r",
      "jÄħc y",
      "Ġo p",
      "âĢ Ļ",
      "m ia",
      "ka z",
      "b u",
      "t ÄĻ",
      "nÄħ Äĩ",
      "ciÄħ g",
      "e s",
      "Ġo na",
      "ce j",
      "Ġtak ie",
      "c k",
      "Ġni c",
      "w czy",
      "wi Äħ",
      "Ġwz ro",
      "Ġ ru",
      "Ġo t",
      "ch u",
      "Ġcie bie",
      "ĠC z",
      "stÄĻ p",
      "Ġcz ym",
      "t am",
      "Ġdo mu",
      "ra m",
      "ĠO d",
      "ĠP a",
      "dzi Äĩ",
      "Ġna s",
      "d am",
      "no ÅĽÄĩ",
      "Ġd u",
      "Ġ 1",
      "Ġd ÅĤu",
      "Ġna wet",
      "Ġjest eÅĽ",
      "ĠÅĽ mie",
      "Ġjed nak",
      "Ġka Å¼",
      "o ny",
      "gl Äħd",
      "ĠP rzy",
      "d Åº",
      "ĠÅĽ wia",
      "ĠM u",
      "Ġo k",
      "Ġk il",
      "Ġp owi",
      "Ġpa l",
      "Ġo s",
      "te r",
      "g ie",
      "ci u",
      "Ġwie m",
      "Ġg dzie",
      "Ġpie rw",
      "ch ÄĻ",
      "w sze",
      "Ġmi aÅĤ",
      "Ġro dzi",
      "w am",
      "Ġz ak",
      "sz ka",
      "Ġk ie",
      "to r",
      "Ġm nÄħ",
      "Ġszy b",
      "Ġcz u",
      "ĠL u",
      "st rze",
      "ra n",
      "t rze",
      "Ġdob rze",
      "ĠL e",
      "ym i",
      "Ġzo sta",
      "ra ca",
      "Ġmog ÄĻ",
      "Ġp owo",
      "Ġmi aÅĤa",
      "Ġwy da",
      "Ġd ru",
      "Ġodp owie",
      "ki m",
      "Ġw a",
      "j m",
      "ĠMo Å¼e",
      "n am",
      "t aÅĤ",
      "rz Äħ",
      "la n",
      "k t",
      "ni Äĩ",
      "Ġs ko",
      "Å¼ czy",
      "âĢĿ .",
      "en t",
      "ĠAna sta",
      "ĠrÄĻ kÄĻ",
      "l ie",
      "te go",
      "Ġni gdy",
      "pa d",
      "Ġsze p",
      "e c",
      "ÅĽci a",
      "Ã³ Åº",
      "b li",
      "ĠmÃ³ j",
      "Ġpowie dziaÅĤ",
      "Ġch cÄĻ",
      "s o",
      "Ġjak ie",
      "Ġch ce",
      "Ġra mi",
      "s em",
      "Ġdzie wczy",
      "s kie",
      "ĠgÅĤow ÄĻ",
      "Ġpo li",
      "ĠChristia n",
      "ĠB o",
      "Z a",
      "sz Äħ",
      "Ã³ b",
      "Ġmo jÄħ",
      "wie r",
      "d Äħ",
      "e le",
      "w aÅĤa",
      "Ġje ÅĽli",
      "ar y",
      "h a",
      "o t",
      "Ġt ro",
      "Ġa by",
      "Ġraz em",
      "ĠktÃ³ ra",
      "s ÅĤu",
      "u r",
      "ra c",
      "p eÅĤ",
      "Ġni Å¼",
      "Ġs praw",
      "y ba",
      "de n",
      "Ġu wa",
      "Ġpie r",
      "o k",
      "czy ÅĤ",
      "ĠT a",
      "n Ã³w",
      "sz u",
      "Ġspoj rze",
      "Ġg a",
      "dzi ÅĤ",
      "Ã³ l",
      "Ġmy ÅĽl",
      "Ġza ch",
      "w ar",
      "g le",
      "Ġ Å¼a",
      "ĠÅĤ Ã³Å¼",
      "Ġst ra",
      "Ġs er",
      "Ġpo my",
      "Ġi m",
      "ĠwiÄĻ cej",
      "Ġmoje j",
      "ĠS te",
      "Ġt ÄĻ",
      "Ġm iÄĻ",
      "Ġs w",
      "k ry",
      "Ġ czego",
      "ĠK a",
      "p y",
      "ĠM am",
      "sz cz",
      "nym i",
      "Ġjak by",
      "Ġko n",
      "cz as",
      "p ro",
      "am iÄĻ",
      "ĠmÄĻ Å¼czy",
      "Ġz oba",
      "Ġk to",
      "o ne",
      "Ġpo ko",
      "ĠwÅĤa ÅĽnie",
      "ÅĦ st",
      "Ġb ra",
      "Ġmo c",
      "Ġp rÃ³b",
      "Ġla t",
      "ĠT e",
      "Ġp iÄĻ",
      "st e",
      "Ġspo s",
      "w rÃ³ci",
      "k Ã³w",
      "Ġko m",
      "w iÄĻ",
      "t rzy",
      "ty ch",
      "Ġni ch",
      "t Äħ",
      "Ġ lo",
      "t ki",
      "Ġd ro",
      "Ġmo im",
      "p rze",
      "ni Äħ",
      "czy ÅĤa",
      "s ÅĤa",
      "Ġa Å¼",
      "k am",
      "u d",
      "sz ÅĤa",
      "Ġz mie",
      "Ġbar dziej",
      "Ġmog ÅĤa",
      "ĠD la",
      "ra fi",
      "ob Äħ",
      "Ġo j",
      "te dy",
      "Ġzna j",
      "wi Äĩ",
      "owy ch",
      "ÅĽci Äħ",
      "by t",
      "Ġchwi li",
      "ÅĽ wia",
      "ÅĤy sz",
      "k ami",
      "wi ÅĽcie",
      "Ġo sta",
      "ta j",
      "Ġpot rze",
      "Ġrze czy",
      "Ġkil ka",
      "ci ÅĤ",
      "ĠN o",
      "ĠK iedy",
      "p rowa",
      "Ġjak o",
      "P rze",
      "ch am",
      "Ġzo st",
      "ow ej",
      "rÃ³ Å¼",
      "ĠE l",
      "Ġte le",
      "Ġ rÃ³w",
      "sze dÅĤ",
      "te k",
      "re w",
      "Ġna prawdÄĻ",
      "n em",
      "u m",
      "Ġj ÄĻ",
      "Ġp Ã³Åº",
      "Ġw ym",
      "cz ne",
      "r ym",
      "no si",
      "owa nie",
      "Ġ2 0",
      "ku jÄĻ",
      "Ġzrobi Äĩ",
      "ĠT y",
      "wi ÅĤ",
      "d em",
      "Ġtwa rz",
      "Ġko lej",
      "re s",
      "ĠrÄĻ ce",
      "Ġs a",
      "ĠmÃ³ gÅĤ",
      "Ã³ d",
      "Ġtwa rzy",
      "ow Äħ",
      "Ġmo Å¼",
      "Ġjak i",
      "rz ÄĻ",
      "Ġza wsze",
      "W y",
      "le m",
      "Ġchwi lÄĻ",
      "Å¼y ÅĤ",
      "ĠCh o",
      "Ġna dzie",
      "ĠÅĽ wie",
      "Ġa l",
      "Ġodp owia",
      "ni m",
      "li ka",
      "s ku",
      "ne k",
      "r wi",
      "Ġz da",
      "ĠwÅĤo sy",
      "Ġprzy ja",
      "c aÅĤ",
      "Ġd wa",
      "Ġs ÅĤo",
      "z ie",
      "sz cza",
      "ry wa",
      "Ġczas u",
      "ro d",
      "ni ka",
      "ĠSte ele",
      "ow ego",
      "Ġpowie dziaÅĤa",
      "da Äĩ",
      "ĠgÅĤ ÄĻ",
      "Ġci Äħ",
      "dz Äħ",
      "rzym a",
      "f or",
      "ma wia",
      "ĠsÅĤ owa",
      "Ġspos Ã³b",
      "now u",
      "ÅĽ le",
      "Ġza u",
      "Ġpowie dzieÄĩ",
      "Ġu st",
      "da l",
      "ĠkoÅĦ cu",
      "d ob",
      "z n",
      "ĠdÅĤo ÅĦ",
      "ciÄħ Å¼",
      "rz aÅĤ",
      "Ġsz czÄĻ",
      "ĠP ro",
      "cie Å¼",
      "c Ã³w",
      "s cy",
      "Å¼y ÅĤa",
      "O d",
      "Ġs obÄħ",
      "l nie",
      "Ġk rzy",
      "Ġza czy",
      "ra Å¼",
      "ĠG dy",
      "Ġpro stu",
      "k nÄħÅĤ",
      "Ġz de",
      "dzi ÅĤa",
      "Ġcz ÄĻ",
      "Ġtro chÄĻ",
      "Ġa ni",
      "Ġwszyst kie",
      "dzi aÅĤam",
      "Ġch ÅĤo",
      "Ġ rzu",
      "ĠÅ¼a d",
      "Ġf a",
      "ĠmiÄĻ dzy",
      "t owa",
      "ko l",
      "Ġf i",
      "Ġmo ja",
      "ni ÅĤ",
      "Ġs ek",
      "Ġs ÅĤu",
      "do mo",
      "Ġzam ie",
      "u t",
      "Ġszyb ko",
      "cha Äĩ",
      "su wa",
      "b r",
      "c je",
      "ki ch",
      "t aÅĤa",
      "Ġmie szka",
      "ÅĤ owie",
      "Ġ (",
      "ĠD ob",
      "Ġmy ÅĽli",
      "ÅĽ niej",
      "Ġle k",
      "Ġd y",
      "f on",
      "rz Äħd",
      "ow ym",
      "po m",
      "t ar",
      "n ki",
      "Ġb ie",
      "Ġmo ich",
      "Ġchci aÅĤ",
      "b iÄĻ",
      "Ġs i",
      "jÄĻ cia",
      "Ġz w",
      "Ġw rÃ³ci",
      "n ku",
      "Ġpowi n",
      "n owi",
      "ĠJest em",
      "e st",
      "Ġt ru",
      "ÅĽmie cha",
      "Å¼e j",
      "na wi",
      "Ġdo ty",
      "Ġmoje go",
      "Ġt ra",
      "sz ym",
      "Ġwie le",
      "Ġw cze",
      "ka ch",
      "Ġk ro",
      "c Äħ",
      "em at",
      "ĠA r",
      "Ġsz cze",
      "Ġz byt",
      "Ġw sp",
      "z i",
      "ĠJest eÅĽ",
      "Ġm ru",
      "m iÄĻ",
      "p ÅĤy",
      "l am",
      "c em",
      "Ġtak Å¼e",
      "b Äħ",
      "p li",
      "l ni",
      "Ġp eÅĤ",
      "Ġn am",
      "A na",
      "ĠÅ »",
      "g ar",
      "Ġm Ã³w",
      "Ġpo czu",
      "R o",
      "Ġp le",
      "Ġ ry",
      "ka Äĩ",
      "er w",
      "st ro",
      "Ġst ar",
      "g Äħ",
      "g ra",
      "rz aÅĤa",
      "ĠR a",
      "ĠpÃ³Åº niej",
      "Ġpa trzy",
      "wie k",
      "Ġzap y",
      "Ġby ÅĤy",
      "ĠgÅĤo s",
      "Ġpoko ju",
      "t ni",
      "dz Äħc",
      "g ÅĤa",
      "Ġpro szÄĻ",
      "Ġb li",
      "si o",
      "Ġw tedy",
      "da je",
      "ma l",
      "Ġstro nÄĻ",
      "p iÄĻ",
      "kol wiek",
      "st ra",
      "ra Å¼e",
      "Ġcho dzi",
      "cz ym",
      "ĠDz iÄĻ",
      "ĠbÄĻ dÄĻ",
      "Ġza pa",
      "Ġz ÅĤo",
      "Ġje dy",
      "Ġwie l",
      "Ġsz a",
      "Ġt rze",
      "pie j",
      "lo r",
      "Ġpotrze b",
      "ĠK o",
      "e ra",
      "bie ra",
      "da w",
      "ch em",
      "Ġko la",
      "Ġnie z",
      "Ġz m",
      "sz am",
      "st ar",
      "sze go",
      "Ġma sz",
      "ĠW i",
      "Ġp iÄĻk",
      "et h",
      "c ami",
      "ciÄħ ga",
      "ra Åº",
      "sz ÅĤo",
      "Ġpo sta",
      "ĠÅ¼y cie",
      "Ġchci aÅĤa",
      "u jÄħc",
      "o l",
      "Ġ20 1",
      "ci w",
      "ci ÅĤa",
      "Ġw ia",
      "t Ã³w",
      "Ġgdy by",
      "p ia",
      "wi ÅĤa",
      "ĠwÅĤa s",
      "ĠÅ ļ",
      "Ġtu taj",
      "r em",
      "t ra",
      "le Å¼",
      "Ġza czÄĻ",
      "Ġwy j",
      "sze j",
      "n d",
      "ÅĤ e",
      "ĠM y",
      "Ġwzro k",
      "ĠA li",
      "wy k",
      "ĠO ch",
      "Ġty ch",
      "Ġswo jÄħ",
      "cz ny",
      "Ġal bo",
      "g am",
      "Ġnadzie jÄĻ",
      "rzy Äĩ",
      "ty w",
      "Ġtwo je",
      "Ġpier si",
      "Ġgo dzi",
      "Ġwy glÄħda",
      "Ġro ku",
      "ĠrÃ³w nie",
      "Ġm e",
      "Ġd uÅ¼",
      "Ġle cz",
      "cze j",
      "r t",
      "Ġm ÅĤo",
      "re z",
      "Ġroz m",
      "zu mie",
      "Ġin te",
      "po mi",
      "ĠChristia nie",
      "Ġpra c",
      "Ġpra cy",
      "Ġ ak",
      "m Ã³",
      "Ġk la",
      "mia st",
      "li ÅĤ",
      "Ġg ar",
      "st i",
      "dze nia",
      "Ġko nt",
      "Ġlu dzi",
      "t ru",
      "owa na",
      "f a",
      "Ġcz ÅĤowie",
      "Ġs ku",
      "Ġd w",
      "d ÅĤa",
      "Ġt rzy",
      "Ġb io",
      "Ġtele fon",
      "ĠWie m",
      "Ġob ok",
      "Ġpo ja",
      "z e",
      "b e",
      "ĠktÃ³ rÄħ",
      "ĠktÃ³ rym",
      "ĠPo d",
      "ĠmÃ³w iÄĻ",
      "Ġrami ona",
      "s e",
      "de k",
      "Ġwo l",
      "re n",
      "Ġtak i",
      "sz o",
      "Ġci aÅĤo",
      "Ġg ru",
      "ĠG a",
      "T o",
      "Ġcho le",
      "Ġpy tam",
      "la z",
      "Ġz wiÄħ",
      "Ġg Ã³",
      "Å¼y Äĩ",
      "Ġswo im",
      "ĠB ar",
      "si ÅĤ",
      "ko j",
      "nÄĻ ÅĤam",
      "D o",
      "a d",
      "o te",
      "Ġcz ar",
      "Ġde lika",
      "pie ro",
      "Ġp ar",
      "ĠG ra",
      "Ġwcze ÅĽniej",
      "s Ã³w",
      "Ġt emu",
      "li Äĩ",
      "Ġto bÄħ",
      "rac am",
      "Ġza sta",
      "go d",
      "szy ch",
      "cia Å¼",
      "Ġw ciÄħÅ¼",
      "ci Äĩ",
      "Ġwy ja",
      "cze nie",
      "Ġos ob",
      "nie waÅ¼",
      "Ġod e",
      "Ġsk Ã³",
      "Ġmoc no",
      "Ġz ie",
      "ro z",
      "Ġci cho",
      "uje sz",
      "ÅĽwia d",
      "Ġch yba",
      "k ro",
      "g nie",
      "M o",
      "Ġo kaz",
      "Ġcho Äĩ",
      "l ar",
      "ĠÅĽ rod",
      "Ġpraw da",
      "Ġpo caÅĤ",
      "ak a",
      "cz ki",
      "Ġz nowu",
      "Ġwie cz",
      "jem y",
      "szy scy",
      "re sz",
      "ĠDla czego",
      "Ġm ar",
      "ne r",
      "Ġsta nie",
      "ĠÅĽwia t",
      "ĠRo z",
      "Ġc aÅĤy",
      "Ġst aÅĤo",
      "Ġspo tka",
      "ĠPro szÄĻ",
      "ni ÅĤa",
      "ĠTa y",
      "t wo",
      "ĠgÅĤÄĻ bo",
      "P rzy",
      "Ġjed no",
      "o sta",
      "ĠAnasta sio",
      "aÅĤ e",
      "Ġo zna",
      "n ka",
      "Ġo cho",
      "cza ch",
      "ĠMu si",
      "Ġza nim",
      "ĠktÃ³re j",
      "ĠM ar",
      "Ġwy ko",
      "owa nia",
      "owa ny",
      "o m",
      "ĠCh ci",
      "Ġu da",
      "ĠJe ÅĽli",
      "Å¼ ÄĻ",
      "cze nia",
      "ĠD a",
      "st Äħ",
      "Ro z",
      "Ġu ro",
      "r wa",
      "Ġpoz wo",
      "ĠP owie",
      "Ġpo rzÄħd",
      "o d",
      "Ġcie m",
      "cie c",
      "Ġza d",
      "dzi aÅĤem",
      "t ow",
      "i Äħ",
      "g ÅĤo",
      "ro bi",
      "Ġtakie go",
      "k Ã³j",
      "Ġs pa",
      "ĠJ o",
      "Ġmie Äĩ",
      "rzy ÅĤ",
      "czy wiÅĽcie",
      "rÃ³ t",
      "Ġwi do",
      "Ġpomy ÅĽl",
      "Ġz nÃ³w",
      "Ġp e",
      "Ġw pa",
      "Ġraz ie",
      "Ġp amiÄĻ",
      "ĠJe j",
      "d Ã³w",
      "Ġu d",
      "Ġg ra",
      "n k",
      "k nÄĻÅĤa",
      "ÅĽ la",
      "le p",
      "Ġkto ÅĽ",
      "de ch",
      "ÅĽ lÄĻ",
      "Ġu s",
      "le ga",
      "Ġ rÃ³Å¼",
      "Ġdla czego",
      "ĠgÅĤ owy",
      "go ÅĽ",
      "Ġdla tego",
      "ĠNi gdy",
      "Ġpa na",
      "ĠJe go",
      "Ġpot rafi",
      "Ġzau wa",
      "cz na",
      "Ġd nia",
      "jÄħc o",
      "an na",
      "Ġty le",
      "ĠÅ¼y cia",
      "w ÄĻ",
      "Ġpa trz",
      "Ġku ch",
      "ta ch",
      "Ġb ro",
      "i s",
      "Ġpod czas",
      "wie ra",
      "noÅĽci Äħ",
      "Ġpa nie",
      "Ġcz ujÄĻ",
      "Ġmiejs ce",
      "cho dzÄĻ",
      "ĠCh cÄĻ",
      "tych miast",
      "Ġp rowa",
      "C o",
      "Ġza trzym",
      "Ġpo mo",
      "Ġsamo cho",
      "Ġk ar",
      "Ġodp ar",
      "z d",
      "Äħ t",
      "Ġdz iÄĻ",
      "Ġk i",
      "Ġmu szÄĻ",
      "ra j",
      "Ġdru gie",
      "ĠTe raz",
      "Ġo czach",
      "cy j",
      "ĠDob rze",
      "m en",
      "Ġw raÅ¼e",
      "ta Äĩ",
      "sz czÄĻ",
      "tu a",
      "Ġspojrze nie",
      "Ġwia domo",
      "Ġj as",
      "Ġp Ã³ÅĤ",
      "Ġmi ÅĤo",
      "Ġw spo",
      "wie l",
      "ĠktÃ³ry ch",
      "Å¼e li",
      "K iedy",
      "u l",
      "d no",
      "Ġdzie ci",
      "ĠÅ¼ o",
      "ci s",
      "Ġda lej",
      "Ġp la",
      "Ġs ÅĤy",
      "w Ã³j",
      "Ġna gle",
      "ĠW szyst",
      "j mu",
      "Ġp ÅĤa",
      "Ġodpowia da",
      "ĠA no",
      "Ġo r",
      "Ġroz u",
      "ĠmoÅ¼ na",
      "Ġzaczy na",
      "Ġt ÅĤu",
      "Ġko cha",
      "Ġwszyst kim",
      "n aÅĤ",
      "st aÅĤ",
      "Ġdo m",
      "k Ã³ÅĤ",
      "ĠS z",
      "Ġchce sz",
      "Ġ 3",
      "go dnie",
      "ĠÅĤÃ³Å¼ ka",
      "aÅĤa ÅĽ",
      "Ġpierw szy",
      "ĠktÃ³re go",
      "Ġza czÄħ",
      "k Äħd",
      "Ġprzy jem",
      "ĠA ny",
      "g nÄĻ",
      "dz wo",
      "Ġo bie",
      "rzy ÅĤa",
      "Ġdzi w",
      "cie m",
      "Ġna stÄĻp",
      "Ġdzie c",
      "dze nie",
      "ĠduÅ¼ o",
      "A le",
      "ĠjÄĻ zy",
      "Ã³ sÅĤ",
      "ĠLu cie",
      "Ġswoje j",
      "Ġnie po",
      "ĠB ÄĻ",
      "jÄħcy ch",
      "Ġ V",
      "Ġkobie ty",
      "c j",
      "Ġje den",
      "su wam",
      "n g",
      "ĠciÄĻ Å¼",
      "Ġsz u",
      "mawia Äĩ",
      "Ġwo kÃ³ÅĤ",
      "Ġsze ro",
      "Ġb rwi",
      "Ġ ÅĽci",
      "peÅĤ nie",
      "st wo",
      "ĠÅĽmie r",
      "cy d",
      "rz mi",
      "ĠwiÄĻ k",
      "Ġprze ko",
      "I E",
      "na ch",
      "ĠdÅĤo nie",
      "Ġz u",
      "Ġo cz",
      "ĠchÅĤo p",
      "by ÅĽ",
      "pi s",
      "ĠNa prawdÄĻ",
      "s pa",
      "Ġch wy",
      "li ÅĤa",
      "pu ÅĽci",
      "ĠNi c",
      "pom ni",
      "kÅĤa d",
      "Ġ ar",
      "Ġpal ce",
      "li z",
      "Ġrami on",
      "ĠporzÄħd ku",
      "l y",
      "Ġza bi",
      "Ġdzie ÅĦ",
      "Ġpod ÅĤo",
      "ĠI n",
      "nie c",
      "Ġwie sz",
      "Ġna dal",
      "Ġt rzyma",
      "d ym",
      "Ġp owa",
      "Ġprze ciw",
      "k rÄĻ",
      "t h",
      "ĠAnasta sia",
      "Ġ201 1",
      "Ġpow ro",
      "t ku",
      "ĠJ u",
      "Ġpew no",
      "Ġsam a",
      "ĠMu szÄĻ",
      "Ġwy glÄħd",
      "p owie",
      "Ġu czu",
      "p rzy",
      "ĠDziÄĻ kujÄĻ",
      "Ġu m",
      "ro m",
      "ci ska",
      "Å ģ",
      "Ġwszyst kich",
      "Ġsp y",
      "ĠrÃ³wnie Å¼",
      "Å¼ d",
      "Ġu bra",
      "te l",
      "Ġtak im",
      "Ġza le",
      "Ġjaki ÅĽ",
      "ch er",
      "Ġpowo li",
      "Ġo pa",
      "cz kÄĻ",
      "ĠJ uÅ¼",
      "ĠdÅĤu go",
      "ĠS po",
      "Ġpod ob",
      "Ġna u",
      "Ġzna laz",
      "Ġlu b",
      "Ġle piej",
      "Ġm aÅĤ",
      "cz ona",
      "Ġdob ry",
      "Ġtak a",
      "aÅĤ eÅĽ",
      "ÅĤ ÄĻ",
      "Ġu ÅĽmiecha",
      "Ġswo ich",
      "k owi",
      "Ġc e",
      "d ra",
      "li we",
      "Ġza ba",
      "sia j",
      "Ġk siÄħ",
      "Ġk ra",
      "anna h",
      "Ġod w",
      "le Åº",
      "t na",
      "jÄħ ÅĤ",
      "sta Äĩ",
      "Ġbez pie",
      "Ġpo niewaÅ¼",
      "Ġprze cieÅ¼",
      "ĠC i",
      "Ġz er",
      "ca ch",
      "Ġg waÅĤ",
      "l Äħ",
      "je ch",
      "Ġswoje go",
      "Ġcze ka",
      "t ak",
      "Ġwy so",
      "owa rzy",
      "n s",
      "le ra",
      "te j",
      "Ġmi nu",
      "Ġsy tua",
      "Ġo dzy",
      "Ġpo ru",
      "Ġg ro",
      "e d",
      "ow aÅĤam",
      "p ew",
      "Ġsko ÅĦ",
      "Ġni mi",
      "Ġwi dzÄĻ",
      "nÄĻ ÅĤy",
      "na jm",
      "to ra",
      "Ġk rÄĻ",
      "Ġo ko",
      "wo ÅĽci",
      "d er",
      "cze k",
      "Ġh i",
      "ĠP ra",
      "ĠS a",
      "Ġpro b",
      "Ġs il",
      "Ġd owie",
      "dzie my",
      "ĠEl li",
      "Ġz ÅĤa",
      "b ar",
      "Ġpowo du",
      "Ġkobie ta",
      "Ġocz ami",
      "Ġw al",
      "ĠCh yba",
      "pra szam",
      "t ne",
      "Ġst wier",
      "Ġu kry",
      "u ra",
      "cz Äħc",
      "wi am",
      "d aÅĤ",
      "Ġb la",
      "ty cz",
      "Ġt emat",
      "ni Ã³sÅĤ",
      "re k",
      "ĠJa ce",
      "Ġd ni",
      "Ġdzi aÅĤa",
      "Ġ ek",
      "Ġwie dzieÄĩ",
      "sz czy",
      "Ġjak Äħ",
      "Ġpod ej",
      "rz o",
      "ĠÅ¼eby ÅĽ",
      "Ġs io",
      "Ġna tychmiast",
      "ĠTay lor",
      "Ġpow st",
      "Ġot wo",
      "Ġwzro kiem",
      "Ġo pie",
      "k ÅĤ",
      "wy cza",
      "Ġod wrÃ³ci",
      "ci Ã³ÅĤ",
      "Ġcie p",
      "ĠAli cja",
      "Ġza sko",
      "w em",
      "ĠC ie",
      "Ġlu bi",
      "Ã³ le",
      "Ġda w",
      "zna Äĩ",
      "Ġzam y",
      "Ġ ÅĽcia",
      "Ġno c",
      "Ġno gi",
      "ĠO czywiÅĽcie",
      "ch i",
      "c jÄħ",
      "now nie",
      "Ġt owarzy",
      "Ġprzy pomi",
      "Ġsw Ã³j",
      "ĠwraÅ¼e nie",
      "ĠM Ã³",
      "Ġzrobi ÅĤ",
      "bra Äĩ",
      "najm niej",
      "ĠuÅĽmiech em",
      "Ġn ami",
      "szy ÅĤ",
      "Ġcho ciaÅ¼",
      "ĠTy lko",
      "Å¼ nie",
      "ĠzwiÄħ z",
      "ow ÄĻ",
      "nia ch",
      "jÄħc Äħ",
      "Ġrozu mie",
      "Ġod dech",
      "tu je",
      "ĠpiÄĻ Äĩ",
      "Ġko szu",
      "jÄħce go",
      "wa nie",
      "ĠDz ie",
      "ĠÅĤÃ³Å¼ ku",
      "pi Äĩ",
      "ĠH a",
      "k rzy",
      "no szÄĻ",
      "ĠbÄĻdzie sz",
      "Ġwyja ÅĽ",
      "Ġocho tÄĻ",
      "D a",
      "Ġci aÅĤa",
      "J est",
      "Å¼ u",
      "ĠgÅĤ owie",
      "Ġuwa gÄĻ",
      "Ġosta t",
      "kie go",
      "Ġser ce",
      "Ġsk rzy",
      "Ġk im",
      "ĠktÃ³ rzy",
      "su nÄħÅĤ",
      "ĠÅ¼e bym",
      "Ġprzyja ciÃ³ÅĤ",
      "chy la",
      "Ġmi a",
      "Ġcie r",
      "r ow",
      "Ġz go",
      "Ġcz o",
      "ca le",
      "jÄħc a",
      "b ÄĻ",
      "w szy",
      "czo ny",
      "c am",
      "p ÄĻ",
      "Ġs e",
      "kie j",
      "Ġkuch ni",
      "Ġp er",
      "Ġmiejs cu",
      "Ġz ÄĻ",
      "owa ne",
      "Ġog Ã³le",
      "ÅĤa d",
      "ÅĦst wa",
      "ob y",
      "Ġob ej",
      "Ġzna czy",
      "Ġno cy",
      "m nie",
      "ĠwÅĤa ÅĽci",
      "Ġu de",
      "n na",
      "Ġwy star",
      "ĠkaÅ¼ de",
      "Ġob s",
      "Ġcze r",
      "Ch ristia",
      "ĠEl lie",
      "ka za",
      "nik Ã³w",
      "ĠÅ¼y ciu",
      "Ġw ÅĽcie",
      "Ġzap ew",
      "Ġc ud",
      "ĠH en",
      "Ġ l",
      "st aÅĤa",
      "Ġo raz",
      "Ġs en",
      "Ġwz iÄħ",
      "n ne",
      "s h",
      "Ġpowi nie",
      "Ġu cie",
      "Ġsp ÄĻ",
      "jÄħ Äĩ",
      "Ġpra wie",
      "Ġrobi Äĩ",
      "t owaÄĩ",
      "w Äħ",
      "Ġszep czÄĻ",
      "ÅĦst wo",
      "Ġlek ko",
      "Å¼ Äħ",
      "le ÅĦ",
      "Ġjedy nie",
      "dz am",
      "Ġstro ny",
      "d ÅĤu",
      "Ġp rez",
      "P a",
      "ku je",
      "Ġkie ru",
      "ni c",
      "or em",
      "Ġspraw ÄĻ",
      "Ġor ga",
      "m ak",
      "Ġob o",
      "ĠMa sz",
      "u ry",
      "ĠNa j",
      "Ġw szyscy",
      "i c",
      "Ġna le",
      "ĠH ec",
      "Ġnie co",
      "sk Äħ",
      "Ġramion ami",
      "k niÄĻ",
      "Ġu waÅ¼",
      "Ġpo jÄĻcia",
      "Ġsp rze",
      "l ne",
      "rÃ³ d",
      "Ġin for",
      "I A",
      "gl ÄĻ",
      "Ġczas ie",
      "Ġpo roz",
      "resz cie",
      "te ry",
      "Ġspo koj",
      "ĠH ar",
      "ĠWszyst ko",
      "ĠBar dzo",
      "t ro",
      "ci sk",
      "ĠO n",
      "Ġnie mal",
      "wyk le",
      "Å ļ",
      "Ġco raz",
      "bi ne",
      "ĠgÅĤo ÅĽ",
      "t ym",
      "G dy",
      "Ġna z",
      "Ġg ÅĤu",
      "Ġzna leÅº",
      "ĠmÄĻÅ¼czy z",
      "dzi a",
      "n nie",
      "Ġm art",
      "wi o",
      "Å¼ o",
      "Ġc Ã³r",
      "Ġsz ko",
      "Ġo ch",
      "ĠcaÅĤ Äħ",
      "Ġzu peÅĤnie",
      "ka el",
      "Ġa u",
      "p e",
      "Ġwie dziaÅĤa",
      "jÄħc ym",
      "s ÅĤo",
      "Ġpod nie",
      "Ġob u",
      "s pie",
      "C z",
      "rze Äĩ",
      "Ġdelika tnie",
      "Ġ1 9",
      "Ġw ska",
      "sz nie",
      "ĠBy ÅĤa",
      "Ġfa ce",
      "Ġmi l",
      "ĠkaÅ¼ dym",
      "Ġczego ÅĽ",
      "Ġoj ciec",
      "am ie",
      "ĠNa wet",
      "Christia n",
      "ĠzaczÄħ ÅĤ",
      "g e",
      "st wa",
      "Ġmi aÅĤam",
      "my ÅĽl",
      "ĠD e",
      "Ġma tka",
      "m ent",
      "si Äĩ",
      "g ry",
      "ma n",
      "âĢĿ ,",
      "Ġpo nownie",
      "le y",
      "Ġpo ÅĽ",
      "Ch o",
      "Ġmusi aÅĤ",
      "Ġjakie ÅĽ",
      "ĠKa te",
      "l ny",
      "Ġsy pia",
      "ĠsÅĤo d",
      "Ġw ej",
      "Ġza raz",
      "siÄĻ cy",
      "ĠGa be",
      "k aÅĤ",
      "rz am",
      "cie l",
      "ciÄħg nÄħÅĤ",
      "t ny",
      "da nie",
      "n dy",
      "Ġdzi siaj",
      "Ġzak o",
      "Ġma jÄħ",
      "Ġmam y",
      "t ry",
      "ĠB e",
      "ĠS ta",
      "szy Äĩ",
      "Ġjed nÄħ",
      "Ġdo da",
      "ĠmoÅ¼e sz",
      "ĠGra cie",
      "cie ra",
      "Ġg nie",
      "ĠzaczÄĻ ÅĤa",
      "Ġwido k",
      "Ġk rze",
      "wia jÄħc",
      "v e",
      "Ġdo piero",
      "Ġby ÅĤam",
      "Ġraz u",
      "M i",
      "ri i",
      "d na",
      "ĠJa c",
      "Ġni czym",
      "Ġz im",
      "Ġma t",
      "nio sÅĤa",
      "Ġraz y",
      "Ġi le",
      "ĠO b",
      "Ġlu dzie",
      "Ġnaj lep",
      "J a",
      "i Äĩ",
      "Ġw Äħt",
      "Ġd r",
      "Ġra mie",
      "ÅĽle Äĩ",
      "d li",
      "D Z",
      "ni cy",
      "dzi sz",
      "czo raj",
      "ĠJa ck",
      "Ġ em",
      "mi aÅĤa",
      "in g",
      "Ġza dzwo",
      "Ġprzy go",
      "ĠR ob",
      "ĠgÅĤo sem",
      "na Äĩ",
      "cy ch",
      "Ġga bine",
      "Ġoj ca",
      "b ez",
      "je Å¼d",
      "d i",
      "Ġra miÄĻ",
      "* *",
      "ĠBy ÅĤ",
      "ĠO na",
      "Ġwy chodzi",
      "cz ka",
      "Ġd ia",
      "Ġwie dziaÅĤ",
      "Ġk siÄĻ",
      "Ġdzi ÅĽ",
      "Ġprzy j",
      "nÄĻ ÅĤo",
      "Ġszcze g",
      "Ġk lu",
      "Ġu l",
      "j cie",
      "pie rw",
      "Ġzap ro",
      "ow aÅĤo",
      "ĠrÄĻ kÄħ",
      "k ra",
      "szy ÅĤa",
      "w iÄĻk",
      "Ġpo Å¼",
      "n aÅĤa",
      "skie j",
      "ni am",
      "Ġpraw dzi",
      "ciÄħg am",
      "ĠP an",
      "Ġd Ã³ÅĤ",
      "Ġodpowie dzi",
      "Ġzde cyd",
      "Ġwyda je",
      "t la",
      "t le",
      "Ġz do",
      "na d",
      "Ġdo strze",
      "Ġby li",
      "b ia",
      "ry ta",
      "ĠPrze z",
      "J ak",
      "g ro",
      "owa li",
      "ma wi",
      "p er",
      "s ÄĻ",
      "sk ar",
      "ot t",
      "Ġ ÅĤo",
      "Ġpo czÄħ",
      "Ġu li",
      "ĠÅĽ li",
      "ĠPo tem",
      "Ġbi ur",
      "Ġwa Å¼",
      "T ak",
      "Ġw raca",
      "ĠH annah",
      "Ġd wie",
      "ni z",
      "ĠT h",
      "Ġs o",
      "Ġpo ra",
      "Ġmusi aÅĤa",
      "Ġkil ku",
      "jm uje",
      "ĠdziÄĻ ki",
      "ski m",
      "Ġwy raz",
      "Ġszero ko",
      "ĠL a",
      "Ġpo za",
      "glÄħd am",
      "Ġpew na",
      "ĠAr cher",
      "Ġjed nym",
      "Ġz nie",
      "Ġdo tk",
      "Ġmiejs ca",
      "tu ra",
      "Ġin nego",
      "lo ny",
      "Ġpyta nie",
      "p le",
      "Ġpo le",
      "Ġwy ob",
      "Ġwsp Ã³l",
      "ra Å¼a",
      "Ġni czego",
      "Ġbio dra",
      "ĠgÃ³ rÄĻ",
      "Ġpowro tem",
      "ow nie",
      "Ġra do",
      "Ġzrobi ÅĤa",
      "mi aÅĤ",
      "Ġra cjÄĻ",
      "Ġpal cami",
      "Ġo czu",
      "ĠW o",
      "Ġprzed sta",
      "Ġkont ro",
      "s on",
      "bar dziej",
      "B y",
      "ĠM ia",
      "g nÄħÅĤ",
      "u n",
      "my sÅĤ",
      "ĠszczÄĻ ÅĽli",
      "ra k",
      "Ġb ym",
      "ĠBo Å¼e",
      "ut ro",
      "wa li",
      "ce p",
      "Po d",
      "ĠW ÅĤa",
      "ĠJe szcze",
      "Ġzad owo",
      "Ġu mie",
      "kÅĤa dnie",
      "ĠÅ» e",
      "g no",
      "Ġp ÅĤy",
      "Ġpowie trze",
      "Ġb rzu",
      "Ġpa s",
      "Ġzd Äħ",
      "Ġzoba czyÄĩ",
      "g er",
      "Ġsz pi",
      "ĠCh ce",
      "C zy",
      "t wie",
      "pi ÅĤ",
      "es s",
      "Ġdrugie j",
      "trzym a",
      "Ġwy jÄħ",
      "bez pie",
      "cz nym",
      "Ġza wo",
      "ĠLucie n",
      "u sz",
      "Ġs ia",
      "Ġd Åº",
      "et ha",
      "Ġspoj rzaÅĤ",
      "Ġko le",
      "f er",
      "dzie siÄħ",
      "Ġzd r",
      "Ġprze sta",
      "ĠMo ja",
      "Ã³ ch",
      "ni aÅĤ",
      "ro n",
      "k ÅĤo",
      "w aÅĤo",
      "dzie sz",
      "Ġkobie t",
      "sa ch",
      "Da ta",
      "cz nej",
      "Ã³ ki",
      "Ġmi mo",
      "Ġo stro",
      "na j",
      "Ġszep cze",
      "Ġw cale",
      "Ġdob re",
      "ski ch",
      "Ġto r",
      "Ġin nych",
      "Ġp Ã³j",
      "Ġroz po",
      "Ġkiedy ÅĽ",
      "ĠmÄĻÅ¼czy zna",
      "Ġdz wo",
      "Ġdziewczy na",
      "cz nych",
      "ĠS am",
      "st er",
      "k ar",
      "skie go",
      "ĠZa wsze",
      "Ġot wiera",
      "etha ny",
      "d ne",
      "ĠW iÄĻ",
      "Ġob a",
      "ĠU ÅĽmiech",
      "Ġpro ce",
      "Ġsa lo",
      "wycza j",
      "T emat",
      "Ġt wÃ³j",
      "Ġsz an",
      "ĠdÅĤo ni",
      "Ġsek s",
      "p ar",
      "Ġzapy taÅĤ",
      "ne rw",
      "wa nia",
      "sze k",
      "ĠS e",
      "ĠB eth",
      "a g",
      "k aÅĤa",
      "k tÃ³",
      "ĠM Ã³j",
      "Ġtrze ba",
      "Ġobs erw",
      "Ġko goÅĽ",
      "Ġmusi sz",
      "Ġp ry",
      "Ġpan no",
      "ka jÄħc",
      "Ġus ÅĤysz",
      "W ie",
      "i mi",
      "Ġni kt",
      "Ġs mu",
      "Ġob raz",
      "Ġwsp Ã³ÅĤ",
      "Ġz nik",
      "Ġt rzym",
      "kÅĤa da",
      "Ġwo dy",
      "u sti",
      "Ġk ry",
      "Ġg u",
      "Ġto bie",
      "ĠkoÅĦ ca",
      "ĠT en",
      "Ġzost aÅĤ",
      "Ġz ja",
      "Ġdo ÅĽÄĩ",
      "Ġh ote",
      "d aÅĤa",
      "i la",
      "ob ec",
      "sk ak",
      "c iÄĻ",
      "Ġd Å¼",
      "jÄĻ ÅĤa",
      "Ġmnie j",
      "J ego",
      "d re",
      "cz nÄħ",
      "le t",
      "Ġpot ra",
      "Ġf ak",
      "Ġdw Ã³ch",
      "k e",
      "Ġ Åº",
      "ÅĤ Ã³",
      "ow aÅĤem",
      "Ġzaba w",
      "Ġty ÅĤu",
      "Ġbli sko",
      "O ch",
      "R O",
      "Ġinfor ma",
      "Ġsypia lni",
      "S po",
      "Äħ Å¼",
      "ĠsÅĤo ÅĦ",
      "Ġz wie",
      "Ġkie sze",
      "Ġminu t",
      "as e",
      "J ej",
      "pra wia",
      "Ġsek su",
      "sz Äħc",
      "Ġsamocho du",
      "u j",
      "ch nÄħÅĤ",
      "lo na",
      "pi sa",
      "ĠF ury",
      "do po",
      "jmu jÄĻ",
      "ĠG dzie",
      "Ġpoz osta",
      "Ġjed nej",
      "a h",
      "m ar",
      "s am",
      "Ġdzie je",
      "ĠszczÄĻ ÅĽcie",
      "Ġbo k",
      "cie j",
      "ĠC Ã³Å¼",
      "Ġsto i",
      "t i",
      "Ġu spo",
      "d wie",
      "Ġna sze",
      "na czej",
      "Ġka na",
      "Ġud aÅĤo",
      "ĠA nÄĻ",
      "Åº ni",
      "ĠcaÅĤ e",
      "Ġdw u",
      "Ġpatrz Äħc",
      "Ġwz glÄĻ",
      "g ami",
      "Ġzro zumie",
      "nÄĻ trz",
      "ĠR e",
      "ĠmÃ³wi Äĩ",
      "n kÄĻ",
      "ni i",
      "Ġwy raÅº",
      "ĠChristia na",
      "o s",
      "Ġpo ÅĤo",
      "Ġpo ma",
      "cze ki",
      "Ġroz ko",
      "ĠznaleÅº Äĩ",
      "m e",
      "Ġo fi",
      "Ġwy bu",
      "Ġsta ra",
      "Ġjak im",
      "Ġf or",
      "pu szcz",
      "rw aÅĤ",
      "Ġtak Äħ",
      "Ġspoj rzaÅĤa",
      "w ym",
      "dy cha",
      "Ġma leÅĦ",
      "ĠJe d",
      "a ch",
      "Ġspo dzie",
      "trze b",
      ") .",
      "n owaÄĩ",
      "ÅĤ ym",
      "dz iÄĻ",
      "Ġsam ym",
      "k tor",
      "Ġprzy najmniej",
      "ce nia",
      "Ġko sz",
      "jÄħce j",
      "ÅĽ niÄĻ",
      "Ġob ec",
      "Ġporoz mawiaÄĩ",
      "Ġku r",
      "Ġop owie",
      "Ġm iÄĻk",
      "ĠPrze cieÅ¼",
      "ĠPrze praszam",
      "Ġwe st",
      "Ġk rÃ³",
      "na le",
      "wo je",
      "ĠbÄĻ dÄħ",
      "ĠjesteÅĽ my",
      "pu szcza",
      "Ġpowin na",
      "Ġ ÅĤy",
      "cz am",
      "ĠgÅĤo sie",
      "ĠcaÅĤ kowi",
      "Ġk Äħ",
      "cze ÅĽnie",
      "Ġuwa Å¼a",
      "Ġgnie w",
      "Ġw chodzi",
      "Ġw pÅĤy",
      "Ġw spa",
      "Ġw reszcie",
      "ch nie",
      "Ġsta nowi",
      "ĠE le",
      "Ġnaj bardziej",
      "ĠC ar",
      "dopo dob",
      "Ġmo men",
      "Ġrodzi ny",
      "Ġla ta",
      "ĠkaÅ¼ dy",
      "Ġu wie",
      "ty cznie",
      "Ġc y",
      "ce go",
      "Ġprzy pad",
      "Ġodpowia dam",
      "Ġko ch",
      "Ġznaj d",
      "g h",
      "g nÄĻÅĤa",
      "m ÄĻ",
      "Ġsz ar",
      "k re",
      "k si",
      "Ġs mak",
      "jÄĻ cie",
      "ĠÅĽmie chem",
      "Ġosta tni",
      "w aÅĤy",
      "Ġs ÅĤysz",
      "Ġst aÅĤ",
      "Ġwo j",
      "h o",
      "Ġdo sta",
      "Ġle p",
      "ch nÄĻÅĤa",
      "le c",
      "Ġot war",
      "li by",
      "Ġpod oba",
      "Ġog rom",
      "Ġw czoraj",
      "ÅĽ ni",
      "czy ÅĤo",
      "ĠP owi",
      "Ġle Å¼",
      "Ġz mu",
      "Ġre sz",
      "pi Äħ",
      "Ġprze de",
      "ĠdÅ¼ in",
      "Ġw ÄĻ",
      "Ġw sta",
      "Ġt Äħ",
      "Ġp lan",
      "ru cho",
      "ĠS Äħ",
      "d ny",
      "Ġb ÅĤy",
      "ĠWiÄĻ c",
      "ce nie",
      "to m",
      "Ġz ami",
      "Ġu Å¼y",
      "th an",
      "d ÅĤo",
      "z iÄĻ",
      "ĠK to",
      "Ġk ÅĤa",
      "st ry",
      "Ġnie spo",
      "Ġp art",
      "Ġza b",
      "cho dzÄħ",
      "trze Äĩ",
      "Ġi naczej",
      "Ġwy rzu",
      "wo ÅĽÄĩ",
      "Ġf o",
      "Ġkolej ny",
      "ĠczÅĤowie k",
      "Ġnie u",
      "Ġprob lem",
      "Ġz du",
      "Ġb Ã³l",
      "f e",
      "r nie",
      "t aÅĤam",
      "ch Ã³d",
      "ĠB ethany",
      "Ġda le",
      "ĠÅĽrod ka",
      "Ġwiecz orem",
      "ur wa",
      "ĠgÅĤ Ã³w",
      "ĠÅĤa zie",
      "Ġz bli",
      "Ġo skar",
      "Ġzapa ch",
      "ĠgÅĤÄĻbo ko",
      "lo ne",
      "ĠDz i",
      "niÄħ dze",
      "U ÅĽmiech",
      "f iÄĻ",
      "Ġzost aÅĤa",
      "Ġdo kÅĤadnie",
      "Ġozna j",
      "Ġw sze",
      "Ġpomy sÅĤ",
      "tla nt",
      "czo ne",
      "Ġpoz wa",
      "Ġwspo mnie",
      "tlant ic",
      "Ġk rÃ³t",
      "ĠWie sz",
      "li wie",
      "da nia",
      "Ġo strze",
      "Ġza sa",
      "si ÅĤa",
      "Ġwy pa",
      "Ġgdzie ÅĽ",
      "ran to",
      "e sz",
      "ĠWy glÄħda",
      "Ġbu dy",
      "ĠczÄĻ sto",
      "Ġp ÄĻ",
      "pad ÅĤa",
      "n ny",
      "ĠmÃ³wi Äħc",
      "dzie li",
      "Ġsu kie",
      "cze niu",
      "Ġcie ka",
      "ĠksiÄħ Å¼",
      "p h",
      "Ġwi l",
      "Ġprzy tu",
      "Ġwar gi",
      "Ġpo mÃ³",
      "Ġty ÅĤ",
      "Ġma te",
      "Ġu le",
      "r aÅĤ",
      "t wa",
      "Ġp sy",
      "Ġdziec ko",
      "ow aÅĤy",
      "sz em",
      "Ġpo nad",
      "Ġspra wy",
      "bie ram",
      "ĠMi kael",
      "s ÅĤy",
      "dzi ÅĤam",
      "Ġzm ÄĻ",
      "Ġem o",
      "Ġkiesze ni",
      "n owa",
      "Ġc u",
      "Ġczer wo",
      "ÅĤo po",
      "czy ÅĤam",
      "ĠJe s",
      "ĠÅ¼ad nych",
      "Ġzasta nawi",
      "ĠzÄĻ by",
      "b ÅĤa",
      "Ġra no",
      "Ġsk ar",
      "rÃ³ j",
      "Ġszy jÄĻ",
      "ĠPa ul",
      "Ġb rzmi",
      "rzy ÅĤo",
      "ĠS t",
      "owi Äħ",
      "Ġpoz o",
      "ĠCz e",
      "ĠgwaÅĤ tow",
      "Ġo ka",
      "Ġh o",
      "l na",
      "ĠCho dÅº",
      "i r",
      "Ġz mia",
      "rze nia",
      "to n",
      "Ġde cy",
      "br aÅĤ",
      "Ġwie lu",
      "Ġn um",
      "sz taÅĤ",
      "ĠB ez",
      "cz aÅĤ",
      "Ġk rew",
      "Ġczo ÅĤo",
      "ĠmÃ³wi ÅĤ",
      "Ġnale Å¼y",
      "a na",
      "lu bi",
      "wia Äĩ",
      "Ġstro nie",
      "IA Åģ",
      "ĠcaÅĤ ujÄĻ",
      "Ġpo ch",
      "Ġi de",
      "ty ka",
      "Ġsz k",
      "i na",
      "p Ã³ki",
      "Ġs cho",
      "Ġni ko",
      "ĠR am",
      "cz nego",
      "Ġtwo ja",
      "ĠÅĽwie cie",
      "Ġw am",
      "Ġspo d",
      "pi ÅĤa",
      "ĠHec tor",
      "ak i",
      "Ġko niec",
      "wie nie",
      "Ġin ne",
      "ĠÅĽ la",
      "Ġza in",
      "Ġodpowie dÅº",
      "Ġim iÄĻ",
      "ĠDziÄĻ ki",
      "Ġs ÅĤa",
      "Ġod ez",
      "ia st",
      "su nÄĻÅĤa",
      "ĠC aÅĤ",
      "Ġzd ra",
      "Ġje Å¼eli",
      "Ġdo ÅĽwiad",
      "Ġusta ch",
      "ĠH o",
      "g ÅĤy",
      "cz noÅĽci",
      "ko ÅĦ",
      "wie n",
      "Ġpie niÄħdze",
      "Ġno sem",
      "Ġkie li",
      "n ce",
      "chy lam",
      "Ġb ÅĤa",
      "ĠRo zumie",
      "Ġfi r",
      "ĠsÅĤu cha",
      "Ġmieszka nia",
      "ĠMy ÅĽl",
      "Ġmoc niej",
      "l nÄħ",
      "ĠA tlantic",
      "ÅĤa szcza",
      "K o",
      "Ġpo zy",
      "Ġma tki",
      "Ġsk le",
      "ÅĤ ego",
      "Ġgo rÄħ",
      "Ġpoli cz",
      "daw ca",
      "Ġse ku",
      "Ġna leÅ¼",
      "Ġodpar ÅĤ",
      "Ġpro sto",
      "DZ IAÅģ",
      "Ġro dza",
      "Ġty siÄĻcy",
      "d ie",
      "w raca",
      "Ġk rwi",
      "bi ja",
      "Ġra czej",
      "Ġcz ÅĤo",
      "ĠsÅĤ Ã³w",
      "ĠCi ty",
      "Ġu ÅĽci",
      "lu b",
      "wy ch",
      "Ġzosta Äĩ",
      "Ġi ÅĽÄĩ",
      "Ġroz pa",
      "Ġspo tk",
      "ĠÅĤ zy",
      "l nej",
      "Ġi st",
      "li i",
      "ĠMy ÅĽlÄĻ",
      "Ġwiadomo ÅĽÄĩ",
      "cze kaÄĩ",
      "ru je",
      "Ġst u",
      "Ġdzie siÄĻ",
      "Ġkiedy kolwiek",
      "ĠcaÅĤ kiem",
      "Ġzach wy",
      "E l",
      "h y",
      "Ġwy ÅĤÄħ",
      "Ġbi aÅĤ",
      "ĠsÅĤ owo",
      "ra mi",
      "ne s",
      "Ġmo r",
      "ĠO k",
      "b eth",
      "i i",
      "ĠmoÅ¼e my",
      "Ġczu ÅĤa",
      "m m",
      "ĠP ie",
      "Ġgo t",
      "ĠrÄĻ ka",
      "ĠMo je",
      "Ġpani Äħ",
      "kaza Äĩ",
      "rze m",
      "niej sze",
      "Ġsko ro",
      "Ġkro k",
      "d owa",
      "Ġp ia",
      "Ġs ki",
      "ni ami",
      "da ch",
      "sy w",
      "Ġmy ÅĽleÄĩ",
      "Ġrze cz",
      "j rzaÅĤa",
      "ri s",
      "ĠbÄĻdzie my",
      "aÅĤ bym",
      "Ġpo pro",
      "Ġod da",
      "Ġgo r",
      "Ġspra wi",
      "Ġos Ã³b",
      "Ġdziewczy ny",
      "Ġpowst rzyma",
      "ĠHen ry",
      "Ġz dzi",
      "Ġwy peÅĤ",
      "Ġtak ich",
      "Ġkom Ã³r",
      "Å¼ na",
      "Ġro bo",
      "te res",
      "Ġko ryta",
      "Ġroz ba",
      "Ġu cha",
      "Ġsp e",
      "W z",
      "ĠCz ujÄĻ",
      "Ġbie rze",
      "Ġj utro",
      "Ġprzy glÄħda",
      "Ġz wykle",
      "sa t",
      "Ġda Äĩ",
      "Ġspra wa",
      "Ġwpa tru",
      "ĠElli ot",
      "ĠgÅĤoÅĽ no",
      "ĠChce sz",
      "p owia",
      "Ġz aÅĤo",
      "Ġby ÅĤem",
      "Ġgabine tu",
      "z wo",
      "Ġoch ro",
      "Ġnie bie",
      "cze r",
      "Ġty god",
      "en tu",
      "Ġmam a",
      "Ġtwo im",
      "Ġdru gÄħ",
      "Ġpe wien",
      "l nym",
      "st or",
      "dzie ÅĽcia",
      "zy wa",
      "b er",
      "cz ni",
      "w ego",
      "Ġt war",
      "Ġb Ã³",
      "Ġwie czo",
      "Ġgo towa",
      "Ġpie niÄĻ",
      "Ġmog ÅĤam",
      "ĠPa ni",
      "ĠpomyÅĽl aÅĤa",
      "M am",
      "ne y",
      "Ġmi aÅĤem",
      "ĠA l",
      "J e",
      "g na",
      "k owaÄĩ",
      "Ġsz tu",
      "en ta",
      "M u",
      "Å »",
      "Ġjak a",
      "im o",
      "Ġdob ra",
      "ĠÅĽ nia",
      "lo g",
      "Ġspra wia",
      "Ġpoja wia",
      "Ġchole ry",
      "ĠJes si",
      "ĠMo gÄĻ",
      "Ġpew nie",
      "Ġd ra",
      "ni aÅĤa",
      "te n",
      "Ġspra wie",
      "Ġuwa gi",
      "ĠciÄħ gu",
      "Ġs ch",
      "Ġt em",
      "Ġna szej",
      "Å¼e nie",
      "ĠcaÅĤ ym",
      "ĠpoÅ¼ Äħda",
      "ko ju",
      "Ġmie li",
      "Ġt uÅ¼",
      "Ġpo ÅĤu",
      "Ġdo tar",
      "Ġprzy szÅĤo",
      "Ġodpar ÅĤa",
      "n ami",
      "Ġdo sko",
      "Ġpowie trz",
      "mu jÄĻ",
      "Ġta jem",
      "Ġchci aÅĤam",
      "Ġczym ÅĽ",
      "Ġzm ar",
      "Ġporu sza",
      ") ,",
      "Ġw rÄĻ",
      "Ġprze j",
      "mie nia",
      "s ami",
      "Ġu nosi",
      "Ġpro po",
      "ĠF ly",
      "wiel bi",
      "Ġwiecz Ã³r",
      "ĠjÄĻzy k",
      "ÅĽ wie",
      "Å¼y ÅĤam",
      "Ġrozumie m",
      "dziesiÄħ t",
      "ĠmaleÅĦ ka",
      "i cho",
      "bie ga",
      "rzu ca",
      "Ġser ca",
      "ĠpocaÅĤ u",
      "Cho lera",
      "Ġw st",
      "lo m",
      "Ġsw ego",
      "zn aÅĤ",
      "Ġz wa",
      "ĠA nd",
      "Ġrzu ca",
      "ÅĽ rÃ³d",
      "Ġpo da",
      "Ġdo prowa",
      "ĠJe Å¼eli",
      "Ġf il",
      "Ġop owia",
      "ĠprÃ³b ujÄħc",
      "RO Z",
      "T a",
      "p aÅĤ",
      "st em",
      "Äħd Åº",
      "ĠJo h",
      "Ġna piÄĻ",
      "ĠK ie",
      "wy raÅº",
      "Ġsp rÃ³b",
      "chy liÅĤ",
      "Ġs tÃ³",
      "Ġwz iÄĻ",
      "Ġwy czu",
      "Ġcz tery",
      "Ġle ka",
      "ĠCo ÅĽ",
      "Ġkieru nku",
      "ĠWÅĤa ÅĽnie",
      "K i",
      "Ġza jÄĻ",
      "at rzy",
      "Ġre ak",
      ". ,",
      "g aÅĤ",
      "Ġnie wi",
      "wiÄħ za",
      "ROZ DZIAÅģ",
      "d io",
      "nia jÄħc",
      "sze p",
      "Ġwi na",
      "Ġzro zu",
      "ĠcaÅĤ uje",
      "w u",
      "Ġto nem",
      "ĠM ie",
      "Ġszy i",
      "ĠT u",
      "ĠbyÅĤo by",
      "Ġsto le",
      "sze Äĩ",
      "A dre",
      "le k",
      "Ġmy ÅĽlÄĻ",
      "zn aÅĤa",
      "Ġwyko rzy",
      "Ġnie ch",
      "s ek",
      "Ġsto p",
      "Na dawca",
      "Ġsk ÅĤa",
      "ÅĤo s",
      "ĠB a",
      "Ġjed nego",
      "ĠczÄĻ ÅĽÄĩ",
      "Ġkocha nie",
      "cisk am",
      "Adre sat",
      "w aÅĤam",
      "cie r",
      "ĠpoczÄħ tku",
      "Ã ©",
      "r ie",
      "er ba",
      "Ġjedno czeÅĽnie",
      "Ġo ÅĽwiad",
      "ra d",
      "Ġb ru",
      "Ġsytua cji",
      "Ġin nym",
      "ĠdÅĤu Å¼ej",
      "ĠGdy by",
      "Ġszpi ta",
      "io rÄĻ",
      "Ġprzeko na",
      "Ġp rzo",
      "lo gi",
      "trz ÄĻ",
      "Ġrze kÅĤ",
      "pom nie",
      "Ġmomen cie",
      "Ġ Y",
      "ĠÅ ģ",
      "ĠmÄĻ Å¼a",
      "Ġog ar",
      "Ġok re",
      "ĠJed nak",
      "T e",
      "m niej",
      "Ġdo j",
      "Ġch ÄĻ",
      "Ġk ciu",
      "Ġosob i",
      "Ġpry sz",
      "rze nie",
      "nÄħ trz",
      "Ġf ote",
      "ĠH y",
      "sy ÅĤa",
      "Ġzw raca",
      "Ġspotka nie",
      "ĠcaÅĤkowi cie",
      "Ġoczy wiÅĽcie",
      "Ġdecy z",
      "Ġpo sÅĤu",
      "i t",
      "ĠB ess",
      "ĠÅĽ le",
      "Ġta le",
      "Ġpew noÅĽciÄħ",
      "Ġm ÄħÅ¼",
      "sz ko",
      "Ġru ch",
      "ĠpomyÅĽl aÅĤ",
      "Ġide al",
      "si Äħc",
      "Ġsamo chÃ³d",
      "ĠchÅĤop ak",
      "Ġwy b",
      "Ġpro du",
      "Ġkont ak",
      "ĠgÅĤÄĻbo ki",
      "Ġodw raca",
      "Ġzami ar",
      "Ġk wia",
      "ĠmoÅ¼ li",
      "Ġsz la",
      "ÅĽla d",
      "Ġdia bÅĤa",
      "ĠwyraÅº nie",
      "Ġpowstrzyma Äĩ",
      "Ġz wrÃ³ci",
      "Ġnie bezpie",
      "Ġs ty",
      "Ġdo pÃ³ki",
      "Ġmu zy",
      "Ġzna cznie",
      "ĠPa nie",
      "pro st",
      "dopodob nie",
      "Ġp ÅĤo",
      "dy cham",
      "Ġwie dziaÅĤam",
      "Ġsie dzi",
      "Ġtwoje j",
      "Ġw ew",
      "ka j",
      "wia ch",
      "Ġdro dze",
      "Ġpoczu ÅĤa",
      "ĠwyjÄħ tk",
      "Ġcie le",
      "do mi",
      "ĠH ol",
      "Ġsta je",
      "sie m",
      "Ġgodzi ny",
      "t r",
      "Ġw dziÄĻ",
      "ro k",
      "le nie",
      "ĠÅĤ Äħ",
      "Ġzaczy nam",
      "Ġple cy",
      "se y",
      "g rze",
      "Ġod kry",
      "za jem",
      "Ġzam kniÄĻ",
      "ĠczÄĻ ÅĽci",
      "ĠzwiÄħ za",
      "ĠpomÃ³ c",
      "Ġw obec",
      "Ġna sz",
      "Ġb ÅĤÄĻ",
      "dzie ÅĦ",
      "br aÅĤa",
      "N i",
      "l nego",
      "Ġro biÄĻ",
      "ĠLe ah",
      "ĠOk ej",
      "sz li",
      "Ġjed na",
      "Ġpow tÃ³",
      "szo ÅĽÄĩ",
      "ĠMÃ³ wi",
      "L u",
      "Ġza w",
      "ĠD usti",
      "aÅĤy ch",
      "r ymi",
      "dzi ÅĤem",
      "ĠHy de",
      "m p",
      "Ġpo prze",
      "g im",
      "Ġpo je",
      "ĠPo za",
      "siÄħ ce",
      "Ġoko li",
      "wi ony",
      "ĠLu ke",
      "ĠpieniÄĻ dzy",
      "ie m",
      "Ġnie wiel",
      "Ġtrzy dzie",
      "n c",
      "Ġnie za",
      "ĠC rew",
      "Ġch a",
      "Ġch ro",
      "Ġpotra fiÄĻ",
      "ÅĤ eÅĽ",
      "Ġo to",
      "Ġpo pa",
      "Ġprze suwa",
      "ĠJ as",
      "de j",
      "Ġwzro ku",
      "Ġrodzi cÃ³w",
      "Ġzain teres",
      "l ki",
      "li za",
      "wa jÄħc",
      "Ġmi aÅĤo",
      "ĠDzie ÅĦ",
      "z aÅĤ",
      "go dni",
      "Ġnum er",
      "je sz",
      "Ġko cham",
      "Ġpa nu",
      "ĠK u",
      "ĠÅ¼ ona",
      "Ġwystar cza",
      "D la",
      "Ġb an",
      "Ġin ny",
      "ĠwÅĤo sÃ³w",
      "Ġcud ow",
      "Ġspokoj nie",
      "Ġdo ktor",
      "jeÅ¼d Å¼a",
      "Ġ ÅĽciÄħ",
      "na ÅĽcie",
      "po r",
      "Ġwi daÄĩ",
      "Ġwyj ÅĽÄĩ",
      "ĠczÅĤowie ka",
      "d wo",
      "Ġw as",
      "Ġm aÅĤo",
      "ÅĽci Äĩ",
      "pa Äĩ",
      "Ġmog ÅĤo",
      "Ġrobi sz",
      "Ġop ar",
      "Ġus ÅĤy",
      "Ġoznaj mi",
      "u x",
      "or ie",
      "ĠAle ksi",
      "Ġbli Å¼ej",
      "Ġmia sta",
      "z o",
      "kÅĤa dam",
      "ter p",
      "Ġosta tnie",
      "Ġramiona ch",
      "t kÄĻ",
      "Ġpo mie",
      "Ġbo ga",
      "Ġlu biÄĻ",
      "Ġdrz wiach",
      "Ġtwo jÄħ",
      "Ġdwa dzieÅĽcia",
      "Ġspy taÅĤ",
      "ĠCze ÅĽÄĩ",
      "Ġwie ku",
      "ĠrÄĻ ki",
      "ĠBy ÅĤo",
      "Ġust ami",
      "ĠmiÅĤo ÅĽÄĩ",
      "Å¼e nia",
      "Ġst Äħd",
      "Ġn or",
      "Ġk as",
      "re b",
      "Ġpra gnie",
      "nt Ã³w",
      "z m",
      "Ġz ÅĤy",
      "ĠZ osta",
      "at tle",
      "Ġwar gÄĻ",
      "Ġdru gi",
      "ĠmÄĻÅ¼czy zn",
      "aÅĤa bym",
      "Ġh ra",
      "resz tÄħ",
      "Ġpo szu",
      "ĠP i",
      "Ġko lo",
      "Ġka waÅĤ",
      "Mo Å¼e",
      "Roz dziaÅĤ",
      "Ġf u",
      "Ġpot wier",
      "ĠwrÃ³ci Äĩ",
      "Ġmru czy",
      "Ġspo kÃ³j",
      "pli woÅĽci",
      "Ġz re",
      "Ġpow ta",
      "Ġpo kaz",
      "Ġza j",
      "Ġpie p",
      "ĠMa d",
      "Ġozna cza",
      "ĠV an",
      "t ami",
      "z ra",
      "Ġs ka",
      "re d",
      "Ġprzypomi na",
      "Ġmo ment",
      "Ġod ej",
      "ce r",
      "pie ra",
      "Ġbu r",
      "ĠwziÄħ Äĩ",
      "L e",
      "Ġmi li",
      "Ġst ud",
      "Ġzmie ni",
      "ĠgÃ³ ry",
      "Ġprzeciw ko",
      "ci o",
      "Ġfo to",
      "Ġwz ru",
      "ĠCho lera",
      "t kiem",
      "ĠD ranto",
      "ĠÅ¼ ar",
      "Ġs Äħd",
      "Ġo puÅĽci",
      "ĠP rÃ³b",
      "Ġpra cÄĻ",
      "Ġsp u",
      "Ġnaj pierw",
      "Ġkola cjÄĻ",
      "ĠÅĽrod ku",
      "Ġseksu al",
      "Ġd ie",
      "na r",
      "glÄħd aÅĤ",
      "ĠMoÅ¼e sz",
      "Ġpowa Å¼",
      "f ek",
      "Ġsam ego",
      "ĠRo s",
      "ck y",
      "rz aÅĤam",
      "Ġspe cja",
      "d ko",
      "Ġdro gi",
      ". -",
      "Ġsze ÅĽÄĩ",
      "Ġc ent",
      "Ġma j",
      "ĠpodÅĤo gÄĻ",
      "Ġnie nawi",
      "ĠW z",
      "ĠS p",
      "Ġwy wo",
      "wo l",
      "Ġwi dziaÅĤ",
      "Ġsto li",
      "Ġkobie tÄħ",
      "Ġcze rw",
      "ĠÅĽwia d",
      "Ġpowin nam",
      "t nym",
      "Ġz ga",
      "Ġz ez",
      "li a",
      "Ġprze szÅĤo",
      "Ġkom ple",
      "Ġzasta na",
      "Ġn erw",
      "Ġza pomni",
      "ĠG e",
      "Ġh erba",
      "l nych",
      "ow ni",
      "ÅĽci u",
      "Ġmog Äħ",
      "Ġjako ÅĽ",
      "s nÄħÅĤ",
      "ĠS u",
      "ĠZ am",
      "Ġprzyja cie",
      "Ġposta nowi",
      "Ġp re",
      "Ġmie sz",
      "ĠF ran",
      "ste ty",
      "Ġrzeczy wiÅĽcie",
      "Ġpatrz ÄĻ",
      "n n",
      "st ej",
      "Ġcz ter",
      "waÅ¼ am",
      "b ro",
      "Ġz aÅĤa",
      "Ġpoli czek",
      "ad ie",
      "ĠÅĽci ska",
      "ra ch",
      "nie nia",
      "Ġznaj o",
      "Ġwol no",
      "P ro",
      "âĢ Ķ",
      "Ġd wo",
      "ĠC zu",
      "Ġpowie dziaÅĤam",
      "Ġkie row",
      "Ġbra ta",
      "domo ÅĽÄĩ",
      "ott ie",
      "hy l",
      "Ġz i",
      "Ġt wier",
      "Ġroz mawia",
      "tu jÄĻ",
      "ĠdziÄĻ kujÄĻ",
      "ĠSe attle",
      "M ar",
      "st ru",
      "Ġg ÅĤa",
      "Ġrozm owy",
      "Ġinte n",
      "Ġokaz ji",
      "Ġza sÅĤu",
      "Ġu zna",
      "ob o",
      "Ġgo ÅĽci",
      "Ġznaj du",
      "ĠÅ¼ad nego",
      "ĠPowie dz",
      "Ġnaz wi",
      "t nÄħ",
      "Ġw ÅĤÄħ",
      "Ġpo ry",
      "Ġc aÅĤa",
      "Ġod wie",
      "ek en",
      "Ġwym ie",
      "Ġple cami",
      "k rÃ³t",
      "m uje",
      "w ej",
      "Ġ am",
      "Ġa n",
      "Ġwy szep",
      "ĠL i",
      "Ġze w",
      "ĠH e",
      "gie m",
      "ĠskÃ³ rÄĻ",
      "n Ã³",
      "Ġz ni",
      "sz czo",
      "Ġg rze",
      "l aÅĤ",
      "st ki",
      "ko m",
      "da jÄħc",
      "ĠT ym",
      "Ġcho ro",
      "M a",
      "Ġk ÅĤam",
      "Ġple cach",
      "Ġzapy taÅĤa",
      "Ġspy taÅĤa",
      "Ġprzy zna",
      "lu z",
      "ĠE n",
      "Ġzd oby",
      "ciÄħg nÄĻÅĤa",
      "ĠnastÄĻp nie",
      "Ġwszystkie go",
      "d ar",
      "t ÅĤu",
      "ĠS ÅĤu",
      "Ġpra wo",
      "Ġbra k",
      "Ġsa li",
      "S T",
      "Ġnie pew",
      "ĠCz as",
      "Ġzosta nie",
      "Ġwym a",
      "wyraÅº niej",
      "ĠÅĽ pi",
      "Ġprzyjem noÅĽÄĩ",
      "Ġobo je",
      "ĠÅĤazie nki",
      "f o",
      "h e",
      "Ġw ku",
      "Ġst aÅĤa",
      "ĠsÅĤy szÄĻ",
      "ĠpodÅĤo dze",
      "ĠWo jcie",
      "k cie",
      "Ġpa lec",
      "pra c",
      "ĠzwiÄħz ku",
      "Ġz je",
      "de ÅĤ",
      "Ġh a",
      "ĠdÅĤo niÄħ",
      "pli wie",
      "ĠCo dy",
      "ĠCz emu",
      "Ġrozm owÄĻ",
      "ĠPra w",
      "t Äħd",
      "Ġu prze",
      "ĠA ch",
      "nio ne",
      "Ġszep tem",
      "ĠdÅº wiÄĻk",
      "Ġwy krzy",
      "Ġprzy chodzi",
      "Äħc o",
      "j am",
      "Ġpo sia",
      "go r",
      "ĠW tedy",
      "Ġroz mawiaÄĩ",
      "zy b",
      "Ġspojrze niem",
      "Ġk we",
      "Ġob owiÄħ",
      "Ġka wÄĻ",
      "czas em",
      "ĠtÅĤu ma",
      "ĠJac kie",
      "ĠAnd re",
      "p ÅĤa",
      "Ġcz uje",
      "Ġsk rÄĻ",
      "ĠuÅĽmiech nÄĻÅĤa",
      "Ġtakie j",
      "ĠRozumie m",
      "d r",
      "Ġo siem",
      "Ġi dÄĻ",
      "no c",
      "te ra",
      "pi na",
      "ĠdÅĤu gi",
      "Ġjakie goÅĽ",
      "Ġchwy ta",
      "Ġk re",
      "trz Äħ",
      "Ġgodzi n",
      "jech aÅĤ",
      "? !",
      "ni ki",
      "Ġu my",
      "ĠmaÅĤ Å¼e",
      "Ġpo kÃ³j",
      "Ġprze prowa",
      "Ġko rzy",
      "ĠÅĽ wiÄĻ",
      "Ġtru dno",
      "Ġk lie",
      "ÅĤa ÅĽ",
      "Ġu sia",
      "wa Å¼a",
      "Ġprzy kÅĤad",
      "Ġpod chodzi",
      "mo Å¼",
      "ĠDla tego",
      "lar Ã³w",
      "Ġwyso ko",
      "d ing",
      "w aÅĤem",
      "ĠCh ase",
      "dza Äĩ",
      "Ġzoba czyÅĤa",
      "0 0",
      "w racam",
      "Ġ *",
      "ĠP ew",
      "sta nawi",
      "Ġku rwa",
      "Ġwe eken",
      "Ġzie mi",
      "Ġuczu cie",
      "Ġhi stor",
      "n uje",
      "Ġo czeki",
      "sz ÅĤam",
      "ĠZ robi",
      "ĠÅ¼o ÅĤ",
      "ĠgwaÅĤtow nie",
      "c ona",
      "Ġo ni",
      "e la",
      "ku ra",
      "nio ny",
      "Ġk wa",
      "ro p",
      "Ġza ÅĽ",
      "ĠÅĤa godnie",
      "Ġjakie j",
      "pomnie Äĩ",
      "ÅĤ aÅĤ",
      "Ġk ÅĤÃ³",
      "ĠPo trzeb",
      "Ġpomie szcze",
      "v er",
      "le nia",
      "czy ÅĤy",
      "Ġsam Äħ",
      "Ġprob le",
      "ĠwziÄħ ÅĤ",
      "f ie",
      "g aÅĤa",
      "czy ÅĤem",
      "cho dzÄħc",
      "ĠIn c",
      "s Äħ",
      "Ġjak bym",
      "ÅĽci ÅĤ",
      "ĠS tra",
      "Ġsy na",
      "ĠpiÄĻk na",
      "krÃ³t ce",
      "ĠEn terp",
      "Ġna rze",
      "Ġk art",
      "ga ch",
      "Ġze gar",
      "czÄħ ce",
      "ĠMusi sz",
      "B o",
      "N A",
      "Ġz g",
      "ch e",
      "Ġpo ÅĤÄħ",
      "wa jÄħ",
      "cze s",
      "ĠZ na",
      "ĠuÅĽmiech nÄħÅĤ",
      "k owa",
      "Ä ĺ",
      "ĠM imo",
      "trzym y",
      "ris es",
      "O b",
      "cz ar",
      "ĠNie ch",
      "Ġbio rÄĻ",
      "ĠÅĽmier ci",
      "ĠP amiÄĻ",
      "ĠS adie",
      "Ġdzie wiÄĻ",
      "ĠÅĤa two",
      "ĠNi kt",
      "ra ni",
      "Ġnie do",
      "wi ona",
      "Ġwy zna",
      "Ġwi dziaÅĤa",
      "Ġodzy wa",
      "ĠEnterp rises",
      "r aÅĤa",
      "Ġk amie",
      "Ġpo r",
      "Ġza ciska",
      "Ġta ÅĦ",
      "Ġkolej ne",
      "Ġzw ÅĤaszcza",
      "Ġuro dzi",
      "Ġzamy ka",
      "R a",
      "t rÄħ",
      "Ġna szych",
      "Ġwy k",
      "Ġwy sta",
      "ĠÅ¼ aÅĤ",
      "orie nt",
      "d le",
      "Ġa b",
      "Ġbo ku",
      "ĠÅĽwiat ÅĤo",
      "ĠÅº le",
      "ura t",
      "Ġwieczo ru",
      "Ġd aÅĤ",
      "Ġnie o",
      "Ġpa trzeÄĩ",
      "er wa",
      "Ġpod e",
      "Ġsu k",
      "ch niÄĻ",
      "Ġb rze",
      "wie nia",
      "Ġnaj mniej",
      "cis nÄħÅĤ",
      "v en",
      "Ġt rafi",
      "Ġod robi",
      "tu ry",
      "Ġbu d",
      "Ġb lo",
      "ĠA sh",
      "Ġdu p",
      "Ġzak ÅĤa",
      "sÅĤu cha",
      "Prze z",
      "cj ona",
      "S z",
      "Ġwi ndy",
      "ĠHol ding",
      "k ty",
      "l aÅĤa",
      "Ġpo znaÄĩ",
      "Ġnie przy",
      "ĠF a",
      "Ġprzo du",
      "Ġna szego",
      "Ġprze szka",
      "re su",
      "Ġroz kaz",
      "ĠMi aÅĤ",
      "ĠJu lie",
      "ĠjakÄħ ÅĽ",
      "e ry",
      "Ġi dzie",
      "ni ce",
      "ĠF lo",
      "Ġba da",
      "Ġru mie",
      "Ġczerw ca",
      "rze j",
      "Å¼e m",
      "Ġak urat",
      "Ġramie niu",
      "N o",
      "n kiem",
      "st wie",
      "wi one",
      "Ġg e",
      "da jÄĻ",
      "Ġod czu",
      "Ġsz czy",
      "ĠwÅĤo sach",
      "Ġkim ÅĽ",
      "nÃ³ stwo",
      "Ġ 4",
      "Ġdo daje",
      "ta nie",
      "ĠT wo",
      "sto j",
      "is beth",
      "ĠHolding s",
      "w szem",
      "sz ki",
      "ĠprÃ³b owaÅĤ",
      "ĠRa y",
      "ĠTay lo",
      "Ġau to",
      "Ġwil go",
      "Ġmate ri",
      "Ġmi aÅĤy",
      "lo t",
      "co ny",
      "Ġkom pu",
      "Ġprowa dzi",
      "Ġbezpie cze",
      "Ġpowinie n",
      "Ġdale ko",
      "Ġwsze l",
      "wi aÅĤ",
      "ĠL ottie",
      "Äħc Äħ",
      "Ġchci aÅĤem",
      "Ġzd jÄĻcia",
      "ĠmÃ³gÅĤ by",
      "ĠodwrÃ³ci ÅĤ",
      "Ġu po",
      "pra sza",
      "Ġpu sty",
      "g nÄħÄĩ",
      "Ġw sty",
      "er s",
      "Ġkobie tÄĻ",
      "Ġszczeg Ã³l",
      "Ġpozwa la",
      "Ġi Å¼",
      "Ġzam iast",
      "Ġzamie rza",
      "** *",
      "puszcz am",
      "g en",
      "rz ony",
      "Ġpa cje",
      "ĠS ko",
      "ĠGra ce",
      "Ġd owo",
      "Ġst wo",
      "Ġno gami",
      "ĠcaÅĤ ej",
      "Ġczu jÄħc",
      "ĠciÄħ gle",
      "ĠÅļ wie",
      "Ġciep ÅĤo",
      "Ġniko go",
      "ĠM art",
      "ty nu",
      "an ta",
      "ĠÅĽwia ta",
      "Ġosob y",
      "ĠmÄĻÅ¼czyz ny",
      "Ġsalo nu",
      "z wyczaj",
      "Ġd rze",
      "Ġprze Å¼y",
      "ĠW e",
      "Ġsie dem",
      "ĠMi aÅĤa",
      "ĠtÄĻ sk",
      "ĠwrÃ³ci ÅĤa",
      "Ġinte res",
      "Ġrodza ju",
      "ux ley",
      "to ÅĽÄĩ",
      "ĠZ e",
      "Ġspo ÅĤe",
      "et rÃ³w",
      "Ġsta Äĩ",
      "Ġzro biÄĻ",
      "Ġmusi my",
      "Ġlu n",
      "Ġpal cem",
      "Ġmar ki",
      "Ġnie rucho",
      "Ġdo larÃ³w",
      "ka nie",
      "ĠT an",
      "wy Å¼",
      "ĠdÅĤu gie",
      "Ġspraw dziÄĩ",
      "Ġrzu ciÅĤ",
      "Ġorga niz",
      "ĠbÃ³ lu",
      "Ġp rywa",
      "ch aÅĤa",
      "Ġna szym",
      "mi na",
      "Ġroz mawi",
      "Ġno s",
      "ĠwzglÄĻ du",
      "ĠU ÅĽmiecha",
      "dze niu",
      "Ġbu tel",
      "Ġpatrzy ÅĤ",
      "ĠBÄĻ dÄĻ",
      "Ġmor der",
      "w ki",
      "le r",
      "Ġsam ej",
      "ĠmoÅ¼ liwe",
      "ĠSa wy",
      "K urwa",
      "v ana",
      "Ġza jm",
      "Ġprzy pomni",
      "to ÅĽci",
      "ĠS I",
      "Äħc ym",
      "Ġpowinie nem",
      "trzyma Äĩ",
      "Ġbudy nku",
      "d ÅĤem",
      "Ġw ÅĽrÃ³d",
      "da jÄħ",
      "Ġo glÄħda",
      "Ġpa pie",
      "zy g",
      "Ġpro mie",
      "Ġdu Å¼e",
      "Ġma ja",
      "Ġpierw sze",
      "Ġwiadomo ÅĽci",
      "Ġpowst rzym",
      "9 3",
      "Ġpo go",
      "Ġcz emu",
      "ĠCh wy",
      "ĠrÄĻ kami",
      "Ġspojrze Äĩ",
      "Ġzoba czyÅĤ",
      "rywa jÄħc",
      "j rzaÅĤ",
      "Ġz nam",
      "la ch",
      "ĠZ er",
      "Ġre la",
      "ĠKa Å¼",
      "ĠwÄħt pliwoÅĽci",
      "ci ÅĤam",
      "Ġg ry",
      "ĠNa gle",
      "ĠH an",
      "Ġsto su",
      "Ġzde nerw",
      "ci ÅĽniÄĻ",
      "Ġdo ku",
      "ĠN e",
      "ki mi",
      "Ġgdy bym",
      "ĠmyÅĽli sz",
      "Ġzauwa Å¼yÅĤ",
      "Ġpowa Å¼nie",
      "Ġzako ÅĦ",
      "wielbi am",
      "Ġn owo",
      "Ġd re",
      "sz ona",
      "Ġmi nÄĻ",
      "ĠÅ¼ ony",
      "Ġwew nÄĻtrz",
      "Ġpo dzi",
      "le n",
      "Ġprze raÅ¼",
      "Ġda je",
      "gÅĤ ÄĻ",
      "Ġtwa rzÄħ",
      "Ġface t",
      "Ġdwu dzie",
      "Ġist nie",
      "ĠG ÅĤos",
      "Ġp rzym",
      "Ġm ary",
      "Ġd am",
      "Ġnie zna",
      "Ġu lubi",
      "Ġroz eÅĽ",
      "de l",
      "prze ciw",
      "ĠchciaÅĤ bym",
      "Ġmru knÄħÅĤ",
      "Ġtwoje go",
      "Ġuspo ko",
      "Ġi dio",
      "ĠP hyl",
      "sta ÅĦ",
      "wie ram",
      "Ġodpowie dziaÅĤ",
      "Ġukry Äĩ",
      "Ġek sp",
      "dÅĤu Å¼",
      "h i",
      "t owaÅĤ",
      "Ġp ÅĤ",
      "Ġpod sta",
      "Ġspo dnie",
      "sie j",
      "Ġ ~",
      "Ġk ÅĤopo",
      "ni ca",
      "li ÅĽcie",
      "czy sz",
      "Ġwy szÅĤa",
      "ĠkaÅ¼de go",
      "i ÅĤ",
      "j my",
      "Ġm ro",
      "aÅĤ u",
      "Ġko mu",
      "ĠB ie",
      "sze nie",
      "niej szy",
      "Ġzmie nia",
      "U ÅĽmiecha",
      "b ek",
      "k nÄħÄĩ",
      "Ġwy szedÅĤ",
      "ĠA nie",
      "sk am",
      "Ġpu bli",
      "ĠkaÅ¼de j",
      "j ona",
      "Ġsto ÅĤu",
      "Ġpar ÄĻ",
      "Ġzauwa Å¼yÅĤa",
      "ĠciÄĻÅ¼ ko",
      "k ÅĤy",
      "Ġpo ka",
      "le s",
      "ĠS to",
      "ĠO wszem",
      "Ġpra gnÄĻ",
      "zu jÄħc",
      "Ġzost aÅĤo",
      "Ġmru czÄĻ",
      "czym y",
      "Ġtrze ch",
      "Ġkola na",
      "Ġzale Å¼y",
      "jeÅ¼d Å¼",
      "Ġu ko",
      "Ġto reb",
      "Jest em",
      "h er",
      "Ġk rÄħ",
      "li wy",
      "wie le",
      "Ġco f",
      "Ġe lega",
      "ĠpeÅĤ ne",
      "s en",
      "ni j",
      "ka ÅĦ",
      "Ġwi dzieÄĩ",
      "ska Äĩ",
      "n kÄħ",
      "Ġm nÃ³stwo",
      "Ġc el",
      "Ġwy pad",
      "bi o",
      "Ġpod nosi",
      "Ġla tach",
      "ĠuÅĽmiech u",
      "Ġszyb ciej",
      "Ġpomo c",
      "ĠHen ri",
      "Ġhote lu",
      "G a",
      "d ia",
      "ĠP u",
      "Po tem",
      "Ġstra ch",
      "s Ã©",
      "Ġod wa",
      "ĠK at",
      "Ġlu dz",
      "now aÅĤa",
      "Ġpu nk",
      "Ġwy ba",
      "ĠW szyscy",
      "te cznie",
      "ĠS kÄħd",
      "ĠAle x",
      "Ġzau fa",
      "Ġkoszu lÄĻ",
      "Ġinten syw",
      "r owo",
      "Ġpo Å¼e",
      "Ġza wie"
    ]
  }
}