{"<s>":0,"<pad>":1,"</s>":2,"<unk>":3,"<mask>":4,"!":5,"\"":6,"#":7,"$":8,"%":9,"&":10,"'":11,"(":12,")":13,"*":14,"+":15,",":16,"-":17,".":18,"/":19,"0":20,"1":21,"2":22,"3":23,"4":24,"5":25,"6":26,"7":27,"8":28,"9":29,":":30,";":31,"<":32,"=":33,">":34,"?":35,"@":36,"A":37,"B":38,"C":39,"D":40,"E":41,"F":42,"G":43,"H":44,"I":45,"J":46,"K":47,"L":48,"M":49,"N":50,"O":51,"P":52,"Q":53,"R":54,"S":55,"T":56,"U":57,"V":58,"W":59,"X":60,"Y":61,"Z":62,"[":63,"\\":64,"]":65,"^":66,"_":67,"`":68,"a":69,"b":70,"c":71,"d":72,"e":73,"f":74,"g":75,"h":76,"i":77,"j":78,"k":79,"l":80,"m":81,"n":82,"o":83,"p":84,"q":85,"r":86,"s":87,"t":88,"u":89,"v":90,"w":91,"x":92,"y":93,"z":94,"{":95,"|":96,"}":97,"~":98,"¡":99,"¢":100,"£":101,"¤":102,"¥":103,"¦":104,"§":105,"¨":106,"©":107,"ª":108,"«":109,"¬":110,"®":111,"¯":112,"°":113,"±":114,"²":115,"³":116,"´":117,"µ":118,"¶":119,"·":120,"¸":121,"¹":122,"º":123,"»":124,"¼":125,"½":126,"¾":127,"¿":128,"À":129,"Á":130,"Â":131,"Ã":132,"Ä":133,"Å":134,"Æ":135,"Ç":136,"È":137,"É":138,"Ê":139,"Ë":140,"Ì":141,"Í":142,"Î":143,"Ï":144,"Ð":145,"Ñ":146,"Ò":147,"Ó":148,"Ô":149,"Õ":150,"Ö":151,"×":152,"Ø":153,"Ù":154,"Ú":155,"Û":156,"Ü":157,"Ý":158,"Þ":159,"ß":160,"à":161,"á":162,"â":163,"ã":164,"ä":165,"å":166,"æ":167,"ç":168,"è":169,"é":170,"ê":171,"ë":172,"ì":173,"í":174,"î":175,"ï":176,"ð":177,"ñ":178,"ò":179,"ó":180,"ô":181,"õ":182,"ö":183,"÷":184,"ø":185,"ù":186,"ú":187,"û":188,"ü":189,"ý":190,"þ":191,"ÿ":192,"Ā":193,"ā":194,"Ă":195,"ă":196,"Ą":197,"ą":198,"Ć":199,"ć":200,"Ĉ":201,"ĉ":202,"Ċ":203,"ċ":204,"Č":205,"č":206,"Ď":207,"ď":208,"Đ":209,"đ":210,"Ē":211,"ē":212,"Ĕ":213,"ĕ":214,"Ė":215,"ė":216,"Ę":217,"ę":218,"Ě":219,"ě":220,"Ĝ":221,"ĝ":222,"Ğ":223,"ğ":224,"Ġ":225,"ġ":226,"Ģ":227,"ģ":228,"Ĥ":229,"ĥ":230,"Ħ":231,"ħ":232,"Ĩ":233,"ĩ":234,"Ī":235,"ī":236,"Ĭ":237,"ĭ":238,"Į":239,"į":240,"İ":241,"ı":242,"Ĳ":243,"ĳ":244,"Ĵ":245,"ĵ":246,"Ķ":247,"ķ":248,"ĸ":249,"Ĺ":250,"ĺ":251,"Ļ":252,"ļ":253,"Ľ":254,"ľ":255,"Ŀ":256,"ŀ":257,"Ł":258,"ł":259,"Ń":260,"ÅĤ":261,"ie":262,"čĊ":263,"Ġp":264,"Ġs":265,"Ġw":266,"ÄĻ":267,"Ġn":268,"Ġz":269,"aÅĤ":270,"rz":271,"Äħ":272,"Å¼":273,"cz":274,"Ġt":275,"ow":276,"ch":277,"Ã³":278,"Ġd":279,"Ġm":280,"ÅĽ":281,"Ġo":282,"Ġk":283,"go":284,"iÄĻ":285,"ra":286,"dz":287,"Ġi":288,"ni":289,"sz":290,"Ġna":291,"Ġj":292,"li":293,"st":294,"Ġb":295,"nie":296,"Ġpo":297,"ro":298,"rze":299,"il":300,"âĢ":301,"ĠsiÄĻ":302,"Äĩ":303,"le":304,"ego":305,"âĢĵ":306,"ci":307,"ny":308,"ak":309,"yÅĤ":310,"am":311,"Ġnie":312,"ĠB":313,"ar":314,"em":315,"Ġdo":316,"ĠÅ¼":317,"ill":318,"ka":319,"illy":320,"rzy":321,"na":322,"Ã³w":323,"dzi":324,"Ġza":325,"er":326,"wi":327,"Ġje":328,"ne":329,"Ġ*":330,"at":331,"ki":332,"ĠBilly":333,"ĠÅ¼e":334,"czy":335,"Ġwy":336,"ÅĤa":337,"Ġst":338,"cie":339,"ko":340,"Ġg":341,"Ġprze":342,"Ġu":343,"ÅĤo":344,"Äħc":345,"dy":346,"ĠP":347,"Ġa":348,"da":349,"owie":350,"or":351,"dzie":352,"ĠW":353,"ĠâĢĵ":354,"wa":355,"ĠbyÅĤ":356,"no":357,"re":358,"la":359,"mi":360,"Ġkt":361,"en":362,"ry":363,"Ġto":364,"by":365,"Ġc":366,"Ġjak":367,"wo":368,"ĠktÃ³":369,"Ġod":370,"Ġcz":371,"ĠN":372,"ÅĦ":373,"owa":374,"ku":375,"ĠT":376,"Ġko":377,"aÅĤa":378,"ĠÅĽ":379,"Ġprzy":380,"nÄħ":381,"ty":382,"si":383,"Ġro":384,"kie":385,"cy":386,"Ġmi":387,"ad":388,"ta":389,"ej":390,"Ġty":391,"nia":392,"ÅĤy":393,"as":394,"Ġsp":395,"ob":396,"ĠZ":397,"jÄħc":398,"wie":399,"ÅĽci":400,"dziaÅĤ":401,"ru":402,"Ġch":403,"szy":404,"Ġl":405,"ami":406,"Ġsz":407,"Ġni":408,"ĠD":409,"Ġgo":410,"aÅĤy":411,"raz":412,"Ġwo":413,"cze":414,"mie":415,"ĠM":416,"an":417,"Ġpod":418,"Ġpowie":419,"Ġtak":420,"Ġmu":421,"nych":422,"je":423,"ce":424,"ĠC":425,"Ġte":426,"ÅĤu":427,"bi":428,"om":429,"Ġdz":430,"sta":431,"te":432,"ja":433,"ĠJ":434,"ĠS":435,"Ġwie":436,"rÃ³":437,"ale":438,"Åº":439,"owy":440,"im":441,"Ġmo":442,"sze":443,"ĠA":444,"owi":445,"Ġco":446,"ĠO":447,"ot":448,"ĠNie":449,"os":450,"Ġwoj":451,"Billy":452,"Ġf":453,"Ġjest":454,"ĠK":455,"aÅĤo":456,"Ġob":457,"nym":458,"pi":459,"Ġroz":460,"on":461,"ca":462,"ery":463,"Ġma":464,"zy":465,"ÅĽÄĩ":466,"rza":467,"ĠktÃ³ry":468,"ma":469,"my":470,"Ġjego":471,"ary":472,"jÄħ":473,"ĠByÅĤ":474,"nego":475,"Ġmie":476,"Ġwi":477,"Ġswo":478,"lu":479,"Ġdzie":480,"bie":481,"Ġka":482,"Ġjed":483,"Å¼e":484,"ĠbyÅĤo":485,"od":486,"nej":487,"wy":488,"Ġze":489,"tu":490,"Ġlu":491,"ĠR":492,"nÄħÅĤ":493,"nÄĻ":494,"rÄĻ":495,"Å¼y":496,"Ġczas":497,"Ġpa":498,"gi":499,"ĠI":500,"eryka":501,"pie":502,"iedy":503,"owaÅĤ":504,"ga":505,"Ġzna":506,"cj":507,"um":508,"Ġwszy":509,"ĠpowiedziaÅĤ":510,"Ġin":511,"Ġpra":512,"Äħd":513,"Ġczy":514,"Ġsob":515,"waÅĤ":516,"Ġop":517,"tem":518,"Ġpie":519,"gl":520,"siÄħ":521,"ĠL":522,"za":523,"ĠNa":524,"Ġtym":525,"lo":526,"ez":527,"mu":528,"uÅ¼":529,"Ã³ÅĤ":530,"darza":531,"kÄĻ":532,"niej":533,"Ġprzez":534,"Ġdla":535,"kiem":536,"gr":537,"czyÅĤ":538,"ali":539,"kÃ³w":540,"Ġrze":541,"ÅĽcie":542,"kÄħ":543,"Ġle":544,"szcze":545,"lko":546,"to":547,"Ġsam":548,"Ġby":549,"ĠPil":550,"po":551,"pu":552,"Ġsobie":553,"grim":554,"ek":555,"taÅĤ":556,"ĠmiaÅĤ":557,"ĠPilgrim":558,"bo":559,"Ġtego":560,"al":561,"ral":562,"Ġale":563,"Ġwszyst":564,"szcz":565,"âĢľ":566,"ĠÅ¼y":567,"eÅĤ":568,"ski":569,"aÄĩ":570,"ut":571,"Ã³wi":572,"jÄĻ":573,"Ġra":574,"wiat":575,"Ġh":576,"Ġlat":577,"az":578,"Ġku":579,"Ġpi":580,"Ġpro":581,"Ġich":582,"ĠjuÅ¼":583,"Ġtylko":584,"ew":585,"Ġpu":586,"ciÄħ":587,"et":588,"eary":589,"fi":590,"ych":591,"Ġtam":592,"owo":593,"ÅĽli":594,"Ġno":595,"owiedziaÅĤ":596,"ba":597,"meryka":598,"Ġprzed":599,"ĠbÄĻ":600,"gie":601,"owej":602,"cho":603,"ĠksiÄħ":604,"cÃ³w":605,"ost":606,"Ġkiedy":607,"Ġjeszcze":608,"ĠktÃ³re":609,"ĠDre":610,"ach":611,"fam":612,"dze":613,"dzo":614,"kt":615,"niu":616,"Ġbar":617,"cia":618,"emu":619,"Ġzap":620,"dÅĤ":621,"gÅĤ":622,"Ġr":623,"sty":624,"dziÅĤ":625,"ajÄħc":626,"ony":627,"ĠPo":628,"ĠZdarza":629,"ĠteÅ¼":630,"ralfam":631,"ralfamad":632,"aj":633,"ĠpiÄĻ":634,"ĠwiÄĻ":635,"raw":636,"Ġnaj":637,"ĠbyÅĤa":638,"ralfamador":639,"du":640,"mo":641,"ĠâĢľ":642,"ĠwÅĤa":643,"Ġdale":644,"ĠWeary":645,"gli":646,"su":647,"sy":648,"skie":649,"cja":650,"Ġli":651,"Ġraz":652,"ĠmÃ³wi":653,"nik":654,"Ġspy":655,"ĠAmeryka":656,"gu":657,"niÄĻ":658,"oÅĤ":659,"Ġci":660,"Ġgdy":661,"Ġpow":662,"Ġwz":663,"rzyÅĤ":664,"Ġmy":665,"Ġaby":666,"waÅ¼":667,"sa":668,"Ġsk":669,"Ġstra":670,"ĠgÅĤ":671,"wÃ³":672,"zu":673,"ied":674,"owÄħ":675,"Ġot":676,"Ġbo":677,"ĠÅĽmie":678,"siÄĻ":679,"ĠE":680,"ĠG":681,"Ġbu":682,"Ġpoz":683,"Ġodp":684,"ĠJe":685,"dÄĻ":686,"el":687,"Ġten":688,"Ġbez":689,"ĠÅ¼eby":690,"Ġsto":691,"ĠTralfamador":692,"ĠÅĽwiat":693,"cji":694,"ter":695,"Ġzd":696,"ÅĽnie":697,"ÅĽmy":698,"sto":699,"iaÅĤ":700,"ono":701,"sk":702,"ĠsÄħ":703,"Ġwa":704,"Ġsta":705,"Ġgdzie":706,"ent":707,"bu":708,"Ġws":709,"ĠmÃ³":710,"Ġnich":711,"Ġteraz":712,"nÃ³w":713,"Ġta":714,"stu":715,"rod":716,"Ġani":717,"ĠTo":718,"ĠZie":719,"szedÅĤ":720,"Ġzam":721,"Ġdwa":722,"owaÄĩ":723,"ĠTro":724,"oba":725,"ĠbÄĻdzie":726,"ĠksiÄħÅ¼":727,"one":728,"pa":729,"scy":730,"war":731,"Ġ1":732,"Ġcie":733,"czÄĻ":734,"cznie":735,"Ġog":736,"mia":737,"ĠktÃ³rzy":738,"kami":739,"ĠÅĤ":740,"czÄħ":741,"Ġdru":742,"stÄĻ":743,"niem":744,"ĠbyÅĤy":745,"Ġdalej":746,"ii":747,"wil":748,"zna":749,"noÅĽci":750,"ĠCzy":751,"rÃ³Å¼":752,"Ġludzi":753,"Ġpier":754,"glÄħd":755,"cu":756,"ich":757,"osta":758,"sie":759,"Ġsy":760,"Ġnad":761,"erby":762,"kÅĤa":763,"Ġe":764,"Ġsie":765,"rzwi":766,"ĠWy":767,"ĠrÃ³w":768,"ĠwiÄĻc":769,"ĠÅ":770,"Ġre":771,"Ġpan":772,"Ġzro":773,"Ã³Å¼":774,"lan":775,"ĠCh":776,"Ġbardzo":777,"dni":778,"zi":779,"ĠrÄĻ":780,"Ġdrzwi":781,"Ġim":782,"dÄħ":783,"ia":784,"rÄħ":785,"ĠU":786,"Ġzoba":787,"rzu":788,"Ġba":789,"Ġnim":790,"ĠkaÅ¼":791,"js":792,"owego":793,"Ġja":794,"owych":795,"bra":796,"Ġam":797,"ĠsÅĤy":798,"Ġpotem":799,"Ġjej":800,"alen":801,"Ġrzeczy":802,"gra":803,"rowa":804,"sÅĤ":805,"czas":806,"Ġtu":807,"nieÅ¼":808,"Ġroku":809,"ĠchÅĤo":810,"ĠDerby":811,"ĠmoÅ¼":812,"Ġmiejs":813,"Ġameryka":814,"ol":815,"ska":816,"sko":817,"ÅĤowie":818,"Ġtrzy":819,"nymi":820,"Ġjakie":821,"Ġspo":822,"Ġsze":823,"Ġbyli":824,"Ġ19":825,"ÅĤem":826,"Ġzn":827,"rzaÅĤ":828,"ÅĽl":829,"Ġoczy":830,"dzy":831,"strze":832,"ciu":833,"wali":834,"ĠcaÅĤ":835,"Ġwojnie":836,"Ġdzieci":837,"ĠamerykaÅĦ":838,"gdy":839,"nu":840,"py":841,"Ġru":842,"owe":843,"Ġdob":844,"ater":845,"ĠgÅĤo":846,"ĠWalen":847,"laz":848,"Ġkon":849,"Ġcho":850,"otem":851,"Ġczasu":852,"fo":853,"gar":854,"Å¼yÅĤ":855,"Ġtrze":856,"Ã³r":857,"Ġmnie":858,"Ġok":859,"Ġbi":860,"ard":861,"Ġchwil":862,"Ġznaj":863,"glÄħ":864,"ĠspytaÅĤ":865,"zie":866,"sza":867,"Ġpot":868,"kich":869,"daÄĩ":870,"ĠczÅĤowie":871,"Ġwojny":872,"ĠÅĽmier":873,"ĠmÃ³gÅĤ":874,"ĠrÃ³wnieÅ¼":875,"do":876,"knÄħÅĤ":877,"pad":878,"ĠF":879,"szka":880,"Ġniego":881,"wiÅĽcie":882,"Ġmusi":883,"Ġdzi":884,"ĠAn":885,"Ġczasie":886,"Ġwago":887,"de":888,"gÄĻ":889,"Ġzie":890,"Ġtej":891,"Ġbom":892,"ciaÅĤ":893,"ĠÅ¼oÅĤ":894,"czyÄĩ":895,"ord":896,"ĠTe":897,"ĠZa":898,"ĠNiem":899,"ĠRos":900,"bli":901,"praw":902,"ym":903,"ĠH":904,"Ġpowi":905,"Ġzost":906,"nicy":907,"wiÄħ":908,"Ġal":909,"ĠWie":910,"ĠÅĽrod":911,"Ġpraw":912,"skich":913,"azza":914,"ciÄħg":915,"ĠodpowiedziaÅĤ":916,"eÅĽ":917,"ona":918,"aÅĤem":919,"czego":920,"owu":921,"ĠdÅĤu":922,"leg":923,"are":924,"Ġdomu":925,"wiad":926,"Ġkto":927,"ĠktÃ³ra":928,"ĠÅĽwie":929,"Ġmia":930,"miec":931,"owym":932,"ĠcoÅĽ":933,"ĠgdyÅ¼":934,"Ġpierw":935,"era":936,"ju":937,"mar":938,"wiÄĻ":939,"ĠsÅĤu":940,"Ġwe":941,"Ã³b":942,"Ġdro":943,"Ġkil":944,"ĠjeÅĦ":945,"Ġjako":946,"siÅĤ":947,"ĠMiaÅĤ":948,"rÃ³d":949,"ĠÅ¼oÅĤnie":950,"jcie":951,"wego":952,"ÅĤÄħ":953,"rzÄħ":954,"liÅĽmy":955,"ĠÅ¼ad":956,"dziaÅĤa":957,"Ġzabi":958,"Ġwojen":959,"pis":960,"ĠwÅĤaÅĽnie":961,"ĠTrout":962,"Ġzrobi":963,"czu":964,"Ġmat":965,"lium":966,"Ġbied":967,"ĠgÃ³":968,"stawi":969,"ĠJego":970,"mawi":971,"ĠRo":972,"umfo":973,"ĠLazza":974,"Ġalbo":975,"..":976,"den":977,"ist":978,"nak":979,"pom":980,"Ġon":981,"ĠPrze":982,"ory":983,"Ġnic":984,"Ġwiel":985,"Åºnie":986,"Ġobo":987,"Ġswoje":988,"ĠIlium":989,"ĠpiÄĻk":990,"ĠÅĤÃ³Å¼":991,"ĠAngli":992,"Ġbomb":993,"es":994,"ĠÅĤa":995,"cha":996,"szaÅĤ":997,"ĠjÄħ":998,"ciÅĤ":999,"ere":1000,"dali":1001,"ÅĦst":1002,"owali":1003,"ĠkoÅĦ":1004,"Ġspos":1005,"Ġjeden":1006,"stÄĻp":1007,"cami":1008,"ÄĻÅ¼":1009,"chu":1010,"Ġda":1011,"iÄĻdzy":1012,"aki":1013,"kach":1014,"Ġzaw":1015,"Ġstar":1016,"dziej":1017,"waÄĩ":1018,"ĠTak":1019,"ĠwidziaÅĤ":1020,"cjÄĻ":1021,"ĠmoÅ¼na":1022,"Hare":1023,"trz":1024,"ĠpÃ³":1025,"Ġzosta":1026,"rzÄĻ":1027,"Ġtem":1028,"ĠzaÅĽ":1029,"dal":1030,"dzieÄĩ":1031,"resz":1032,"Ġjaki":1033,"siÄħc":1034,"wier":1035,"Åºni":1036,"ĠktÃ³rych":1037,"ĠByÅĤa":1038,"Ġwszyscy":1039,"Ġwszystko":1040,"ĠDrezna":1041,"glÄħdaÅĤ":1042,"ĠsposÃ³b":1043,"Na":1044,"dnie":1045,"so":1046,"taÅĤa":1047,"wet":1048,"ĠrÃ³Å¼":1049,"ĠpÅĤa":1050,"ĠsÅĤ":1051,"Ġzda":1052,"Å¼aÅĤ":1053,"ÅĽrÃ³d":1054,"rafi":1055,"Ġniemiec":1056,"Ġzas":1057,"Ġczu":1058,"Ġkobie":1059,"tych":1060,"ĠchciaÅĤ":1061,"ĠpowiedziaÅĤa":1062,"Ġswoj":1063,"Ġswoich":1064,"Ġjednak":1065,"nÄĻÅĤa":1066,"Ġinnych":1067,"ĠbyÄĩ":1068,"Ġwszystkie":1069,"Ġpowro":1070,"Ġtemat":1071,".\"":1072,"lÄĻ":1073,"sku":1074,"Ġpy":1075,"Ġkie":1076,"ran":1077,"szli":1078,"Ġpop":1079,"ron":1080,"kaz":1081,"kim":1082,"Ġstan":1083,"ĠPrzy":1084,"ĠmiaÅĤa":1085,"Ġnigdy":1086,"tedy":1087,"ĠTralfamadorczy":1088,"ĠZiemi":1089,"ĠkaÅ¼dy":1090,"ĠchÅĤop":1091,"umfoord":1092,"00":1093,"Zdarza":1094,"br":1095,"in":1096,"naÅĤ":1097,"uk":1098,"waÅĤa":1099,"Ġsi":1100,"owaÅĤa":1101,"Ġdnia":1102,"Ġmar":1103,"ĠmÅĤo":1104,"Ġwyda":1105,"dzieli":1106,"Ġtych":1107,"ĠCo":1108,"Åºniej":1109,"ĠKiedy":1110,"Ġmieli":1111,"wÃ³j":1112,"ĠTralfamadorii":1113,"Ġznowu":1114,"ĠWalencja":1115,"prawdÄĻ":1116,"peÅĤ":1117,"tom":1118,"yli":1119,"ze":1120,"Ġar":1121,"Ġoraz":1122,"nic":1123,"Ġnaz":1124,"Ġpom":1125,"dziÄĩ":1126,"aty":1127,"ĠstaÅĤ":1128,"Ġstary":1129,"Ġgaz":1130,"oru":1131,"ĠWszy":1132,"Ġczter":1133,"ĠNi":1134,"nÄħÄĩ":1135,"tek":1136,"Ġfa":1137,"ĠKa":1138,"ĠktÃ³rym":1139,"Ġznalaz":1140,"Ġpierwszy":1141,"Ġzawsze":1142,"pe":1143,"tÄħ":1144,"tnie":1145,"wÄħ":1146,"Ġwtedy":1147,"ĠzÅĤo":1148,"ĠtÄĻ":1149,"Ã³sÅĤ":1150,"ĠmaÅĤ":1151,"nikÃ³w":1152,"stÄħ":1153,"ilgo":1154,"amy":1155,"Ġniez":1156,"wili":1157,"dzieÅĽci":1158,"Ġjakby":1159,"Ġprzyja":1160,"mieni":1161,"ĠCz":1162,"Ġtele":1163,"Ġjedno":1164,"Ġhist":1165,"ewater":1166,"ĠDreÅºnie":1167,"Ġstanie":1168,"kÅĤad":1169,"Ġsiebie":1170,"ĠzobaczyÅĤ":1171,"ĠTeraz":1172,"ĠLazzaro":1173,"Ġpowrotem":1174,"jem":1175,"pra":1176,"sÅĤy":1177,"trzy":1178,"wu":1179,"Ġla":1180,"Ġswego":1181,"czne":1182,"Ġtwa":1183,"Ã³d":1184,"raÅ¼":1185,"niÃ³sÅĤ":1186,"Ġnas":1187,"staÅĤ":1188,"stat":1189,"amp":1190,"ĠBo":1191,"noÅĽÄĩ":1192,"ĠciÄĻ":1193,"owania":1194,"Ġmimo":1195,"ĠOd":1196,"onta":1197,"Ġdziec":1198,"Ġludzie":1199,"Ġczym":1200,"ĠktÃ³rej":1201,"bÄĻ":1202,"bel":1203,"ksz":1204,"we":1205,"Ġak":1206,"ÅĤk":1207,"ÅĤÄĻ":1208,"ĠsÅĤo":1209,"ĠswÃ³j":1210,"cza":1211,"Ġdu":1212,"Ġkrzy":1213,"Ġnadal":1214,"Ġnawet":1215,"ĠBar":1216,"ĠktÃ³rÄħ":1217,"ĠczÄĻ":1218,"Ġkole":1219,"Ġrobi":1220,"cyj":1221,"Ġszy":1222,"aÅĤych":1223,"Ġmusz":1224,"ĠJa":1225,"Ġmieszka":1226,"Ġswoim":1227,"pomi":1228,"ĠAmerykanÃ³w":1229,"Ġdrugie":1230,"Ġkilka":1231,"ĠjeÅĦcÃ³w":1232,"ilgore":1233,"\".":1234,"sem":1235,"ur":1236,"uta":1237,"zd":1238,"Ġzu":1239,"ĠtÅĤu":1240,"Ġkar":1241,"dzÄħc":1242,"nicz":1243,"szu":1244,"szÅĤo":1245,"ste":1246,"Ġpoko":1247,"czyn":1248,"woj":1249,"ĠktÃ³r":1250,"Ġkol":1251,"Ġtakie":1252,"pita":1253,"ĠswojÄħ":1254,"Ġwszystkich":1255,"dzenia":1256,"skiej":1257,"skiego":1258,"Ġotwo":1259,"ĠEd":1260,"ĠÅ»":1261,"Ġznajd":1262,"Kiedy":1263,"tÃ³w":1264,"ud":1265,"waÅĤy":1266,"czki":1267,"Ġtru":1268,"chaÅĤ":1269,"Ã³j":1270,"szego":1271,"niec":1272,"rom":1273,"ciw":1274,"Ġdom":1275,"nach":1276,"Ġzach":1277,"Ġgru":1278,"ĠPotem":1279,"Ġcy":1280,"ĠcaÅĤy":1281,"Ġrodzi":1282,"jÄħcy":1283,"jÄħcych":1284,"Ġszko":1285,"ĠMi":1286,"Ġpodob":1287,"ĠmoÅ¼e":1288,"Ġfil":1289,"ĠKilgore":1290,"ĠpiÄĻÄĩ":1291,"ĠAmerykanie":1292,"ĠczÅĤowiek":1293,"ĠzostaÅĤ":1294,"ĠpÃ³Åºniej":1295,"reszcie":1296,"ĠznalazÅĤ":1297,"ada":1298,"gÄħ":1299,"jm":1300,"nem":1301,"nka":1302,"un":1303,"Ġsko":1304,"Ġsku":1305,"ĠwyÅĤ":1306,"ĠwÅĽrÃ³d":1307,"Ġzak":1308,"Å¼a":1309,"Ġtale":1310,"owÄĻ":1311,"Ġde":1312,"Ġkra":1313,"nika":1314,"Ġnau":1315,"Ġbra":1316,"niewaÅ¼":1317,"Ġpok":1318,"ĠByli":1319,"ciel":1320,"ĠjakÄħ":1321,"Ġcze":1322,"Ġczego":1323,"ĠÅĽre":1324,"tycz":1325,"adaÅĤ":1326,"ĠSt":1327,"rÃ³t":1328,"ĠKo":1329,"Å¼ek":1330,"ĠRumfoord":1331,"Ġprac":1332,"ĠsobÄħ":1333,"Ġsamo":1334,"ĠÅ¼ycie":1335,"Ġnocy":1336,"ĠmyÅĽl":1337,"ĠTrouta":1338,"jciec":1339,"Ġswojej":1340,"Ġpyta":1341,"Ġhistor":1342,"Je":1343,"dÅº":1344,"io":1345,"maÅĤ":1346,"onych":1347,"oÅĽÄĩ":1348,"rg":1349,"zno":1350,"Ġsen":1351,"Ġwar":1352,"Ġwraz":1353,"Ġzgi":1354,"chod":1355,"ĠdÃ³ÅĤ":1356,"Ġmom":1357,"ĠmÄĻÅ¼":1358,"ÅĽmie":1359,"arÄĻ":1360,"Ġgra":1361,"ĠPa":1362,"ĠaÅ¼":1363,"Ġczar":1364,"ĠÅĽcia":1365,"szych":1366,"Ġgodzi":1367,"ĠwiedziaÅĤ":1368,"ĠOp":1369,"ĠmajÄħ":1370,"Ġprawie":1371,"siÄħt":1372,"ĠmÃ³wiÅĤ":1373,"ĠspytaÅĤa":1374,"wÃ³r":1375,"warte":1376,"ĠÅļ":1377,"ĠsÅĤyn":1378,"olot":1379,"glÄħda":1380,"ĠRosewater":1381,"ĠpÅĤaszcz":1382,"ampbel":1383,"ÅĤkow":1384,"cÄħ":1385,"gle":1386,"jrzaÅĤ":1387,"lar":1388,"nami":1389,"sÅĤu":1390,"ĠV":1391,"ÅĤam":1392,"ĠpÅĤ":1393,"Ġpre":1394,"ĠpÃ³ÅĤ":1395,"Ġsch":1396,"ĠwrÃ³":1397,"Ġzwy":1398,"Ã³l":1399,"ĠmaÅĤy":1400,"ĠmiÄĻdzy":1401,"rabi":1402,"Ġist":1403,"nim":1404,"niÅĤ":1405,"szÄĻ":1406,"szczy":1407,"Ġbro":1408,"rop":1409,"ily":1410,"Ġdop":1411,"ĠuwaÅ¼":1412,"Äħcy":1413,"miaÅĤ":1414,"ryty":1415,"Ġchwili":1416,"ĠniÅ¼":1417,"ĠDo":1418,"ĠMa":1419,"tel":1420,"Ġwiecz":1421,"nÄĻli":1422,"jÄĻcie":1423,"Ġprostu":1424,"Ġnoc":1425,"ĠbÄĻdÄħ":1426,"ĠksiÄħÅ¼ek":1427,"ĠmyÅĽli":1428,"land":1429,"Ġdobrze":1430,"ĠgÅĤos":1431,"ĠmusiaÅĤ":1432,"wiadow":1433,"marÅĤ":1434,"pomni":1435,"ByÅĤ":1436,"Prze":1437,"Potem":1438,"Za":1439,"caÅĤ":1440,"daÅĤ":1441,"dniej":1442,"kro":1443,"miÄĻ":1444,"pli":1445,"raÅĤ":1446,"wÄĻ":1447,"Ġat":1448,"ĠÅĤy":1449,"Ġpat":1450,"ĠpeÅĤ":1451,"Ġpew":1452,"Ġwp":1453,"Ġtro":1454,"Ġdni":1455,"Ġdwie":1456,"Ġmil":1457,"ÅĽle":1458,"Ġos":1459,"ĠksiÄĻ":1460,"Ġnale":1461,"ĠpoÅĽ":1462,"Ġpomy":1463,"ĠponiewaÅ¼":1464,"rzem":1465,"Ġniej":1466,"ata":1467,"ĠBillym":1468,"Ġwypad":1469,"kona":1470,"ÅĤoÅĽci":1471,"Ġan":1472,"byt":1473,"ĠcÃ³r":1474,"woli":1475,"ÅĦczyÅĤ":1476,"owany":1477,"kiego":1478,"tach":1479,"Ġspod":1480,"rusz":1481,"Ġlot":1482,"ĠDla":1483,"ĠMo":1484,"ĠMonta":1485,"ĠJak":1486,"ĠSz":1487,"Ġwojsk":1488,"Ġobu":1489,"Ġopty":1490,"ĠLe":1491,"bara":1492,"ĠkiedyÅĽ":1493,"ĠDrezno":1494,"stycz":1495,"ĠstraÅ¼":1496,"ĠksiÄħÅ¼ki":1497,"ĠksiÄħÅ¼kÄĻ":1498,"stÄĻpu":1499,"ĠNiemcy":1500,"Ġpowin":1501,"ĠdÅĤugo":1502,"ĠjakiÅĽ":1503,"Ġkobiety":1504,"Ġdrugiej":1505,"ĠktÃ³rego":1506,"ble":1507,"ck":1508,"cem":1509,"iÅĤ":1510,"pot":1511,"tk":1512,"ura":1513,"Ġpla":1514,"ĠprÃ³":1515,"Ġnum":1516,"Ġzw":1517,"Å¼d":1518,"chali":1519,"Ġme":1520,"Ġmas":1521,"Ġojciec":1522,"dzÄħ":1523,"niÄħ":1524,"ĠnaprawdÄĻ":1525,"rzeÄĩ":1526,"ĠBer":1527,"ĠjeÅĽli":1528,"nek":1529,"Ġwyob":1530,"ĠPowie":1531,"Ġaut":1532,"orem":1533,"ĠWi":1534,"owarzy":1535,"owane":1536,"Ġspra":1537,"jÄħce":1538,"Ġszere":1539,"ĠDzi":1540,"Ġwol":1541,"Ġpowiet":1542,"ĠtakÅ¼e":1543,"Å¼yÄĩ":1544,"piero":1545,"lone":1546,"Ġlata":1547,"ĠlatajÄħc":1548,"Ġpis":1549,"dzenie":1550,"Ġodpowie":1551,"ĠÅĽwiatowej":1552,"ĠZiemia":1553,"miast":1554,"ĠzobaczyÄĩ":1555,"ĠszeÅĽÄĩ":1556,"ĠÅĽrodka":1557,"ĠÅ¼oÅĤnierzy":1558,"Ġmatka":1559,"ĠgÃ³rÄĻ":1560,"Ġbombard":1561,"ĠsÅĤowa":1562,"peÅĤnie":1563,"stÄħpi":1564,"ĠBoÅ¼e":1565,"ĠBarbara":1566,"ĠEdgar":1567,"Nie":1568,"Po":1569,"kÅĤ":1570,"omi":1571,"row":1572,"tej":1573,"waÅĤo":1574,"Ġpowo":1575,"ĠwszedÅĤ":1576,"Ġzwie":1577,"Ġzwiadow":1578,"Ġtemu":1579,"chni":1580,"chaÄĩ":1581,"Ã³z":1582,"Ġdwu":1583,"Ġoj":1584,"Ġostat":1585,"Ġkro":1586,"Ġkre":1587,"szÅĤa":1588,"Ġnapis":1589,"ciÅĤa":1590,"amie":1591,"amiÄĻ":1592,"dzia":1593,"Ġjedy":1594,"Ġwyp":1595,"Ġwyso":1596,"Ġprzeciw":1597,"ĠPod":1598,"dziesiÄħt":1599,"ĠÅĽpie":1600,"tym":1601,"ĠtysiÄħc":1602,"ÅĽciÄħ":1603,"Ġszpita":1604,"ĠniÄħ":1605,"czenie":1606,"mienia":1607,"ĠCampbel":1608,"tera":1609,"ĠJor":1610,"ĠByÅĤo":1611,"Ġdziew":1612,"Ġjednym":1613,"Ġpal":1614,"Ġznale":1615,"Ġczyta":1616,"ĠLily":1617,"ezu":1618,"Ġdlaczego":1619,"Ġsamolot":1620,"skim":1621,"Ġprzedstawi":1622,"chodzi":1623,"ĠwÅĤas":1624,"ĠgÅĤowÄħ":1625,"ĠJest":1626,"Ġwsp":1627,"ĠzamknÄħÅĤ":1628,"ĠkaÅ¼d":1629,"czasem":1630,"Ġmiejsca":1631,"Ġ194":1632,"Ġ196":1633,"ĠamerykaÅĦskich":1634,"Ġtrzech":1635,"ĠchwilÄĻ":1636,"ĠÅĽmierci":1637,"...":1638,"ĠÅĤÃ³Å¼ka":1639,"ĠkaÅ¼dym":1640,"ĠotworzyÅĤ":1641,"ĠszkoÅĤy":1642,"Ġmomen":1643,"ĠmÄĻÅ¼czy":1644,"dno":1645,"ec":1646,"ech":1647,"kaÅĤ":1648,"kowi":1649,"laÅĤ":1650,"lat":1651,"nd":1652,"ng":1653,"Ġpas":1654,"Ġwra":1655,"Ġzmieni":1656,"Ġtor":1657,"owaÅĤy":1658,"ĠdÅº":1659,"ĠduÅ¼":1660,"Ġokie":1661,"got":1662,"szÄħ":1663,"stan":1664,"Ġpomo":1665,"lep":1666,"let":1667,"aka":1668,"aku":1669,"yÅĤa":1670,"erm":1671,"ĠwyjÄħ":1672,"Ġstro":1673,"Ġup":1674,"orma":1675,"bym":1676,"nÄħtrz":1677,"siad":1678,"kiej":1679,"Ġnikt":1680,"Ġmusie":1681,"ĠJezu":1682,"Ġwiele":1683,"Ġwielu":1684,"Ġmog":1685,"Ġmogli":1686,"szech":1687,"owiadaÅĤ":1688,"Ġfron":1689,"Ġrozmawi":1690,"onu":1691,"ĠByÅĤy":1692,"biera":1693,"Ġpara":1694,"Ġinnymi":1695,"Ġopu":1696,"Ġrzecz":1697,"puszcz":1698,"ĠÅ¼ycia":1699,"ĠpuÅĤkow":1700,"ĠgÅĤowÄĻ":1701,"Ġbara":1702,"ĠsÅĤyszaÅĤ":1703,"ĠrzeczywiÅĽcie":1704,"Ġpotrafi":1705,"ymczasem":1706,"Ġmiasta":1707,"Ġwojennych":1708,"Ġbiedny":1709,"ÅĦstwa":1710,"Ġstanowi":1711,"ĠTralfamadorczycy":1712,"Ġface":1713,"ĠzupeÅĤnie":1714,"Ġnumer":1715,"Przy":1716,"ecja":1717,"oo":1718,"onej":1719,"rÃ³w":1720,"rga":1721,"sp":1722,"skÄħ":1723,"tego":1724,"twa":1725,"ĠÅº":1726,"ÅĤÃ³":1727,"Ġprowa":1728,"Ġsre":1729,"ĠwÄħ":1730,"Ġwreszcie":1731,"Ġzami":1732,"rzÄħd":1733,"czo":1734,"czni":1735,"cznym":1736,"Ġtra":1737,"ĠtyÅĤ":1738,"owaÅĤo":1739,"Ġdrze":1740,"Ġdre":1741,"Ġofi":1742,"niÄĩ":1743,"szej":1744,"ĠjÄĻ":1745,"stra":1746,"stro":1747,"ĠpoczÄħ":1748,"Ġniep":1749,"Ġniewie":1750,"arÅĤ":1751,"kazy":1752,"Ġzale":1753,"ĠzaczÄħ":1754,"nety":1755,"ĠwyglÄħd":1756,"Ġgro":1757,"Ġgwi":1758,"ĠgÅĤu":1759,"ĠprzeniÃ³sÅĤ":1760,"Ġuk":1761,"Ġuro":1762,"ÅĤoÅ¼yÅĤ":1763,"Ġce":1764,"ÅĦce":1765,"ĠkoÅĤo":1766,"Ġprzypomi":1767,"taj":1768,"Ġtyle":1769,"Ġsprze":1770,"Ġspecja":1771,"jÄħcÄħ":1772,"ĠMie":1773,"ĠMÃ³wi":1774,"biÅĤ":1775,"ÅºÄĩ":1776,"ĠwojnÄĻ":1777,"onego":1778,"ĠRob":1779,"Ġpani":1780,"gara":1781,"ĠrzeÅºni":1782,"ĠleÅ¼":1783,"jÄĻcia":1784,"Ġkur":1785,"Ġpud":1786,"chodziÅĤ":1787,"Ġbardziej":1788,"Ġrazem":1789,"Ġbuty":1790,"Ġpozost":1791,"entÃ³w":1792,"ĠdwadzieÅĽci":1793,"Ġzrozu":1794,"ĠoczywiÅĽcie":1795,"ĠÅĽmierÄĩ":1796,"Ġprawdzi":1797,"ĠktoÅĽ":1798,"ĠÅ¼adnego":1799,"wierdziÅĤ":1800,"000":1801,"Ġnazwi":1802,"ĠWszyscy":1803,"Ġpokoju":1804,"ĠznajdowaÅĤ":1805,"ĠDlaczego":1806,"ĠdwadzieÅĽcia":1807,"Ameryka":1808,"Weary":1809,"dwie":1810,"gn":1811,"gÅĤo":1812,"ha":1813,"hater":1814,"ner":1815,"nku":1816,"ogra":1817,"spo":1818,"tor":1819,"tery":1820,"uf":1821,"wem":1822,"Ġ000":1823,"ĠpÅĤy":1824,"Ġwk":1825,"Ġwal":1826,"ĠwÅĤÄħ":1827,"ĠzwiÄħ":1828,"Ġdy":1829,"ĠdÅĤo":1830,"Ġmor":1831,"Ġoch":1832,"Ġoto":1833,"Ġkr":1834,"sztaÅĤ":1835,"ĠnastÄĻpu":1836,"Ġjas":1837,"Ġpor":1838,"rzeb":1839,"lem":1840,"lekt":1841,"akÃ³w":1842,"Ġstal":1843,"cieli":1844,"Ġprzesta":1845,"Ġprzekona":1846,"ĠumarÅĤ":1847,"ĠPowiedziaÅĤ":1848,"Ġcztery":1849,"ĠÅĽnie":1850,"ÅĤych":1851,"Ġspraw":1852,"Ġchor":1853,"ĠDz":1854,"ĠMy":1855,"Ġdzwo":1856,"ĠAle":1857,"Ġfi":1858,"Ġobie":1859,"Ġrozleg":1860,"Ġmaszy":1861,"ĠjednÄħ":1862,"wych":1863,"Ġinter":1864,"Ġopowie":1865,"giel":1866,"ajem":1867,"sunÄħÅĤ":1868,"ĠgÅĤÄĻ":1869,"siÄĻcy":1870,"Ġpozosta":1871,"ĠJeÅĽli":1872,"pani":1873,"Ġmiejsce":1874,"ĠjakieÅĽ":1875,"ĠcaÅĤkowi":1876,"Ġrusz":1877,"ĠFran":1878,"ĠRoland":1879,"ĠkoÅĦca":1880,"ĠmaÅĤe":1881,"Ġtwarz":1882,"ĠciÄĻÅ¼":1883,"kszoÅĽÄĩ":1884,"Ġangiel":1885,"Ġszereg":1886,"ĠpudeÅĤ":1887,"Gdzie":1888,"bar":1889,"co":1890,"cen":1891,"com":1892,"dli":1893,"dÅĤu":1894,"fie":1895,"fon":1896,"gze":1897,"ho":1898,"ji":1899,"kli":1900,"lny":1901,"nk":1902,"nki":1903,"ser":1904,"sÅĤa":1905,"Ġen":1906,"Ġser":1907,"ĠsÅĤa":1908,"ĠwÄĻ":1909,"Ġzim":1910,"Ġzbyt":1911,"rzmi":1912,"czaÅĤ":1913,"cznÄħ":1914,"cznego":1915,"czony":1916,"Ġtowarzy":1917,"ownie":1918,"che":1919,"Ã³p":1920,"Ġdowie":1921,"ĠdwÃ³":1922,"ĠoÅĽ":1923,"Ġoko":1924,"Ġokaz":1925,"ĠksztaÅĤ":1926,"nin":1927,"Ġnazy":1928,"Ġnagle":1929,"Ġbr":1930,"nien":1931,"Ġpoma":1932,"Ġdot":1933,"Ġdosko":1934,"rzytom":1935,"ĠzaczÄĻ":1936,"Ġzatrzy":1937,"ato":1938,"czywiÅĽcie":1939,"Ġwyj":1940,"Ġwyja":1941,"ĠwyglÄħdaÅĤ":1942,"Ġstu":1943,"ĠstÃ³p":1944,"Ġprzewo":1945,"Ġum":1946,"ĠudziaÅĤ":1947,"Ġumie":1948,"ĠuÅ¼y":1949,"Äħce":1950,"ĠPie":1951,"dziestu":1952,"ĠWil":1953,"wanie":1954,"wano":1955,"nosi":1956,"Ġodwie":1957,"ĠkoÅĤ":1958,"Ġkomu":1959,"Ġkopu":1960,"Ġkoniec":1961,"ĠÅĽci":1962,"ĠmiaÅĤy":1963,"tal":1964,"jÄħco":1965,"ÅĽciu":1966,"ÅĽciÄĩ":1967,"Ġlo":1968,"Ġlod":1969,"Ġszk":1970,"Ġszcze":1971,"Ġsztu":1972,"ĠszczÄĻ":1973,"ĠDzie":1974,"czenia":1975,"ĠMary":1976,"ĠpodrÃ³Å¼":1977,"Ġpodczas":1978,"ĠpowiedzieÄĩ":1979,"Ġwiem":1980,"rÃ³j":1981,"ĠOn":1982,"otogra":1983,"ĠjesteÅĽ":1984,"Ġobec":1985,"Ġwido":1986,"ĠdzieÅĦ":1987,"Ġlub":1988,"Ġludz":1989,"ĠpowiedziaÅĤem":1990,"Ġinnego":1991,"Ġpracy":1992,"ĠNaj":1993,"lonych":1994,"czyÅĤa":1995,"Ġleka":1996,"ĠleÅ¼aÅĤ":1997,"ciÄħgu":1998,"ĠwÅĤaÅĽci":1999,"Ġgdyby":2000,"rzyÅĤo":2001,"Ġbohater":2002,"Ġbudy":2003,"ĠrÄĻkami":2004,"Ġmiejscu":2005,"Ġspoko":2006,"Ġznajdu":2007,"Ġziem":2008,"ĠÅĽrodku":2009,"ciÄħgnÄħÅĤ":2010,"ĠÅĽwiecie":2011,"Ġmiasto":2012,"pomnie":2013,"Ġarty":2014,"nicÄĻ":2015,"ĠWszyst":2016,"ĠNigdy":2017,"Ġkolej":2018,"Ġmuszkie":2019,"ĠÅĽredniej":2020,"Ġhistorii":2021,"ĠÅĽcianie":2022,"Ġmusieli":2023,"Ġsrebr":2024,"ĠzaczÄħÅĤ":2025,"Ġchorych":2026,"bardziej":2027,"gzeku":2028,"ĠdwÃ³ch":2029,"\",":2030,"Pod":2031,"ara":2032,"ciÄĻ":2033,"cer":2034,"cje":2035,"cjÄħ":2036,"dem":2037,"gna":2038,"gry":2039,"it":2040,"iÄħ":2041,"kle":2042,"kniÄĻ":2043,"lnym":2044,"pÄĻ":2045,"sÃ³w":2046,"skiem":2047,"tÄĻ":2048,"tpli":2049,"ul":2050,"yba":2051,"Ġry":2052,"Ġpry":2053,"Ġplu":2054,"ĠpamiÄĻ":2055,"ĠwÅĤÃ³":2056,"Ġzb":2057,"Ġzni":2058,"czka":2059,"Ġtrafi":2060,"Ġtajem":2061,"chy":2062,"chem":2063,"Ã³le":2064,"Ã³ki":2065,"Ġdwo":2066,"ĠmiÄĻ":2067,"ĠmÃ³w":2068,"goÅĽ":2069,"godnie":2070,"rag":2071,"rach":2072,"dzÄĻ":2073,"Ġiz":2074,"niki":2075,"ĠnastÄĻp":2076,"Ġnatych":2077,"star":2078,"Ġbli":2079,"ĠbiaÅĤ":2080,"ĠbÅĤÄĻ":2081,"Ġpole":2082,"Ġpoza":2083,"ĠposzedÅĤ":2084,"ĠporzÄħd":2085,"akie":2086,"Ġniebo":2087,"Ġdoro":2088,"naÅĽcie":2089,"erwo":2090,"wia":2091,"wiÅĤ":2092,"atu":2093,"czym":2094,"Ġwyko":2095,"Ġstrze":2096,"Ġga":2097,"ĠurzÄħ":2098,"Äħcych":2099,"daw":2100,"Ġcud":2101,"Ġodleg":2102,"ÅĦcz":2103,"ÅĦczy":2104,"owaniu":2105,"kujÄĻ":2106,"ĠTy":2107,"Ġmili":2108,"asem":2109,"Ġspot":2110,"jÄħcego":2111,"szym":2112,"Ġniko":2113,"Ġgor":2114,"ĠMu":2115,"anta":2116,"Ġpowierz":2117,"maÄĩ":2118,"ĠmiesiÄħc":2119,"Ġzew":2120,"Ġzebra":2121,"Ġpacj":2122,"owaÅĤem":2123,"ĠNaprawdÄĻ":2124,"szczÄĻ":2125,"ĠÅ¼yje":2126,"ĠÅ¼yciu":2127,"eÅĤnia":2128,"ciÄħga":2129,"stym":2130,"ĠciaÅĤa":2131,"Ġpowta":2132,"ĠwziÄĻ":2133,"ĠÅĽmiesz":2134,"ĠGdzie":2135,"ĠÅĽwiatÅĤa":2136,"Ġciem":2137,"Ġciebie":2138,"Ġogrom":2139,"Ġegzeku":2140,"ĠwiÄĻcej":2141,"Ġtutaj":2142,"Ġkonwoj":2143,"Ġchwila":2144,"glÄħdaÄĩ":2145,"glÄħdali":2146,"ĠczÅĤowieka":2147,"Ġwagonu":2148,"bliÅ¼":2149,"Ġpowinien":2150,"Ġdrodze":2151,"Ġkilku":2152,"ĠzrobiÅĤ":2153,"ĠgÃ³ry":2154,"ĠRoz":2155,"Ġobok":2156,"ĠAnglik":2157,"ĠkoÅĦcu":2158,"Ġkierow":2159,"ĠmÅĤody":2160,"Ġczterech":2161,"Ġprzyjaci":2162,"ĠwyÅĤÄħ":2163,"Ġnauczy":2164,"rÃ³tce":2165,"ĠKop":2166,"wartet":2167,"larÃ³w":2168,"ĠdopÃ³ki":2169,"pomniaÅĤ":2170,"ĠksiÄĻÅ¼y":2171,"Ġmomencie":2172,"ĠdÅºwiÄĻ":2173,"ĠpuÅĤkownik":2174,"ĠRober":2175,"Ġintere":2176,"Ġnatychmiast":2177,"Cz":2178,"Te":2179,"bÄħ":2180,"cale":2181,"gaÅĤ":2182,"gni":2183,"gro":2184,"lni":2185,"lne":2186,"oÅĤa":2187,"prowa":2188,"sied":2189,"trze":2190,"two":2191,"tku":2192,"wor":2193,"ĠY":2194,"ĠÅĤo":2195,"Ġple":2196,"Ġsu":2197,"Ġzbu":2198,"Ġzmia":2199,"cznej":2200,"Ġtwo":2201,"chÄĻ":2202,"chniÄĻ":2203,"Ã³g":2204,"Ġdia":2205,"Ġmam":2206,"Ġoku":2207,"Ġosie":2208,"Ġostrze":2209,"Ġkli":2210,"Ġkrze":2211,"Ġkru":2212,"ĠkÃ³ÅĤ":2213,"ĠkrÃ³t":2214,"rap":2215,"dziÄĻ":2216,"nios":2217,"szty":2218,"Ġnap":2219,"Ġnadzie":2220,"stwa":2221,"stwo":2222,"stru":2223,"ĠpoÅĤu":2224,"rzenia":2225,"ĠdostaÅĤ":2226,"kali":2227,"kaÄĩ":2228,"dziÅĤa":2229,"Ġzaba":2230,"kit":2231,"Ġwyraz":2232,"ĠstaÅĤa":2233,"ĠstaÅĤy":2234,"Ġstos":2235,"ĠstaÅĤo":2236,"Ġstud":2237,"Ġprzeczy":2238,"Ġuz":2239,"Ġubra":2240,"ĠuÅĽmie":2241,"ĠPan":2242,"ĠPal":2243,"dach":2244,"ĠWszech":2245,"nogra":2246,"res":2247,"enci":2248,"Ġoddali":2249,"ÅĦcy":2250,"ÅĦca":2251,"owano":2252,"ĠkoÅĽci":2253,"Ġprzyby":2254,"Ġprzytom":2255,"ĠprzykÅĤad":2256,"Ġrob":2257,"Ġrok":2258,"Ġtytu":2259,"Ġszczy":2260,"Ġnimi":2261,"ĠDob":2262,"czeÅĽnie":2263,"Ġtakim":2264,"jeÅ¼d":2265,"ĠJej":2266,"rÃ³ciÅĤ":2267,"Åºli":2268,"osen":2269,"Ġfor":2270,"Ġjestem":2271,"Ġobej":2272,"Ġobraz":2273,"Ġrozm":2274,"ont":2275,"jÄħÅĤ":2276,"ĠmieÄĩ":2277,"ĠdziesiÄĻ":2278,"ĠkawaÅĤ":2279,"ĠIch":2280,"piej":2281,"Ġznacznie":2282,"ĠopowiedziaÅĤ":2283,"Ġpiecho":2284,"glÄĻ":2285,"lony":2286,"Ġsamym":2287,"alni":2288,"Ġpiosen":2289,"dzono":2290,"ĠmÃ³wiÄħc":2291,"Ġstrasz":2292,"ĠgÅĤowy":2293,"Ġstop":2294,"Ġzdr":2295,"Ġwspani":2296,"ĠogÃ³le":2297,"noÅĽciÄħ":2298,"ĠchÅĤopie":2299,"ĠWalencji":2300,"ĠchoÄĩ":2301,"Ġtrzeba":2302,"Ġokru":2303,"Ġbit":2304,"Ġwagonie":2305,"rzÄħs":2306,"ĠÅĤÃ³Å¼ku":2307,"ĠTralfamadorczykÃ³w":2308,"ĠZiemian":2309,"ĠpomiÄĻdzy":2310,"ĠKaÅ¼":2311,"Ġdziecko":2312,"ĠczymÅĽ":2313,"ĠkrzyÅ¼":2314,"Ġtakiego":2315,"Ġfilm":2316,"Ġskutek":2317,"ĠtrochÄĻ":2318,"Ġosob":2319,"ĠoptykÃ³w":2320,"ĠprÃ³b":2321,"ĠtysiÄħce":2322,"ĠCampbell":2323,"ĠwspÃ³ÅĤ":2324,"ĠkaÅ¼dego":2325,"ĠmÄĻÅ¼czyz":2326,"ĠduÅ¼o":2327,"ĠmogÅĤa":2328,"ĠÅºle":2329,"Ġzaledwie":2330,"ĠwkrÃ³tce":2331,"lektry":2332,"ĠzewnÄħtrz":2333,"ĠKopciu":2334,"Ma":2335,"byÅĤ":2336,"cÄĻ":2337,"dny":2338,"daÅĤo":2339,"dnik":2340,"dha":2341,"ewie":2342,"gÃ³l":2343,"iru":2344,"lami":2345,"mem":2346,"mos":2347,"nnie":2348,"pat":2349,"sÄĻ":2350,"ton":2351,"ÅĤe":2352,"ÅĤowa":2353,"ĠpÅĤo":2354,"Ġpowa":2355,"Ġpsa":2356,"Ġso":2357,"Ġsami":2358,"Ġsied":2359,"Å¼nie":2360,"Å¼ony":2361,"czny":2362,"czach":2363,"Ġtrz":2364,"chen":2365,"Ġmniej":2366,"ÅĽni":2367,"ÅĽwiat":2368,"Ġoni":2369,"Ġogie":2370,"Ġorga":2371,"ĠoglÄħdaÄĩ":2372,"iÄĻkujÄĻ":2373,"dzaÅĤ":2374,"Ġile":2375,"niami":2376,"szt":2377,"Ġnam":2378,"stej":2379,"Ġbla":2380,"Ġbrzmi":2381,"Ġpog":2382,"Ġpoli":2383,"Ġporo":2384,"ciÄĩ":2385,"Ġnieu":2386,"Ġniewoli":2387,"ĠBi":2388,"ĠdolarÃ³w":2389,"ĠÅ¼ona":2390,"rzysta":2391,"nale":2392,"nawi":2393,"najm":2394,"Ã³wczas":2395,"Ġzad":2396,"Ġzastrze":2397,"wiz":2398,"wiÅĤa":2399,"kimi":2400,"ĠÅ¼elaz":2401,"Ġwyb":2402,"Ġstali":2403,"kol":2404,"komo":2405,"Ġuli":2406,"ĠusiÅĤ":2407,"ĠusÅĤy":2408,"ore":2409,"orda":2410,"wania":2411,"ĠbyÅĤem":2412,"nom":2413,"miu":2414,"enty":2415,"Ġcu":2416,"woÅĽci":2417,"owanych":2418,"Ġkop":2419,"Ġkonie":2420,"ĠÅĽlu":2421,"Ġprzypad":2422,"ĠprzyszÅĤo":2423,"siaÅĤ":2424,"Ġrodz":2425,"ĠmiÅĤo":2426,"ĠtysiÄĻcy":2427,"jÄħcej":2428,"ÅĽciÅĤ":2429,"Ġchle":2430,"Ġchcieli":2431,"Ġsza":2432,"czek":2433,"czes":2434,"ĠMer":2435,"Ġtaki":2436,"ÅĤuch":2437,"omo":2438,"ĠSta":2439,"ĠmogÄĻ":2440,"szek":2441,"ĠOczywiÅĽcie":2442,"Ġfun":2443,"Ġfotogra":2444,"Ġrozpo":2445,"Ġrozstrze":2446,"onwoj":2447,"cach":2448,"Å¼eli":2449,"Å¼enia":2450,"tua":2451,"nÄĻÅĤy":2452,"gach":2453,"ĠNazy":2454,"Ġlek":2455,"toÅĽ":2456,"Ġrad":2457,"Ġrami":2458,"Ġkuchni":2459,"Ġpisa":2460,"Ġpunk":2461,"Ġnajlep":2462,"syj":2463,"Ġlist":2464,"Ġrazu":2465,"Ġrazie":2466,"ĠciaÅĤo":2467,"rzyÅĤa":2468,"ĠskÅĤa":2469,"Ġstrachu":2470,"ĠÅĽwiata":2471,"ĠgdzieÅĽ":2472,"Ġsytua":2473,"ĠrÄĻkÄĻ":2474,"ĠUwaÅ¼":2475,"ĠcaÅĤÄħ":2476,"Ġchodzi":2477,"Ġziemi":2478,"ĠNiemcÃ³w":2479,"ĠHm":2480,"ĠzostaÅĤy":2481,"ĠdrogÄĻ":2482,"ĠLazzara":2483,"Ġoboz":2484,"ĠzasnÄħÅĤ":2485,"Ġswojego":2486,"ĠchÅĤopcy":2487,"ĠNikt":2488,"raÅ¼ajÄħc":2489,"Ġkolor":2490,"ĠÅ»e":2491,"Ġpodobnie":2492,"ĠÅĽredni":2493,"ĠPaul":2494,"ĠpÅĤci":2495,"rytyj":2496,"Ġlotni":2497,"ĠMontana":2498,"Ġpowinni":2499,"Ġplane":2500,"Ġpowietrzu":2501,"ĠZiemianie":2502,"ĠszeÅĽÄĩdziesiÄħt":2503,"ĠJorku":2504,"latego":2505,"stanowi":2506,"Ġfront":2507,"Ġochot":2508,"ĠgÅĤÄĻbo":2509,"ĠcaÅĤkowicie":2510,"GdzieÅĽ":2511,"ĠWildha":2512,"ĠÅĽcian":2513,"ĠwÅĤÃ³czÄĻ":2514,"ĠbÅĤÄĻkit":2515,"akiem":2516,"ĠodlegÅĤoÅĽci":2517,"ĠprzyjaciÃ³ÅĤ":2518,"Ġinteresu":2519,"Ġosiem":2520,"nografi":2521,"ewien":2522,"irurg":2523,"ĠogieÅĦ":2524,"najmniej":2525,"Ġrozstrzela":2526,"ĠWildhack":2527,"Ro":2528,"Rumfoord":2529,"Tro":2530,"Tak":2531,"ast":2532,"bro":2533,"bry":2534,"bez":2535,"cka":2536,"dne":2537,"fa":2538,"fy":2539,"gnÄħÅĤ":2540,"ggie":2541,"jnie":2542,"jan":2543,"kÃ³ÅĤ":2544,"mÃ³w":2545,"ment":2546,"nny":2547,"nkiem":2548,"ndu":2549,"onÄħ":2550,"ota":2551,"ote":2552,"rÅ¼":2553,"rem":2554,"rwy":2555,"son":2556,"tn":2557,"tÄħd":2558,"uwaÅ¼":2559,"wni":2560,"zÄĻ":2561,"zaÅĤ":2562,"zja":2563,"zmawi":2564,"Ġek":2565,"Ġrzu":2566,"ÅĤaÅĤ":2567,"ĠpÄĻ":2568,"Ġpil":2569,"Ġpar":2570,"ĠparÄĻ":2571,"Ġwro":2572,"Ġwsze":2573,"Ġwcale":2574,"Ġnowo":2575,"ĠnÃ³Å¼":2576,"ĠzÄĻ":2577,"Ġzgo":2578,"ĠzaÅĤo":2579,"Ġzmar":2580,"Å¼Ã³ÅĤ":2581,"czaj":2582,"cznoÅĽci":2583,"ĠtwierdziÅĤ":2584,"ĠtrÃ³j":2585,"owcÃ³w":2586,"Ġdow":2587,"Ġona":2588,"Ġocze":2589,"Ġkry":2590,"ĠkrÄĻ":2591,"Ġkata":2592,"Ġkwartet":2593,"iÄĻki":2594,"raca":2595,"dza":2596,"nii":2597,"szam":2598,"szki":2599,"szko":2600,"Ġnagie":2601,"stem":2602,"strzy":2603,"Ġbry":2604,"Ġpol":2605,"ĠpoÅ¼":2606,"Ġpogo":2607,"Ġpodzi":2608,"ama":2609,"amtÄħd":2610,"ĠBÃ³g":2611,"arni":2612,"Ġdole":2613,"ĠÅ¼Ã³ÅĤ":2614,"kanie":2615,"rzyÄĩ":2616,"rzymaÅĤ":2617,"Ã³wki":2618,"Ġzada":2619,"Ġzaraz":2620,"ĠzauwaÅ¼":2621,"Ġjezi":2622,"Ġwybu":2623,"ĠstÄħd":2624,"ciela":2625,"ĠprzeÅ¼y":2626,"ĠprzeszÅĤo":2627,"Ġucie":2628,"Ġuko":2629,"Ġuwa":2630,"Ġusta":2631,"Ġutrzy":2632,"Ġusiad":2633,"Äħcego":2634,"ĠPra":2635,"ĠWa":2636,"ĠWrÃ³Å¼":2637,"wach":2638,"wajÄħ":2639,"Ġjakim":2640,"Ġodbi":2641,"Ġodez":2642,"Ġczerwo":2643,"ÅĦski":2644,"owanie":2645,"ĠTa":2646,"ĠTen":2647,"ĠTymczasem":2648,"ĠÅĽwi":2649,"ĠÅĽwiad":2650,"Ġprzynajmniej":2651,"ĠmiÅĤoÅĽci":2652,"adill":2653,"taÄĩ":2654,"ÅĤym":2655,"ĠZoo":2656,"wiek":2657,"wiera":2658,"wieni":2659,"Ġchyba":2660,"Ġszu":2661,"Ġszty":2662,"Ġniczym":2663,"ĠgoÅĽci":2664,"razi":2665,"ĠwokÃ³ÅĤ":2666,"Ġpodry":2667,"ĠpowieÅĽci":2668,"ĠCadill":2669,"ĠSam":2670,"ĠSÅĤy":2671,"rÃ³cz":2672,"Ġmoim":2673,"Ġmoich":2674,"ĠOstat":2675,"Ġwojna":2676,"Ġfanta":2677,"ĠKrzy":2678,"ĠKsiÄĻ":2679,"Ġmaj":2680,"myÅĽl":2681,"Ġwin":2682,"Ġkape":2683,"Ġkarabi":2684,"Ġjednej":2685,"wyÅ¼":2686,"Ġzegar":2687,"ĠludÅº":2688,"nÄĻÅĤo":2689,"gii":2690,"Ġznaczy":2691,"Ġinne":2692,"zano":2693,"lono":2694,"Ġlep":2695,"poÅĤu":2696,"ĠÅ¼yw":2697,"ĠheÅĤ":2698,"Ġprote":2699,"Ġnogi":2700,"dzeniem":2701,"ktÃ³":2702,"ktor":2703,"Ġzapew":2704,"ĠPoza":2705,"Ġnajbardziej":2706,"Ġdaleko":2707,"niÄĻty":2708,"Ġwzro":2709,"Ġabym":2710,"Ġskle":2711,"Ġskar":2712,"ĠgÅĤÃ³w":2713,"ĠEu":2714,"ĠGdy":2715,"Ġbutel":2716,"Ġpozwoli":2717,"ĠJeden":2718,"Ġstoli":2719,"ĠzdjÄĻcie":2720,"stoty":2721,"stolet":2722,"ĠmÃ³z":2723,"ĠzamkniÄĻ":2724,"Ġciep":2725,"Ġcier":2726,"ĠsiedziaÅĤ":2727,"ĠÅģ":2728,"ĠChry":2729,"ĠszedÅĤ":2730,"dop":2731,"ĠwagonÃ³w":2732,"Ġzielo":2733,"ĠRosja":2734,"ĠWietn":2735,"Ġprawda":2736,"ĠdÅĤuÅ¼":2737,"ĠÅĽwiece":2738,"ĠÅ¼oÅĤnierze":2739,"ĠÅ¼adnych":2740,"ĠzrobiÄĩ":2741,"ĠAnglicy":2742,"Ġdaw":2743,"Ġzostali":2744,"ĠrÃ³Å¼nych":2745,"Ġmart":2746,"Ġgazet":2747,"Ġfabry":2748,"wÄħtpli":2749,"ĠjednoczeÅĽnie":2750,"ĠdzieciÄĻ":2751,"ĠsÅĤoÅĦce":2752,"ĠczÄĻÅĽÄĩ":2753,"ĠczÄĻsto":2754,"cyjnym":2755,"Ġszyb":2756,"ĠtÅĤuszcz":2757,"Ġcywil":2758,"Ġtalerz":2759,"Ġdeszcz":2760,"ĠczegoÅĽ":2761,"Ġsamochod":2762,"ĠmyÅĽlaÅĤ":2763,"ĠOpty":2764,"ĠmaÅĤym":2765,"Ġistnie":2766,"Ġbroni":2767,"krotnie":2768,"ĠÅĤyÅ¼":2769,"ĠnaleÅ¼":2770,"ĠcÃ³rka":2771,"ĠSzko":2772,"ĠobudziÅĤ":2773,"ĠstraÅ¼nikÃ³w":2774,"ĠpisaÅĤ":2775,"Ġojca":2776,"Ġwysoko":2777,"Ġtortu":2778,"Ġokien":2779,"Ġbaraku":2780,"ĠjÄĻzy":2781,"ĠpoczÄħtku":2782,"Ġnieprzytom":2783,"Ġniewiele":2784,"Ġgwiaz":2785,"ĠMieli":2786,"Ġznajduje":2787,"ĠporzÄħdku":2788,"Ġnauczyciel":2789,"ĠYon":2790,"ĠWszechÅĽwiat":2791,"Ġrobot":2792,"ĠKaÅ¼dy":2793,"Ġrodzaj":2794,"Trout":2795,"bezpie":2796,"Ġkatastro":2797,"ĠludÅºmi":2798,"wÄħtpliwie":2799,"!\"":2800,"Derby":2801,"Monta":2802,"Op":2803,"Ros":2804,"St":2805,"Tymczasem":2806,"dÃ³w":2807,"dki":2808,"dÅĤo":2809,"dry":2810,"ge":2811,"gami":2812,"gan":2813,"gim":2814,"kowy":2815,"lnie":2816,"lot":2817,"nt":2818,"nnych":2819,"nnym":2820,"nemu":2821,"nowu":2822,"oÅ¼":2823,"ora":2824,"por":2825,"pral":2826,"set":2827,"tr":2828,"try":2829,"tkiem":2830,"udy":2831,"udzie":2832,"wÃ³w":2833,"wat":2834,"zm":2835,"Å»":2836,"Ġse":2837,"Ġsce":2838,"Ġwpad":2839,"ĠwÃ³z":2840,"ĠweÅĤnia":2841,"Ġznik":2842,"Å¼o":2843,"cznych":2844,"czone":2845,"Ġtle":2846,"Ġtar":2847,"Ġtralfamador":2848,"chi":2849,"chaÅĤa":2850,"ĠdaÅĤ":2851,"Ġdach":2852,"Ġdlatego":2853,"ĠmÄħ":2854,"Ġmru":2855,"ĠmÄħd":2856,"ÅĽwiad":2857,"ĠoglÄħdaÅĤ":2858,"Ġoczach":2859,"Ġki":2860,"Ġkamie":2861,"nice":2862,"szem":2863,"Ġjad":2864,"liÅĤ":2865,"liÄĩ":2866,"stw":2867,"Ġbie":2868,"Ġbrze":2869,"Ġpoka":2870,"Ġpoda":2871,"Ġpomie":2872,"Ġpoje":2873,"Ġposta":2874,"Ġpozy":2875,"Ġponu":2876,"ĠpociÄħg":2877,"Ġpoleg":2878,"Ġpoczu":2879,"Ġporusz":2880,"ĠpojÄĻcia":2881,"ĠpopoÅĤu":2882,"rosz":2883,"rozu":2884,"Äĩmi":2885,"lek":2886,"leci":2887,"cili":2888,"akaÅĤ":2889,"Ġniem":2890,"Ġnieco":2891,"ĠnieszczÄĻ":2892,"ĠniewÄħtpliwie":2893,"ĠBost":2894,"arda":2895,"ĠÅ¼yÅĤ":2896,"naj":2897,"dziÅĤo":2898,"Ġzat":2899,"Ġzawi":2900,"Ġzaczy":2901,"Ġzajm":2902,"ers":2903,"wiasem":2904,"atru":2905,"czych":2906,"Ġwys":2907,"Ġwyra":2908,"Ġwyma":2909,"Ġwymia":2910,"Ġwybra":2911,"Ġwyszli":2912,"ĠwystÄħpi":2913,"Ġwystar":2914,"Ġstru":2915,"ĠstamtÄħd":2916,"cieÅ¼":2917,"Ġgry":2918,"Ġude":2919,"ĠWiÄĻ":2920,"noc":2921,"nosiÅĤ":2922,"noÅ¼Ã³ÅĤ":2923,"lady":2924,"lajÄħc":2925,"rych":2926,"Ġode":2927,"Ġodw":2928,"Ġodes":2929,"ĠodraÅ¼ajÄħc":2930,"ĠNowy":2931,"ÅĦcÃ³w":2932,"ĠTu":2933,"ĠTru":2934,"Ġkom":2935,"Ġkoni":2936,"ĠkogoÅĽ":2937,"Ġprzygot":2938,"siaj":2939,"obnie":2940,"ĠZe":2941,"Ġchci":2942,"Ġszale":2943,"Ġgot":2944,"aÅĤym":2945,"czeni":2946,"czeniu":2947,"ĠpodÅĤo":2948,"Ġtakich":2949,"Ġmundu":2950,"ĠCi":2951,"bine":2952,"ĠdziaÅĤ":2953,"ĠSy":2954,"Ġwieku":2955,"Ġmoc":2956,"Ġmodli":2957,"owia":2958,"ĠNiemiec":2959,"Ġwojska":2960,"Ġrozp":2961,"onami":2962,"Ġmasz":2963,"ĠmieÅĽcie":2964,"Ġwiad":2965,"Ġjedna":2966,"Å¼enie":2967,"odu":2968,"Ġczasem":2969,"Ġinf":2970,"Ġinny":2971,"Ġinnym":2972,"ĠczytaÅĤ":2973,"Ġopera":2974,"ĠopowiadaÅĤ":2975,"ĠpielÄĻ":2976,"zany":2977,"niejsza":2978,"Ġlepiej":2979,"szczenia":2980,"poko":2981,"ĠPilgrima":2982,"bok":2983,"Ġwszystkim":2984,"ĠramiÄĻ":2985,"Ġkupi":2986,"Ġprof":2987,"Ġprodu":2988,"Ġprosto":2989,"fik":2990,"ajÄħcych":2991,"ĠpiÄĻciu":2992,"ĠwiÄĻkszoÅĽÄĩ":2993,"ĠmÃ³wiÄĩ":2994,"ĠciaÅĤ":2995,"Ġcisza":2996,"ĠwziÄħ":2997,"ĠwzglÄĻ":2998,"Ġskra":2999,"ĠskÄħd":3000,"Ġotwar":3001,"Ġotwarte":3002,"Ġbog":3003,"ĠEwa":3004,"ĠGlu":3005,"Ġbur":3006,"ĠJed":3007,"ĠÅĽwiatÅĤo":3008,"ĠsÄħsied":3009,"Ġtabli":3010,"ĠZielonych":3011,"Ġzamie":3012,"Ġdwaj":3013,"ĠksiÄħÅ¼ka":3014,"Ġogro":3015,"Ġdrugim":3016,"Ġsym":3017,"Ġelektry":3018,"Ġrek":3019,"Ġpanu":3020,"ĠChi":3021,"ĠChciaÅĤ":3022,"ĠrÄĻka":3023,"Ġdrzwiami":3024,"Ġdrzwiach":3025,"iaÅĦ":3026,"Ġzobaczy":3027,"ĠmoÅ¼li":3028,"Ġtrzyma":3029,"Ġjakiej":3030,"Ġspodzie":3031,"Ġ195":3032,"ĠznaÅĤ":3033,"ÅĽlaÅĤ":3034,"ĠcaÅĤe":3035,"ĠcaÅĤej":3036,"ĠamerykaÅĦski":3037,"ĠgÅĤoÅĽ":3038,"Ġkont":3039,"Ġchole":3040,"ĠczÅĤowiekiem":3041,"ĠÅĽmierciÄħ":3042,"ĠmÃ³gÅĤby":3043,"Ġdziw":3044,"Ġwagon":3045,"ĠWiel":3046,"ĠdÅĤugie":3047,"ĠÅĽwieÅ¼o":3048,"Ġwetera":3049,"ĠjeÅĦcami":3050,"pisaÅĤ":3051,"Ġmatki":3052,"ĠgÃ³rze":3053,"Ġobozu":3054,"ĠpiÄĻkna":3055,"ĠAnglikÃ³w":3056,"Ġstarego":3057,"trznych":3058,"Ġzostanie":3059,"resztÄħ":3060,"ĠzdarzyÅĤo":3061,"Ġwszystkiego":3062,"kazaÅĤ":3063,"ĠchÅĤopca":3064,"ing":3065,"ĠsinoÅ¼Ã³ÅĤ":3066,"ĠpomÃ³":3067,"Ġgazu":3068,"ĠczterdzieÅĽci":3069,"Ġniezwy":3070,"Ġtelefon":3071,"Ġtelewiz":3072,"praszam":3073,"ĠczÄĻÅĽci":3074,"ĠMiaÅĤa":3075,"Ġpytanie":3076,"Jeden":3077,"ĠÅļwiat":3078,"ĠpÅĤaszcza":3079,"ĠzwyciÄĻ":3080,"ĠMaggie":3081,"Zap":3082,"Ġatom":3083,"tkowo":3084,"Ġwolno":3085,"ĠlatajÄħcych":3086,"ĠzwierzÄĻ":3087,"ĠnapisaÅĤ":3088,"Ġszpitalu":3089,"ĠJork":3090,"ĠznaleÅºÄĩ":3091,"ĠczytaÄĩ":3092,"Ġ1944":3093,"ĠpomocÄħ":3094,"Ġfacet":3095,"Ġzamiar":3096,"Ġsprzedaw":3097,"ĠleÅ¼aÅĤy":3098,"ĠpozostaÅĤych":3099,"Ġzrozumie":3100,"Ġnazwiskiem":3101,"Amerykanie":3102,"ĠwÅĤÄħczyÅĤ":3103,"Ġmorfi":3104,"ĠpudeÅĤku":3105,"Ġdoskonale":3106,"ĠwyjaÅĽ":3107,"Ġumiera":3108,"Ġwidocznie":3109,"Ġbudynku":3110,"ĠWszystko":3111,"ĠtrafiÅĤ":3112,"Ġdworze":3113,"ĠmÃ³wiÄĻ":3114,"Ġnieboszczy":3115,"ĠwyÅĤÄħcznie":3116,"ĠksiÄĻÅ¼yc":3117,"ĠRobert":3118,"gniar":3119,"ĠnadziejÄĻ":3120,"ĠtytuÅĤem":3121,"ĠKopciuszka":3122,"Ġporozmawi":3123,"kolwiek":3124,"Ġwszel":3125,"Ġbrylan":3126,"ĠKsiÄĻÅ¼y":3127,"ĠEuro":3128,"ĠChrystu":3129,"ĠOptyki":3130,"Montana":3131,"ĠodesÅĤa":3132,"ĠpielÄĻgniar":3133,"An":3134,"Jak":3135,"Od":3136,"Wy":3137,"Wszy":3138,"alu":3139,"brzy":3140,"dat":3141,"dnia":3142,"dowy":3143,"dowaÅĤ":3144,"dniu":3145,"ecz":3146,"eli":3147,"gnie":3148,"gÃ³w":3149,"gen":3150,"han":3151,"hum":3152,"is":3153,"ina":3154,"ine":3155,"ium":3156,"jÃ³w":3157,"kowo":3158,"kÃ³j":3159,"liÄĻ":3160,"lary":3161,"mery":3162,"mniej":3163,"oby":3164,"rgu":3165,"sami":3166,"ts":3167,"tki":3168,"twie":3169,"tami":3170,"wer":3171,"wej":3172,"zmu":3173,"zent":3174,"zde":3175,"ĠÄĩ":3176,"ĠÅĤu":3177,"ÅĤego":3178,"ÅĤÃ³w":3179,"Ġpt":3180,"Ġsa":3181,"Ġsil":3182,"Ġsek":3183,"Ġscen":3184,"Ġwd":3185,"Ġwas":3186,"ĠwnÄĻ":3187,"Ġwew":3188,"Ġnowy":3189,"Ġnowi":3190,"Ġnorma":3191,"Ġzm":3192,"Ġzwi":3193,"Ġzre":3194,"Ġzja":3195,"Ġzga":3196,"aÅĤÄħ":3197,"rzÄħc":3198,"rzono":3199,"czkÄĻ":3200,"ĠtuÅ¼":3201,"chnia":3202,"Ġdnie":3203,"ĠdowiedziaÅĤ":3204,"Ġmord":3205,"Ġogo":3206,"Ġosz":3207,"Ġopi":3208,"Ġozd":3209,"Ġkat":3210,"Ġkor":3211,"Ġkryty":3212,"iÄĻk":3213,"rat":3214,"nina":3215,"nica":3216,"nikiem":3217,"sznie":3218,"Ġnak":3219,"Ġnatu":3220,"ĠnarzÄĻ":3221,"Ġju":3222,"liz":3223,"linie":3224,"stÃ³w":3225,"stych":3226,"Ġbe":3227,"ĠbÅĤa":3228,"Ġbas":3229,"Ġbut":3230,"ĠbrzÄĻ":3231,"niego":3232,"niesi":3233,"Ġpocz":3234,"ĠpoÅĤo":3235,"Ġpoja":3236,"Ġpogar":3237,"Ġposzli":3238,"Ġposzu":3239,"ĠpociÄħgu":3240,"ĠpoÅĤowa":3241,"rok":3242,"ropu":3243,"rzej":3244,"rzenie":3245,"cis":3246,"ciÅĤo":3247,"Ġnied":3248,"ĠBu":3249,"ĠBy":3250,"Ġdosta":3251,"ĠdoÅĽÄĩ":3252,"Ġdotych":3253,"ĠÅ¼ony":3254,"kajÄħc":3255,"rzyja":3256,"dzili":3257,"Ġzag":3258,"Ġzawo":3259,"Ġzanim":3260,"eren":3261,"wiÄĩ":3262,"wiaÄĩ":3263,"atÄĻ":3264,"atera":3265,"czycy":3266,"ĠwyglÄħda":3267,"ÅĤaÅĽnie":3268,"Ġsty":3269,"ciele":3270,"Ġgi":3271,"Ġgu":3272,"Ġgnie":3273,"Ġgrze":3274,"ĠgÃ³r":3275,"Ġprzej":3276,"Ġprzep":3277,"Ġprzesko":3278,"Ġprzestrze":3279,"Ġucz":3280,"ĠukÅĤad":3281,"Ġuspo":3282,"ÄħcÄħ":3283,"Ġad":3284,"Ġalko":3285,"owiec":3286,"dziesiÄĻ":3287,"redni":3288,"lach":3289,"Ġjaka":3290,"wol":3291,"Ġodby":3292,"ĠoddaÅĤ":3293,"Ġczek":3294,"ĠNowego":3295,"ÅĦcu":3296,"ÅĦskiej":3297,"owanego":3298,"ĠTam":3299,"Ġkomi":3300,"Ġprzyje":3301,"Ġprzytu":3302,"ĠprzyjÄĻ":3303,"ĠprzywiÄħ":3304,"Ġprzyjem":3305,"Ġprzypomnie":3306,"tymi":3307,"Ġmiod":3308,"Ġtygo":3309,"Ġtymi":3310,"Ġspad":3311,"obie":3312,"ĠZnowu":3313,"Ġchce":3314,"Ġchirurg":3315,"Ġniczego":3316,"ĠDa":3317,"ĠDru":3318,"Ġgorz":3319,"czech":3320,"and":3321,"ank":3322,"Ġpodsta":3323,"ĠpodszedÅĤ":3324,"ĠpodniÃ³sÅĤ":3325,"Ġmuf":3326,"Ġmuzy":3327,"jedno":3328,"ĠdziÄĻki":3329,"tero":3330,"ĠSe":3331,"ĠSp":3332,"ĠSÅĤ":3333,"ĠSie":3334,"ĠSiÅĤ":3335,"Ġwier":3336,"Ġwielo":3337,"Ġwielko":3338,"ĠwiedzieÄĩ":3339,"ĠmogÄħ":3340,"szeli":3341,"Ġcof":3342,"ĠOna":3343,"Ġfut":3344,"Ġfrag":3345,"ĠKu":3346,"Ġoba":3347,"pisa":3348,"Ġrozpa":3349,"Ġmag":3350,"rzany":3351,"ĠktÃ³rymi":3352,"marz":3353,"mysÅĤ":3354,"ĠByÅĤem":3355,"lum":3356,"ĠdzieÄĩmi":3357,"Ġkana":3358,"ĠkazaÅĤ":3359,"Ġjednego":3360,"tuzja":3361,"ĠRumfo":3362,"Ġpali":3363,"Ġpapie":3364,"ĠpaÅĦst":3365,"Ġpapiero":3366,"giczne":3367,"Ġinni":3368,"waÅĤem":3369,"ĠLuk":3370,"ĠLudzie":3371,"mujÄħc":3372,"tof":3373,"Ġsama":3374,"Ġsame":3375,"pular":3376,"ĠÅ¼yÄĩ":3377,"Ġlatry":3378,"Ġkul":3379,"ĠpiÄħ":3380,"Ġprogra":3381,"Ġpromieni":3382,"Ġzapad":3383,"dziÅĤem":3384,"ĠPol":3385,"ĠnajbliÅ¼":3386,"Ġnajmniej":3387,"ĠliÅĽcie":3388,"nikami":3389,"Ġwzrusz":3390,"ĠmyÅĽle":3391,"Ġskrzy":3392,"Ġotw":3393,"ĠÅĽmiechu":3394,"ĠGe":3395,"Ġpozwa":3396,"ĠJedy":3397,"Ġstoi":3398,"Ġzde":3399,"Ġzdoby":3400,"skaÅĤ":3401,"ĠwaÅ¼":3402,"Ġstaro":3403,"ĠstanÄħÅĤ":3404,"burgu":3405,"ĠmÃ³j":3406,"Ġzamy":3407,"ĠbÄĻdziecie":3408,"czÄĻta":3409,"ĠdrugÄħ":3410,"ĠpierÅĽci":3411,"Ġsypi":3412,"Ġsyropu":3413,"kÅĤada":3414,"Ġecho":3415,"ĠWyglÄħdaÅĤ":3416,"ĠChÅĤo":3417,"ĠrÄĻce":3418,"iana":3419,"ĠUhum":3420,"Ġrzeczywi":3421,"Ġtrzydziestu":3422,"Ġspoj":3423,"ĠszeÅĽciu":3424,"ĠbyliÅĽmy":3425,"Ġznak":3426,"ĠcaÅĤkiem":3427,"Ġokre":3428,"zienki":3429,"Ġpotwor":3430,"ĠpotrzÄħs":3431,"ĠFe":3432,"ĠdziaÅĤa":3433,"ĠziemiÄĻ":3434,"ĠNiemczech":3435,"ĠprawdÄħ":3436,"Ġdrogi":3437,"ĠÅ¼adnej":3438,"Ġwojenny":3439,"Ġwielki":3440,"ĠwielkÄħ":3441,"ĠpiÄĻkny":3442,"ĠÅĤÃ³Å¼ko":3443,"ĠÅĤazienki":3444,"erenie":3445,"ÅĦstwo":3446,"akiÅĽ":3447,"ĠwidziaÅĤem":3448,"ĠsÅĤowo":3449,"ĠczuÅĤ":3450,"Ġczuje":3451,"Ġpopro":3452,"braÅĤa":3453,"ĠsiÅĤy":3454,"ĠnazwÄħ":3455,"Ġgaze":3456,"ĠzÅĤoci":3457,"Ġkolek":3458,"pomina":3459,"urgo":3460,"ciwko":3461,"Ġzachwy":3462,"ĠskoÅĦczyÅĤ":3463,"Ġtalerzy":3464,"Ġtalerza":3465,"ĠjakÄħÅĽ":3466,"dÅºcie":3467,"Ġzginie":3468,"Ġgodziny":3469,"ĠgodzinÄĻ":3470,"ĠsÅĤynnych":3471,"ĠVerm":3472,"Ġschro":3473,"ĠwrÃ³ci":3474,"Ġistot":3475,"szÄĻdzie":3476,"ĠuwaÅ¼aÅĤ":3477,"ByÅĤo":3478,"ĠpatrzeÄĩ":3479,"ĠosÃ³b":3480,"ĠwypadÅĤ":3481,"Ġwypadek":3482,"ĠcÃ³rki":3483,"Ġspodnie":3484,"ĠBern":3485,"ĠBeret":3486,"Ġwyobra":3487,"Ġwyobrazi":3488,"ĠPowietrznych":3489,"Ġautom":3490,"ĠlatajÄħcy":3491,"Ġbombardowania":3492,"Niem":3493,"Ġzwiadowcami":3494,"Ã³zÅĤ":3495,"Ġostatni":3496,"Ġjedynym":3497,"Ġprzeciwko":3498,"Ġszpitala":3499,"Ġdziewczy":3500,"Ġdziewczyn":3501,"ĠwspÃ³l":3502,"Ġ1945":3503,"Ġ1967":3504,"Ġokienka":3505,"ĠwyjÄħtkiem":3506,"ĠJezusa":3507,"Ġopuszcz":3508,"ĠpotrafiÅĤ":3509,"ĠtyÅĤu":3510,"ĠtyÅĤem":3511,"Ġoficer":3512,"ĠgÅĤupi":3513,"Ġprzypomina":3514,"Ġspecjali":3515,"ĠzwiÄħz":3516,"ĠnastÄĻpujÄħco":3517,"ĠÅĽniegu":3518,"ĠsprawdziÄĩ":3519,"ĠDziÄĻkujÄĻ":3520,"ĠopowieÅĽci":3521,"dÅĤuÅ¼":3522,"serw":3523,"Ġener":3524,"Ġentuzja":3525,"ĠksztaÅĤcie":3526,"ĠbryÅĤ":3527,"ĠzatrzymaÅĤ":3528,"Ġprzewodnik":3529,"ĠPier":3530,"Ġszklan":3531,"ĠszczÄĻÅĽli":3532,"gnajcie":3533,"Ġgabine":3534,"Ġnikogo":3535,"ĠpowtarzaÅĤ":3536,"Ġegzekucyjnym":3537,"Teraz":3538,"Ġokulary":3539,"Ġstudi":3540,"ĠPalce":3541,"ĠdziesiÄĻÄĩ":3542,"Ġpiechoty":3543,"ĠchÅĤopiec":3544,"Ġbitwy":3545,"ĠmÄĻÅ¼czyzn":3546,"Magiczne":3547,"Ġtrzas":3548,"Ġnieustan":3549,"komoty":3550,"ĠMerble":3551,"onwojenci":3552,"Ġobozowej":3553,"stanowiÅĤ":3554,"Ġwybuch":3555,"ĠWrÃ³Å¼ka":3556,"ĠodezwaÅĤ":3557,"Ġmajor":3558,"ĠGdyby":3559,"Rosewater":3560,"ĠtralfamadoriaÅĦ":3561,"ĠmruknÄħÅĤ":3562,"Ġinforma":3563,"ĠEwang":3564,"ĠChica":3565,"ĠweteranÃ³w":3566,"ĠporozmawiaÄĩ":3567,"Angli":3568,"Ġmorder":3569,"Ġozdob":3570,"ĠbutÃ³w":3571,"Ġdotychczas":3572,"ĠprzypomnieÄĩ":3573,"Ġwielokrotnie":3574,"ĠRumfoorda":3575,"ĠVermont":3576,"?\"":3577,"Co":3578,"KtoÅĽ":3579,"Mo":3580,"Ni":3581,"Naj":3582,"To":3583,"bÅĤy":3584,"bso":3585,"cknÄħÅĤ":3586,"dr":3587,"fera":3588,"gÃ³":3589,"hu":3590,"irosz":3591,"jaÅĤ":3592,"kra":3593,"kÅĤo":3594,"kaÅĤy":3595,"kÄħd":3596,"lnych":3597,"lory":3598,"laty":3599,"lbrzy":3600,"man":3601,"nni":3602,"oÅĤo":3603,"oty":3604,"opis":3605,"pni":3606,"pÃ³w":3607,"pki":3608,"pre":3609,"ri":3610,"tka":3611,"tne":3612,"ujÄħc":3613,"wz":3614,"wki":3615,"wnia":3616,"wszy":3617,"zwo":3618,"zwy":3619,"zdu":3620,"zosta":3621,"znaÅĤ":3622,"Åļ":3623,"Ġrz":3624,"Ġper":3625,"Ġplan":3626,"Ġpewien":3627,"Ġskie":3628,"Ġset":3629,"ĠwÅĤo":3630,"ĠwstaÅĤ":3631,"ĠwdziÄĻ":3632,"ĠwÃ³wczas":3633,"ÄĻdz":3634,"Ġnos":3635,"ĠnowÄħ":3636,"Ġnowe":3637,"Ġznie":3638,"ĠzÅĤa":3639,"Ġzmi":3640,"Ġzbi":3641,"Ġzbie":3642,"Ġzmu":3643,"ĠznÃ³w":3644,"ĠzÅĤam":3645,"ĠzresztÄħ":3646,"Å¼em":3647,"Å¼one":3648,"czem":3649,"czej":3650,"czona":3651,"ĠtÄħ":3652,"Ġtwar":3653,"Ġtwier":3654,"Ġteren":3655,"Ġterenie":3656,"chnÄħÅĤ":3657,"chÃ³d":3658,"Ġdum":3659,"Ġdniu":3660,"Ġdrabi":3661,"ĠmÄĻ":3662,"Ġmle":3663,"ĠmaÅĤa":3664,"Ġmater":3665,"Ġmamy":3666,"Ġono":3667,"Ġobi":3668,"ĠoglÄħda":3669,"Ġkl":3670,"ĠkÅĤo":3671,"Ġkla":3672,"Ġkale":3673,"Ġkim":3674,"ĠkÅĤam":3675,"ram":3676,"rami":3677,"dzÃ³w":3678,"dzaÄĩ":3679,"Ġidzie":3680,"niku":3681,"nione":3682,"nionu":3683,"niwer":3684,"szku":3685,"szÅĤy":3686,"szon":3687,"szajÄħc":3688,"szono":3689,"Ġnasz":3690,"Ġnaszych":3691,"liwie":3692,"liwy":3693,"stego":3694,"stki":3695,"stwie":3696,"ĠbÅĤy":3697,"Ġbru":3698,"Ġbos":3699,"Ġbel":3700,"Ġbrzu":3701,"Ġbrytyj":3702,"nieÅĽli":3703,"Ġpos":3704,"Ġpocie":3705,"ĠpokÅĤa":3706,"ĠpoÅĤÄħ":3707,"ĠpojÄĻcie":3708,"robiÅĤ":3709,"rzeba":3710,"rzeniem":3711,"rzeciwko":3712,"lec":3713,"legÅĤ":3714,"Ġniewi":3715,"Ġniedzie":3716,"Ġniesko":3717,"Ġniebezpie":3718,"ĠBa":3719,"ĠBÄĻ":3720,"ĠBra":3721,"ĠBied":3722,"Ġdoty":3723,"Ġdostrze":3724,"Ġdopiero":3725,"ĠÅ¼ar":3726,"ĠÅ¼on":3727,"kania":3728,"rzyli":3729,"nastu":3730,"Ġzapu":3731,"Ġzabra":3732,"ĠzajrzaÅĤ":3733,"erry":3734,"wiajÄħc":3735,"wiony":3736,"ĠjechaÅĤ":3737,"neral":3738,"atr":3739,"atka":3740,"atry":3741,"Ġwyd":3742,"Ġwyna":3743,"Ġwybi":3744,"Ġwysta":3745,"Ġwysu":3746,"ĠwyszedÅĤ":3747,"Ġwyrzu":3748,"ĠwystÄĻpu":3749,"ĠwyszÅĤa":3750,"ĠstrzaÅĤ":3751,"ĠstwierdziÅĤ":3752,"kom":3753,"Ġgard":3754,"Ġgrom":3755,"ĠgraÅĤ":3756,"Ġprzem":3757,"Ġprzesz":3758,"ĠprzeÅ¼yÅĤ":3759,"Ġprzemawi":3760,"Ġprzechodzi":3761,"Ġprzekazy":3762,"Ġprzerwy":3763,"Ġuda":3764,"Ġudzie":3765,"Ġusi":3766,"Ġupi":3767,"ĠumiaÅĤ":3768,"ÅĤoÅĦce":3769,"Äħcej":3770,"daje":3771,"dzieÅ¼":3772,"dziennie":3773,"ĠWol":3774,"ĠWreszcie":3775,"waj":3776,"wane":3777,"wajÄħc":3778,"ĠbyÅĤeÅĽ":3779,"nona":3780,"lana":3781,"lano":3782,"mina":3783,"enta":3784,"Ġton":3785,"Ġtony":3786,"ĠcaÅĤo":3787,"Ġjakich":3788,"ĠoddziaÅĤ":3789,"Ġcza":3790,"ĠczÅĤo":3791,"Ġczwar":3792,"ĠNowym":3793,"ÅĦskie":3794,"owani":3795,"kur":3796,"ĠÅĽla":3797,"Ġprzyj":3798,"Ġprzygo":3799,"Ġprzypomni":3800,"ĠprzypomniaÅĤ":3801,"ĠprzybyÅĤ":3802,"tycznie":3803,"siÄĩ":3804,"siada":3805,"Ġrosyj":3806,"ĠmiaÅĤo":3807,"asy":3808,"Ġspi":3809,"ĠspaÄĩ":3810,"ĠZost":3811,"ĠZjedno":3812,"wiesz":3813,"Ġchara":3814,"szyÄĩ":3815,"szymi":3816,"Ġlos":3817,"Ġszczu":3818,"ĠgoÅĽcie":3819,"ĠMar":3820,"Ġpodnie":3821,"ĠpodrÃ³":3822,"Ġpodsze":3823,"Ġtaka":3824,"jeni":3825,"jechali":3826,"Ġteore":3827,"biÄĩ":3828,"omy":3829,"omoÅĽÄĩ":3830,"staura":3831,"stanawi":3832,"ĠSu":3833,"ĠSpo":3834,"ĠSpot":3835,"ĠSÅĤuch":3836,"ĠSkur":3837,"Ġwiesz":3838,"szeni":3839,"szenie":3840,"szeÄĩ":3841,"ĠAd":3842,"ĠAmery":3843,"owiÄħ":3844,"owiada":3845,"ĠOb":3846,"ĠOtwo":3847,"ĠNiech":3848,"osmos":3849,"Ġfurgo":3850,"ĠKlu":3851,"ĠKosmos":3852,"Ġobja":3853,"Ġmane":3854,"ĠmajÄħc":3855,"zygn":3856,"rzaÄĩ":3857,"mach":3858,"mana":3859,"ĠwidaÄĩ":3860,"ĠwidzÃ³w":3861,"lutnie":3862,"Ġkapita":3863,"Å¼eÅĦ":3864,"tuje":3865,"Ġlud":3866,"ĠRze":3867,"rÄĻÅ¼y":3868,"Å¼yli":3869,"ĠczasÃ³w":3870,"Ġpana":3871,"gich":3872,"giwaÅĤ":3873,"gicznym":3874,"Ġprak":3875,"Ġpracu":3876,"Ġczyli":3877,"Ġpiecy":3878,"ĠpieniÄĻ":3879,"ĠLwÃ³w":3880,"zane":3881,"ĠNastÄĻp":3882,"Ġprzezna":3883,"czyÅĤem":3884,"ĠrzeÅº":3885,"Ġlecz":3886,"toÅĽÄĩ":3887,"Ġsamego":3888,"Ġbyd":3889,"ĠmiaÅĤem":3890,"Ġranka":3891,"Ġhu":3892,"Ġpiw":3893,"Ġpusty":3894,"ciÄħÅ¼":3895,"ĠnosiÅĤ":3896,"Ġnogach":3897,"owiedziaÅĤem":3898,"Ġprzedmi":3899,"giem":3900,"Ġzapa":3901,"Ġrowie":3902,"onymi":3903,"ĠpiÄĻt":3904,"ĠnajwiÄĻ":3905,"Ġdaleka":3906,"syte":3907,"Ġliz":3908,"ĠspytaÄĩ":3909,"ĠAmerykanom":3910,"niÄĻtego":3911,"oÅĤe":3912,"Ġpowodu":3913,"ĠwzdÅĤuÅ¼":3914,"Ġstrach":3915,"ĠstraciÅĤ":3916,"zuÅĤ":3917,"ĠotwÃ³r":3918,"ĠotrzymaÅĤ":3919,"Ġboga":3920,"Ġstopy":3921,"terÃ³w":3922,"ĠzdÄħ":3923,"Ġwspomnie":3924,"ĠwspomniaÅĤ":3925,"Ġtara":3926,"ĠksiÄħÅ¼kÄħ":3927,"ĠÅĤzy":3928,"Ġludziom":3929,"Ġpiersi":3930,"ĠWyomi":3931,"Ġrestaura":3932,"ĠrÄĻku":3933,"ĠrÄĻkÄħ":3934,"Ġimp":3935,"Ġbaw":3936,"ĠchÅĤodni":3937,"ĠtrzydzieÅĽci":3938,"ĠspojrzaÅĤ":3939,"ÅĽlÄĻ":3940,"ĠdzieciÅĦstwa":3941,"ĠamerykaÅĦskie":3942,"Ġdobre":3943,"Ġchoro":3944,"fonicz":3945,"Ġokno":3946,"Ġokrop":3947,"Ġchwile":3948,"Ġdziu":3949,"Ġdzisiaj":3950,"ĠRosjan":3951,"ĠHirosz":3952,"Ġpowiada":3953,"ĠzostaÅĤo":3954,"ĠWiem":3955,"Ġpierwszego":3956,"ĠsÅĤuÅ¼yÄĩ":3957,"ĠwedÅĤu":3958,"Ġdrob":3959,"ĠjakoÅĽ":3960,"ĠÅ¼oÅĤnierz":3961,"Ġzabije":3962,"Ġzabija":3963,"Ġmatera":3964,"ĠPrzed":3965,"ĠPrzez":3966,"Ġwielkie":3967,"Ġwielkim":3968,"ĠpiÄĻkne":3969,"chana":3970,"Ġniemiecki":3971,"Ġniemieckie":3972,"Ġniemieckich":3973,"ĠzasÅĤu":3974,"Ġkobieta":3975,"Ġpoprze":3976,"braÅĤ":3977,"ukaÅĤ":3978,"ĠmÅĤod":3979,"Ġwydaw":3980,"ĠCody":3981,"Ġarmia":3982,"nicÄħ":3983,"nictwa":3984,"ĠNic":3985,"ĠKanionu":3986,"Ġpierwszym":3987,"ĠCzas":3988,"Ġtwarzy":3989,"raÅ¼nicy":3990,"Ġaksami":3991,"ĠrobiÄĩ":3992,"cyjny":3993,"Ġdrugiego":3994,"czynaÅĤa":3995,"ĠktÃ³remu":3996,"ĠEdgara":3997,"ĠdomÃ³w":3998,"Ġcygara":3999,"Ġrodziny":4000,"ĠMiaÅĤy":4001,"Ġskur":4002,"Ġzako":4003,"ĠzakÅĤa":4004,"Ġpokry":4005,"ĠpokÃ³j":4006,"Ġczeko":4007,"tyczny":4008,"ĠStra":4009,"Ġhistoria":4010,"Ġprezy":4011,"ĠwrÃ³ciÅĤ":4012,"ĠuwaÅ¼a":4013,"ĠwieczÃ³r":4014,"Ġwieczoru":4015,"ĠpeÅĤne":4016,"Ġpewne":4017,"ĠwpÅĤy":4018,"ĠnaleÅ¼y":4019,"ĠpoÅĽwiÄĻ":4020,"ĠMogli":4021,"ĠLeÅ¼aÅĤ":4022,"ĠstraÅ¼nicy":4023,"Ġplanety":4024,"ĠzwrÃ³ciÅĤ":4025,"Ġmasak":4026,"ĠwyobraÅ¼":4027,"Ġautorem":4028,"Ġpowietrze":4029,"Ġodpowiedni":4030,"Ġbombardowa":4031,"ĠzwiadowcÃ³w":4032,"Ġdwudziestu":4033,"Ġkrok":4034,"Ġkrew":4035,"Ġkrety":4036,"ĠPodobnie":4037,"ĠCampbella":4038,"ĠwracaÅĤ":4039,"ĠzmieniÄĩ":4040,"ĠstronÄĻ":4041,"ĠJezus":4042,"Ġfroncie":4043,"ĠstanowiÅĤa":4044,"spery":4045,"Ġdrezde":4046,"Ġniewiel":4047,"Ġgwizd":4048,"Ġukry":4049,"ĠMÃ³wiÅĤ":4050,"Ġzrozumienia":4051,"ĠdÅĤoni":4052,"Ġpornografi":4053,"Ġprzestali":4054,"ĠMyÅĽlÄĻ":4055,"ĠruszaÄĩ":4056,"ĠwÄĻd":4057,"ĠoÅĽmiu":4058,"ĠokazaÅĤo":4059,"Ġstuden":4060,"ĠudziaÅĤu":4061,"ĠkoÅĤnie":4062,"Ġspokojnie":4063,"ĠWszystkie":4064,"ĠpamiÄĻtaÅĤ":4065,"Ġizbie":4066,"ĠbiaÅĤe":4067,"ĠdorosÅĤy":4068,"Ġcudow":4069,"Ġmilion":4070,"Ġnikomu":4071,"Ġpacjent":4072,"ĠciemnoÅĽci":4073,"Ġkonwojent":4074,"ĠzmiaÅ¼d":4075,"ĠtworzÄħc":4076,"ĠkÃ³ÅĤko":4077,"niosÅĤa":4078,"Ġnaprzeciwko":4079,"ĠpoÅĤudnie":4080,"ĠprzeczytaÅĤ":4081,"Ġuzbro":4082,"jeÅ¼dÅ¼":4083,"ĠobejrzaÅĤ":4084,"Ġrozmowy":4085,"Ġokrut":4086,"ĠprÃ³bowaÅĤ":4087,"ĠwspÃ³ÅĤczes":4088,"ĠpowaÅ¼":4089,"Ġsoli":4090,"Ġsiedem":4091,"Ġzadowo":4092,"Ġwyboru":4093,"ĠusiÅĤowaÅĤ":4094,"ĠÅĽlubu":4095,"Ġchleb":4096,"ĠrozpoczÄħ":4097,"ĠNazywaÅĤ":4098,"Ġradio":4099,"Ġramiona":4100,"ĠÅĽcianÄĻ":4101,"ĠwÅĤÃ³czÄĻga":4102,"ĠzÄĻby":4103,"ĠpoÅ¼ar":4104,"ĠzauwaÅ¼yÅĤ":4105,"Ġuwagi":4106,"ĠusiadÅĤ":4107,"ĠOstate":4108,"Ġfantastycz":4109,"ĠheÅĤmu":4110,"ĠmÃ³zgu":4111,"dopod":4112,"ĠWietnamie":4113,"Ġfabryce":4114,"Ġszybko":4115,"Ġnieprzytomny":4116,"Ġrodzaju":4117,"ĠmÄħÅ¼":4118,"ĠnieszczÄĻÅĽli":4119,"Ġzatru":4120,"Ġwymiarze":4121,"Ġwystarczy":4122,"owiadaÄĩ":4123,"ĠGluck":4124,"Ġburszty":4125,"Ġsymbo":4126,"Ġrekl":4127,"ĠpomÃ³gÅĤ":4128,"Ġniezwykle":4129,"ĠKsiÄĻÅ¼yca":4130,"ĠscenÄĻ":4131,"ĠwewnÄħtrz":4132,"Ġzrezygn":4133,"Ġjuni":4134,"ĠpoÅĤoÅ¼yÄĩ":4135,"rzyjaÅºni":4136,"Ġalkoho":4137,"ĠprzywiÄħzany":4138,"Ġtygodni":4139,"Ġmagnety":4140,"ĠpaÅĦstw":4141,"ĠLuksem":4142,"Ġsypialni":4143,"Ġrzeczywisto":4144,"ĠBeretÃ³w":4145,"Niemcy":4146,"ĠwspÃ³lnego":4147,"ĠEwangeli":4148,"ĠChicago":4149,"bsolutnie":4150,"Ġrzad":4151,"Ġskierowa":4152,"niwersyte":4153,"ĠusiÅĤu":4154,"Ġcharakt":4155,"ĠpodrÃ³Å¼y":4156,"Ġpodszew":4157,"ĠKosmosu":4158,"ĠWyoming":4159,"ĠHiroszim":4160,"ĠwedÅĤug":4161,"Ale":4162,"Ch":4163,"Campbel":4164,"Do":4165,"Dzie":4166,"JakiÅĽ":4167,"Lazza":4168,"Pos":4169,"Sz":4170,"arz":4171,"any":4172,"baÅĤ":4173,"cÄħc":4174,"cta":4175,"cej":4176,"cony":4177,"cent":4178,"dÅ¼":4179,"dami":4180,"dkÄħ":4181,"dniem":4182,"dowali":4183,"eb":4184,"ele":4185,"fe":4186,"fiÄĻ":4187,"for":4188,"fry":4189,"giÄĻ":4190,"gowi":4191,"gÃ³r":4192,"he":4193,"hi":4194,"ione":4195,"jad":4196,"jej":4197,"jski":4198,"kre":4199,"kaÅĤa":4200,"kowaÅĤ":4201,"kto":4202,"kowÄħ":4203,"kowaÄĩ":4204,"kowego":4205,"knÄĻÅĤa":4206,"lnej":4207,"lowym":4208,"mm":4209,"nna":4210,"naÅĤa":4211,"nnÄħ":4212,"naÅĤo":4213,"nnego":4214,"nkÃ³w":4215,"nkÄħ":4216,"nkt":4217,"nownie":4218,"nstru":4219,"oh":4220,"onie":4221,"onym":4222,"pl":4223,"prz":4224,"pcy":4225,"pali":4226,"pel":4227,"rowaÅĤ":4228,"rowego":4229,"se":4230,"tli":4231,"tar":4232,"ten":4233,"tard":4234,"uÅĤkow":4235,"wne":4236,"wÅĤa":4237,"wen":4238,"wsze":4239,"wkami":4240,"ymi":4241,"yta":4242,"zer":4243,"zen":4244,"©li":4245,"Â«":4246,"Â»":4247,"Ã¼":4248,"Ã©li":4249,"Ġ2":4250,"Ġ7":4251,"Ġowa":4252,"ĠciÄħ":4253,"ĠciÄħg":4254,"ĠrzÄĻ":4255,"ĠciÄħgu":4256,"ĠÂ«":4257,"ÅĤku":4258,"ÅĤaki":4259,"ÅĤakaÅĤ":4260,"ien":4261,"ĠpÅĤu":4262,"Ġpsem":4263,"Ġska":4264,"ĠsÄħd":4265,"Ġsali":4266,"Ġsal":4267,"Ġscho":4268,"Ġwst":4269,"Ġwam":4270,"Ġwej":4271,"Ġwsta":4272,"Ġwrzu":4273,"ĠwstÄħpi":4274,"ĠwÅĤoÅ¼yÅĤ":4275,"ĠwciÄħÅ¼":4276,"Ġzg":4277,"ĠzaÅĤ":4278,"Ġzem":4279,"Ġzdzi":4280,"Ġzwo":4281,"Ġzje":4282,"Ġzza":4283,"Ġzdarza":4284,"Ġzbo":4285,"Ġzdu":4286,"Ġzrzu":4287,"ĠzarÄĻ":4288,"Ġzoo":4289,"Ġzmarz":4290,"Ġzjad":4291,"aÅĤu":4292,"rzaÅĤa":4293,"rzaÅĤo":4294,"Å¼ÄĻ":4295,"Å¼Äħc":4296,"Å¼ono":4297,"czar":4298,"czajÄħc":4299,"czkach":4300,"czonych":4301,"Ġterm":4302,"owce":4303,"oward":4304,"owlÄĻ":4305,"cham":4306,"Ġdie":4307,"Ġdam":4308,"Ġder":4309,"Ġdowo":4310,"ĠdajÄħc":4311,"ĠdwÃ³r":4312,"Ġdrap":4313,"Ġdenty":4314,"Ġmak":4315,"ĠmaÅĤych":4316,"ÅĽla":4317,"ÅĽwie":4318,"Ġor":4319,"Ġost":4320,"Ġorze":4321,"Ġoka":4322,"Ġone":4323,"Ġoby":4324,"ĠoÅ¼e":4325,"Ġopie":4326,"Ġozna":4327,"Ġorg":4328,"ĠopisaÅĤ":4329,"Ġolbrzy":4330,"Ġkam":4331,"ĠkÅĤa":4332,"Ġkas":4333,"Ġklu":4334,"Ġkory":4335,"rali":4336,"raÅºniej":4337,"raÅĦcz":4338,"rafy":4339,"ĠiÅ¼":4340,"ĠiÅĽÄĩ":4341,"niaÅĤy":4342,"niony":4343,"szÄħc":4344,"szkÄĻ":4345,"Ġnaro":4346,"Ġnaci":4347,"Ġnami":4348,"Ġnalot":4349,"liÅ¼":4350,"liwe":4351,"strz":4352,"ster":4353,"stami":4354,"staÅĤy":4355,"Ġban":4356,"Ġblu":4357,"Ġpoch":4358,"Ġpora":4359,"Ġpoci":4360,"Ġpolu":4361,"ĠposÅĤu":4362,"ĠpoÅĤoÅ¼yÅĤ":4363,"Ġpopular":4364,"ĠpostanowiÅĤ":4365,"Ġponownie":4366,"rost":4367,"rzeli":4368,"rzewaÅĤ":4369,"ler":4370,"lenie":4371,"letnie":4372,"ciarni":4373,"akami":4374,"akowaÅĤ":4375,"Ġnienawi":4376,"ĠniektÃ³":4377,"ĠBoba":4378,"ĠBrytyj":4379,"arowaÅĤ":4380,"emo":4381,"emy":4382,"Ġdoko":4383,"Ġdobie":4384,"Ġdopy":4385,"ĠdodaÅĤ":4386,"ĠdoÅĽwiad":4387,"Ġdodat":4388,"kaja":4389,"kazu":4390,"rzyma":4391,"dzial":4392,"Ġzacie":4393,"Ġzain":4394,"Ġzawiera":4395,"Ġzastanawi":4396,"ĠzaczynaÅĤa":4397,"erb":4398,"erie":4399,"erii":4400,"wiÅĤo":4401,"wiÅĤy":4402,"wiono":4403,"necta":4404,"czyby":4405,"czytaÅĤ":4406,"Ġwyt":4407,"Ġwyle":4408,"Ġwystawi":4409,"Ġwyrusz":4410,"ĠwyciÄħgnÄħÅĤ":4411,"ĠwyglÄħdali":4412,"ĠwymyÅĽl":4413,"ÅĤaszcz":4414,"Ġstaj":4415,"ciej":4416,"Ġge":4417,"Ġgwo":4418,"Ġprzera":4419,"Ġprzepra":4420,"Ġprzebiera":4421,"Ġprzeprowa":4422,"Ġust":4423,"Ġuja":4424,"ĠuczyÅĤ":4425,"Ġuzna":4426,"Ġumar":4427,"ĠudaÅĤo":4428,"Ġuszko":4429,"ĠPro":4430,"ĠPla":4431,"ĠPen":4432,"ĠPali":4433,"ĠPit":4434,"Ġabsolutnie":4435,"dania":4436,"dawano":4437,"orge":4438,"ĠWs":4439,"ĠWÅĤaÅĽnie":4440,"wany":4441,"noÅĽ":4442,"ren":4443,"lali":4444,"lacji":4445,"lacjÄĻ":4446,"enu":4447,"entem":4448,"ryz":4449,"ĠtobÄħ":4450,"byÅĽ":4451,"byÅĽmy":4452,"Ġcali":4453,"woÅĽÄĩ":4454,"ĠodÅ¼y":4455,"Ġczaj":4456,"ĠNo":4457,"ĠNat":4458,"owana":4459,"owanÄħ":4460,"owanym":4461,"kujÄħc":4462,"ĠTego":4463,"ĠTowarzy":4464,"Ġkogo":4465,"Ġkoja":4466,"Ġkolo":4467,"Ġkoszu":4468,"Ġkoszt":4469,"Ġkorzysta":4470,"Ġkolum":4471,"Ġprzychodzi":4472,"Ġprzypuszcz":4473,"sia":4474,"siÅĤa":4475,"Ġroli":4476,"cyd":4477,"cyfik":4478,"ĠmiarÄĻ":4479,"Ġminer":4480,"Ġmiota":4481,"adel":4482,"tali":4483,"Ġtylu":4484,"niajÄħc":4485,"ÅĤynÄĻÅĤa":4486,"Ġspa":4487,"ĠsprÄĻÅ¼y":4488,"obra":4489,"ĠZni":4490,"ĠZach":4491,"ĠZgodnie":4492,"wiezi":4493,"ÅĽciÅĤa":4494,"rusza":4495,"ĠchÄĻ":4496,"Ġchmu":4497,"Ġchory":4498,"szyli":4499,"Ġlamp":4500,"ĠlÅĽni":4501,"Ġszp":4502,"Ġszali":4503,"ĠszkÅĤa":4504,"Ġgod":4505,"Ġgospo":4506,"Ġwoz":4507,"Ġwody":4508,"Ġwozie":4509,"czeka":4510,"ĠMÃ³j":4511,"anego":4512,"anÃ³w":4513,"Ġpodko":4514,"Ġpodej":4515,"Ġpowietrz":4516,"Ġpowiedzenia":4517,"cenia":4518,"ĠCy":4519,"bia":4520,"oma":4521,"ĠJerry":4522,"ĠJoh":4523,"ĠSch":4524,"ĠSÅĤu":4525,"ĠStu":4526,"ĠSzu":4527,"ĠSche":4528,"ĠSÅĤoÅĦce":4529,"ĠwierzyÅĤ":4530,"Ġwiedzieli":4531,"ĠwierzyÄĩ":4532,"rÃ³ciÅĤa":4533,"aleÅĦ":4534,"Åºdzi":4535,"owymi":4536,"owywaÅĤ":4537,"imo":4538,"Ġmonografi":4539,"ĠAu":4540,"Ġcoraz":4541,"Ġcodziennie":4542,"ĠOj":4543,"ĠOni":4544,"ĠObie":4545,"ĠObok":4546,"ĠNiektÃ³":4547,"ĠwojnÄħ":4548,"Ġwojsku":4549,"ĠfaÅĤ":4550,"Ġfar":4551,"Ġfote":4552,"ĠKsiÄħ":4553,"ĠKto":4554,"ĠKtoÅĽ":4555,"Ġobli":4556,"ĠobjÄĻ":4557,"Ġobaj":4558,"ĠobsÅĤu":4559,"pik":4560,"piaÅĤ":4561,"piÄħ":4562,"Ġrozwo":4563,"Ġroznosi":4564,"ĠrozlegÅĤ":4565,"onowaÄĩ":4566,"cali":4567,"Ġmali":4568,"Ġmalu":4569,"rzali":4570,"mysÅĤu":4571,"Ġmiesza":4572,"ĠmiesiÄĻcy":4573,"Ġwisi":4574,"Ġwios":4575,"ĠwidzieÄĩ":4576,"Ġwidzenia":4577,"ĠwidzÄħ":4578,"Ġwidzia":4579,"ĠwisiaÅĤ":4580,"Ġdzieli":4581,"Ġkabi":4582,"Ġkazano":4583,"Ġkapral":4584,"Ġkalory":4585,"Ġzegara":4586,"tury":4587,"rÄĻcz":4588,"rÄĻdz":4589,"Ġczasopis":4590,"Ġpanie":4591,"ĠInd":4592,"ĠIdÅºcie":4593,"gaÄĩ":4594,"Ġznali":4595,"cjata":4596,"cjonowaÄĩ":4597,"Ġprawo":4598,"Ġopraw":4599,"ĠoprÃ³cz":4600,"Ġpies":4601,"Ġpieca":4602,"Ġpieprz":4603,"ĠLa":4604,"ĠLo":4605,"ĠLuf":4606,"zali":4607,"zaÄĩ":4608,"ĠNawet":4609,"ĠNagle":4610,"locie":4611,"lonym":4612,"niejszych":4613,"niejszÄħ":4614,"czyÅĤy":4615,"Ġrzeki":4616,"ĠrzeczÄħ":4617,"Ġlegowi":4618,"szczenie":4619,"ĠsamÄħ":4620,"poli":4621,"alaÅĤ":4622,"szczone":4623,"eÅĤko":4624,"Ġram":4625,"Ġrany":4626,"Ġraju":4627,"ĠracjÄĻ":4628,"Ġha":4629,"Ġhi":4630,"ĠhaÅĤa":4631,"Ġhon":4632,"azdy":4633,"Ġkuchen":4634,"Ġpistolet":4635,"ewni":4636,"ewnego":4637,"ewatera":4638,"Ġpubli":4639,"ĠpuÅĤku":4640,"Ġprzedmie":4641,"Ġprzedsta":4642,"chodzie":4643,"chodziÄĩ":4644,"achu":4645,"Ġzaple":4646,"Ġzapach":4647,"ĠzaprzyjaÅºni":4648,"gÅĤÄĻ":4649,"ĠrÄħ":4650,"ĠPoÅĤu":4651,"ĠPozosta":4652,"ajcie":4653,"ĠwiÄĻk":4654,"Ġnajp":4655,"ĠnajwyÅ¼":4656,"moc":4657,"Ġlin":4658,"Ġlicz":4659,"Ġlili":4660,"ĠmÃ³wili":4661,"ĠmÃ³wiÅĤa":4662,"ĠAmerykanin":4663,"gujÄħc":4664,"niÄĻte":4665,"niÄĻcia":4666,"Ġpowstrzy":4667,"ĠmydÅĤo":4668,"ĠskÃ³":4669,"Ġsklep":4670,"Ġstraszli":4671,"wÃ³d":4672,"Ġotwiera":4673,"siÄĻÅ¼":4674,"ĠEl":4675,"ĠEli":4676,"ĠGo":4677,"Ġbutach":4678,"Ġstole":4679,"ĠTralfamadoriÄĻ":4680,"teres":4681,"Ġzdra":4682,"Ġzdob":4683,"skaki":4684,"ĠsÄħdziÅĤ":4685,"burg":4686,"ĠmÃ³c":4687,"Ġtaniec":4688,"ĠtaÅĦca":4689,"ĠZiemiÄĻ":4690,"Ġzamarz":4691,"ĠksiÄħÅ¼ce":4692,"onek":4693,"paÅĽÄĩ":4694,"Ġogni":4695,"Ġognia":4696,"ĠÅĤat":4697,"Ġdrugi":4698,"glÄħdaÅĤo":4699,"Ġsyna":4700,"Ġrepre":4701,"landa":4702,"ĠUniwersyte":4703,"ĠkaÅ¼da":4704,"ĠsÅĤychaÄĩ":4705,"grania":4706,"sÅĤaÅĤ":4707,"ĠmoÅ¼emy":4708,"Ġmiejsc":4709,"ĠtrzymaÅĤ":4710,"ĠtrzymaÄĩ":4711,"ĠjakiegoÅĽ":4712,"Ġspoczy":4713,"Ġszes":4714,"Ġszero":4715,"ĠamerykaÅĦskiego":4716,"ĠamerykaÅĦskÄħ":4717,"pytaÅĤ":4718,"Ġrui":4719,"Ġdobry":4720,"ĠgÅĤosy":4721,"ĠWalencjÄħ":4722,"lazÅĤ":4723,"Ġkondu":4724,"ĠchodziÅĤ":4725,"garni":4726,"Å¼yÅĤa":4727,"Ġtrzewi":4728,"Ġtrzema":4729,"Ġokna":4730,"ĠchwilÄħ":4731,"Ġznajdzie":4732,"Ġpotrzeb":4733,"ĠÅĽmiertel":4734,"ĠFil":4735,"Ġwagonach":4736,"dech":4737,"Ġbomby":4738,"ĠRosewatera":4739,"ĠHar":4740,"ĠWiedziaÅĤ":4741,"ĠWiedzieli":4742,"ĠÅĽrodek":4743,"ĠprawdÄĻ":4744,"ĠsÅĤuchaÅĤ":4745,"Ġweszli":4746,"ĠdrogÄħ":4747,"ĠÅ¼oÅĤnierza":4748,"ĠzabiÄĩ":4749,"Ġzabici":4750,"Ġzabitych":4751,"czuÅĤ":4752,"czucie":4753,"Ġbiednego":4754,"mawiaÅĤ":4755,"ĠRolanda":4756,"ĠPrzecieÅ¼":4757,"ĠPrzepraszam":4758,"ĠpiÄĻknych":4759,"ĠpiÄĻknego":4760,"ĠbombowcÃ³w":4761,"ĠÅĤagodnie":4762,"ĠÅĤaÅĦcu":4763,"Ġdanej":4764,"ĠpÃ³j":4765,"ĠpÃ³Åº":4766,"ĠzaÅĽpie":4767,"wieraÅĤa":4768,"ĠpÅĤaszczy":4769,"Ġniemiecku":4770,"Ġniemieckiego":4771,"ĠzasÅĤo":4772,"Ġczub":4773,"Ġkieszon":4774,"kazaÅĤo":4775,"Ġmarmo":4776,"ĠwydawaÅĤ":4777,"Ġarchi":4778,"ĠzÅĤoÅ¼yli":4779,"Ġniezbyt":4780,"Ġprzyjaciela":4781,"ĠCzÄĻ":4782,"Ġlasku":4783,"ĠBogu":4784,"Ġdziecka":4785,"ksztaÅĤ":4786,"ĠsÅĤoÅĦca":4787,"ĠduÅ¼y":4788,"Ġducha":4789,"ĠrobiÅĤ":4790,"ĠmuszÄĻ":4791,"ĠmuszÄħ":4792,"Ġmusztard":4793,"ĠmieszkaÅĦcy":4794,"Ġzupy":4795,"ĠtÅĤum":4796,"ĠtÅĤuma":4797,"Ġkarmi":4798,"Ġkartof":4799,"niczej":4800,"Ġkolcza":4801,"Ġtakiej":4802,"Ġznajdowali":4803,"Ġtrum":4804,"Ġgrudki":4805,"ĠcaÅĤym":4806,"Ġrodzinnym":4807,"jÄħcymi":4808,"Ġfilmie":4809,"ĠpiÄĻÄĩdziesiÄħt":4810,"ĠpiÄĻÄĩdziesiÄĻ":4811,"ĠwyÅĤoÅ¼":4812,"Ġkraju":4813,"tycznego":4814,"ĠpracÄĻ":4815,"ĠpracowaÅĤ":4816,"ĠpracowaÄĩ":4817,"ĠpracowaÅĤem":4818,"Ġpytania":4819,"Ġwargi":4820,"Ġwarto":4821,"ĠzginÄħÅĤ":4822,"ĠmomentÃ³w":4823,"Ġgrali":4824,"Ġgraciarni":4825,"Ġczarny":4826,"Ġczarne":4827,"ĠÅĽciany":4828,"Ġgodzin":4829,"ĠsÅĤynnÄħ":4830,"ĠsÅĤynnej":4831,"ĠpÅĤak":4832,"ĠpÃ³ÅĤwy":4833,"ĠwrÃ³ble":4834,"Ġzwyczaj":4835,"ĠbroÅĦ":4836,"ropej":4837,"miaÅĤe":4838,"ĠDopiero":4839,"Przed":4840,"ĠÅĤyÅ¼e":4841,"ĠksiÄĻgarni":4842,"ĠpoÅĽwiat":4843,"ĠpomyÅĽlaÅĤ":4844,"Ġwypadku":4845,"ĠMoÅ¼e":4846,"Ġpowinna":4847,"ĠprÃ³cz":4848,"Ġzwraca":4849,"Ġmasa":4850,"niÄħdze":4851,"ĠDzikiego":4852,"ĠlatajÄħcego":4853,"PociÄħg":4854,"Ġpowoli":4855,"Ġpowodzeniem":4856,"Ġzwiadowcy":4857,"Ġkroku":4858,"ĠnapisaÄĩ":4859,"dziano":4860,"Ġprzeciwnika":4861,"ĠznaleÅºli":4862,"ĠsamolotÃ³w":4863,"ĠwÅĤasnych":4864,"ĠkaÅ¼dej":4865,"Ġ1968":4866,"ĠmÄĻÅ¼czyÅºni":4867,"Ġpasy":4868,"ĠwraÅ¼enie":4869,"ĠdÅºwi":4870,"Ġpomoc":4871,"ĠwyjÄħÅĤ":4872,"Ġstronie":4873,"ĠupÅĤy":4874,"ĠmogÅĤy":4875,"ĠrozmawiaÅĤ":4876,"Ġrozmawiali":4877,"ĠrozmawiaÄĩ":4878,"bieraÄĩ":4879,"ĠpotrafiÄħ":4880,"Ġfaceta":4881,"ĠprowadzÄħc":4882,"ĠwÄħt":4883,"Ġzamiast":4884,"Ġdrzew":4885,"Ġdrzewa":4886,"Ġdrewni":4887,"arÅĤat":4888,"ĠwyglÄħdaÅĤy":4889,"Ġcelu":4890,"ĠprzypominaÅĤ":4891,"ĠprawdziwÄħ":4892,"Ġnazwisko":4893,"ĠwalczyÄĩ":4894,"ĠzwiÄħzane":4895,"Ġdymu":4896,"ĠdÅĤonie":4897,"Ġkrwi":4898,"Ġkrwa":4899,"ĠprzekonaÄĩ":4900,"ĠÅĽnieg":4901,"ĠsprawÄĻ":4902,"ĠdzwoniÅĤ":4903,"Ġdzwonek":4904,"ĠobiecaÅĤ":4905,"ĠrozlegaÅĤ":4906,"Ġmaszyn":4907,"Ġmaszyna":4908,"ĠruszyÅĤ":4909,"ĠciÄĻÅ¼ar":4910,"ĠszeregowcÃ³w":4911,"ĠpudeÅĤecz":4912,"Ġdowiedzieli":4913,"Ġokoli":4914,"ĠokoÅĤo":4915,"ĠksztaÅĤt":4916,"ĠpomaraÅĦcz":4917,"Ġdotar":4918,"ĠzaczÄĻli":4919,"ĠzaczÄĻÅĤa":4920,"ĠumrzeÄĩ":4921,"ĠuÅ¼yte":4922,"ĠkoÅĤdry":4923,"ĠkomuÅĽ":4924,"Ġkomuni":4925,"ĠkopuÅĤy":4926,"Ġloka":4927,"ĠszczegÃ³l":4928,"Ġsztuki":4929,"ĠDziewi":4930,"Ġwidok":4931,"Ġludzkie":4932,"ĠNajbardziej":4933,"Ġlekarz":4934,"Ġspokoju":4935,"Ġartyle":4936,"Ġartyku":4937,"Ġmuszkietera":4938,"Ġsrebrne":4939,"Ġsrebrnych":4940,"gryz":4941,"Ġpluton":4942,"ĠmiÄĻso":4943,"ĠnastÄĻpnego":4944,"ĠbiaÅĤego":4945,"Ġpolega":4946,"wiajÄħ":4947,"Ġwykony":4948,"Ġcudownie":4949,"ÅĦczykÃ³w":4950,"ĠMusiaÅĤ":4951,"Ġpowierzchni":4952,"ĠpowierzchniÄĻ":4953,"ĠwziÄĻli":4954,"Ġkierownicy":4955,"ĠdÅºwiÄĻk":4956,"ĠdÅºwiÄĻki":4957,"ĠRoberta":4958,"Cztero":4959,"Ġplecami":4960,"Ġkliniki":4961,"Ġkrucyfik":4962,"ĠkrÃ³tko":4963,"ĠpoÅĤudniu":4964,"ĠuznaÅĤ":4965,"ĠkoÅĽcioÅĤa":4966,"Ġprzybyli":4967,"Ġprzytomny":4968,"ĠprzytomnoÅĽÄĩ":4969,"Ġszczyt":4970,"ĠDobra":4971,"ĠobejrzeÄĩ":4972,"ĠwspaniaÅĤych":4973,"Å¼onymi":4974,"Ġorgani":4975,"Ġpogrzeb":4976,"Ġulicy":4977,"ĠusÅĤyszaÅĤ":4978,"ĠprzyszÅĤoÅĽÄĩ":4979,"Ġchleba":4980,"ÅĤuchajcie":4981,"Ġfunk":4982,"ĠfuntÃ³w":4983,"ĠrozpoczÄĻ":4984,"Ġramionami":4985,"Ġpunktu":4986,"ĠskÅĤad":4987,"Ġsytuacji":4988,"ĠÅĽrednim":4989,"ĠochotÄĻ":4990,"Ġrozstrzelany":4991,"Ġekspery":4992,"Ġpiln":4993,"ĠwrogÃ³w":4994,"ĠtrÃ³jgrania":4995,"Ġoczeki":4996,"Ġpodziura":4997,"Ġjeziorem":4998,"ĠprzeÅ¼ywaÅĤ":4999,"ĠprzeszÅĤoÅĽÄĩ":5000,"ĠukoÅĦczyÅĤ":5001,"Ġutrzyma":5002,"ĠPrac":5003,"ĠCadillakiem":5004,"Ġkapelana":5005,"ĠkarabinÃ³w":5006,"ĠÅ¼ywnoÅĽci":5007,"Ġsklepu":5008,"ĠgÅĤÃ³wnie":5009,"ĠbutelkÄĻ":5010,"ĠpozwoliÅĤ":5011,"stoletni":5012,"ĠRosjanie":5013,"ĠdÅĤuÅ¼ej":5014,"ĠdzieciÄĻca":5015,"ĠistnieÄĩ":5016,"ĠnaleÅ¼aÅĤo":5017,"ĠYonson":5018,"ĠWszechÅĽwiata":5019,"Ġkatastrofie":5020,"Ġseku":5021,"ĠweÅĤniane":5022,"Ġpozycji":5023,"ĠniemowlÄĻ":5024,"ĠBostonu":5025,"najdowaÅĤ":5026,"Ġzaczyna":5027,"ĠwyraÅºnie":5028,"Ġwybrali":5029,"ĠwystÄħpiÄĩ":5030,"ĠWiÄĻkszoÅĽÄĩ":5031,"ĠTrumana":5032,"Ġprofes":5033,"Ġproduk":5034,"ĠwziÄħÅĤ":5035,"ĠmoÅ¼liwoÅĽci":5036,"Ġ1958":5037,"Zapan":5038,"Ġatomowej":5039,"ĠzwierzÄĻta":5040,"ĠzrozumieÄĩ":5041,"Ġnieboszczykiem":5042,"ĠEuropie":5043,"tsburg":5044,"ĠÄĩwi":5045,"Ġptaki":5046,"Ġnatural":5047,"niesiono":5048,"Ġposzuki":5049,"ĠprzeskoczyÅĤ":5050,"Ġuspokaja":5051,"rednio":5052,"ĠczekaÅĤ":5053,"Ġmiodowy":5054,"Ġchcesz":5055,"Ġgorzkie":5056,"ĠwielkoÅĽci":5057,"ĠcofnÄħÅĤ":5058,"Ġfragment":5059,"ĠpapierosÃ³w":5060,"Ġznakomi":5061,"ĠpoprosiÅĤ":5062,"Ġgazety":5063,"ĠkolekcjÄĻ":5064,"ĠwyobraziÄĩ":5065,"Ġenergii":5066,"Ġzmian":5067,"Ġbrutal":5068,"ĠpokÅĤadzie":5069,"ĠnieskoÅĦcz":5070,"ĠÅ¼onÄĻ":5071,"ĠzabraÄĩ":5072,"Ġgromad":5073,"ĠprzemÃ³wi":5074,"Ġprzemawia":5075,"Ġupior":5076,"nonauk":5077,"Ġczwartym":5078,"Ġrosyjskich":5079,"asyfam":5080,"ĠZostaÅĤ":5081,"ĠSkurczyby":5082,"Ġmanew":5083,"ĠpieniÄĻdzy":5084,"Ġpiwnicy":5085,"Ġcudowne":5086,"ĠrozpoczÄħÄĩ":5087,"ĠOstatecznie":5088,"Ġfantastycznonauk":5089,"Ġsymboli":5090,"Ġjunior":5091,"ĠLuksemburgu":5092,"ĠrzeczywistoÅĽci":5093,"Campbell":5094,"Lazzaro":5095,"PosÅĤuchajcie":5096,"gÃ³rki":5097,"uÅĤkownik":5098,"Ã©line":5099,"Ġdentystycz":5100,"ĠzastanawiaÅĤ":5101,"nectady":5102,"Ġstajni":5103,"ĠPittsburg":5104,"adelfi":5105,"ĠSchenectady":5106,"ĠKsiÄħÅ¼":5107,"ĠIndiana":5108,"Ġarchitek":5109,"Ġmusztardowego":5110,"ĠpudeÅĤeczko":5111,"Czteroo":5112,"ĠPittsburghu":5113,".Â»":5114,"41":5115,"?\",":5116,"Czy":5117,"Dru":5118,"Dobra":5119,"It":5120,"Ja":5121,"Ko":5122,"Konwojenci":5123,"Le":5124,"Lily":5125,"Mie":5126,"MÃ³wi":5127,"MÃ³j":5128,"No":5129,"Obok":5130,"Pa":5131,"Pie":5132,"Pro":5133,"Praw":5134,"PowiedziaÅĤem":5135,"PuÅĤkownik":5136,"Sta":5137,"Ta":5138,"Tego":5139,"Tam":5140,"Ten":5141,"WiÄĻ":5142,"Walen":5143,"Wreszcie":5144,"Zas":5145,"aÅ¼":5146,"anÄħ":5147,"be":5148,"brz":5149,"biÄĻ":5150,"bni":5151,"bnÄħ":5152,"bliÄĻ":5153,"ct":5154,"cki":5155,"cono":5156,"cona":5157,"di":5158,"dra":5159,"dna":5160,"dÄħc":5161,"del":5162,"dent":5163,"dio":5164,"ela":5165,"eÅĽmy":5166,"fÄħ":5167,"fek":5168,"fory":5169,"ferm":5170,"gÅĤa":5171,"gaÅĤa":5172,"gÅĤy":5173,"gary":5174,"grzany":5175,"imi":5176,"iom":5177,"jny":5178,"jnÄħ":5179,"jony":5180,"kni":5181,"krÄĻ":5182,"knÄħÄĩ":5183,"kÅĤych":5184,"lt":5185,"laÅĤa":5186,"lnÄħ":5187,"laÅĤy":5188,"lnego":5189,"lowany":5190,"me":5191,"mat":5192,"menty":5193,"nf":5194,"ns":5195,"nam":5196,"nne":5197,"num":5198,"nut":5199,"nnymi":5200,"nÄħcy":5201,"oj":5202,"oni":5203,"orze":5204,"ole":5205,"oÅĽci":5206,"paÅĤ":5207,"pry":5208,"paÅĤy":5209,"pet":5210,"paty":5211,"pchniÄĻ":5212,"rv":5213,"rw":5214,"rego":5215,"rko":5216,"rkÄĻ":5217,"rowo":5218,"ria":5219,"sh":5220,"sow":5221,"snÄħÅĤ":5222,"sowej":5223,"tÃ³":5224,"tro":5225,"tam":5226,"tnÄħ":5227,"towy":5228,"tnej":5229,"towaÅĤ":5230,"tkami":5231,"towych":5232,"tho":5233,"tnicÄĻ":5234,"uch":5235,"udzi":5236,"uropej":5237,"vre":5238,"wam":5239,"wraca":5240,"wczÄĻta":5241,"ya":5242,"yty":5243,"znÄĻ":5244,"Ġ(":5245,"Ġ3":5246,"Ġ8":5247,"Ġowi":5248,"Ġare":5249,"ÅĤb":5250,"ÅĤej":5251,"ÅĤÃ³d":5252,"ÅĤowÄĻ":5253,"Ġpe":5254,"Ġpami":5255,"ĠprzyÅĤa":5256,"Ġsm":5257,"Ġswa":5258,"Ġsowy":5259,"Ġsmu":5260,"Ġsuk":5261,"Ġsur":5262,"Ġwez":5263,"Ġwali":5264,"Ġwpu":5265,"Ġwsty":5266,"ĠwciÄħgnÄħÅĤ":5267,"Ġwers":5268,"ĠwszÄĻdzie":5269,"Ġner":5270,"Ġnot":5271,"Ġnowego":5272,"Ġnowym":5273,"ĠnÄĻdz":5274,"Ġzi":5275,"Ġzle":5276,"ĠzaÅĤa":5277,"ĠzÅĤy":5278,"Ġzmie":5279,"ĠzÅĤu":5280,"Ġzbli":5281,"ĠzmarÅĤ":5282,"Ġzgot":5283,"Å¼ej":5284,"Å¼owaniu":5285,"czna":5286,"czÄħc":5287,"czami":5288,"czaÅĤo":5289,"czkÄħ":5290,"cznik":5291,"czono":5292,"cznymi":5293,"czÄħcy":5294,"czonego":5295,"cznicÄĻ":5296,"Ġtre":5297,"Ġtan":5298,"Ġtran":5299,"owbo":5300,"owÃ³d":5301,"chami":5302,"chajÄħc":5303,"Ã³cie":5304,"Ġdar":5305,"ĠdaÅĤo":5306,"ĠdaÄĩ":5307,"Ġdrg":5308,"Ġdrga":5309,"ĠdrÅ¼":5310,"Ġdram":5311,"Ġmro":5312,"ĠmnÄħ":5313,"Ġmaka":5314,"ĠmaleÅĦ":5315,"ĠmgÅĤÄĻ":5316,"ÅĽma":5317,"ÅĽpie":5318,"ÅĽnikÃ³w":5319,"Ġodz":5320,"ĠoÅ¼y":5321,"ĠosiÄħ":5322,"Ġocho":5323,"Ġodzy":5324,"ĠokÅĤad":5325,"Ġoferm":5326,"ĠkaÅĤ":5327,"Ġkrz":5328,"Ġkan":5329,"Ġkwiat":5330,"gor":5331,"gosÅĤu":5332,"rac":5333,"rakt":5334,"rator":5335,"dzwo":5336,"dztwie":5337,"Ġilo":5338,"Ġistoty":5339,"niaÅĤo":5340,"ninem":5341,"szyÅĤ":5342,"szaÅĤy":5343,"szony":5344,"szkaÅĤ":5345,"Ġnar":5346,"Ġnaczy":5347,"Ġnato":5348,"Ġnauk":5349,"ĠnastÄħpi":5350,"Ġnagro":5351,"Ġnatry":5352,"Ġnawiasem":5353,"Ġnagich":5354,"linÄĻ":5355,"stos":5356,"stwem":5357,"Ġbrz":5358,"ĠbÄħ":5359,"Ġbato":5360,"nieni":5361,"nierze":5362,"nienia":5363,"niesie":5364,"Ġpona":5365,"Ġpodzie":5366,"ĠpoÅ¼y":5367,"Ġpocho":5368,"Ġpostu":5369,"Ġpopraw":5370,"Ġpokazy":5371,"ĠposÅĤa":5372,"ĠpobliÅ¼":5373,"Ġpoczeka":5374,"roczy":5375,"roku":5376,"rodu":5377,"rolinie":5378,"rzeÅĽci":5379,"rzebie":5380,"les":5381,"leni":5382,"lega":5383,"cid":5384,"ciak":5385,"ciaÅĤy":5386,"cisk":5387,"akom":5388,"aktu":5389,"ament":5390,"Ġniech":5391,"Ġnieraz":5392,"Ġnieto":5393,"Ġniedo":5394,"Ġniepraw":5395,"Ġniepot":5396,"ĠBob":5397,"ĠBel":5398,"ĠBere":5399,"aria":5400,"Ġdoj":5401,"ĠdoÅĤ":5402,"Ġdomy":5403,"ĠdoÅĤÄħ":5404,"Ġdotk":5405,"ĠÅ¼mi":5406,"ĠÅ¼yÅĤa":5407,"ĠÅ¼onÄħ":5408,"karze":5409,"rzym":5410,"nali":5411,"nasty":5412,"nasto":5413,"nastego":5414,"nastoletni":5415,"Ã³wka":5416,"Ã³wno":5417,"dzik":5418,"dziale":5419,"Ġzaj":5420,"Ġzaro":5421,"ĠzaÅĽcie":5422,"Ġzasa":5423,"Ġzawar":5424,"Ġzazwy":5425,"Ġzawiesz":5426,"eru":5427,"erÄĻ":5428,"erÅ¼y":5429,"eret":5430,"erner":5431,"wiaÅĤ":5432,"wiali":5433,"wiazdy":5434,"ĠjechaÄĩ":5435,"neg":5436,"kinie":5437,"czyli":5438,"czyna":5439,"czykÃ³w":5440,"Ġwym":5441,"Ġwyr":5442,"ĠwyÅ¼":5443,"Ġwych":5444,"Ġwyci":5445,"Ġwypi":5446,"Ġwybie":5447,"Ġwyto":5448,"Ġwypo":5449,"Ġwysy":5450,"Ġwyzna":5451,"ĠwysÅĤ":5452,"Ġwydo":5453,"ĠwyciÄħg":5454,"ĠwypeÅĤ":5455,"Ġwypra":5456,"ĠwyraÅ¼":5457,"Ġwypuszcz":5458,"ĠwydaÅĤo":5459,"ÅĤach":5460,"ÅĤaÄĩ":5461,"ÅĤaniaÅĤy":5462,"Ġstad":5463,"ĠstoÅĤ":5464,"cier":5465,"cielem":5466,"kora":5467,"koje":5468,"koÅĽÄĩ":5469,"koÅĦczyÅĤ":5470,"ĠgÄĻ":5471,"Ġgar":5472,"Ġgen":5473,"Ġgim":5474,"Ġgum":5475,"ĠgaÅĤÄħ":5476,"Ġprzech":5477,"Ġprzeko":5478,"Ġprzesu":5479,"ĠprzeszedÅĤ":5480,"ĠprzepeÅĤ":5481,"Ġprzechod":5482,"ĠprzecieÅ¼":5483,"ĠprzepaÅĽÄĩ":5484,"Ġuj":5485,"Ġur":5486,"Ġusz":5487,"Ġuwie":5488,"Ġuszy":5489,"Ġucze":5490,"Ġuzy":5491,"Ġulu":5492,"ĠuczÄĻ":5493,"ĠudaÄĩ":5494,"Ġuleg":5495,"ĠuwiÄĻ":5496,"Ġustawi":5497,"ĠustÄĻp":5498,"Ġund":5499,"Ġugot":5500,"ĠuÅĽwiad":5501,"ĠunosiÅĤ":5502,"dywaÅĤ":5503,"ĠPe":5504,"ĠPi":5505,"ĠPat":5506,"ĠPale":5507,"ĠPowi":5508,"ĠPot":5509,"ĠPÃ³ÅĤ":5510,"ĠPraw":5511,"ĠPewien":5512,"ĠPiÄĻk":5513,"ĠPyta":5514,"ĠPewnego":5515,"Ġau":5516,"Ġaudy":5517,"danie":5518,"dano":5519,"orÄĻ":5520,"orst":5521,"ortu":5522,"dziecie":5523,"dzieliÅĽmy":5524,"ĠWe":5525,"ĠWszedÅĤ":5526,"ĠWÅĽrÃ³d":5527,"ĠWÃ³wczas":5528,"ĠWszÄĻdzie":5529,"wagi":5530,"waniu":5531,"wagÄĻ":5532,"lane":5533,"lajÄħcych":5534,"laliÄĻ":5535,"mini":5536,"miar":5537,"mija":5538,"enne":5539,"ryli":5540,"Ġtodze":5541,"bysz":5542,"ĠcaÅĤa":5543,"Ġcel":5544,"Ġcent":5545,"ĠcÃ³Å¼":5546,"wodnik":5547,"Ġodczu":5548,"ĠodÅĤam":5549,"ĠodgÅĤo":5550,"ĠodbyÅĤ":5551,"ĠNor":5552,"ĠNew":5553,"ĠNasyfam":5554,"ÅĦczyÄĩ":5555,"ÅĦskich":5556,"ÅĦskiego":5557,"owaliÅĽmy":5558,"kuje":5559,"ĠTato":5560,"ĠTrzeba":5561,"Ġkot":5562,"Ġkocem":5563,"ĠÅĽle":5564,"ĠÅĽwiÄĻ":5565,"ĠÅĽliz":5566,"Ġprzysz":5567,"Ġprzywie":5568,"Ġprzysta":5569,"Ġprzywy":5570,"ĠprzyszedÅĤ":5571,"Ġprzywar":5572,"Ġprzyszli":5573,"Ġprzyczyn":5574,"ĠprzyszÅĤa":5575,"tykÄĻ":5576,"sik":5577,"Ġrocznie":5578,"ĠrolÄĻ":5579,"Ġrodem":5580,"kier":5581,"cych":5582,"cywaÅĤ":5583,"ĠmiÅĤy":5584,"ĠmiÅĤe":5585,"Ġminut":5586,"adne":5587,"tarz":5588,"tania":5589,"taczajÄħc":5590,"Ġtyto":5591,"niach":5592,"Ġspu":5593,"ĠspÄĻ":5594,"ĠspÅĤo":5595,"Ġspry":5596,"Ġsplu":5597,"ĠspÃ³ÅĤ":5598,"Ġspin":5599,"ĠspoÅĤe":5600,"obnÄħ":5601,"obec":5602,"ĠZami":5603,"ÅĽcia":5604,"ÅĽcili":5605,"ÅĽciÃ³ÅĤ":5606,"ÅĽciach":5607,"rum":5608,"Ġchrap":5609,"ĠchcÄĻ":5610,"Ġchudy":5611,"ĠchcÄħc":5612,"ĠchrzeÅĽci":5613,"szysz":5614,"ĠlÃ³d":5615,"Ġszkie":5616,"Ġszos":5617,"ĠszukaÅĤ":5618,"Ġszorst":5619,"Ġgol":5620,"aÅĤymi":5621,"ĠwoÅĤa":5622,"Ġwola":5623,"Ġwozu":5624,"ĠwodÄĻ":5625,"ĠwodÄħ":5626,"ĠwoÅĤaÅĤ":5627,"czeÅĦstwa":5628,"mieÅĦ":5629,"mieniu":5630,"ĠMam":5631,"ĠMot":5632,"ĠMÄĻÅ¼":5633,"ĠMiÄĻdzy":5634,"ĠMatka":5635,"ĠMimo":5636,"ance":5637,"anowaÄĩ":5638,"antÃ³w":5639,"Ġpodu":5640,"ĠpoddaÄĩ":5641,"ĠpodsunÄħÅĤ":5642,"ĠpodarowaÅĤ":5643,"ĠpodÅĽciÃ³ÅĤ":5644,"ĠpowieÅĽÄĩ":5645,"Ġpowiedzieli":5646,"ĠtaksÃ³w":5647,"cep":5648,"cenie":5649,"ceniem":5650,"cede":5651,"ĠCie":5652,"ĠCzuÅĤ":5653,"ĠCÃ©line":5654,"Ġteat":5655,"ĠteÅĽÄĩ":5656,"bij":5657,"bite":5658,"ĠdziÄĻkujÄĻ":5659,"teli":5660,"tepi":5661,"tesk":5662,"jach":5663,"jajÄħc":5664,"jadali":5665,"jazdu":5666,"ĠJaki":5667,"ĠJank":5668,"ĠSpÄĻ":5669,"ĠSÅĤowa":5670,"ĠSpytaÅĤ":5671,"Ġwierz":5672,"ĠwiedzÄħc":5673,"rÃ³b":5674,"alerz":5675,"alenie":5676,"owywaÄĩ":5677,"Ġmocz":5678,"Ġmoje":5679,"Ġmoja":5680,"ĠmojÄħ":5681,"Ġmojej":5682,"ĠmosiÄĻÅ¼":5683,"szenia":5684,"ĠAni":5685,"ĠAha":5686,"owiad":5687,"ĠOjciec":5688,"otu":5689,"otÃ³w":5690,"osfory":5691,"Ġfran":5692,"Ġfryz":5693,"Ġfosfory":5694,"ĠjesteÅĽmy":5695,"ĠKor":5696,"ĠKonwojenci":5697,"Ġobcy":5698,"Ġobserw":5699,"ĠobowiÄħ":5700,"ĠoberÅ¼y":5701,"Ġroze":5702,"Ġrozu":5703,"ĠrozciÄħg":5704,"Ġrozgrzany":5705,"onowaÅĤ":5706,"caÄĩ":5707,"cajÄħc":5708,"mac":5709,"mywaÅĤ":5710,"jÄħÄĩ":5711,"ĠmieszkaÅĤ":5712,"Ġwidni":5713,"Ġwidzieli":5714,"Ġwitami":5715,"ĠwiÃ³zÅĤ":5716,"Ġdziel":5717,"Ġdzieje":5718,"ĠdziewiÄĻ":5719,"ĠdziesiÄħt":5720,"bienie":5721,"Ġkawa":5722,"ĠkawÄĻ":5723,"ĠbyÅĤoby":5724,"ode":5725,"odora":5726,"odpor":5727,"tur":5728,"tura":5729,"Ġlunety":5730,"Ġczasy":5731,"Ġparze":5732,"ĠpagÃ³rki":5733,"ĠIowa":5734,"ĠIstoty":5735,"ĠIrv":5736,"piec":5737,"gaÅ¼":5738,"Ġinnej":5739,"Ġinsty":5740,"Ġindziej":5741,"Ġinteli":5742,"ĠpragnÄħÅĤ":5743,"Ġopar":5744,"ĠopowiadaÄĩ":5745,"Ġoperet":5746,"templ":5747,"Ġpiekie":5748,"ĠpiekÅĤo":5749,"ĠpieniÄħdze":5750,"siÄħÅĽÄĩ":5751,"ĠLi":5752,"lody":5753,"lonÄħ":5754,"loodpor":5755,"ezer":5756,"niejszej":5757,"Ġrzekomo":5758,"ÅĽciem":5759,"ĠleÅ¼eli":5760,"szczeniu":5761,"tonie":5762,"topni":5763,"Ġbyle":5764,"pujÄħc":5765,"puje":5766,"puÅĽciÅĤ":5767,"borator":5768,"alne":5769,"ralne":5770,"szczonymi":5771,"eÅĤni":5772,"eÅĤny":5773,"utor":5774,"Ġhote":5775,"Ġhand":5776,"Ġkule":5777,"Ġkucem":5778,"Ġpij":5779,"ĠpiÅĤ":5780,"Ġpija":5781,"Ġpisze":5782,"Ġproble":5783,"Ġpuszka":5784,"Ġpuszek":5785,"Ġpukanie":5786,"Ġpunkt":5787,"ychali":5788,"Ġnogami":5789,"ĠnoÅ¼em":5790,"Ġkiedykolwiek":5791,"dzony":5792,"dzone":5793,"ciaÅ¼":5794,"Ġzapar":5795,"ĠzapamiÄĻ":5796,"Ġzaprag":5797,"Ġzapobie":5798,"Ġzapyty":5799,"Ġzapalenie":5800,"gÅĤem":5801,"Ġrow":5802,"ĠPoczÄħ":5803,"ĠPostawi":5804,"ajor":5805,"ĠwiÄĻzie":5806,"ĠwiÄĻksz":5807,"ĠnajwaÅ¼":5808,"Ġnajgor":5809,"moÅ¼":5810,"ĠWearym":5811,"sujÄħc":5812,"syl":5813,"Ġlinia":5814,"ĠliczyÄĩ":5815,"Ġlitera":5816,"Ġlinii":5817,"ĠlitoÅĽÄĩ":5818,"Ġrazy":5819,"ĠmÃ³wiÄħ":5820,"ĠAmerykanina":5821,"ĠAmerykaninem":5822,"oÅĤem":5823,"oÅĤÄĻÅ¼":5824,"oÅĤnierze":5825,"Ġciche":5826,"Ġpowszech":5827,"ĠpowtÃ³":5828,"Ġwzmac":5829,"rzyÅĤy":5830,"ĠmyÄĩ":5831,"ĠstraÅ¼y":5832,"zuje":5833,"iedmi":5834,"Ġbochen":5835,"ĠEak":5836,"ĠEwÄĻ":5837,"ĠGÃ³wno":5838,"ĠGwiazdy":5839,"Ġpozba":5840,"Ġpozdr":5841,"Ġpoziom":5842,"ĠodpowiadaÅĤ":5843,"ĠJedno":5844,"ell":5845,"Ġbezpie":5846,"ĠstoÅĤy":5847,"ĠstoÅĤu":5848,"ĠstojÄħcÄħ":5849,"terowie":5850,"Ġzdej":5851,"ĠzdjÄĻ":5852,"ĠzdjÄĻcia":5853,"ÅĽnieÅĦ":5854,"ĠsÄħsie":5855,"ĠsÄħsiad":5856,"Ġwabi":5857,"Ġstara":5858,"bud":5859,"bush":5860,"Ġwschod":5861,"Ġwspomina":5862,"ĠwschÃ³d":5863,"Ġzamro":5864,"ĠdwanaÅĽcie":5865,"ĠbÄĻdziemy":5866,"ĠksiÄħÅ¼kach":5867,"Ġ12":5868,"Ġ18":5869,"Ġcieka":5870,"Ġogrze":5871,"ĠogÃ³l":5872,"ĠÅĤeb":5873,"Ġdruh":5874,"Ġdruga":5875,"Ġludziach":5876,"Ġsyn":5877,"Ġela":5878,"Ġefek":5879,"Ġeuropej":5880,"Ġsiedzieli":5881,"ĠWyp":5882,"ĠWyglÄħdali":5883,"ĠWyglÄħdaÅĤo":5884,"ĠrÃ³wnie":5885,"Ġresz":5886,"Ġreli":5887,"Ġreje":5888,"Ġregu":5889,"Ġrezu":5890,"Ġreszty":5891,"ĠpanowaÅĤ":5892,"landz":5893,"ĠCho":5894,"ĠChyba":5895,"ĠChcÄĻ":5896,"ziÄħ":5897,"zione":5898,"ĠUmarÅĤ":5899,"Ġbana":5900,"Ġjadal":5901,"ĠsÅĤyszeÄĩ":5902,"gramy":5903,"rowadzono":5904,"ÅĤowiek":5905,"Ġjakiego":5906,"ĠspoÅĽrÃ³d":5907,"ĠspokÃ³j":5908,"Ġszep":5909,"waliÄĩ":5910,"waliÅĽmy":5911,"ĠcaÅĤego":5912,"ĠamerykaÅĦska":5913,"ĠamerykaÅĦskim":5914,"Ġruch":5915,"Ġruchu":5916,"ĠdobrÄħ":5917,"Ġdobrych":5918,"ĠgÅĤosiÅĤ":5919,"ĠgÅĤosem":5920,"laznej":5921,"Ġkonty":5922,"Ġkonserw":5923,"Ġkoncent":5924,"Ġkontempl":5925,"ĠchociaÅ¼":5926,"garbush":5927,"ĠokrÄĻ":5928,"Ġbior":5929,"Ġbibli":5930,"Ġbiur":5931,"Ġbitwa":5932,"ĠpotÄĻÅ¼":5933,"padÅĤ":5934,"ĠmusiaÅĤa":5935,"Ġmusimy":5936,"ĠdziÅĽ":5937,"Ġdziale":5938,"ĠÅ¼oÅĤÄħd":5939,"ĠTeÅ¼":5940,"ĠZap":5941,"ĠNiemcom":5942,"ĠHoward":5943,"ĠzostaÅĤa":5944,"wiÄħz":5945,"wiÄħte":5946,"wiÄħzy":5947,"ĠWiesz":5948,"ĠWielu":5949,"ĠprawÄħ":5950,"Ġmiast":5951,"Ġmiastem":5952,"Ġpierwszej":5953,"ĠsÅĤup":5954,"ĠsÅĤuÅ¼":5955,"ĠsÅĤuÅ¼yÅĤ":5956,"ĠsÅĤucha":5957,"ĠsÅĤucham":5958,"Ġwest":5959,"ĠjeÅĦcom":5960,"ĠÅ¼oÅĤnierzem":5961,"rzÄħt":5962,"ĠÅ¼aden":5963,"ĠzabiÅĤ":5964,"Ġzrobili":5965,"ĠzrobiÅĤy":5966,"ĠzrobiÅĤem":5967,"Ġbiednych":5968,"ĠbiedakÃ³w":5969,"orys":5970,"Ġwielka":5971,"Ġwielkiego":5972,"ĠAnglika":5973,"ĠÅĤago":5974,"ereg":5975,"ÅĦstwie":5976,"ĠkoÅĦczyÅĤa":5977,"Ġstart":5978,"Ġstarca":5979,"ĠstarcÃ³w":5980,"Ġzostawili":5981,"Ġzostawiono":5982,"Nawiasem":5983,"ĠrÃ³Å¼ne":5984,"ĠrÃ³Å¼owÄħ":5985,"ĠsÅĤow":5986,"ĠsÅĤÃ³w":5987,"Ġzdarzy":5988,"Ġzdania":5989,"Ġzdaniem":5990,"Ġniemieckiej":5991,"ĠzasnÄħÄĩ":5992,"ĠczujÄħc":5993,"Ġkobiet":5994,"Ġpowrocie":5995,"ĠpytaÅĤ":5996,"Ġkieszeni":5997,"ĠkieÅĤb":5998,"Ġpopra":5999,"ĠchÅĤopcÃ³w":6000,"ĠchÅĤopcem":6001,"ĠsiÅĤ":6002,"ĠmÅĤodzi":6003,"ĠmÅĤoda":6004,"ĠmÅĤode":6005,"ĠwydawaÅĤo":6006,"Ġwydarzenie":6007,"ĠCoca":6008,"Ġarmi":6009,"Ġstarym":6010,"ĠKarolinie":6011,"ĠmaÅĤego":6012,"stÄħpie":6013,"Ġniezmie":6014,"Ġprzyjaciel":6015,"ĠCzter":6016,"ĠCzwar":6017,"ĠCzerwo":6018,"Ġtelefonicz":6019,"Ġjednost":6020,"jemy":6021,"Ġlaborator":6022,"Ġtwarze":6023,"ĠtwarzÄħ":6024,"ĠBoga":6025,"ĠOdp":6026,"ĠOdby":6027,"Ġaktu":6028,"Ġakura":6029,"Ġdusz":6030,"Ġdusza":6031,"ĠkrzyÅ¼a":6032,"ĠBarb":6033,"ĠBardzo":6034,"Ġkolei":6035,"ĠrobiÅĤa":6036,"cyjnych":6037,"ĠszybÄĻ":6038,"Ġmieszkali":6039,"ĠmieszkaÅĦ":6040,"ĠmieszkaÅĦcÃ³w":6041,"dzÄħce":6042,"szulek":6043,"ĠpokojÃ³w":6044,"Ġkolce":6045,"Ġkoloru":6046,"ĠÅ»y":6047,"ĠÅ»oÅĤnierze":6048,"ĠtrupÃ³w":6049,"ĠzachÄĻ":6050,"Ġcyf":6051,"Ġfilmu":6052,"Ġskonstru":6053,"Ġskurwy":6054,"ĠzakrÄĻ":6055,"Ġdekora":6056,"Ġkraj":6057,"ĠkradzieÅ¼":6058,"ĠnauczyÅĤ":6059,"ĠbraÄĩ":6060,"Ġbramy":6061,"Ġpokra":6062,"Ġpokryty":6063,"ĠczeÅĽÄĩ":6064,"Ġczekali":6065,"ĠczekaÄĩ":6066,"tycznych":6067,"tycznej":6068,"ĠStaÅĤo":6069,"ĠStrach":6070,"ĠÅ¼yciem":6071,"ĠhistoriÄĻ":6072,"iomie":6073,"Ġsens":6074,"Ġwarstw":6075,"ĠzginÄĻli":6076,"ÅĽmiesz":6077,"Ġgranicy":6078,"Ġczarnego":6079,"ĠÅĽcianach":6080,"ĠOpowiedziaÅĤ":6081,"ĠOpowiadaÅĤ":6082,"ĠsÅĤynnego":6083,"glÄħdajÄħc":6084,"ĠpÅĤakaÅĤ":6085,"ĠpÅĤÃ³cie":6086,"Ġprezent":6087,"Ġprenum":6088,"ĠschowaÅĤ":6089,"Ġzwykle":6090,"roponowaÅĤ":6091,"Ġdopas":6092,"ĠuwaÅ¼aÅĤa":6093,"telnik":6094,"Ġwieczor":6095,"ĠwiecznoÅĽÄĩ":6096,"Ġnocnym":6097,"Ġnocnej":6098,"ĠmyÅĽliw":6099,"ĠmusiaÅĤby":6100,"wiadowcy":6101,"Przez":6102,"Ġataku":6103,"Ġatmos":6104,"ĠpatrzyÅĤ":6105,"ĠpeÅĤni":6106,"Ġpewnie":6107,"Ġwpatru":6108,"Ġwpatry":6109,"ĠwpakowaÅĤ":6110,"ÅĽleÄĩ":6111,"ĠksiÄĻgi":6112,"ĠpomysÅĤ":6113,"ĠpomyÅĽleÄĩ":6114,"ĠcÃ³rkÄħ":6115,"Ġlotnictwa":6116,"Ġlotniczej":6117,"ĠMontanie":6118,"ĠMontanÄħ":6119,"Ġwojskowy":6120,"ĠwojskowÄħ":6121,"Ġwojskowego":6122,"Ġoptyka":6123,"stycznych":6124,"Ġpowinno":6125,"ĠzwrÃ³":6126,"ĠzwÅĤaszcz":6127,"Ġmedali":6128,"Ġmetal":6129,"Ġmelody":6130,"ĠPowiedz":6131,"ĠPowiedzieli":6132,"Ġautor":6133,"Ġauten":6134,"Ġsprawie":6135,"Ġsprawy":6136,"Ġszeregu":6137,"ĠDziki":6138,"ĠDziaÅĤo":6139,"ĠwolnoÅĽÄĩ":6140,"Ġpowietrza":6141,"ĠpisaÄĩ":6142,"ĠpisaÅĤem":6143,"ĠodpowiedÅº":6144,"Ġbombardowaniu":6145,"kÅĤego":6146,"omiÅĤ":6147,"Ġostatnie":6148,"Ġostatnim":6149,"Ġostatniego":6150,"Ġjedynie":6151,"Ġwysokie":6152,"ĠÅĽpiew":6153,"ĠdziewczÄĻta":6154,"Ġpalce":6155,"ĠpalcÃ³w":6156,"Ġczytania":6157,"Ġsamolotu":6158,"ĠprzedstawiaÅĤ":6159,"ĠprzedstawiaÄĩ":6160,"ĠwÅĤasne":6161,"ĠwÅĤasnej":6162,"ĠJestem":6163,"Ġmiejscach":6164,"Ġ1964":6165,"lator":6166,"ĠtorbÄĻ":6167,"Ġstrony":6168,"siadÅĤ":6169,"ĠmusieliÅĽmy":6170,"Ġmogliby":6171,"Ġparape":6172,"ĠopuÅĽciÄĩ":6173,"Ġstanowisko":6174,"ĠwÄħtpli":6175,"czniku":6176,"Ġtrakt":6177,"Ġdrzewo":6178,"Ġdrewnia":6179,"Ġofice":6180,"Ġoficja":6181,"ĠjÄĻki":6182,"stracyj":6183,"ĠpoczÄħtkowo":6184,"ĠwyglÄħdaÅĤa":6185,"Ġgrona":6186,"Ġgrotesk":6187,"ĠgÅĤupie":6188,"Ġukra":6189,"Ġceny":6190,"ĠMÃ³wiÅĤa":6191,"ĠleÅ¼Äħc":6192,"Ġkurty":6193,"ĠpozostaÅĤo":6194,"Ġprawdziwego":6195,"torÃ³w":6196,"ĠpÅĤyt":6197,"Ġmorskiej":6198,"ĠnastÄĻpujÄħcÄħ":6199,"Ġporwany":6200,"Ġstalowego":6201,"Ġstalowych":6202,"ĠprzestaÄĩ":6203,"ĠPowiedziaÅĤem":6204,"Ġczterysta":6205,"ĠDzwo":6206,"ĠMyÅĽli":6207,"ĠAleÅ¼":6208,"ĠfiliÅ¼":6209,"ĠobietnicÄĻ":6210,"ĠopowiedzieÄĩ":6211,"Ġpozostanie":6212,"ĠFrank":6213,"ĠFrancji":6214,"ĠFrancu":6215,"ĠRolandem":6216,"Ġangielsku":6217,"Ġszeregow":6218,"Ġserce":6219,"Ġserca":6220,"ĠdowiedzieÄĩ":6221,"ĠoÅĽwiad":6222,"Ġokazji":6223,"ĠnazywajÄħ":6224,"ĠbraÅĤa":6225,"ĠdotknÄħÅĤ":6226,"ĠdotarÅĤ":6227,"Ġdoskon":6228,"ĠzatrzymaÄĩ":6229,"ĠwyjÅĽÄĩ":6230,"Ġprzewodni":6231,"Ġumil":6232,"ĠumieraÅĤ":6233,"ĠWilli":6234,"nosili":6235,"ĠkoÅĤd":6236,"ĠkopuÅĤÄħ":6237,"Ġlodzie":6238,"Ġlokomoty":6239,"Ġlodem":6240,"ĠlodÃ³wki":6241,"Ġobecnych":6242,"Ġlekarza":6243,"ĠwÅĤaÅĽciwie":6244,"ĠwÅĤaÅĽciciel":6245,"ĠbohaterÃ³w":6246,"Ġbudynkiem":6247,"ĠznajdujÄħ":6248,"Ġziemskie":6249,"Ġziemskiej":6250,"Ġkolejowej":6251,"ĠmuszkieterÃ³w":6252,"klej":6253,"Ġprywat":6254,"Ġplutonie":6255,"Ġzbrod":6256,"Ġzniszczone":6257,"ĠtrafiÅĤa":6258,"Ġtajemnicy":6259,"ĠtajemnicÄħ":6260,"Ġdwoma":6261,"Ġbliska":6262,"Ġpolecenia":6263,"Ġwykorzysta":6264,"Ġstrzel":6265,"ĠurzÄħdzenia":6266,"ĠurzÄħdzenie":6267,"ÅĦczycy":6268,"ĠTyle":6269,"Ġmiliony":6270,"Ġspotka":6271,"Ġgorsze":6272,"ĠMusi":6273,"Ġpowierzchnia":6274,"Ġzebranie":6275,"ĠpacjentÃ³w":6276,"ciÄħgali":6277,"Ġpowtarza":6278,"ĠÅĽmiesznego":6279,"ĠGdzieÅĽ":6280,"Ġogromnie":6281,"Ġogromne":6282,"ĠkonwojentÃ³w":6283,"ĠkierownicÄĻ":6284,"ĠmÅĤodych":6285,"ĠksiÄĻÅ¼yca":6286,"Czas":6287,"ĠÅĤoÅ¼a":6288,"ĠplecÃ³w":6289,"Ġzmianie":6290,"Ġdiabli":6291,"Ġmamo":6292,"Ġklinice":6293,"ĠkrzeÅĽle":6294,"Ġkrucjata":6295,"Ġubranie":6296,"ĠuÅĽmiechem":6297,"resaria":6298,"ĠtytuÅĤ":6299,"jeÅ¼dÅ¼aÅĤ":6300,"Ġfortepi":6301,"Ġpiechocie":6302,"Ġpiosenki":6303,"ĠpiosenkÄĻ":6304,"Ġstraszne":6305,"Ġstopni":6306,"Ġzdrowy":6307,"Ġokrucie":6308,"Ġbitwie":6309,"ĠpowaÅ¼nie":6310,"sztowany":6311,"Ġblasku":6312,"ĠbrzmiaÅĤa":6313,"Ġpogrzebie":6314,"Ġpolicji":6315,"ĠBibliÄĻ":6316,"ĠzastrzeliÄĩ":6317,"Ġwybory":6318,"Ġcuch":6319,"Ġkonieczne":6320,"ĠprzyszÅĤoÅĽci":6321,"Ġszaf":6322,"ĠMercede":6323,"omoÅĽci":6324,"ĠStanÃ³w":6325,"Ġfotografi":6326,"Ġfotografie":6327,"onwojent":6328,"Ġlekka":6329,"Ġpisarz":6330,"Ġpunktem":6331,"ĠskÅĤadaÅĤ":6332,"ĠsytuacjÄĻ":6333,"ĠUwaÅ¼aÅĤ":6334,"ĠÅ»egnajcie":6335,"ĠÅ»elaznej":6336,"Ġlotniczych":6337,"Ġplanecie":6338,"ĠszeÅĽÄĩdziesiÄħtce":6339,"Ġfrontowych":6340,"ĠgÅĤÄĻboko":6341,"rÅ¼nÄħÅĤ":6342,"ĠrzuciÅĤ":6343,"ĠparÄħ":6344,"ĠnÃ³Å¼kami":6345,"ĠzÄĻb":6346,"ĠzgodziÅĤ":6347,"ĠzaÅĤoÅ¼onymi":6348,"Ġdowci":6349,"ĠdowÃ³d":6350,"Ġoczeku":6351,"ĠkrÄĻgosÅĤu":6352,"ĠpogodÄĻ":6353,"ĠÅ¼Ã³ÅĤtej":6354,"ĠuwagÄĻ":6355,"ĠutrzymaÄĩ":6356,"ĠusiadÅĤa":6357,"ĠPrawie":6358,"ĠszukaÄĩ":6359,"Ġsztyw":6360,"Ġsztylet":6361,"ĠpodrygiwaÅĤ":6362,"ĠOstatniÄħ":6363,"Ġfantasty":6364,"ĠKrzyÅ¼a":6365,"ĠwindÄħ":6366,"Ġkapelu":6367,"Ġzapewne":6368,"Ġwzroku":6369,"Ġwzrostu":6370,"Ġsklepie":6371,"Ġstoliku":6372,"ĠmÃ³zg":6373,"ĠciepÅĤo":6374,"ĠcierpiaÅĤ":6375,"Ġzielonym":6376,"ĠRosjanin":6377,"ĠWietnam":6378,"ĠdzieciÄĻcej":6379,"ĠtÅĤuszczu":6380,"Ġsamochodu":6381,"ĠsamochodÃ³w":6382,"ĠÅĤyÅ¼ki":6383,"ĠÅĤyÅ¼kÄĻ":6384,"ĠSzkoÅĤy":6385,"ĠwysokoÅĽci":6386,"Ġtortur":6387,"Ġtorturach":6388,"ĠjÄĻzyku":6389,"StraÅ¼nicy":6390,"Ġscenie":6391,"ĠwpadaÅĤo":6392,"ĠwÃ³zka":6393,"ĠmÄħdro":6394,"ĠkamieÅĦ":6395,"Ġbiegn":6396,"ĠpokazaÄĩ":6397,"Ġpomieszczenia":6398,"Ġpostaci":6399,"ĠpolegaÅĤa":6400,"ĠpolegÅĤych":6401,"ĠpoczuÅĤ":6402,"ĠpopoÅĤudniem":6403,"Ġzawias":6404,"ĠzaczynaÅĤ":6405,"ĠzajmowaÅĤ":6406,"Ġstrumienia":6407,"ĠpodÅĤogi":6408,"Ġmundur":6409,"ĠdziaÅĤaÅĤ":6410,"ĠdziaÅĤka":6411,"Ġmocno":6412,"Ġmodlit":6413,"Ġrozpro":6414,"Ġwiadomo":6415,"ĠwiadomoÅĽÄĩ":6416,"ĠkupiÅĤ":6417,"ĠciaÅĤami":6418,"ĠwziÄħÄĩ":6419,"ĠwzglÄĻdu":6420,"ĠwzglÄĻdem":6421,"Ġskraj":6422,"Ġotwartym":6423,"Ġbogat":6424,"Ġbogaty":6425,"ĠJednak":6426,"ĠsÄħsiednim":6427,"Ġzamieszka":6428,"Ġogrodzie":6429,"Ġzobaczyli":6430,"Ġtrzymano":6431,"ĠjakiejÅĽ":6432,"ĠamerykaÅĦskimi":6433,"ĠgÅĤoÅĽnik":6434,"ĠsinoÅ¼Ã³ÅĤtymi":6435,"Ġtelewizji":6436,"ĠczÄĻÅĽciowo":6437,"Ġsprzedawca":6438,"ĠwyjaÅĽniÄĩ":6439,"ĠwszelkÄħ":6440,"Ġbrylant":6441,"ĠChrystusa":6442,"ĠodesÅĤano":6443,"Wszyst":6444,"Wszyscy":6445,"gencji":6446,"Ġseksu":6447,"ĠwnÄĻt":6448,"Ġzwis":6449,"Ġzjawi":6450,"Ġopisy":6451,"Ġkatak":6452,"Ġkordzik":6453,"Ġnakry":6454,"ĠniedoÅĤÄĻÅ¼":6455,"ĠdostaÄĩ":6456,"ĠzawoÅĤaÅĤ":6457,"Ġstylu":6458,"Ġgrzecznie":6459,"ĠprzejÅĽÄĩ":6460,"Ġprzestrzeni":6461,"ĠukÅĤadaÅĤ":6462,"Ġadres":6463,"lachtho":6464,"ĠprzyjÄĻciu":6465,"ĠDrugi":6466,"Ġmufki":6467,"Ġmuzyka":6468,"ĠSÅĤowi":6469,"ĠSÅĤowo":6470,"Ġkanapy":6471,"Ġlatryny":6472,"Ġkulmina":6473,"ĠmyÅĽleli":6474,"ĠmyÅĽleÄĩ":6475,"ĠskrzyÅ¼owaniu":6476,"Ġotwory":6477,"ĠGeneral":6478,"ĠGeorge":6479,"Ġzdecyd":6480,"Ġzamyka":6481,"ĠpierÅĽcion":6482,"ĠpierÅĽcionek":6483,"ĠecholaliÄĻ":6484,"Ġspojrzenia":6485,"ĠpotrzÄħsnÄħÅĤ":6486,"ĠFevre":6487,"Ġzachwytu":6488,"ĠskoÅĦczyÅĤa":6489,"ĠBernard":6490,"ĠBernarda":6491,"Ġdziewczynki":6492,"ĠgÅĤupio":6493,"Ġspecjalista":6494,"ĠzwiÄħzku":6495,"Ġentuzjazmu":6496,"Ġgabinetu":6497,"Ġnieustannie":6498,"Anglik":6499,"Anglicy":6500,"Nikt":6501,"wzglÄĻ":6502,"zwoi":6503,"ĠzÅĤamanÄħ":6504,"ĠmateriaÅĤ":6505,"Ġobiad":6506,"ĠoglÄħdania":6507,"Ġklien":6508,"ĠkÅĤopot":6509,"Ġnaszpik":6510,"Ġbrzuch":6511,"ĠBiedny":6512,"ĠzapukaÅĤ":6513,"Ġwydosta":6514,"ĠoddziaÅĤu":6515,"Ġprzygoda":6516,"ĠprzypomniaÅĤa":6517,"ĠZjednoczonych":6518,"ĠSugarbush":6519,"ĠSÅĤucham":6520,"ĠAdama":6521,"ĠAmeryce":6522,"ĠOtworzyÅĤ":6523,"ĠKlubu":6524,"ĠRzeczywiÅĽcie":6525,"ĠpraktykÄĻ":6526,"ĠbydÅĤa":6527,"Ġhukiem":6528,"Ġpustyni":6529,"ĠnajwiÄĻksz":6530,"Ġtaras":6531,"Ġimpresaria":6532,"ĠbaweÅĤnia":6533,"Ġdziury":6534,"Ġdrobne":6535,"Ġaksamitem":6536,"ĠzakoÅĦczyÅĤ":6537,"Ġczekola":6538,"Ġprezyden":6539,"ĠwyobraÅ¼aÄĩ":6540,"Ġbombardowaniem":6541,"ĠdrezdeÅĦczykÃ³w":6542,"ĠkoÅĤnierz":6543,"ĠdorosÅĤych":6544,"ĠmilionÃ³w":6545,"Ġramionach":6546,"ĠpoÅ¼arnej":6547,"dopodobnÄħ":6548,"ĠszybkoÅĽciÄħ":6549,"Ġbursztynie":6550,"Ġreklamy":6551,"ĠzrezygnowaÄĩ":6552,"Ġmagnetyzm":6553,"ĠEwangelii":6554,"ĠusiÅĤujÄħc":6555,"Ġcharaktery":6556,"ĠpodszewkÄħ":6557,"ĠHiroszimÄĻ":6558,"Ã¼nf":6559,"ĠciÄħÅ¼y":6560,"ĠpÅĤuc":6561,"ĠzaÅĤat":6562,"Ġzoolo":6563,"ĠokaÅ¼e":6564,"Ġobywat":6565,"ĠkamerÄĻ":6566,"Ġpociski":6567,"ĠniektÃ³rych":6568,"Ġdopyty":6569,"kazujÄħc":6570,"Ġzainteres":6571,"ĠgwoÅºdzi":6572,"ĠprzeraÅºli":6573,"ĠPlacid":6574,"ĠPensyl":6575,"ĠWschod":6576,"ĠNathan":6577,"Ġkolorze":6578,"ĠkorzystajÄħc":6579,"ĠmineraÅĤy":6580,"wieziono":6581,"ĠgodnoÅĽÄĩ":6582,"Ġwozem":6583,"Ġpodkoszulek":6584,"ĠpodejrzewaÅĤ":6585,"ĠJohna":6586,"ĠSchlachtho":6587,"ĠSÅĤusznie":6588,"Ġmonografii":6589,"ĠfarbÄħ":6590,"Ġmalutki":6591,"Ġmieszani":6592,"Ġkabiny":6593,"Ġkaloryfera":6594,"Ġczasopism":6595,"ĠLokomoty":6596,"Ġlegowiska":6597,"polis":6598,"Ġhonoru":6599,"ĠprzedmieÅĽciu":6600,"Ġzaplecze":6601,"ĠPoÅĤudni":6602,"ĠPozostali":6603,"ĠnajpiÄĻk":6604,"ĠliczbÄĻ":6605,"ĠEliot":6606,"ĠUniwersytetu":6607,"Ġkonduktor":6608,"Ġtrzewiki":6609,"ĠÅĽmiertelnie":6610,"ĠFiladelfi":6611,"Ġmarmolady":6612,"Ġtrumny":6613,"ĠpiÄĻÄĩdziesiÄĻciu":6614,"ĠpÅĤakaÄĩ":6615,"ĠpÃ³ÅĤwys":6616,"ĠpoÅĽwiata":6617,"ĠokolicznoÅĽci":6618,"Ġlokalu":6619,"ĠDziewicy":6620,"Ġartylerzy":6621,"gryzÅĤa":6622,"Ġplutonem":6623,"ĠfunkcjonowaÄĩ":6624,"ĠskÅĤadaÅĤa":6625,"Ġsekun":6626,"Ġprofesorem":6627,"Ġznakomicie":6628,"ĠnieskoÅĦczono":6629,"ĠSkurczybykÃ³w":6630,"ĠmanewrÃ³w":6631,"Ġfantastycznonaukowych":6632,"ĠIndianapolis":6633,"Czterookich":6634,"Walencja":6635,"Ġaresztowany":6636,"ĠpamiÄħ":6637,"Ġswasty":6638,"ĠzaÅĤad":6639,"Ġtransp":6640,"Ġodzna":6641,"Ġnatomiast":6642,"Ġbatonik":6643,"Ġponad":6644,"ĠpobliÅ¼u":6645,"Ġnietope":6646,"ĠnieprawdopodobnÄħ":6647,"Ġniepotrzeb":6648,"Ġzazwyczaj":6649,"Ġwydoby":6650,"Ġgener":6651,"Ġgimnasty":6652,"ĠgaÅĤÄħz":6653,"Ġulubi":6654,"ĠuÅĽwiadomiÅĤ":6655,"ĠPalesty":6656,"Ġcentrum":6657,"ĠÅĽlizgaÅĤ":6658,"ĠprzywykÅĤ":6659,"Ġspinki":6660,"ĠZamiast":6661,"ĠchrzeÅĽcija":6662,"ĠMÄĻÅ¼czy":6663,"Ġfrancu":6664,"Ġfosforyzu":6665,"topniowo":6666,"Ġhotelu":6667,"Ġzapragnie":6668,"ĠPoczÄħtkowo":6669,"ĠsÄħsiedztwie":6670,"Ġskurwysy":6671,"Ġprenumera":6672,"ĠzwÅĤaszcza":6673,"ĠfiliÅ¼an":6674,"ĠSchlachthof":6675,"ĠFiladelfii":6676,"12":6677,"35":6678,"39":6679,"Ach":6680,"Autor":6681,"Bo":6682,"Bar":6683,"Bied":6684,"Ci":6685,"Dro":6686,"Dwa":6687,"Dale":6688,"Dowo":6689,"Dwaj":6690,"Fre":6691,"Istoty":6692,"Kilgore":6693,"Kwartet":6694,"Kobie":6695,"Konwojent":6696,"Mi":6697,"Major":6698,"Nad":6699,"Re":6700,"Sp":6701,"SÄħ":6702,"Sam":6703,"Spy":6704,"Sze":6705,"Stopniowo":6706,"Trze":6707,"Tej":6708,"Tralfamador":6709,"Wi":6710,"Wie":6711,"WÅĤa":6712,"Wtedy":6713,"WÅĤaÅĽnie":6714,"Werner":6715,"Zie":6716,"Zat":6717,"ZnajdowaÅĤ":6718,"ac":6719,"ag":6720,"asz":6721,"api":6722,"aun":6723,"bÅĤ":6724,"bnie":6725,"brze":6726,"bem":6727,"ber":6728,"bki":6729,"bÅĤa":6730,"bru":6731,"bnego":6732,"bod":6733,"baÄĩ":6734,"bard":6735,"bÅĤÄĻ":6736,"byÅĤa":6737,"brzmi":6738,"ckie":6739,"cone":6740,"caÅĤem":6741,"cÄħcy":6742,"conego":6743,"ctwo":6744,"ckimi":6745,"dro":6746,"dak":6747,"dre":6748,"dby":6749,"dnÄħ":6750,"dnych":6751,"dom":6752,"dnej":6753,"dol":6754,"dowe":6755,"dÄħcy":6756,"domy":6757,"ev":6758,"enie":6759,"eta":6760,"ebu":6761,"esie":6762,"eszÅĤa":6763,"elektry":6764,"egnajcie":6765,"fil":6766,"fery":6767,"fel":6768,"fes":6769,"fur":6770,"fszty":6771,"ffe":6772,"fÃ¼nf":6773,"grze":6774,"gne":6775,"gat":6776,"gla":6777,"gnÄħ":6778,"gÅĤu":6779,"hard":6780,"iw":6781,"iÄĩ":6782,"iÅĤo":6783,"iaÅĤy":6784,"iÅĽcie":6785,"iament":6786,"jer":6787,"jaÅĤy":6788,"jnym":6789,"jskiego":6790,"jonu":6791,"jczycy":6792,"kam":6793,"kar":6794,"krzy":6795,"kcie":6796,"kary":6797,"kowej":6798,"kraw":6799,"kowych":6800,"kaÅĤem":6801,"kowaÅĤa":6802,"kÃ³d":6803,"kowany":6804,"karÅĤat":6805,"ll":6806,"ls":6807,"lÄħ":6808,"lÃ³":6809,"lli":6810,"lak":6811,"lki":6812,"lowaÅĤ":6813,"lÄħd":6814,"lowaÄĩ":6815,"lnoÅĽÄĩ":6816,"lnicz":6817,"lsyj":6818,"mÄħ":6819,"mki":6820,"men":6821,"mami":6822,"met":6823,"nko":6824,"nnej":6825,"nowaÅĤ":6826,"nga":6827,"nowego":6828,"nkach":6829,"nÄħcego":6830,"nÄħcÄħ":6831,"ok":6832,"ox":6833,"oz":6834,"oro":6835,"ocie":6836,"olo":6837,"ogni":6838,"ps":6839,"pÅĤ":6840,"piÄĻ":6841,"pnie":6842,"ple":6843,"pla":6844,"pon":6845,"pnÄħÅĤ":6846,"pek":6847,"pter":6848,"pera":6849,"przytom":6850,"ptr":6851,"pchnÄħÅĤ":6852,"ppel":6853,"qu":6854,"rna":6855,"raÅĤa":6856,"rowy":6857,"rowi":6858,"rwaÅĤ":6859,"rpu":6860,"rowej":6861,"rche":6862,"ring":6863,"rowiec":6864,"rtne":6865,"sf":6866,"sm":6867,"sch":6868,"sÅĤo":6869,"sen":6870,"snÄħ":6871,"saÅĤy":6872,"sÄħd":6873,"skÄĻ":6874,"skÃ³w":6875,"sek":6876,"seÅĤ":6877,"sych":6878,"ssa":6879,"sowe":6880,"syÅĤa":6881,"sji":6882,"spomina":6883,"sachu":6884,"tra":6885,"tny":6886,"tak":6887,"tnego":6888,"tkÄĻ":6889,"trÄħ":6890,"tamy":6891,"tniki":6892,"towano":6893,"than":6894,"uli":6895,"uen":6896,"uje":6897,"utem":6898,"uza":6899,"upe":6900,"ujÄħcych":6901,"uszek":6902,"varda":6903,"vox":6904,"wak":6905,"wza":6906,"wkÄĻ":6907,"wowej":6908,"wemu":6909,"wszÄħ":6910,"wrÃ³ciÅĤ":6911,"wren":6912,"yne":6913,"ymo":6914,"ydra":6915,"zaÅĤa":6916,"znÄħ":6917,"zjÄħ":6918,"zowej":6919,"zel":6920,"zdni":6921,"znem":6922,"zji":6923,"zwanie":6924,"zmem":6925,"Ġow":6926,"ĠÃ³w":6927,"Ġew":6928,"ĠrzÄħd":6929,"Ġrzym":6930,"Ġvox":6931,"ÅĤowi":6932,"ÅĤÄħd":6933,"ÅĤowÄħ":6934,"ieÅĤ":6935,"ienie":6936,"ierÄĻ":6937,"Ġpl":6938,"Ġpne":6939,"Ġpta":6940,"Ġpale":6941,"Ġpowy":6942,"Ġpary":6943,"ĠprÄĻ":6944,"ĠprzyÅĤo":6945,"Ġsno":6946,"Ġsowa":6947,"Ġsera":6948,"Ġsnach":6949,"Ġswemu":6950,"Ġwcze":6951,"ĠwÅĽcie":6952,"Ġwet":6953,"Ġwsu":6954,"Ġwsa":6955,"Ġwpraw":6956,"ĠwciÄħg":6957,"ĠwstÄĻp":6958,"Ġwilgo":6959,"Ġwpuszcz":6960,"ĠwchodziÅĤ":6961,"ĠwciÄĻ":6962,"Ġwnios":6963,"Ġwcis":6964,"Ġwpisa":6965,"ĠwrÄĻcz":6966,"Ġwobec":6967,"ĠwtrÄħ":6968,"ÄĻcz":6969,"ÄĻdzie":6970,"Ġnowych":6971,"ĠnÃ³g":6972,"Ġzar":6973,"Ġzer":6974,"Ġzor":6975,"Ġzwa":6976,"Ġzej":6977,"Ġzmy":6978,"Ġzwar":6979,"Ġzgra":6980,"Ġzwali":6981,"ĠzÅĤÄħ":6982,"Ġzmienia":6983,"Ġzbiera":6984,"ĠzÅĤych":6985,"ĠzbliÅ¼":6986,"ĠzÅĤego":6987,"ĠznoÅĽ":6988,"aÅĤe":6989,"aÅĤÄĻ":6990,"aÅĤÃ³w":6991,"aÅĤej":6992,"aÅĤos":6993,"aÅĤek":6994,"rzak":6995,"rzaÅĤy":6996,"rzona":6997,"rzonych":6998,"rzaku":6999,"rzÄħcych":7000,"Äħb":7001,"Å¼on":7002,"Å¼onego":7003,"Å¼noÅĽciÄħ":7004,"Å¼niku":7005,"czak":7006,"czam":7007,"czer":7008,"czkÃ³w":7009,"cznicy":7010,"czÄħce":7011,"czÄħcego":7012,"Ġtow":7013,"Ġtch":7014,"Ġtraw":7015,"ĠtwÃ³r":7016,"Ġtkli":7017,"Ġtato":7018,"owÅĤo":7019,"owod":7020,"owemu":7021,"owsku":7022,"ownikÃ³w":7023,"ownika":7024,"chÄħ":7025,"chno":7026,"chÅĤy":7027,"chaÅĤy":7028,"chce":7029,"chot":7030,"chaÅĤem":7031,"chnÄĻli":7032,"chanego":7033,"Ã³rz":7034,"Ã³ra":7035,"Ã³Åºniej":7036,"Ã³Å¼ek":7037,"Ã³stwo":7038,"Ġdem":7039,"ĠdaÅĤa":7040,"Ġdali":7041,"Ġdal":7042,"Ġdaj":7043,"Ġdes":7044,"ĠdwÃ³j":7045,"Ġdamy":7046,"Ġdwoj":7047,"Ġdrzem":7048,"Ġdiament":7049,"Ġmego":7050,"Ġmowa":7051,"Ġmary":7052,"Ġmrok":7053,"ÅĽmi":7054,"ÅĽÅĦ":7055,"ÅĽwiÄĻ":7056,"ÅĽmiu":7057,"ÅĽniÄĻty":7058,"ÅĽrednio":7059,"Ġocie":7060,"Ġokiem":7061,"Ġosu":7062,"ĠoglÄħd":7063,"Ġoszu":7064,"ĠoÅĽle":7065,"Ġostro":7066,"Ġokazy":7067,"ĠoÅĤÃ³w":7068,"ĠocknÄħÅĤ":7069,"ĠodzieÅ¼":7070,"Ġoczami":7071,"ĠotaczajÄħc":7072,"ĠoÅĽmiesz":7073,"ĠkÄħ":7074,"Ġkwi":7075,"Ġkami":7076,"Ġklo":7077,"Ġkraw":7078,"ĠkrÄħ":7079,"Ġkran":7080,"ĠkÅĤÄĻ":7081,"Ġkwarte":7082,"Ġkrop":7083,"ĠkÅĤÃ³":7084,"Ġkato":7085,"gon":7086,"godziÅĤ":7087,"iÄĻci":7088,"iÄĻcie":7089,"iÄĻgnÄħÅĤ":7090,"raj":7091,"rak":7092,"raÄĩ":7093,"rane":7094,"raki":7095,"rado":7096,"ranicz":7097,"racaÅĤ":7098,"radny":7099,"rastÃ³w":7100,"dzaÅĤa":7101,"dzce":7102,"dzali":7103,"dzajÄħc":7104,"dzajÄħcych":7105,"Ġina":7106,"Ġide":7107,"Ġiden":7108,"Ġign":7109,"nio":7110,"niny":7111,"niÃ³w":7112,"niÄħc":7113,"niaÅĤa":7114,"nicami":7115,"nionych":7116,"niarni":7117,"niczych":7118,"szÃ³w":7119,"szer":7120,"szkie":7121,"sznego":7122,"szczyÅĤ":7123,"szkÃ³w":7124,"szkÄħ":7125,"szemu":7126,"szpa":7127,"szoÅĽÄĩ":7128,"szyÅĤa":7129,"szalni":7130,"Ġnat":7131,"Ġnarze":7132,"Ġnawo":7133,"Ġnaszy":7134,"Ġnapi":7135,"Ġnapo":7136,"Ġnabo":7137,"Ġnarod":7138,"Ġnastawi":7139,"Ġnapra":7140,"Ġnaszego":7141,"Ġnapot":7142,"ĠnabraÅĤa":7143,"ĠnaÅĽla":7144,"Ġnadawano":7145,"Ġnalocie":7146,"Ġnaklej":7147,"Ġnaelektry":7148,"Ġnawza":7149,"Ġjod":7150,"Ġjach":7151,"Ġjemu":7152,"lili":7153,"lina":7154,"liÅĤo":7155,"liÅĤy":7156,"likiem":7157,"limet":7158,"stam":7159,"stkÄĻ":7160,"strÃ³j":7161,"ĠbaÅĤ":7162,"Ġbil":7163,"Ġbal":7164,"Ġbet":7165,"ĠbeÅĤko":7166,"ĠbÅĤÄħd":7167,"nienie":7168,"niepoko":7169,"niewieraÅĤa":7170,"Ġpola":7171,"Ġpoby":7172,"Ġposi":7173,"ĠpoÅĤy":7174,"ĠpodziaÅĤ":7175,"Ġporu":7176,"ĠpoÅ¼e":7177,"Ġpopie":7178,"Ġpogr":7179,"Ġposzcze":7180,"Ġpoto":7181,"Ġpobo":7182,"ĠpociÄħ":7183,"Ġposy":7184,"Ġposa":7185,"ĠpoglÄħd":7186,"Ġporzu":7187,"ĠposiÅĤ":7188,"ĠpostÄĻp":7189,"Ġpokaz":7190,"Ġpojem":7191,"ĠpoÅĽmie":7192,"ĠpoÅĤam":7193,"Ġpochodzi":7194,"ĠpochodziÅĤ":7195,"ĠpociÄħga":7196,"ĠpokazaÅĤ":7197,"ĠposzÅĤy":7198,"Ġpobud":7199,"Ġpoeta":7200,"robi":7201,"rotnie":7202,"rodzenie":7203,"rzekÅĤ":7204,"rzedaw":7205,"rzeniami":7206,"rzemija":7207,"ille":7208,"ilerie":7209,"len":7210,"leÄĩ":7211,"lery":7212,"lenia":7213,"letek":7214,"lebÄĻ":7215,"lepiej":7216,"cina":7217,"ciaÅĤo":7218,"ciod":7219,"ciÅĤem":7220,"ciliÅĽmy":7221,"ciaka":7222,"amki":7223,"ampa":7224,"amul":7225,"amkni":7226,"Ġniena":7227,"Ġniece":7228,"ĠnieÅº":7229,"Ġniebie":7230,"ĠnieÅ¼y":7231,"Ġnieba":7232,"Ġnietk":7233,"Ġniespo":7234,"Ġniedaw":7235,"Ġniepoko":7236,"Ġniewol":7237,"Ġniebia":7238,"ĠBaÅĤ":7239,"ĠBom":7240,"ĠBrÄħ":7241,"arny":7242,"arwi":7243,"arki":7244,"armi":7245,"arkÄħ":7246,"arsa":7247,"Ġdory":7248,"ĠdorÄĻ":7249,"ĠdokÅĤa":7250,"Ġdotycz":7251,"Ġdokona":7252,"Ġdochodzi":7253,"Ġdopuszcz":7254,"Ġdolny":7255,"Ġdostar":7256,"Ġdoktor":7257,"ĠdokÄħd":7258,"ĠdoznaÅĤ":7259,"ĠdostaÅĤy":7260,"ĠÅ¼er":7261,"ĠÅ¼ÅĤo":7262,"ĠÅ¼alu":7263,"ĠÅ¼onie":7264,"kani":7265,"kane":7266,"kate":7267,"rzyÅ¼":7268,"rzydzenia":7269,"naÅ¼":7270,"naÄĩ":7271,"nady":7272,"narod":7273,"nacje":7274,"Ã³wnieÅ¼":7275,"dzin":7276,"dziny":7277,"dziwa":7278,"dziÅĤy":7279,"dziono":7280,"dziliÅĽmy":7281,"Ġzao":7282,"Ġzady":7283,"Ġzaby":7284,"Ġzacze":7285,"Ġzaga":7286,"ĠzaÅĽli":7287,"Ġzagu":7288,"Ġzask":7289,"Ġzarzu":7290,"Ġzasko":7291,"ĠzadaÄĩ":7292,"Ġzastawi":7293,"ĠzastÄĻp":7294,"ĠzastaÅĤ":7295,"ĠzaszÅĤo":7296,"Ġzarabi":7297,"ĠzadaÅĤ":7298,"Ġzauf":7299,"Ġzastanowi":7300,"Ġzastrzy":7301,"Ġzacis":7302,"ĠzabraÅĤa":7303,"ĠzastanowiÅĤ":7304,"Ġzadzwo":7305,"Ġzastos":7306,"Ġzaniepoko":7307,"erÃ³w":7308,"erre":7309,"erek":7310,"eremo":7311,"erhard":7312,"wiaÅĤy":7313,"widen":7314,"wioru":7315,"wiczki":7316,"wionych":7317,"wialni":7318,"widzial":7319,"ĠjeÅĽÄĩ":7320,"Ġjedzenia":7321,"Ġjeniec":7322,"Ġjechali":7323,"Ġjedzenie":7324,"Ġjezdni":7325,"atego":7326,"atki":7327,"atali":7328,"atek":7329,"czysz":7330,"czyny":7331,"czymy":7332,"czysto":7333,"czyliÅĽmy":7334,"czynaÅĤ":7335,"Ġwygo":7336,"Ġwyla":7337,"Ġwywo":7338,"Ġwywie":7339,"Ġwysze":7340,"Ġwymy":7341,"Ġwygi":7342,"ĠwyÅĽcie":7343,"Ġwywar":7344,"ĠwydaÄĩ":7345,"ĠwysiÅĤ":7346,"ĠwystÄĻp":7347,"Ġwychu":7348,"ĠwyjrzaÅĤ":7349,"ĠwydaÅĤ":7350,"Ġwykona":7351,"ĠwychodziÅĤ":7352,"ĠwygÅĤo":7353,"ĠwyciÄħgu":7354,"Ġwytrze":7355,"ĠwynosiÅĤ":7356,"Ġwypisa":7357,"ĠwykÅĤada":7358,"ĠwyjeÅ¼dÅ¼":7359,"ĠwychodziÄĩ":7360,"Ġwydech":7361,"ĠwyksztaÅĤ":7362,"ĠwybieraÄĩ":7363,"ĠwystÄħpie":7364,"ĠwylÄħd":7365,"Ġwyzwanie":7366,"ÅĤaszcze":7367,"Ġster":7368,"Ġstwo":7369,"ĠstÅĤu":7370,"Ġstale":7371,"ĠstÃ³ÅĤ":7372,"Ġstew":7373,"Ġstet":7374,"Ġstere":7375,"Ġstron":7376,"Ġstuk":7377,"ĠstrÃ³j":7378,"ciem":7379,"cieÄĩ":7380,"cieliÅĽmy":7381,"Ġgrz":7382,"Ġgnia":7383,"Ġgale":7384,"Ġgary":7385,"Ġget":7386,"ĠgnieÅ¼":7387,"Ġgarni":7388,"ĠgieÅĤ":7389,"ĠgaÅĤÄĻ":7390,"ĠglebÄĻ":7391,"Ġprzet":7392,"Ġprzest":7393,"Ġprzewi":7394,"ĠprzeÅĤo":7395,"Ġprzeby":7396,"Ġprzepi":7397,"ĠprzesiÄħ":7398,"ĠprzejÄĻ":7399,"Ġprzenik":7400,"Ġprzebra":7401,"Ġprzeszka":7402,"Ġprzepis":7403,"ĠprzestÄĻp":7404,"ĠprzeraÅ¼":7405,"ĠprzestaÅĤ":7406,"ĠprzeÅĤam":7407,"Ġprzekro":7408,"ĠprzesunÄħÅĤ":7409,"Ġprzenosi":7410,"Ġprzegro":7411,"ĠprzeraÅ¼ajÄħc":7412,"ĠprzemÃ³w":7413,"ĠprzekazaÅĤ":7414,"Ġprzepraszam":7415,"Ġprzelaty":7416,"Ġprzeniesiono":7417,"ĠprzegryzÅĤa":7418,"Ġuci":7419,"Ġuwi":7420,"Ġuczy":7421,"ĠuÅĤo":7422,"Ġury":7423,"Ġuru":7424,"Ġuma":7425,"Ġucho":7426,"ĠuczÄħ":7427,"Ġucha":7428,"Ġudali":7429,"ĠujrzaÅĤ":7430,"ĠusÅĤu":7431,"Ġubezpie":7432,"Ġupoko":7433,"Ġurat":7434,"ĠumysÅĤ":7435,"ĠumysÅĤu":7436,"Ġuczucie":7437,"ĠusiÄħÅĽÄĩ":7438,"ÅĤotniki":7439,"dyn":7440,"dyni":7441,"dynie":7442,"dywaÄĩ":7443,"dykujÄĻ":7444,"dydat":7445,"ĠPÅĤy":7446,"ĠProwa":7447,"ĠPamiÄĻ":7448,"ĠPres":7449,"ĠPine":7450,"ĠPomy":7451,"ĠPÅĤakaÅĤ":7452,"ĠPÅĤaszcze":7453,"Ġapa":7454,"Ġauf":7455,"Ġapat":7456,"Ġapel":7457,"dan":7458,"darzy":7459,"dana":7460,"dacy":7461,"dajÄħc":7462,"dapter":7463,"owieÅĽÄĩ":7464,"orny":7465,"orki":7466,"oria":7467,"dzieÅ¼y":7468,"dzielajÄħc":7469,"ĠWz":7470,"ĠWar":7471,"ĠWal":7472,"ĠWes":7473,"ĠWin":7474,"ĠWstaÅĤ":7475,"ĠWÅĤoÅ¼yÅĤ":7476,"ĠWcale":7477,"ĠWrÃ³ciÅĤ":7478,"ĠWhi":7479,"ĠWoj":7480,"wani":7481,"wanymi":7482,"wanii":7483,"ĠbyÅĤych":7484,"noty":7485,"nozie":7486,"nois":7487,"noszÄħc":7488,"noll":7489,"reb":7490,"rek":7491,"reny":7492,"rena":7493,"recja":7494,"realu":7495,"lany":7496,"laga":7497,"lazna":7498,"laczego":7499,"miaÅĤem":7500,"ryw":7501,"Ġtorze":7502,"Ġtoale":7503,"Ġtobie":7504,"ĠtonÄĻ":7505,"Ġtonem":7506,"ĠtoczyÅĤa":7507,"Ġcem":7508,"Ġcyli":7509,"ĠcentÃ³w":7510,"Ġcowbo":7511,"Ġceremo":7512,"wojÄħ":7513,"woÅĽciÄħ":7514,"Ġodk":7515,"Ġoder":7516,"Ġodczy":7517,"Ġodda":7518,"Ġoddzie":7519,"Ġodpo":7520,"ĠodwaÅ¼":7521,"ĠoddaÄĩ":7522,"Ġodgry":7523,"Ġodchy":7524,"Ġodnale":7525,"ĠodczytaÅĤ":7526,"Ġodskaki":7527,"Ġoddech":7528,"Ġoddziale":7529,"Ġodwagi":7530,"ĠodbyÅĤa":7531,"Ġczwo":7532,"ĠczoÅĤ":7533,"ĠczwÃ³r":7534,"Ġcztero":7535,"ĠczoÅĤo":7536,"ĠNad":7537,"ĠNan":7538,"ĠNale":7539,"ĠNum":7540,"ÅĦska":7541,"ÅĦskim":7542,"ĠTim":7543,"ĠTym":7544,"ĠTatu":7545,"ĠTrzymaÅĤ":7546,"ĠTrzej":7547,"ĠTalerz":7548,"Ġkosz":7549,"Ġkota":7550,"ĠkoÅĤy":7551,"Ġkoce":7552,"Ġkopi":7553,"Ġkopy":7554,"Ġkocha":7555,"ĠkolÄĻ":7556,"Ġkostki":7557,"Ġkochana":7558,"ĠkolacjÄĻ":7559,"ĠÅĽcie":7560,"ĠÅĽnia":7561,"ĠÅĽciÄħg":7562,"ĠÅĽmiaÅĤ":7563,"Ġprzym":7564,"Ġprzywi":7565,"Ġprzybi":7566,"Ġprzywil":7567,"Ġprzyzna":7568,"ĠprzyglÄħdaÅĤ":7569,"Ġprzytrzy":7570,"Ġprzyjm":7571,"ĠprzyjÄĻcie":7572,"Ġprzykro":7573,"ĠprzychodziÅĤ":7574,"ĠprzysÅĤa":7575,"ĠprzyglÄħdali":7576,"ĠprzyznaÅĤ":7577,"ĠprzyszÅĤy":7578,"ĠprzynieÅĽli":7579,"ĠprzyniosÅĤa":7580,"ĠprzyÅĽpie":7581,"Ġprzycisk":7582,"Ġprzyzwoi":7583,"Ġprzyczyny":7584,"tyw":7585,"tyfik":7586,"siu":7587,"siÅĤo":7588,"Ġrobie":7589,"Ġrokiem":7590,"Ġrobo":7591,"ĠrosÅĤy":7592,"Ġroman":7593,"Ġrolki":7594,"kiet":7595,"cynacje":7596,"Ġmir":7597,"ĠminÄħÅĤ":7598,"ĠmitÃ³w":7599,"Ġmikro":7600,"ĠmijaÅĤ":7601,"Ġmineral":7602,"Ġmistrz":7603,"adÅĤ":7604,"adÄĻ":7605,"adÅĤa":7606,"adek":7607,"tasa":7608,"tajcie":7609,"tarzem":7610,"Ġtypu":7611,"Ġtylnym":7612,"niarz":7613,"niania":7614,"niajÄħ":7615,"ÅĤyby":7616,"ÅĤynÄħÄĩ":7617,"aski":7618,"asÅĤo":7619,"asÅĤy":7620,"assachu":7621,"ĠspaÅĤ":7622,"Ġspor":7623,"Ġspali":7624,"Ġspada":7625,"ĠspeÅĤni":7626,"obrze":7627,"obem":7628,"ĠZd":7629,"ĠZu":7630,"ĠZas":7631,"ĠZwie":7632,"ĠZaÅĤo":7633,"ĠZaz":7634,"ĠZoba":7635,"ĠZosta":7636,"ĠZgÅĤo":7637,"ĠZgro":7638,"ĠZresztÄħ":7639,"ĠZrobiÅĤ":7640,"ĠZdaje":7641,"ĠZnajdowaÅĤ":7642,"ĠZwiÄħz":7643,"ĠZwiadowcy":7644,"ĠZamkni":7645,"wiec":7646,"wiej":7647,"wienie":7648,"wieci":7649,"wienia":7650,"wierzyÅĤ":7651,"ÅĽciÅĤo":7652,"ÅĽciowych":7653,"ÅĽciciel":7654,"rus":7655,"ruch":7656,"ruÅ¼yÅĤ":7657,"rudno":7658,"runku":7659,"Ġchi":7660,"Ġchu":7661,"Ġchod":7662,"ĠchowaÅĤ":7663,"ĠchcÄħ":7664,"ĠchÅĤÃ³d":7665,"Ġszar":7666,"ĠszÅĤa":7667,"Ġszan":7668,"Ġszpi":7669,"Ġszet":7670,"Ġsznu":7671,"Ġszuf":7672,"Ġszok":7673,"Ġszampa":7674,"Ġniby":7675,"Ġniski":7676,"Ġniskich":7677,"Ġnikim":7678,"ĠDu":7679,"ĠDer":7680,"ĠDwie":7681,"ĠDale":7682,"ĠDali":7683,"ĠDost":7684,"ĠDaj":7685,"ĠDrzwi":7686,"ĠDlatego":7687,"ĠDela":7688,"ĠDarwi":7689,"Ġgory":7690,"ĠgoÅĽÄĩ":7691,"ĠgorÄħ":7692,"ĠgoÅĤÄħ":7693,"Ġgong":7694,"ĠgodÅĤo":7695,"ĠgoliÄĩ":7696,"Ġgorzej":7697,"raziÅĤ":7698,"Ġwod":7699,"Ġwoli":7700,"Ġwoda":7701,"Ġwosk":7702,"czeli":7703,"czeÅĦ":7704,"mieli":7705,"miewaÅĤ":7706,"mierzyÅĤ":7707,"mienieni":7708,"ĠMnie":7709,"ĠMod":7710,"ĠMal":7711,"ĠMyli":7712,"ĠMont":7713,"ĠMassachu":7714,"Ġpodwo":7715,"Ġpodpi":7716,"ĠpodrÄĻ":7717,"ĠpodjÄĻ":7718,"Ġpodtrzy":7719,"ĠpodwÃ³r":7720,"ĠpodwyÅ¼":7721,"Ġpodkowy":7722,"ĠpodniosÅĤa":7723,"Ġpoddano":7724,"Ġpodjadali":7725,"Ġpowiedz":7726,"Ġpowieszono":7727,"ĠpowiesiÄĩ":7728,"Ġpowiedziano":7729,"ĠtakÄħ":7730,"Ġmuze":7731,"jera":7732,"jekt":7733,"jechaÅĤ":7734,"jechaÅĤa":7735,"cek":7736,"ceni":7737,"cero":7738,"cewa":7739,"cesie":7740,"cesyj":7741,"ĠCod":7742,"ĠCÃ³Å¼":7743,"ĠCaÅĤÄħ":7744,"Ġteni":7745,"Ġteatru":7746,"ĠteraÅºniej":7747,"ÅĤuma":7748,"bili":7749,"bina":7750,"omos":7751,"omet":7752,"telu":7753,"teran":7754,"terom":7755,"tesik":7756,"jaÄĩ":7757,"ĠJakiÅĽ":7758,"ĠSen":7759,"ĠSan":7760,"ĠStaÅĤ":7761,"ĠSwego":7762,"ĠSkÅĤad":7763,"ĠSkali":7764,"ĠSina":7765,"ĠSkÄħd":7766,"ĠSaun":7767,"ĠSqu":7768,"ĠSiÄĻgnÄħÅĤ":7769,"ĠSwojÄħ":7770,"Ġwiecie":7771,"ĠwieÅĽÄĩ":7772,"ĠwieÅ¼y":7773,"Ġwiejski":7774,"rÃ³l":7775,"rÃ³bu":7776,"aledwie":7777,"aleÅ¼nie":7778,"Åºdzie":7779,"Åºnia":7780,"ÅºniÄĻ":7781,"owywali":7782,"ima":7783,"Ġmorzu":7784,"Ġmorzem":7785,"Ġmotor":7786,"Ġmodel":7787,"ĠmogÅĤem":7788,"Ġmotelu":7789,"szeniu":7790,"ĠAl":7791,"ĠAr":7792,"ĠAfry":7793,"owiÅĤ":7794,"Ġcokolwiek":7795,"ĠOk":7796,"ĠOczy":7797,"ĠOfi":7798,"ĠOba":7799,"ĠOzna":7800,"ĠOgÃ³l":7801,"ĠOcknÄħÅĤ":7802,"ĠOkazaÅĤo":7803,"ĠNiebie":7804,"osa":7805,"osko":7806,"osob":7807,"Ġwojnach":7808,"Ġfra":7809,"Ġfak":7810,"Ġfas":7811,"Ġforma":7812,"Ġflami":7813,"ĠfrÄĻdz":7814,"Ġflaga":7815,"ĠKru":7816,"ĠKin":7817,"ĠKenne":7818,"ĠKnoll":7819,"Ġobc":7820,"Ġobwie":7821,"Ġobma":7822,"ĠobrÄĻ":7823,"Ġobol":7824,"ĠobÃ³z":7825,"ĠobjÄħÅĤ":7826,"Ġobrzydzenia":7827,"pij":7828,"piÅĤ":7829,"pionego":7830,"Ġrozko":7831,"ĠrozÅĤo":7832,"Ġrozbi":7833,"Ġrozsze":7834,"Ġrozba":7835,"ĠrozdÄĻ":7836,"ĠrozkÅĤa":7837,"ĠrozeÅĽ":7838,"Ġrozczu":7839,"Ġrozkaz":7840,"Ġrozjem":7841,"Ġrozpra":7842,"ĠrozpÄĻ":7843,"Ġrozbrz":7844,"ĠrozwiÄħzy":7845,"Ġrozryw":7846,"cal":7847,"Ġmanie":7848,"Ġmaci":7849,"Ġmacie":7850,"Ġmaga":7851,"ĠmajÄħcy":7852,"Ġmachi":7853,"zysu":7854,"zyjnÄħ":7855,"rzanym":7856,"madzenie":7857,"Ġjegomo":7858,"Ġmienia":7859,"ĠmieÅĽciÅĤ":7860,"ĠmieÅĽciÅĤa":7861,"ĠwiÄħ":7862,"Ġwina":7863,"Ġwidzi":7864,"Ġwino":7865,"ĠwidzÄħc":7866,"Ġwiatr":7867,"ĠwidywaÅĤ":7868,"Ġwitajcie":7869,"Ġswoimi":7870,"Ġswobod":7871,"biego":7872,"biegÅĤ":7873,"bieraÅĤ":7874,"Ġkawy":7875,"Ġkapra":7876,"Ġkaste":7877,"Ġkazali":7878,"Ġkafel":7879,"ĠkazaÅĤa":7880,"Ġkawioru":7881,"Å¼eÄĩ":7882,"odÃ³w":7883,"odÅº":7884,"odrÃ³Å¼":7885,"odwagÄĻ":7886,"wym":7887,"wyciÄĩ":7888,"wyraÅºniej":7889,"Ġzegary":7890,"ĠzepchniÄĻ":7891,"Ġzechce":7892,"tuÅĤ":7893,"tujÄħc":7894,"Ġluk":7895,"Ġlune":7896,"Ġlubi":7897,"Ġlutego":7898,"ĠlubiÅĤ":7899,"Ġlubia":7900,"ĠRe":7901,"ĠRaz":7902,"ĠRÃ³Å¼":7903,"nÄħÅĤem":7904,"nÄĻdz":7905,"Å¼yny":7906,"Å¼ynka":7907,"Ġczasach":7908,"Ġpaczki":7909,"Ġpachni":7910,"Ġpaczka":7911,"Ġpachami":7912,"Ġpauza":7913,"gia":7914,"gicznego":7915,"ĠIn":7916,"ĠIle":7917,"ĠInny":7918,"ĠInni":7919,"ĠIlli":7920,"pieÅĦ":7921,"gali":7922,"ĠznaÄĩ":7923,"Ġznany":7924,"Ġznanej":7925,"cjami":7926,"cjan":7927,"umaty":7928,"Ġinna":7929,"ĠinnÄħ":7930,"Ġinstru":7931,"Ġpraca":7932,"ĠprasÄĻ":7933,"Ġczysto":7934,"ĠczytaÅĤa":7935,"Ġczytelnik":7936,"Ġopra":7937,"ĠoparÅĤ":7938,"Ġopowiada":7939,"ĠopanowaÄĩ":7940,"Ġoptycznej":7941,"Ġpiec":7942,"ĠLot":7943,"ĠLos":7944,"ĠLance":7945,"zach":7946,"zacji":7947,"ĠNasz":7948,"ĠNarod":7949,"ĠNarodzenie":7950,"logii":7951,"logiÄĻ":7952,"eze":7953,"niejsi":7954,"niejszy":7955,"niejsze":7956,"niejszymi":7957,"Ġprzezroczy":7958,"czyÅĤo":7959,"aliÅĤ":7960,"aliÅĽmy":7961,"Ġrzeka":7962,"ĠrzekÄĻ":7963,"Ġrzezi":7964,"Ġlemo":7965,"Ġlezie":7966,"Ġlewych":7967,"ĠleciaÅĤy":7968,"tora":7969,"tostra":7970,"Ġsamej":7971,"Ġsamych":7972,"Ġsamol":7973,"Ġsamymi":7974,"poki":7975,"poty":7976,"popular":7977,"poÅĽrednio":7978,"eksu":7979,"boje":7980,"boga":7981,"bogat":7982,"alt":7983,"alnie":7984,"alny":7985,"alaÅĤa":7986,"alaÅĤy":7987,"Ġwszystkimi":7988,"szczÄħc":7989,"ĠÅ¼yra":7990,"ĠÅ¼ywi":7991,"ĠÅ¼yczyÅĤ":7992,"ĠÅ¼yrafy":7993,"ĠÅ¼yletek":7994,"uth":7995,"utÄħ":7996,"utkie":7997,"Ġrasy":7998,"ĠradÄĻ":7999}