{
  "version": "1.0",
  "truncation": null,
  "padding": null,
  "added_tokens": [
    {
      "id": 0,
      "content": "[PAD]",
      "single_word": false,
      "lstrip": false,
      "rstrip": false,
      "normalized": false,
      "special": true
    },
    {
      "id": 1,
      "content": "[UNK]",
      "single_word": false,
      "lstrip": false,
      "rstrip": false,
      "normalized": false,
      "special": true
    },
    {
      "id": 2,
      "content": "[CLS]",
      "single_word": false,
      "lstrip": false,
      "rstrip": false,
      "normalized": false,
      "special": true
    },
    {
      "id": 3,
      "content": "[SEP]",
      "single_word": false,
      "lstrip": false,
      "rstrip": false,
      "normalized": false,
      "special": true
    },
    {
      "id": 4,
      "content": "[MASK]",
      "single_word": false,
      "lstrip": false,
      "rstrip": false,
      "normalized": false,
      "special": true
    }
  ],
  "normalizer": null,
  "pre_tokenizer": {
    "type": "ByteLevel",
    "add_prefix_space": false,
    "trim_offsets": true,
    "use_regex": true
  },
  "post_processor": {
    "type": "ByteLevel",
    "add_prefix_space": true,
    "trim_offsets": false,
    "use_regex": true
  },
  "decoder": {
    "type": "ByteLevel",
    "add_prefix_space": true,
    "trim_offsets": true,
    "use_regex": true
  },
  "model": {
    "type": "BPE",
    "dropout": null,
    "unk_token": null,
    "continuing_subword_prefix": null,
    "end_of_word_suffix": null,
    "fuse_unk": false,
    "byte_fallback": false,
    "vocab": {
      "[PAD]": 0,
      "[UNK]": 1,
      "[CLS]": 2,
      "[SEP]": 3,
      "[MASK]": 4,
      "!": 5,
      "\"": 6,
      "&": 7,
      "'": 8,
      "(": 9,
      ")": 10,
      "*": 11,
      ",": 12,
      "-": 13,
      ".": 14,
      "0": 15,
      "1": 16,
      "2": 17,
      "3": 18,
      "4": 19,
      "5": 20,
      "6": 21,
      "7": 22,
      "8": 23,
      "9": 24,
      ":": 25,
      ";": 26,
      "?": 27,
      "A": 28,
      "B": 29,
      "C": 30,
      "D": 31,
      "E": 32,
      "F": 33,
      "G": 34,
      "H": 35,
      "I": 36,
      "J": 37,
      "K": 38,
      "L": 39,
      "M": 40,
      "N": 41,
      "O": 42,
      "P": 43,
      "R": 44,
      "S": 45,
      "T": 46,
      "U": 47,
      "V": 48,
      "W": 49,
      "Y": 50,
      "Z": 51,
      "a": 52,
      "b": 53,
      "c": 54,
      "d": 55,
      "e": 56,
      "f": 57,
      "g": 58,
      "h": 59,
      "i": 60,
      "j": 61,
      "k": 62,
      "l": 63,
      "m": 64,
      "n": 65,
      "o": 66,
      "p": 67,
      "q": 68,
      "r": 69,
      "s": 70,
      "t": 71,
      "u": 72,
      "v": 73,
      "w": 74,
      "x": 75,
      "y": 76,
      "z": 77,
      "©": 78,
      "«": 79,
      "³": 80,
      "¶": 81,
      "¹": 82,
      "º": 83,
      "»": 84,
      "¼": 85,
      "Â": 86,
      "Ã": 87,
      "Ä": 88,
      "Å": 89,
      "â": 90,
      "Ċ": 91,
      "č": 92,
      "Ġ": 93,
      "Ģ": 94,
      "ģ": 95,
      "Ĥ": 96,
      "Ħ": 97,
      "ħ": 98,
      "ĩ": 99,
      "ĵ": 100,
      "Ļ": 101,
      "ļ": 102,
      "Ľ": 103,
      "ľ": 104,
      "ÅĤ": 105,
      "ie": 106,
      "čĊ": 107,
      "Ġp": 108,
      "Ġs": 109,
      "Ġw": 110,
      "ÄĻ": 111,
      "Ġn": 112,
      "Ġz": 113,
      "aÅĤ": 114,
      "rz": 115,
      "Äħ": 116,
      "Å¼": 117,
      "cz": 118,
      "Ġt": 119,
      "ow": 120,
      "ch": 121,
      "Ã³": 122,
      "Ġd": 123,
      "Ġm": 124,
      "ÅĽ": 125,
      "Ġo": 126,
      "Ġk": 127,
      "go": 128,
      "iÄĻ": 129,
      "ra": 130,
      "dz": 131,
      "Ġi": 132,
      "ni": 133,
      "sz": 134,
      "Ġna": 135,
      "Ġj": 136,
      "li": 137,
      "st": 138,
      "Ġb": 139,
      "nie": 140,
      "Ġpo": 141,
      "ro": 142,
      "rze": 143,
      "il": 144,
      "âĢ": 145,
      "ĠsiÄĻ": 146,
      "Äĩ": 147,
      "le": 148,
      "ego": 149,
      "âĢĵ": 150,
      "ci": 151,
      "ny": 152,
      "ak": 153,
      "yÅĤ": 154,
      "am": 155,
      "Ġnie": 156,
      "ĠB": 157,
      "ar": 158,
      "em": 159,
      "Ġdo": 160,
      "ĠÅ¼": 161,
      "ill": 162,
      "ka": 163,
      "illy": 164,
      "rzy": 165,
      "na": 166,
      "Ã³w": 167,
      "dzi": 168,
      "Ġza": 169,
      "er": 170,
      "wi": 171,
      "Ġje": 172,
      "ne": 173,
      "Ġ*": 174,
      "at": 175,
      "ki": 176,
      "ĠBilly": 177,
      "ĠÅ¼e": 178,
      "czy": 179,
      "Ġwy": 180,
      "ÅĤa": 181,
      "Ġst": 182,
      "cie": 183,
      "ko": 184,
      "Ġg": 185,
      "Ġprze": 186,
      "Ġu": 187,
      "ÅĤo": 188,
      "Äħc": 189,
      "dy": 190,
      "ĠP": 191,
      "Ġa": 192,
      "da": 193,
      "owie": 194,
      "or": 195,
      "dzie": 196,
      "ĠW": 197,
      "ĠâĢĵ": 198,
      "wa": 199,
      "ĠbyÅĤ": 200,
      "no": 201,
      "re": 202,
      "la": 203,
      "mi": 204,
      "Ġkt": 205,
      "en": 206,
      "ry": 207,
      "Ġto": 208,
      "by": 209,
      "Ġc": 210,
      "Ġjak": 211,
      "wo": 212,
      "ĠktÃ³": 213,
      "Ġod": 214,
      "Ġcz": 215,
      "ĠN": 216,
      "ÅĦ": 217,
      "owa": 218,
      "ku": 219,
      "ĠT": 220,
      "Ġko": 221,
      "aÅĤa": 222,
      "ĠÅĽ": 223,
      "Ġprzy": 224,
      "nÄħ": 225,
      "ty": 226,
      "si": 227,
      "Ġro": 228,
      "kie": 229,
      "cy": 230,
      "Ġmi": 231,
      "ad": 232,
      "ta": 233,
      "ej": 234,
      "Ġty": 235,
      "nia": 236,
      "ÅĤy": 237,
      "as": 238,
      "Ġsp": 239,
      "ob": 240,
      "ĠZ": 241,
      "jÄħc": 242,
      "wie": 243,
      "ÅĽci": 244,
      "dziaÅĤ": 245,
      "ru": 246,
      "Ġch": 247,
      "szy": 248,
      "Ġl": 249,
      "ami": 250,
      "Ġsz": 251,
      "Ġni": 252,
      "ĠD": 253,
      "Ġgo": 254,
      "aÅĤy": 255,
      "raz": 256,
      "Ġwo": 257,
      "cze": 258,
      "mie": 259,
      "ĠM": 260,
      "an": 261,
      "Ġpod": 262,
      "Ġpowie": 263,
      "Ġtak": 264,
      "Ġmu": 265,
      "nych": 266,
      "je": 267,
      "ce": 268,
      "ĠC": 269,
      "Ġte": 270,
      "ÅĤu": 271,
      "bi": 272,
      "om": 273,
      "Ġdz": 274,
      "sta": 275,
      "te": 276,
      "ja": 277,
      "ĠJ": 278,
      "ĠS": 279,
      "Ġwie": 280,
      "rÃ³": 281,
      "ale": 282,
      "Åº": 283,
      "owy": 284,
      "im": 285,
      "Ġmo": 286,
      "sze": 287,
      "ĠA": 288,
      "owi": 289,
      "Ġco": 290,
      "ĠO": 291,
      "ot": 292,
      "ĠNie": 293,
      "os": 294,
      "Ġwoj": 295,
      "Billy": 296,
      "Ġf": 297,
      "Ġjest": 298,
      "ĠK": 299,
      "aÅĤo": 300,
      "Ġob": 301,
      "nym": 302,
      "pi": 303,
      "Ġroz": 304,
      "on": 305,
      "ca": 306,
      "ery": 307,
      "Ġma": 308,
      "zy": 309,
      "ÅĽÄĩ": 310,
      "rza": 311,
      "ĠktÃ³ry": 312,
      "ma": 313,
      "my": 314,
      "Ġjego": 315,
      "ary": 316,
      "jÄħ": 317,
      "ĠByÅĤ": 318,
      "nego": 319,
      "Ġmie": 320,
      "Ġwi": 321,
      "Ġswo": 322,
      "lu": 323,
      "Ġdzie": 324,
      "bie": 325,
      "Ġka": 326,
      "Ġjed": 327,
      "Å¼e": 328,
      "ĠbyÅĤo": 329,
      "od": 330,
      "nej": 331,
      "wy": 332,
      "Ġze": 333,
      "tu": 334,
      "Ġlu": 335,
      "ĠR": 336,
      "nÄħÅĤ": 337,
      "nÄĻ": 338,
      "rÄĻ": 339,
      "Å¼y": 340,
      "Ġczas": 341,
      "Ġpa": 342,
      "gi": 343,
      "ĠI": 344,
      "eryka": 345,
      "pie": 346,
      "iedy": 347,
      "owaÅĤ": 348,
      "ga": 349,
      "Ġzna": 350,
      "cj": 351,
      "um": 352,
      "Ġwszy": 353,
      "ĠpowiedziaÅĤ": 354,
      "Ġin": 355,
      "Ġpra": 356,
      "Äħd": 357,
      "Ġczy": 358,
      "Ġsob": 359,
      "waÅĤ": 360,
      "Ġop": 361,
      "tem": 362,
      "Ġpie": 363,
      "gl": 364,
      "siÄħ": 365,
      "ĠL": 366,
      "za": 367,
      "ĠNa": 368,
      "Ġtym": 369,
      "lo": 370,
      "ez": 371,
      "mu": 372,
      "uÅ¼": 373,
      "Ã³ÅĤ": 374,
      "darza": 375,
      "kÄĻ": 376,
      "niej": 377,
      "Ġprzez": 378,
      "Ġdla": 379,
      "kiem": 380,
      "gr": 381,
      "czyÅĤ": 382,
      "ali": 383,
      "kÃ³w": 384,
      "Ġrze": 385,
      "ÅĽcie": 386,
      "kÄħ": 387,
      "Ġle": 388,
      "szcze": 389,
      "lko": 390,
      "to": 391,
      "Ġsam": 392,
      "Ġby": 393,
      "ĠPil": 394,
      "po": 395,
      "pu": 396,
      "Ġsobie": 397,
      "grim": 398,
      "ek": 399,
      "taÅĤ": 400,
      "ĠmiaÅĤ": 401,
      "ĠPilgrim": 402,
      "bo": 403,
      "Ġtego": 404,
      "al": 405,
      "ral": 406,
      "Ġale": 407,
      "Ġwszyst": 408,
      "szcz": 409,
      "âĢľ": 410,
      "ĠÅ¼y": 411,
      "eÅĤ": 412,
      "ski": 413,
      "aÄĩ": 414,
      "ut": 415,
      "Ã³wi": 416,
      "jÄĻ": 417,
      "Ġra": 418,
      "wiat": 419,
      "Ġh": 420,
      "Ġlat": 421,
      "az": 422,
      "Ġku": 423,
      "Ġpi": 424,
      "Ġpro": 425,
      "Ġich": 426,
      "ĠjuÅ¼": 427,
      "Ġtylko": 428,
      "ew": 429,
      "Ġpu": 430,
      "ciÄħ": 431,
      "et": 432,
      "eary": 433,
      "fi": 434,
      "ych": 435,
      "Ġtam": 436,
      "owo": 437,
      "ÅĽli": 438,
      "Ġno": 439,
      "owiedziaÅĤ": 440,
      "ba": 441,
      "meryka": 442,
      "Ġprzed": 443,
      "ĠbÄĻ": 444,
      "gie": 445,
      "owej": 446,
      "cho": 447,
      "ĠksiÄħ": 448,
      "cÃ³w": 449,
      "ost": 450,
      "Ġkiedy": 451,
      "Ġjeszcze": 452,
      "ĠktÃ³re": 453,
      "ĠDre": 454,
      "ach": 455,
      "fam": 456,
      "dze": 457,
      "dzo": 458,
      "kt": 459,
      "niu": 460,
      "Ġbar": 461,
      "cia": 462,
      "emu": 463,
      "Ġzap": 464,
      "dÅĤ": 465,
      "gÅĤ": 466,
      "Ġr": 467,
      "sty": 468,
      "dziÅĤ": 469,
      "ajÄħc": 470,
      "ony": 471,
      "ĠPo": 472,
      "ĠZdarza": 473,
      "ĠteÅ¼": 474,
      "ralfam": 475,
      "ralfamad": 476,
      "aj": 477,
      "ĠpiÄĻ": 478,
      "ĠwiÄĻ": 479,
      "raw": 480,
      "Ġnaj": 481,
      "ĠbyÅĤa": 482,
      "ralfamador": 483,
      "du": 484,
      "mo": 485,
      "ĠâĢľ": 486,
      "ĠwÅĤa": 487,
      "Ġdale": 488,
      "ĠWeary": 489,
      "gli": 490,
      "su": 491,
      "sy": 492,
      "skie": 493,
      "cja": 494,
      "Ġli": 495,
      "Ġraz": 496,
      "ĠmÃ³wi": 497,
      "nik": 498,
      "Ġspy": 499,
      "ĠAmeryka": 500,
      "gu": 501,
      "niÄĻ": 502,
      "oÅĤ": 503,
      "Ġci": 504,
      "Ġgdy": 505,
      "Ġpow": 506,
      "Ġwz": 507,
      "rzyÅĤ": 508,
      "Ġmy": 509,
      "Ġaby": 510,
      "waÅ¼": 511,
      "sa": 512,
      "Ġsk": 513,
      "Ġstra": 514,
      "ĠgÅĤ": 515,
      "wÃ³": 516,
      "zu": 517,
      "ied": 518,
      "owÄħ": 519,
      "Ġot": 520,
      "Ġbo": 521,
      "ĠÅĽmie": 522,
      "siÄĻ": 523,
      "ĠE": 524,
      "ĠG": 525,
      "Ġbu": 526,
      "Ġpoz": 527,
      "Ġodp": 528,
      "ĠJe": 529,
      "dÄĻ": 530,
      "el": 531,
      "Ġten": 532,
      "Ġbez": 533,
      "ĠÅ¼eby": 534,
      "Ġsto": 535,
      "ĠTralfamador": 536,
      "ĠÅĽwiat": 537,
      "cji": 538,
      "ter": 539,
      "Ġzd": 540,
      "ÅĽnie": 541,
      "ÅĽmy": 542,
      "sto": 543,
      "iaÅĤ": 544,
      "ono": 545,
      "sk": 546,
      "ĠsÄħ": 547,
      "Ġwa": 548,
      "Ġsta": 549,
      "Ġgdzie": 550,
      "ent": 551,
      "bu": 552,
      "Ġws": 553,
      "ĠmÃ³": 554,
      "Ġnich": 555,
      "Ġteraz": 556,
      "nÃ³w": 557,
      "Ġta": 558,
      "stu": 559,
      "rod": 560,
      "Ġani": 561,
      "ĠTo": 562,
      "ĠZie": 563,
      "szedÅĤ": 564,
      "Ġzam": 565,
      "Ġdwa": 566,
      "owaÄĩ": 567,
      "ĠTro": 568,
      "oba": 569,
      "ĠbÄĻdzie": 570,
      "ĠksiÄħÅ¼": 571,
      "one": 572,
      "pa": 573,
      "scy": 574,
      "war": 575,
      "Ġ1": 576,
      "Ġcie": 577,
      "czÄĻ": 578,
      "cznie": 579,
      "Ġog": 580,
      "mia": 581,
      "ĠktÃ³rzy": 582,
      "kami": 583,
      "ĠÅĤ": 584,
      "czÄħ": 585,
      "Ġdru": 586,
      "stÄĻ": 587,
      "niem": 588,
      "ĠbyÅĤy": 589,
      "Ġdalej": 590,
      "ii": 591,
      "wil": 592,
      "zna": 593,
      "noÅĽci": 594,
      "ĠCzy": 595,
      "rÃ³Å¼": 596,
      "Ġludzi": 597,
      "Ġpier": 598,
      "glÄħd": 599,
      "cu": 600,
      "ich": 601,
      "osta": 602,
      "sie": 603,
      "Ġsy": 604,
      "Ġnad": 605,
      "erby": 606,
      "kÅĤa": 607,
      "Ġe": 608,
      "Ġsie": 609,
      "rzwi": 610,
      "ĠWy": 611,
      "ĠrÃ³w": 612,
      "ĠwiÄĻc": 613,
      "ĠÅ": 614,
      "Ġre": 615,
      "Ġpan": 616,
      "Ġzro": 617,
      "Ã³Å¼": 618,
      "lan": 619,
      "ĠCh": 620,
      "Ġbardzo": 621,
      "dni": 622,
      "zi": 623,
      "ĠrÄĻ": 624,
      "Ġdrzwi": 625,
      "Ġim": 626,
      "dÄħ": 627,
      "ia": 628,
      "rÄħ": 629,
      "ĠU": 630,
      "Ġzoba": 631,
      "rzu": 632,
      "Ġba": 633,
      "Ġnim": 634,
      "ĠkaÅ¼": 635,
      "js": 636,
      "owego": 637,
      "Ġja": 638,
      "owych": 639,
      "bra": 640,
      "Ġam": 641,
      "ĠsÅĤy": 642,
      "Ġpotem": 643,
      "Ġjej": 644,
      "alen": 645,
      "Ġrzeczy": 646,
      "gra": 647,
      "rowa": 648,
      "sÅĤ": 649,
      "czas": 650,
      "Ġtu": 651,
      "nieÅ¼": 652,
      "Ġroku": 653,
      "ĠchÅĤo": 654,
      "ĠDerby": 655,
      "ĠmoÅ¼": 656,
      "Ġmiejs": 657,
      "Ġameryka": 658,
      "ol": 659,
      "ska": 660,
      "sko": 661,
      "ÅĤowie": 662,
      "Ġtrzy": 663,
      "nymi": 664,
      "Ġjakie": 665,
      "Ġspo": 666,
      "Ġsze": 667,
      "Ġbyli": 668,
      "Ġ19": 669,
      "ÅĤem": 670,
      "Ġzn": 671,
      "rzaÅĤ": 672,
      "ÅĽl": 673,
      "Ġoczy": 674,
      "dzy": 675,
      "strze": 676,
      "ciu": 677,
      "wali": 678,
      "ĠcaÅĤ": 679,
      "Ġwojnie": 680,
      "Ġdzieci": 681,
      "ĠamerykaÅĦ": 682,
      "gdy": 683,
      "nu": 684,
      "py": 685,
      "Ġru": 686,
      "owe": 687,
      "Ġdob": 688,
      "ater": 689,
      "ĠgÅĤo": 690,
      "ĠWalen": 691,
      "laz": 692,
      "Ġkon": 693,
      "Ġcho": 694,
      "otem": 695,
      "Ġczasu": 696,
      "fo": 697,
      "gar": 698,
      "Å¼yÅĤ": 699,
      "Ġtrze": 700,
      "Ã³r": 701,
      "Ġmnie": 702,
      "Ġok": 703,
      "Ġbi": 704,
      "ard": 705,
      "Ġchwil": 706,
      "Ġznaj": 707,
      "glÄħ": 708,
      "ĠspytaÅĤ": 709,
      "zie": 710,
      "sza": 711,
      "Ġpot": 712,
      "kich": 713,
      "daÄĩ": 714,
      "ĠczÅĤowie": 715,
      "Ġwojny": 716,
      "ĠÅĽmier": 717,
      "ĠmÃ³gÅĤ": 718,
      "ĠrÃ³wnieÅ¼": 719,
      "do": 720,
      "knÄħÅĤ": 721,
      "pad": 722,
      "ĠF": 723,
      "szka": 724,
      "Ġniego": 725,
      "wiÅĽcie": 726,
      "Ġmusi": 727,
      "Ġdzi": 728,
      "ĠAn": 729,
      "Ġczasie": 730,
      "Ġwago": 731,
      "de": 732,
      "gÄĻ": 733,
      "Ġzie": 734,
      "Ġtej": 735,
      "Ġbom": 736,
      "ciaÅĤ": 737,
      "ĠÅ¼oÅĤ": 738,
      "czyÄĩ": 739,
      "ord": 740,
      "ĠTe": 741,
      "ĠZa": 742,
      "ĠNiem": 743,
      "ĠRos": 744,
      "bli": 745,
      "praw": 746,
      "ym": 747,
      "ĠH": 748,
      "Ġpowi": 749,
      "Ġzost": 750,
      "nicy": 751,
      "wiÄħ": 752,
      "Ġal": 753,
      "ĠWie": 754,
      "ĠÅĽrod": 755,
      "Ġpraw": 756,
      "skich": 757,
      "azza": 758,
      "ciÄħg": 759,
      "ĠodpowiedziaÅĤ": 760,
      "eÅĽ": 761,
      "ona": 762,
      "aÅĤem": 763,
      "czego": 764,
      "owu": 765,
      "ĠdÅĤu": 766,
      "leg": 767,
      "are": 768,
      "Ġdomu": 769,
      "wiad": 770,
      "Ġkto": 771,
      "ĠktÃ³ra": 772,
      "ĠÅĽwie": 773,
      "Ġmia": 774,
      "miec": 775,
      "owym": 776,
      "ĠcoÅĽ": 777,
      "ĠgdyÅ¼": 778,
      "Ġpierw": 779,
      "era": 780,
      "ju": 781,
      "mar": 782,
      "wiÄĻ": 783,
      "ĠsÅĤu": 784,
      "Ġwe": 785,
      "Ã³b": 786,
      "Ġdro": 787,
      "Ġkil": 788,
      "ĠjeÅĦ": 789,
      "Ġjako": 790,
      "siÅĤ": 791,
      "ĠMiaÅĤ": 792,
      "rÃ³d": 793,
      "ĠÅ¼oÅĤnie": 794,
      "jcie": 795,
      "wego": 796,
      "ÅĤÄħ": 797,
      "rzÄħ": 798,
      "liÅĽmy": 799,
      "ĠÅ¼ad": 800,
      "dziaÅĤa": 801,
      "Ġzabi": 802,
      "Ġwojen": 803,
      "pis": 804,
      "ĠwÅĤaÅĽnie": 805,
      "ĠTrout": 806,
      "Ġzrobi": 807,
      "czu": 808,
      "Ġmat": 809,
      "lium": 810,
      "Ġbied": 811,
      "ĠgÃ³": 812,
      "stawi": 813,
      "ĠJego": 814,
      "mawi": 815,
      "ĠRo": 816,
      "umfo": 817,
      "ĠLazza": 818,
      "Ġalbo": 819,
      "..": 820,
      "den": 821,
      "ist": 822,
      "nak": 823,
      "pom": 824,
      "Ġon": 825,
      "ĠPrze": 826,
      "ory": 827,
      "Ġnic": 828,
      "Ġwiel": 829,
      "Åºnie": 830,
      "Ġobo": 831,
      "Ġswoje": 832,
      "ĠIlium": 833,
      "ĠpiÄĻk": 834,
      "ĠÅĤÃ³Å¼": 835,
      "ĠAngli": 836,
      "Ġbomb": 837,
      "es": 838,
      "ĠÅĤa": 839,
      "cha": 840,
      "szaÅĤ": 841,
      "ĠjÄħ": 842,
      "ciÅĤ": 843,
      "ere": 844,
      "dali": 845,
      "ÅĦst": 846,
      "owali": 847,
      "ĠkoÅĦ": 848,
      "Ġspos": 849,
      "Ġjeden": 850,
      "stÄĻp": 851,
      "cami": 852,
      "ÄĻÅ¼": 853,
      "chu": 854,
      "Ġda": 855,
      "iÄĻdzy": 856,
      "aki": 857,
      "kach": 858,
      "Ġzaw": 859,
      "Ġstar": 860,
      "dziej": 861,
      "waÄĩ": 862,
      "ĠTak": 863,
      "ĠwidziaÅĤ": 864,
      "cjÄĻ": 865,
      "ĠmoÅ¼na": 866,
      "Hare": 867,
      "trz": 868,
      "ĠpÃ³": 869,
      "Ġzosta": 870,
      "rzÄĻ": 871,
      "Ġtem": 872,
      "ĠzaÅĽ": 873,
      "dal": 874,
      "dzieÄĩ": 875,
      "resz": 876,
      "Ġjaki": 877,
      "siÄħc": 878,
      "wier": 879,
      "Åºni": 880,
      "ĠktÃ³rych": 881,
      "ĠByÅĤa": 882,
      "Ġwszyscy": 883,
      "Ġwszystko": 884,
      "ĠDrezna": 885,
      "glÄħdaÅĤ": 886,
      "ĠsposÃ³b": 887,
      "Na": 888,
      "dnie": 889,
      "so": 890,
      "taÅĤa": 891,
      "wet": 892,
      "ĠrÃ³Å¼": 893,
      "ĠpÅĤa": 894,
      "ĠsÅĤ": 895,
      "Ġzda": 896,
      "Å¼aÅĤ": 897,
      "ÅĽrÃ³d": 898,
      "rafi": 899,
      "Ġniemiec": 900,
      "Ġzas": 901,
      "Ġczu": 902,
      "Ġkobie": 903,
      "tych": 904,
      "ĠchciaÅĤ": 905,
      "ĠpowiedziaÅĤa": 906,
      "Ġswoj": 907,
      "Ġswoich": 908,
      "Ġjednak": 909,
      "nÄĻÅĤa": 910,
      "Ġinnych": 911,
      "ĠbyÄĩ": 912,
      "Ġwszystkie": 913,
      "Ġpowro": 914,
      "Ġtemat": 915,
      ".\"": 916,
      "lÄĻ": 917,
      "sku": 918,
      "Ġpy": 919,
      "Ġkie": 920,
      "ran": 921,
      "szli": 922,
      "Ġpop": 923,
      "ron": 924,
      "kaz": 925,
      "kim": 926,
      "Ġstan": 927,
      "ĠPrzy": 928,
      "ĠmiaÅĤa": 929,
      "Ġnigdy": 930,
      "tedy": 931,
      "ĠTralfamadorczy": 932,
      "ĠZiemi": 933,
      "ĠkaÅ¼dy": 934,
      "ĠchÅĤop": 935,
      "umfoord": 936,
      "00": 937,
      "Zdarza": 938,
      "br": 939,
      "in": 940,
      "naÅĤ": 941,
      "uk": 942,
      "waÅĤa": 943,
      "Ġsi": 944,
      "owaÅĤa": 945,
      "Ġdnia": 946,
      "Ġmar": 947,
      "ĠmÅĤo": 948,
      "Ġwyda": 949,
      "dzieli": 950,
      "Ġtych": 951,
      "ĠCo": 952,
      "Åºniej": 953,
      "ĠKiedy": 954,
      "Ġmieli": 955,
      "wÃ³j": 956,
      "ĠTralfamadorii": 957,
      "Ġznowu": 958,
      "ĠWalencja": 959,
      "prawdÄĻ": 960,
      "peÅĤ": 961,
      "tom": 962,
      "yli": 963,
      "ze": 964,
      "Ġar": 965,
      "Ġoraz": 966,
      "nic": 967,
      "Ġnaz": 968,
      "Ġpom": 969,
      "dziÄĩ": 970,
      "aty": 971,
      "ĠstaÅĤ": 972,
      "Ġstary": 973,
      "Ġgaz": 974,
      "oru": 975,
      "ĠWszy": 976,
      "Ġczter": 977,
      "ĠNi": 978,
      "nÄħÄĩ": 979,
      "tek": 980,
      "Ġfa": 981,
      "ĠKa": 982,
      "ĠktÃ³rym": 983,
      "Ġznalaz": 984,
      "Ġpierwszy": 985,
      "Ġzawsze": 986,
      "pe": 987,
      "tÄħ": 988,
      "tnie": 989,
      "wÄħ": 990,
      "Ġwtedy": 991,
      "ĠzÅĤo": 992,
      "ĠtÄĻ": 993,
      "Ã³sÅĤ": 994,
      "ĠmaÅĤ": 995,
      "nikÃ³w": 996,
      "stÄħ": 997,
      "ilgo": 998,
      "amy": 999,
      "Ġniez": 1000,
      "wili": 1001,
      "dzieÅĽci": 1002,
      "Ġjakby": 1003,
      "Ġprzyja": 1004,
      "mieni": 1005,
      "ĠCz": 1006,
      "Ġtele": 1007,
      "Ġjedno": 1008,
      "Ġhist": 1009,
      "ewater": 1010,
      "ĠDreÅºnie": 1011,
      "Ġstanie": 1012,
      "kÅĤad": 1013,
      "Ġsiebie": 1014,
      "ĠzobaczyÅĤ": 1015,
      "ĠTeraz": 1016,
      "ĠLazzaro": 1017,
      "Ġpowrotem": 1018,
      "jem": 1019,
      "pra": 1020,
      "sÅĤy": 1021,
      "trzy": 1022,
      "wu": 1023,
      "Ġla": 1024,
      "Ġswego": 1025,
      "czne": 1026,
      "Ġtwa": 1027,
      "Ã³d": 1028,
      "raÅ¼": 1029,
      "niÃ³sÅĤ": 1030,
      "Ġnas": 1031,
      "staÅĤ": 1032,
      "stat": 1033,
      "amp": 1034,
      "ĠBo": 1035,
      "noÅĽÄĩ": 1036,
      "ĠciÄĻ": 1037,
      "owania": 1038,
      "Ġmimo": 1039,
      "ĠOd": 1040,
      "onta": 1041,
      "Ġdziec": 1042,
      "Ġludzie": 1043,
      "Ġczym": 1044,
      "ĠktÃ³rej": 1045,
      "bÄĻ": 1046,
      "bel": 1047,
      "ksz": 1048,
      "we": 1049,
      "Ġak": 1050,
      "ÅĤk": 1051,
      "ÅĤÄĻ": 1052,
      "ĠsÅĤo": 1053,
      "ĠswÃ³j": 1054,
      "cza": 1055,
      "Ġdu": 1056,
      "Ġkrzy": 1057,
      "Ġnadal": 1058,
      "Ġnawet": 1059,
      "ĠBar": 1060,
      "ĠktÃ³rÄħ": 1061,
      "ĠczÄĻ": 1062,
      "Ġkole": 1063,
      "Ġrobi": 1064,
      "cyj": 1065,
      "Ġszy": 1066,
      "aÅĤych": 1067,
      "Ġmusz": 1068,
      "ĠJa": 1069,
      "Ġmieszka": 1070,
      "Ġswoim": 1071,
      "pomi": 1072,
      "ĠAmerykanÃ³w": 1073,
      "Ġdrugie": 1074,
      "Ġkilka": 1075,
      "ĠjeÅĦcÃ³w": 1076,
      "ilgore": 1077,
      "\".": 1078,
      "sem": 1079,
      "ur": 1080,
      "uta": 1081,
      "zd": 1082,
      "Ġzu": 1083,
      "ĠtÅĤu": 1084,
      "Ġkar": 1085,
      "dzÄħc": 1086,
      "nicz": 1087,
      "szu": 1088,
      "szÅĤo": 1089,
      "ste": 1090,
      "Ġpoko": 1091,
      "czyn": 1092,
      "woj": 1093,
      "ĠktÃ³r": 1094,
      "Ġkol": 1095,
      "Ġtakie": 1096,
      "pita": 1097,
      "ĠswojÄħ": 1098,
      "Ġwszystkich": 1099,
      "dzenia": 1100,
      "skiej": 1101,
      "skiego": 1102,
      "Ġotwo": 1103,
      "ĠEd": 1104,
      "ĠÅ»": 1105,
      "Ġznajd": 1106,
      "Kiedy": 1107,
      "tÃ³w": 1108,
      "ud": 1109,
      "waÅĤy": 1110,
      "czki": 1111,
      "Ġtru": 1112,
      "chaÅĤ": 1113,
      "Ã³j": 1114,
      "szego": 1115,
      "niec": 1116,
      "rom": 1117,
      "ciw": 1118,
      "Ġdom": 1119,
      "nach": 1120,
      "Ġzach": 1121,
      "Ġgru": 1122,
      "ĠPotem": 1123,
      "Ġcy": 1124,
      "ĠcaÅĤy": 1125,
      "Ġrodzi": 1126,
      "jÄħcy": 1127,
      "jÄħcych": 1128,
      "Ġszko": 1129,
      "ĠMi": 1130,
      "Ġpodob": 1131,
      "ĠmoÅ¼e": 1132,
      "Ġfil": 1133,
      "ĠKilgore": 1134,
      "ĠpiÄĻÄĩ": 1135,
      "ĠAmerykanie": 1136,
      "ĠczÅĤowiek": 1137,
      "ĠzostaÅĤ": 1138,
      "ĠpÃ³Åºniej": 1139,
      "reszcie": 1140,
      "ĠznalazÅĤ": 1141,
      "ada": 1142,
      "gÄħ": 1143,
      "jm": 1144,
      "nem": 1145,
      "nka": 1146,
      "un": 1147,
      "Ġsko": 1148,
      "Ġsku": 1149,
      "ĠwyÅĤ": 1150,
      "ĠwÅĽrÃ³d": 1151,
      "Ġzak": 1152,
      "Å¼a": 1153,
      "Ġtale": 1154,
      "owÄĻ": 1155,
      "Ġde": 1156,
      "Ġkra": 1157,
      "nika": 1158,
      "Ġnau": 1159,
      "Ġbra": 1160,
      "niewaÅ¼": 1161,
      "Ġpok": 1162,
      "ĠByli": 1163,
      "ciel": 1164,
      "ĠjakÄħ": 1165,
      "Ġcze": 1166,
      "Ġczego": 1167,
      "ĠÅĽre": 1168,
      "tycz": 1169,
      "adaÅĤ": 1170,
      "ĠSt": 1171,
      "rÃ³t": 1172,
      "ĠKo": 1173,
      "Å¼ek": 1174,
      "ĠRumfoord": 1175,
      "Ġprac": 1176,
      "ĠsobÄħ": 1177,
      "Ġsamo": 1178,
      "ĠÅ¼ycie": 1179,
      "Ġnocy": 1180,
      "ĠmyÅĽl": 1181,
      "ĠTrouta": 1182,
      "jciec": 1183,
      "Ġswojej": 1184,
      "Ġpyta": 1185,
      "Ġhistor": 1186,
      "Je": 1187,
      "dÅº": 1188,
      "io": 1189,
      "maÅĤ": 1190,
      "onych": 1191,
      "oÅĽÄĩ": 1192,
      "rg": 1193,
      "zno": 1194,
      "Ġsen": 1195,
      "Ġwar": 1196,
      "Ġwraz": 1197,
      "Ġzgi": 1198,
      "chod": 1199,
      "ĠdÃ³ÅĤ": 1200,
      "Ġmom": 1201,
      "ĠmÄĻÅ¼": 1202,
      "ÅĽmie": 1203,
      "arÄĻ": 1204,
      "Ġgra": 1205,
      "ĠPa": 1206,
      "ĠaÅ¼": 1207,
      "Ġczar": 1208,
      "ĠÅĽcia": 1209,
      "szych": 1210,
      "Ġgodzi": 1211,
      "ĠwiedziaÅĤ": 1212,
      "ĠOp": 1213,
      "ĠmajÄħ": 1214,
      "Ġprawie": 1215,
      "siÄħt": 1216,
      "ĠmÃ³wiÅĤ": 1217,
      "ĠspytaÅĤa": 1218,
      "wÃ³r": 1219,
      "warte": 1220,
      "ĠÅļ": 1221,
      "ĠsÅĤyn": 1222,
      "olot": 1223,
      "glÄħda": 1224,
      "ĠRosewater": 1225,
      "ĠpÅĤaszcz": 1226,
      "ampbel": 1227,
      "ÅĤkow": 1228,
      "cÄħ": 1229,
      "gle": 1230,
      "jrzaÅĤ": 1231,
      "lar": 1232,
      "nami": 1233,
      "sÅĤu": 1234,
      "ĠV": 1235,
      "ÅĤam": 1236,
      "ĠpÅĤ": 1237,
      "Ġpre": 1238,
      "ĠpÃ³ÅĤ": 1239,
      "Ġsch": 1240,
      "ĠwrÃ³": 1241,
      "Ġzwy": 1242,
      "Ã³l": 1243,
      "ĠmaÅĤy": 1244,
      "ĠmiÄĻdzy": 1245,
      "rabi": 1246,
      "Ġist": 1247,
      "nim": 1248,
      "niÅĤ": 1249,
      "szÄĻ": 1250,
      "szczy": 1251,
      "Ġbro": 1252,
      "rop": 1253,
      "ily": 1254,
      "Ġdop": 1255,
      "ĠuwaÅ¼": 1256,
      "Äħcy": 1257,
      "miaÅĤ": 1258,
      "ryty": 1259,
      "Ġchwili": 1260,
      "ĠniÅ¼": 1261,
      "ĠDo": 1262,
      "ĠMa": 1263,
      "tel": 1264,
      "Ġwiecz": 1265,
      "nÄĻli": 1266,
      "jÄĻcie": 1267,
      "Ġprostu": 1268,
      "Ġnoc": 1269,
      "ĠbÄĻdÄħ": 1270,
      "ĠksiÄħÅ¼ek": 1271,
      "ĠmyÅĽli": 1272,
      "land": 1273,
      "Ġdobrze": 1274,
      "ĠgÅĤos": 1275,
      "ĠmusiaÅĤ": 1276,
      "wiadow": 1277,
      "marÅĤ": 1278,
      "pomni": 1279,
      "ByÅĤ": 1280,
      "Prze": 1281,
      "Potem": 1282,
      "Za": 1283,
      "caÅĤ": 1284,
      "daÅĤ": 1285,
      "dniej": 1286,
      "kro": 1287,
      "miÄĻ": 1288,
      "pli": 1289,
      "raÅĤ": 1290,
      "wÄĻ": 1291,
      "Ġat": 1292,
      "ĠÅĤy": 1293,
      "Ġpat": 1294,
      "ĠpeÅĤ": 1295,
      "Ġpew": 1296,
      "Ġwp": 1297,
      "Ġtro": 1298,
      "Ġdni": 1299,
      "Ġdwie": 1300,
      "Ġmil": 1301,
      "ÅĽle": 1302,
      "Ġos": 1303,
      "ĠksiÄĻ": 1304,
      "Ġnale": 1305,
      "ĠpoÅĽ": 1306,
      "Ġpomy": 1307,
      "ĠponiewaÅ¼": 1308,
      "rzem": 1309,
      "Ġniej": 1310,
      "ata": 1311,
      "ĠBillym": 1312,
      "Ġwypad": 1313,
      "kona": 1314,
      "ÅĤoÅĽci": 1315,
      "Ġan": 1316,
      "byt": 1317,
      "ĠcÃ³r": 1318,
      "woli": 1319,
      "ÅĦczyÅĤ": 1320,
      "owany": 1321,
      "kiego": 1322,
      "tach": 1323,
      "Ġspod": 1324,
      "rusz": 1325,
      "Ġlot": 1326,
      "ĠDla": 1327,
      "ĠMo": 1328,
      "ĠMonta": 1329,
      "ĠJak": 1330,
      "ĠSz": 1331,
      "Ġwojsk": 1332,
      "Ġobu": 1333,
      "Ġopty": 1334,
      "ĠLe": 1335,
      "bara": 1336,
      "ĠkiedyÅĽ": 1337,
      "ĠDrezno": 1338,
      "stycz": 1339,
      "ĠstraÅ¼": 1340,
      "ĠksiÄħÅ¼ki": 1341,
      "ĠksiÄħÅ¼kÄĻ": 1342,
      "stÄĻpu": 1343,
      "ĠNiemcy": 1344,
      "Ġpowin": 1345,
      "ĠdÅĤugo": 1346,
      "ĠjakiÅĽ": 1347,
      "Ġkobiety": 1348,
      "Ġdrugiej": 1349,
      "ĠktÃ³rego": 1350,
      "ble": 1351,
      "ck": 1352,
      "cem": 1353,
      "iÅĤ": 1354,
      "pot": 1355,
      "tk": 1356,
      "ura": 1357,
      "Ġpla": 1358,
      "ĠprÃ³": 1359,
      "Ġnum": 1360,
      "Ġzw": 1361,
      "Å¼d": 1362,
      "chali": 1363,
      "Ġme": 1364,
      "Ġmas": 1365,
      "Ġojciec": 1366,
      "dzÄħ": 1367,
      "niÄħ": 1368,
      "ĠnaprawdÄĻ": 1369,
      "rzeÄĩ": 1370,
      "ĠBer": 1371,
      "ĠjeÅĽli": 1372,
      "nek": 1373,
      "Ġwyob": 1374,
      "ĠPowie": 1375,
      "Ġaut": 1376,
      "orem": 1377,
      "ĠWi": 1378,
      "owarzy": 1379,
      "owane": 1380,
      "Ġspra": 1381,
      "jÄħce": 1382,
      "Ġszere": 1383,
      "ĠDzi": 1384,
      "Ġwol": 1385,
      "Ġpowiet": 1386,
      "ĠtakÅ¼e": 1387,
      "Å¼yÄĩ": 1388,
      "piero": 1389,
      "lone": 1390,
      "Ġlata": 1391,
      "ĠlatajÄħc": 1392,
      "Ġpis": 1393,
      "dzenie": 1394,
      "Ġodpowie": 1395,
      "ĠÅĽwiatowej": 1396,
      "ĠZiemia": 1397,
      "miast": 1398,
      "ĠzobaczyÄĩ": 1399,
      "ĠszeÅĽÄĩ": 1400,
      "ĠÅĽrodka": 1401,
      "ĠÅ¼oÅĤnierzy": 1402,
      "Ġmatka": 1403,
      "ĠgÃ³rÄĻ": 1404,
      "Ġbombard": 1405,
      "ĠsÅĤowa": 1406,
      "peÅĤnie": 1407,
      "stÄħpi": 1408,
      "ĠBoÅ¼e": 1409,
      "ĠBarbara": 1410,
      "ĠEdgar": 1411,
      "Nie": 1412,
      "Po": 1413,
      "kÅĤ": 1414,
      "omi": 1415,
      "row": 1416,
      "tej": 1417,
      "waÅĤo": 1418,
      "Ġpowo": 1419,
      "ĠwszedÅĤ": 1420,
      "Ġzwie": 1421,
      "Ġzwiadow": 1422,
      "Ġtemu": 1423,
      "chni": 1424,
      "chaÄĩ": 1425,
      "Ã³z": 1426,
      "Ġdwu": 1427,
      "Ġoj": 1428,
      "Ġostat": 1429,
      "Ġkro": 1430,
      "Ġkre": 1431,
      "szÅĤa": 1432,
      "Ġnapis": 1433,
      "ciÅĤa": 1434,
      "amie": 1435,
      "amiÄĻ": 1436,
      "dzia": 1437,
      "Ġjedy": 1438,
      "Ġwyp": 1439,
      "Ġwyso": 1440,
      "Ġprzeciw": 1441,
      "ĠPod": 1442,
      "dziesiÄħt": 1443,
      "ĠÅĽpie": 1444,
      "tym": 1445,
      "ĠtysiÄħc": 1446,
      "ÅĽciÄħ": 1447,
      "Ġszpita": 1448,
      "ĠniÄħ": 1449,
      "czenie": 1450,
      "mienia": 1451,
      "ĠCampbel": 1452,
      "tera": 1453,
      "ĠJor": 1454,
      "ĠByÅĤo": 1455,
      "Ġdziew": 1456,
      "Ġjednym": 1457,
      "Ġpal": 1458,
      "Ġznale": 1459,
      "Ġczyta": 1460,
      "ĠLily": 1461,
      "ezu": 1462,
      "Ġdlaczego": 1463,
      "Ġsamolot": 1464,
      "skim": 1465,
      "Ġprzedstawi": 1466,
      "chodzi": 1467,
      "ĠwÅĤas": 1468,
      "ĠgÅĤowÄħ": 1469,
      "ĠJest": 1470,
      "Ġwsp": 1471,
      "ĠzamknÄħÅĤ": 1472,
      "ĠkaÅ¼d": 1473,
      "czasem": 1474,
      "Ġmiejsca": 1475,
      "Ġ194": 1476,
      "Ġ196": 1477,
      "ĠamerykaÅĦskich": 1478,
      "Ġtrzech": 1479,
      "ĠchwilÄĻ": 1480,
      "ĠÅĽmierci": 1481,
      "...": 1482,
      "ĠÅĤÃ³Å¼ka": 1483,
      "ĠkaÅ¼dym": 1484,
      "ĠotworzyÅĤ": 1485,
      "ĠszkoÅĤy": 1486,
      "Ġmomen": 1487,
      "ĠmÄĻÅ¼czy": 1488,
      "dno": 1489,
      "ec": 1490,
      "ech": 1491,
      "kaÅĤ": 1492,
      "kowi": 1493,
      "laÅĤ": 1494,
      "lat": 1495,
      "nd": 1496,
      "ng": 1497,
      "Ġpas": 1498,
      "Ġwra": 1499,
      "Ġzmieni": 1500,
      "Ġtor": 1501,
      "owaÅĤy": 1502,
      "ĠdÅº": 1503,
      "ĠduÅ¼": 1504,
      "Ġokie": 1505,
      "got": 1506,
      "szÄħ": 1507,
      "stan": 1508,
      "Ġpomo": 1509,
      "lep": 1510,
      "let": 1511,
      "aka": 1512,
      "aku": 1513,
      "yÅĤa": 1514,
      "erm": 1515,
      "ĠwyjÄħ": 1516,
      "Ġstro": 1517,
      "Ġup": 1518,
      "orma": 1519,
      "bym": 1520,
      "nÄħtrz": 1521,
      "siad": 1522,
      "kiej": 1523,
      "Ġnikt": 1524,
      "Ġmusie": 1525,
      "ĠJezu": 1526,
      "Ġwiele": 1527,
      "Ġwielu": 1528,
      "Ġmog": 1529,
      "Ġmogli": 1530,
      "szech": 1531,
      "owiadaÅĤ": 1532,
      "Ġfron": 1533,
      "Ġrozmawi": 1534,
      "onu": 1535,
      "ĠByÅĤy": 1536,
      "biera": 1537,
      "Ġpara": 1538,
      "Ġinnymi": 1539,
      "Ġopu": 1540,
      "Ġrzecz": 1541,
      "puszcz": 1542,
      "ĠÅ¼ycia": 1543,
      "ĠpuÅĤkow": 1544,
      "ĠgÅĤowÄĻ": 1545,
      "Ġbara": 1546,
      "ĠsÅĤyszaÅĤ": 1547,
      "ĠrzeczywiÅĽcie": 1548,
      "Ġpotrafi": 1549,
      "ymczasem": 1550,
      "Ġmiasta": 1551,
      "Ġwojennych": 1552,
      "Ġbiedny": 1553,
      "ÅĦstwa": 1554,
      "Ġstanowi": 1555,
      "ĠTralfamadorczycy": 1556,
      "Ġface": 1557,
      "ĠzupeÅĤnie": 1558,
      "Ġnumer": 1559,
      "Przy": 1560,
      "ecja": 1561,
      "oo": 1562,
      "onej": 1563,
      "rÃ³w": 1564,
      "rga": 1565,
      "sp": 1566,
      "skÄħ": 1567,
      "tego": 1568,
      "twa": 1569,
      "ĠÅº": 1570,
      "ÅĤÃ³": 1571,
      "Ġprowa": 1572,
      "Ġsre": 1573,
      "ĠwÄħ": 1574,
      "Ġwreszcie": 1575,
      "Ġzami": 1576,
      "rzÄħd": 1577,
      "czo": 1578,
      "czni": 1579,
      "cznym": 1580,
      "Ġtra": 1581,
      "ĠtyÅĤ": 1582,
      "owaÅĤo": 1583,
      "Ġdrze": 1584,
      "Ġdre": 1585,
      "Ġofi": 1586,
      "niÄĩ": 1587,
      "szej": 1588,
      "ĠjÄĻ": 1589,
      "stra": 1590,
      "stro": 1591,
      "ĠpoczÄħ": 1592,
      "Ġniep": 1593,
      "Ġniewie": 1594,
      "arÅĤ": 1595,
      "kazy": 1596,
      "Ġzale": 1597,
      "ĠzaczÄħ": 1598,
      "nety": 1599,
      "ĠwyglÄħd": 1600,
      "Ġgro": 1601,
      "Ġgwi": 1602,
      "ĠgÅĤu": 1603,
      "ĠprzeniÃ³sÅĤ": 1604,
      "Ġuk": 1605,
      "Ġuro": 1606,
      "ÅĤoÅ¼yÅĤ": 1607,
      "Ġce": 1608,
      "ÅĦce": 1609,
      "ĠkoÅĤo": 1610,
      "Ġprzypomi": 1611,
      "taj": 1612,
      "Ġtyle": 1613,
      "Ġsprze": 1614,
      "Ġspecja": 1615,
      "jÄħcÄħ": 1616,
      "ĠMie": 1617,
      "ĠMÃ³wi": 1618,
      "biÅĤ": 1619,
      "ÅºÄĩ": 1620,
      "ĠwojnÄĻ": 1621,
      "onego": 1622,
      "ĠRob": 1623,
      "Ġpani": 1624,
      "gara": 1625,
      "ĠrzeÅºni": 1626,
      "ĠleÅ¼": 1627,
      "jÄĻcia": 1628,
      "Ġkur": 1629,
      "Ġpud": 1630,
      "chodziÅĤ": 1631,
      "Ġbardziej": 1632,
      "Ġrazem": 1633,
      "Ġbuty": 1634,
      "Ġpozost": 1635,
      "entÃ³w": 1636,
      "ĠdwadzieÅĽci": 1637,
      "Ġzrozu": 1638,
      "ĠoczywiÅĽcie": 1639,
      "ĠÅĽmierÄĩ": 1640,
      "Ġprawdzi": 1641,
      "ĠktoÅĽ": 1642,
      "ĠÅ¼adnego": 1643,
      "wierdziÅĤ": 1644,
      "000": 1645,
      "Ġnazwi": 1646,
      "ĠWszyscy": 1647,
      "Ġpokoju": 1648,
      "ĠznajdowaÅĤ": 1649,
      "ĠDlaczego": 1650,
      "ĠdwadzieÅĽcia": 1651,
      "Ameryka": 1652,
      "Weary": 1653,
      "dwie": 1654,
      "gn": 1655,
      "gÅĤo": 1656,
      "ha": 1657,
      "hater": 1658,
      "ner": 1659,
      "nku": 1660,
      "ogra": 1661,
      "spo": 1662,
      "tor": 1663,
      "tery": 1664,
      "uf": 1665,
      "wem": 1666,
      "Ġ000": 1667,
      "ĠpÅĤy": 1668,
      "Ġwk": 1669,
      "Ġwal": 1670,
      "ĠwÅĤÄħ": 1671,
      "ĠzwiÄħ": 1672,
      "Ġdy": 1673,
      "ĠdÅĤo": 1674,
      "Ġmor": 1675,
      "Ġoch": 1676,
      "Ġoto": 1677,
      "Ġkr": 1678,
      "sztaÅĤ": 1679,
      "ĠnastÄĻpu": 1680,
      "Ġjas": 1681,
      "Ġpor": 1682,
      "rzeb": 1683,
      "lem": 1684,
      "lekt": 1685,
      "akÃ³w": 1686,
      "Ġstal": 1687,
      "cieli": 1688,
      "Ġprzesta": 1689,
      "Ġprzekona": 1690,
      "ĠumarÅĤ": 1691,
      "ĠPowiedziaÅĤ": 1692,
      "Ġcztery": 1693,
      "ĠÅĽnie": 1694,
      "ÅĤych": 1695,
      "Ġspraw": 1696,
      "Ġchor": 1697,
      "ĠDz": 1698,
      "ĠMy": 1699,
      "Ġdzwo": 1700,
      "ĠAle": 1701,
      "Ġfi": 1702,
      "Ġobie": 1703,
      "Ġrozleg": 1704,
      "Ġmaszy": 1705,
      "ĠjednÄħ": 1706,
      "wych": 1707,
      "Ġinter": 1708,
      "Ġopowie": 1709,
      "giel": 1710,
      "ajem": 1711,
      "sunÄħÅĤ": 1712,
      "ĠgÅĤÄĻ": 1713,
      "siÄĻcy": 1714,
      "Ġpozosta": 1715,
      "ĠJeÅĽli": 1716,
      "pani": 1717,
      "Ġmiejsce": 1718,
      "ĠjakieÅĽ": 1719,
      "ĠcaÅĤkowi": 1720,
      "Ġrusz": 1721,
      "ĠFran": 1722,
      "ĠRoland": 1723,
      "ĠkoÅĦca": 1724,
      "ĠmaÅĤe": 1725,
      "Ġtwarz": 1726,
      "ĠciÄĻÅ¼": 1727,
      "kszoÅĽÄĩ": 1728,
      "Ġangiel": 1729,
      "Ġszereg": 1730,
      "ĠpudeÅĤ": 1731,
      "Gdzie": 1732,
      "bar": 1733,
      "co": 1734,
      "cen": 1735,
      "com": 1736,
      "dli": 1737,
      "dÅĤu": 1738,
      "fie": 1739,
      "fon": 1740,
      "gze": 1741,
      "ho": 1742,
      "ji": 1743,
      "kli": 1744,
      "lny": 1745,
      "nk": 1746,
      "nki": 1747,
      "ser": 1748,
      "sÅĤa": 1749,
      "Ġen": 1750,
      "Ġser": 1751,
      "ĠsÅĤa": 1752,
      "ĠwÄĻ": 1753,
      "Ġzim": 1754,
      "Ġzbyt": 1755,
      "rzmi": 1756,
      "czaÅĤ": 1757,
      "cznÄħ": 1758,
      "cznego": 1759,
      "czony": 1760,
      "Ġtowarzy": 1761,
      "ownie": 1762,
      "che": 1763,
      "Ã³p": 1764,
      "Ġdowie": 1765,
      "ĠdwÃ³": 1766,
      "ĠoÅĽ": 1767,
      "Ġoko": 1768,
      "Ġokaz": 1769,
      "ĠksztaÅĤ": 1770,
      "nin": 1771,
      "Ġnazy": 1772,
      "Ġnagle": 1773,
      "Ġbr": 1774,
      "nien": 1775,
      "Ġpoma": 1776,
      "Ġdot": 1777,
      "Ġdosko": 1778,
      "rzytom": 1779,
      "ĠzaczÄĻ": 1780,
      "Ġzatrzy": 1781,
      "ato": 1782,
      "czywiÅĽcie": 1783,
      "Ġwyj": 1784,
      "Ġwyja": 1785,
      "ĠwyglÄħdaÅĤ": 1786,
      "Ġstu": 1787,
      "ĠstÃ³p": 1788,
      "Ġprzewo": 1789,
      "Ġum": 1790,
      "ĠudziaÅĤ": 1791,
      "Ġumie": 1792,
      "ĠuÅ¼y": 1793,
      "Äħce": 1794,
      "ĠPie": 1795,
      "dziestu": 1796,
      "ĠWil": 1797,
      "wanie": 1798,
      "wano": 1799,
      "nosi": 1800,
      "Ġodwie": 1801,
      "ĠkoÅĤ": 1802,
      "Ġkomu": 1803,
      "Ġkopu": 1804,
      "Ġkoniec": 1805,
      "ĠÅĽci": 1806,
      "ĠmiaÅĤy": 1807,
      "tal": 1808,
      "jÄħco": 1809,
      "ÅĽciu": 1810,
      "ÅĽciÄĩ": 1811,
      "Ġlo": 1812,
      "Ġlod": 1813,
      "Ġszk": 1814,
      "Ġszcze": 1815,
      "Ġsztu": 1816,
      "ĠszczÄĻ": 1817,
      "ĠDzie": 1818,
      "czenia": 1819,
      "ĠMary": 1820,
      "ĠpodrÃ³Å¼": 1821,
      "Ġpodczas": 1822,
      "ĠpowiedzieÄĩ": 1823,
      "Ġwiem": 1824,
      "rÃ³j": 1825,
      "ĠOn": 1826,
      "otogra": 1827,
      "ĠjesteÅĽ": 1828,
      "Ġobec": 1829,
      "Ġwido": 1830,
      "ĠdzieÅĦ": 1831,
      "Ġlub": 1832,
      "Ġludz": 1833,
      "ĠpowiedziaÅĤem": 1834,
      "Ġinnego": 1835,
      "Ġpracy": 1836,
      "ĠNaj": 1837,
      "lonych": 1838,
      "czyÅĤa": 1839,
      "Ġleka": 1840,
      "ĠleÅ¼aÅĤ": 1841,
      "ciÄħgu": 1842,
      "ĠwÅĤaÅĽci": 1843,
      "Ġgdyby": 1844,
      "rzyÅĤo": 1845,
      "Ġbohater": 1846,
      "Ġbudy": 1847,
      "ĠrÄĻkami": 1848,
      "Ġmiejscu": 1849,
      "Ġspoko": 1850,
      "Ġznajdu": 1851,
      "Ġziem": 1852,
      "ĠÅĽrodku": 1853,
      "ciÄħgnÄħÅĤ": 1854,
      "ĠÅĽwiecie": 1855,
      "Ġmiasto": 1856,
      "pomnie": 1857,
      "Ġarty": 1858,
      "nicÄĻ": 1859,
      "ĠWszyst": 1860,
      "ĠNigdy": 1861,
      "Ġkolej": 1862,
      "Ġmuszkie": 1863,
      "ĠÅĽredniej": 1864,
      "Ġhistorii": 1865,
      "ĠÅĽcianie": 1866,
      "Ġmusieli": 1867,
      "Ġsrebr": 1868,
      "ĠzaczÄħÅĤ": 1869,
      "Ġchorych": 1870,
      "bardziej": 1871,
      "gzeku": 1872,
      "ĠdwÃ³ch": 1873,
      "\",": 1874,
      "Pod": 1875,
      "ara": 1876,
      "ciÄĻ": 1877,
      "cer": 1878,
      "cje": 1879,
      "cjÄħ": 1880,
      "dem": 1881,
      "gna": 1882,
      "gry": 1883,
      "it": 1884,
      "iÄħ": 1885,
      "kle": 1886,
      "kniÄĻ": 1887,
      "lnym": 1888,
      "pÄĻ": 1889,
      "sÃ³w": 1890,
      "skiem": 1891,
      "tÄĻ": 1892,
      "tpli": 1893,
      "ul": 1894,
      "yba": 1895,
      "Ġry": 1896,
      "Ġpry": 1897,
      "Ġplu": 1898,
      "ĠpamiÄĻ": 1899,
      "ĠwÅĤÃ³": 1900,
      "Ġzb": 1901,
      "Ġzni": 1902,
      "czka": 1903,
      "Ġtrafi": 1904,
      "Ġtajem": 1905,
      "chy": 1906,
      "chem": 1907,
      "Ã³le": 1908,
      "Ã³ki": 1909,
      "Ġdwo": 1910,
      "ĠmiÄĻ": 1911,
      "ĠmÃ³w": 1912,
      "goÅĽ": 1913,
      "godnie": 1914,
      "rag": 1915,
      "rach": 1916,
      "dzÄĻ": 1917,
      "Ġiz": 1918,
      "niki": 1919,
      "ĠnastÄĻp": 1920,
      "Ġnatych": 1921,
      "star": 1922,
      "Ġbli": 1923,
      "ĠbiaÅĤ": 1924,
      "ĠbÅĤÄĻ": 1925,
      "Ġpole": 1926,
      "Ġpoza": 1927,
      "ĠposzedÅĤ": 1928,
      "ĠporzÄħd": 1929,
      "akie": 1930,
      "Ġniebo": 1931,
      "Ġdoro": 1932,
      "naÅĽcie": 1933,
      "erwo": 1934,
      "wia": 1935,
      "wiÅĤ": 1936,
      "atu": 1937,
      "czym": 1938,
      "Ġwyko": 1939,
      "Ġstrze": 1940,
      "Ġga": 1941,
      "ĠurzÄħ": 1942,
      "Äħcych": 1943,
      "daw": 1944,
      "Ġcud": 1945,
      "Ġodleg": 1946,
      "ÅĦcz": 1947,
      "ÅĦczy": 1948,
      "owaniu": 1949,
      "kujÄĻ": 1950,
      "ĠTy": 1951,
      "Ġmili": 1952,
      "asem": 1953,
      "Ġspot": 1954,
      "jÄħcego": 1955,
      "szym": 1956,
      "Ġniko": 1957,
      "Ġgor": 1958,
      "ĠMu": 1959,
      "anta": 1960,
      "Ġpowierz": 1961,
      "maÄĩ": 1962,
      "ĠmiesiÄħc": 1963,
      "Ġzew": 1964,
      "Ġzebra": 1965,
      "Ġpacj": 1966,
      "owaÅĤem": 1967,
      "ĠNaprawdÄĻ": 1968,
      "szczÄĻ": 1969,
      "ĠÅ¼yje": 1970,
      "ĠÅ¼yciu": 1971,
      "eÅĤnia": 1972,
      "ciÄħga": 1973,
      "stym": 1974,
      "ĠciaÅĤa": 1975,
      "Ġpowta": 1976,
      "ĠwziÄĻ": 1977,
      "ĠÅĽmiesz": 1978,
      "ĠGdzie": 1979,
      "ĠÅĽwiatÅĤa": 1980,
      "Ġciem": 1981,
      "Ġciebie": 1982,
      "Ġogrom": 1983,
      "Ġegzeku": 1984,
      "ĠwiÄĻcej": 1985,
      "Ġtutaj": 1986,
      "Ġkonwoj": 1987,
      "Ġchwila": 1988,
      "glÄħdaÄĩ": 1989,
      "glÄħdali": 1990,
      "ĠczÅĤowieka": 1991,
      "Ġwagonu": 1992,
      "bliÅ¼": 1993,
      "Ġpowinien": 1994,
      "Ġdrodze": 1995,
      "Ġkilku": 1996,
      "ĠzrobiÅĤ": 1997,
      "ĠgÃ³ry": 1998,
      "ĠRoz": 1999,
      "Ġobok": 2000,
      "ĠAnglik": 2001,
      "ĠkoÅĦcu": 2002,
      "Ġkierow": 2003,
      "ĠmÅĤody": 2004,
      "Ġczterech": 2005,
      "Ġprzyjaci": 2006,
      "ĠwyÅĤÄħ": 2007,
      "Ġnauczy": 2008,
      "rÃ³tce": 2009,
      "ĠKop": 2010,
      "wartet": 2011,
      "larÃ³w": 2012,
      "ĠdopÃ³ki": 2013,
      "pomniaÅĤ": 2014,
      "ĠksiÄĻÅ¼y": 2015,
      "Ġmomencie": 2016,
      "ĠdÅºwiÄĻ": 2017,
      "ĠpuÅĤkownik": 2018,
      "ĠRober": 2019,
      "Ġintere": 2020,
      "Ġnatychmiast": 2021,
      "Cz": 2022,
      "Te": 2023,
      "bÄħ": 2024,
      "cale": 2025,
      "gaÅĤ": 2026,
      "gni": 2027,
      "gro": 2028,
      "lni": 2029,
      "lne": 2030,
      "oÅĤa": 2031,
      "prowa": 2032,
      "sied": 2033,
      "trze": 2034,
      "two": 2035,
      "tku": 2036,
      "wor": 2037,
      "ĠY": 2038,
      "ĠÅĤo": 2039,
      "Ġple": 2040,
      "Ġsu": 2041,
      "Ġzbu": 2042,
      "Ġzmia": 2043,
      "cznej": 2044,
      "Ġtwo": 2045,
      "chÄĻ": 2046,
      "chniÄĻ": 2047,
      "Ã³g": 2048,
      "Ġdia": 2049,
      "Ġmam": 2050,
      "Ġoku": 2051,
      "Ġosie": 2052,
      "Ġostrze": 2053,
      "Ġkli": 2054,
      "Ġkrze": 2055,
      "Ġkru": 2056,
      "ĠkÃ³ÅĤ": 2057,
      "ĠkrÃ³t": 2058,
      "rap": 2059,
      "dziÄĻ": 2060,
      "nios": 2061,
      "szty": 2062,
      "Ġnap": 2063,
      "Ġnadzie": 2064,
      "stwa": 2065,
      "stwo": 2066,
      "stru": 2067,
      "ĠpoÅĤu": 2068,
      "rzenia": 2069,
      "ĠdostaÅĤ": 2070,
      "kali": 2071,
      "kaÄĩ": 2072,
      "dziÅĤa": 2073,
      "Ġzaba": 2074,
      "kit": 2075,
      "Ġwyraz": 2076,
      "ĠstaÅĤa": 2077,
      "ĠstaÅĤy": 2078,
      "Ġstos": 2079,
      "ĠstaÅĤo": 2080,
      "Ġstud": 2081,
      "Ġprzeczy": 2082,
      "Ġuz": 2083,
      "Ġubra": 2084,
      "ĠuÅĽmie": 2085,
      "ĠPan": 2086,
      "ĠPal": 2087,
      "dach": 2088,
      "ĠWszech": 2089,
      "nogra": 2090,
      "res": 2091,
      "enci": 2092,
      "Ġoddali": 2093,
      "ÅĦcy": 2094,
      "ÅĦca": 2095,
      "owano": 2096,
      "ĠkoÅĽci": 2097,
      "Ġprzyby": 2098,
      "Ġprzytom": 2099,
      "ĠprzykÅĤad": 2100,
      "Ġrob": 2101,
      "Ġrok": 2102,
      "Ġtytu": 2103,
      "Ġszczy": 2104,
      "Ġnimi": 2105,
      "ĠDob": 2106,
      "czeÅĽnie": 2107,
      "Ġtakim": 2108,
      "jeÅ¼d": 2109,
      "ĠJej": 2110,
      "rÃ³ciÅĤ": 2111,
      "Åºli": 2112,
      "osen": 2113,
      "Ġfor": 2114,
      "Ġjestem": 2115,
      "Ġobej": 2116,
      "Ġobraz": 2117,
      "Ġrozm": 2118,
      "ont": 2119,
      "jÄħÅĤ": 2120,
      "ĠmieÄĩ": 2121,
      "ĠdziesiÄĻ": 2122,
      "ĠkawaÅĤ": 2123,
      "ĠIch": 2124,
      "piej": 2125,
      "Ġznacznie": 2126,
      "ĠopowiedziaÅĤ": 2127,
      "Ġpiecho": 2128,
      "glÄĻ": 2129,
      "lony": 2130,
      "Ġsamym": 2131,
      "alni": 2132,
      "Ġpiosen": 2133,
      "dzono": 2134,
      "ĠmÃ³wiÄħc": 2135,
      "Ġstrasz": 2136,
      "ĠgÅĤowy": 2137,
      "Ġstop": 2138,
      "Ġzdr": 2139,
      "Ġwspani": 2140,
      "ĠogÃ³le": 2141,
      "noÅĽciÄħ": 2142,
      "ĠchÅĤopie": 2143,
      "ĠWalencji": 2144,
      "ĠchoÄĩ": 2145,
      "Ġtrzeba": 2146,
      "Ġokru": 2147,
      "Ġbit": 2148,
      "Ġwagonie": 2149,
      "rzÄħs": 2150,
      "ĠÅĤÃ³Å¼ku": 2151,
      "ĠTralfamadorczykÃ³w": 2152,
      "ĠZiemian": 2153,
      "ĠpomiÄĻdzy": 2154,
      "ĠKaÅ¼": 2155,
      "Ġdziecko": 2156,
      "ĠczymÅĽ": 2157,
      "ĠkrzyÅ¼": 2158,
      "Ġtakiego": 2159,
      "Ġfilm": 2160,
      "Ġskutek": 2161,
      "ĠtrochÄĻ": 2162,
      "Ġosob": 2163,
      "ĠoptykÃ³w": 2164,
      "ĠprÃ³b": 2165,
      "ĠtysiÄħce": 2166,
      "ĠCampbell": 2167,
      "ĠwspÃ³ÅĤ": 2168,
      "ĠkaÅ¼dego": 2169,
      "ĠmÄĻÅ¼czyz": 2170,
      "ĠduÅ¼o": 2171,
      "ĠmogÅĤa": 2172,
      "ĠÅºle": 2173,
      "Ġzaledwie": 2174,
      "ĠwkrÃ³tce": 2175,
      "lektry": 2176,
      "ĠzewnÄħtrz": 2177,
      "ĠKopciu": 2178,
      "Ma": 2179,
      "byÅĤ": 2180,
      "cÄĻ": 2181,
      "dny": 2182,
      "daÅĤo": 2183,
      "dnik": 2184,
      "dha": 2185,
      "ewie": 2186,
      "gÃ³l": 2187,
      "iru": 2188,
      "lami": 2189,
      "mem": 2190,
      "mos": 2191,
      "nnie": 2192,
      "pat": 2193,
      "sÄĻ": 2194,
      "ton": 2195,
      "ÅĤe": 2196,
      "ÅĤowa": 2197,
      "ĠpÅĤo": 2198,
      "Ġpowa": 2199,
      "Ġpsa": 2200,
      "Ġso": 2201,
      "Ġsami": 2202,
      "Ġsied": 2203,
      "Å¼nie": 2204,
      "Å¼ony": 2205,
      "czny": 2206,
      "czach": 2207,
      "Ġtrz": 2208,
      "chen": 2209,
      "Ġmniej": 2210,
      "ÅĽni": 2211,
      "ÅĽwiat": 2212,
      "Ġoni": 2213,
      "Ġogie": 2214,
      "Ġorga": 2215,
      "ĠoglÄħdaÄĩ": 2216,
      "iÄĻkujÄĻ": 2217,
      "dzaÅĤ": 2218,
      "Ġile": 2219,
      "niami": 2220,
      "szt": 2221,
      "Ġnam": 2222,
      "stej": 2223,
      "Ġbla": 2224,
      "Ġbrzmi": 2225,
      "Ġpog": 2226,
      "Ġpoli": 2227,
      "Ġporo": 2228,
      "ciÄĩ": 2229,
      "Ġnieu": 2230,
      "Ġniewoli": 2231,
      "ĠBi": 2232,
      "ĠdolarÃ³w": 2233,
      "ĠÅ¼ona": 2234,
      "rzysta": 2235,
      "nale": 2236,
      "nawi": 2237,
      "najm": 2238,
      "Ã³wczas": 2239,
      "Ġzad": 2240,
      "Ġzastrze": 2241,
      "wiz": 2242,
      "wiÅĤa": 2243,
      "kimi": 2244,
      "ĠÅ¼elaz": 2245,
      "Ġwyb": 2246,
      "Ġstali": 2247,
      "kol": 2248,
      "komo": 2249,
      "Ġuli": 2250,
      "ĠusiÅĤ": 2251,
      "ĠusÅĤy": 2252,
      "ore": 2253,
      "orda": 2254,
      "wania": 2255,
      "ĠbyÅĤem": 2256,
      "nom": 2257,
      "miu": 2258,
      "enty": 2259,
      "Ġcu": 2260,
      "woÅĽci": 2261,
      "owanych": 2262,
      "Ġkop": 2263,
      "Ġkonie": 2264,
      "ĠÅĽlu": 2265,
      "Ġprzypad": 2266,
      "ĠprzyszÅĤo": 2267,
      "siaÅĤ": 2268,
      "Ġrodz": 2269,
      "ĠmiÅĤo": 2270,
      "ĠtysiÄĻcy": 2271,
      "jÄħcej": 2272,
      "ÅĽciÅĤ": 2273,
      "Ġchle": 2274,
      "Ġchcieli": 2275,
      "Ġsza": 2276,
      "czek": 2277,
      "czes": 2278,
      "ĠMer": 2279,
      "Ġtaki": 2280,
      "ÅĤuch": 2281,
      "omo": 2282,
      "ĠSta": 2283,
      "ĠmogÄĻ": 2284,
      "szek": 2285,
      "ĠOczywiÅĽcie": 2286,
      "Ġfun": 2287,
      "Ġfotogra": 2288,
      "Ġrozpo": 2289,
      "Ġrozstrze": 2290,
      "onwoj": 2291,
      "cach": 2292,
      "Å¼eli": 2293,
      "Å¼enia": 2294,
      "tua": 2295,
      "nÄĻÅĤy": 2296,
      "gach": 2297,
      "ĠNazy": 2298,
      "Ġlek": 2299,
      "toÅĽ": 2300,
      "Ġrad": 2301,
      "Ġrami": 2302,
      "Ġkuchni": 2303,
      "Ġpisa": 2304,
      "Ġpunk": 2305,
      "Ġnajlep": 2306,
      "syj": 2307,
      "Ġlist": 2308,
      "Ġrazu": 2309,
      "Ġrazie": 2310,
      "ĠciaÅĤo": 2311,
      "rzyÅĤa": 2312,
      "ĠskÅĤa": 2313,
      "Ġstrachu": 2314,
      "ĠÅĽwiata": 2315,
      "ĠgdzieÅĽ": 2316,
      "Ġsytua": 2317,
      "ĠrÄĻkÄĻ": 2318,
      "ĠUwaÅ¼": 2319,
      "ĠcaÅĤÄħ": 2320,
      "Ġchodzi": 2321,
      "Ġziemi": 2322,
      "ĠNiemcÃ³w": 2323,
      "ĠHm": 2324,
      "ĠzostaÅĤy": 2325,
      "ĠdrogÄĻ": 2326,
      "ĠLazzara": 2327,
      "Ġoboz": 2328,
      "ĠzasnÄħÅĤ": 2329,
      "Ġswojego": 2330,
      "ĠchÅĤopcy": 2331,
      "ĠNikt": 2332,
      "raÅ¼ajÄħc": 2333,
      "Ġkolor": 2334,
      "ĠÅ»e": 2335,
      "Ġpodobnie": 2336,
      "ĠÅĽredni": 2337,
      "ĠPaul": 2338,
      "ĠpÅĤci": 2339,
      "rytyj": 2340,
      "Ġlotni": 2341,
      "ĠMontana": 2342,
      "Ġpowinni": 2343,
      "Ġplane": 2344,
      "Ġpowietrzu": 2345,
      "ĠZiemianie": 2346,
      "ĠszeÅĽÄĩdziesiÄħt": 2347,
      "ĠJorku": 2348,
      "latego": 2349,
      "stanowi": 2350,
      "Ġfront": 2351,
      "Ġochot": 2352,
      "ĠgÅĤÄĻbo": 2353,
      "ĠcaÅĤkowicie": 2354,
      "GdzieÅĽ": 2355,
      "ĠWildha": 2356,
      "ĠÅĽcian": 2357,
      "ĠwÅĤÃ³czÄĻ": 2358,
      "ĠbÅĤÄĻkit": 2359,
      "akiem": 2360,
      "ĠodlegÅĤoÅĽci": 2361,
      "ĠprzyjaciÃ³ÅĤ": 2362,
      "Ġinteresu": 2363,
      "Ġosiem": 2364,
      "nografi": 2365,
      "ewien": 2366,
      "irurg": 2367,
      "ĠogieÅĦ": 2368,
      "najmniej": 2369,
      "Ġrozstrzela": 2370,
      "ĠWildhack": 2371,
      "Ro": 2372,
      "Rumfoord": 2373,
      "Tro": 2374,
      "Tak": 2375,
      "ast": 2376,
      "bro": 2377,
      "bry": 2378,
      "bez": 2379,
      "cka": 2380,
      "dne": 2381,
      "fa": 2382,
      "fy": 2383,
      "gnÄħÅĤ": 2384,
      "ggie": 2385,
      "jnie": 2386,
      "jan": 2387,
      "kÃ³ÅĤ": 2388,
      "mÃ³w": 2389,
      "ment": 2390,
      "nny": 2391,
      "nkiem": 2392,
      "ndu": 2393,
      "onÄħ": 2394,
      "ota": 2395,
      "ote": 2396,
      "rÅ¼": 2397,
      "rem": 2398,
      "rwy": 2399,
      "son": 2400,
      "tn": 2401,
      "tÄħd": 2402,
      "uwaÅ¼": 2403,
      "wni": 2404,
      "zÄĻ": 2405,
      "zaÅĤ": 2406,
      "zja": 2407,
      "zmawi": 2408,
      "Ġek": 2409,
      "Ġrzu": 2410,
      "ÅĤaÅĤ": 2411,
      "ĠpÄĻ": 2412,
      "Ġpil": 2413,
      "Ġpar": 2414,
      "ĠparÄĻ": 2415,
      "Ġwro": 2416,
      "Ġwsze": 2417,
      "Ġwcale": 2418,
      "Ġnowo": 2419,
      "ĠnÃ³Å¼": 2420,
      "ĠzÄĻ": 2421,
      "Ġzgo": 2422,
      "ĠzaÅĤo": 2423,
      "Ġzmar": 2424,
      "Å¼Ã³ÅĤ": 2425,
      "czaj": 2426,
      "cznoÅĽci": 2427,
      "ĠtwierdziÅĤ": 2428,
      "ĠtrÃ³j": 2429,
      "owcÃ³w": 2430,
      "Ġdow": 2431,
      "Ġona": 2432,
      "Ġocze": 2433,
      "Ġkry": 2434,
      "ĠkrÄĻ": 2435,
      "Ġkata": 2436,
      "Ġkwartet": 2437,
      "iÄĻki": 2438,
      "raca": 2439,
      "dza": 2440,
      "nii": 2441,
      "szam": 2442,
      "szki": 2443,
      "szko": 2444,
      "Ġnagie": 2445,
      "stem": 2446,
      "strzy": 2447,
      "Ġbry": 2448,
      "Ġpol": 2449,
      "ĠpoÅ¼": 2450,
      "Ġpogo": 2451,
      "Ġpodzi": 2452,
      "ama": 2453,
      "amtÄħd": 2454,
      "ĠBÃ³g": 2455,
      "arni": 2456,
      "Ġdole": 2457,
      "ĠÅ¼Ã³ÅĤ": 2458,
      "kanie": 2459,
      "rzyÄĩ": 2460,
      "rzymaÅĤ": 2461,
      "Ã³wki": 2462,
      "Ġzada": 2463,
      "Ġzaraz": 2464,
      "ĠzauwaÅ¼": 2465,
      "Ġjezi": 2466,
      "Ġwybu": 2467,
      "ĠstÄħd": 2468,
      "ciela": 2469,
      "ĠprzeÅ¼y": 2470,
      "ĠprzeszÅĤo": 2471,
      "Ġucie": 2472,
      "Ġuko": 2473,
      "Ġuwa": 2474,
      "Ġusta": 2475,
      "Ġutrzy": 2476,
      "Ġusiad": 2477,
      "Äħcego": 2478,
      "ĠPra": 2479,
      "ĠWa": 2480,
      "ĠWrÃ³Å¼": 2481,
      "wach": 2482,
      "wajÄħ": 2483,
      "Ġjakim": 2484,
      "Ġodbi": 2485,
      "Ġodez": 2486,
      "Ġczerwo": 2487,
      "ÅĦski": 2488,
      "owanie": 2489,
      "ĠTa": 2490,
      "ĠTen": 2491,
      "ĠTymczasem": 2492,
      "ĠÅĽwi": 2493,
      "ĠÅĽwiad": 2494,
      "Ġprzynajmniej": 2495,
      "ĠmiÅĤoÅĽci": 2496,
      "adill": 2497,
      "taÄĩ": 2498,
      "ÅĤym": 2499,
      "ĠZoo": 2500,
      "wiek": 2501,
      "wiera": 2502,
      "wieni": 2503,
      "Ġchyba": 2504,
      "Ġszu": 2505,
      "Ġszty": 2506,
      "Ġniczym": 2507,
      "ĠgoÅĽci": 2508,
      "razi": 2509,
      "ĠwokÃ³ÅĤ": 2510,
      "Ġpodry": 2511,
      "ĠpowieÅĽci": 2512,
      "ĠCadill": 2513,
      "ĠSam": 2514,
      "ĠSÅĤy": 2515,
      "rÃ³cz": 2516,
      "Ġmoim": 2517,
      "Ġmoich": 2518,
      "ĠOstat": 2519,
      "Ġwojna": 2520,
      "Ġfanta": 2521,
      "ĠKrzy": 2522,
      "ĠKsiÄĻ": 2523,
      "Ġmaj": 2524,
      "myÅĽl": 2525,
      "Ġwin": 2526,
      "Ġkape": 2527,
      "Ġkarabi": 2528,
      "Ġjednej": 2529,
      "wyÅ¼": 2530,
      "Ġzegar": 2531,
      "ĠludÅº": 2532,
      "nÄĻÅĤo": 2533,
      "gii": 2534,
      "Ġznaczy": 2535,
      "Ġinne": 2536,
      "zano": 2537,
      "lono": 2538,
      "Ġlep": 2539,
      "poÅĤu": 2540,
      "ĠÅ¼yw": 2541,
      "ĠheÅĤ": 2542,
      "Ġprote": 2543,
      "Ġnogi": 2544,
      "dzeniem": 2545,
      "ktÃ³": 2546,
      "ktor": 2547,
      "Ġzapew": 2548,
      "ĠPoza": 2549,
      "Ġnajbardziej": 2550,
      "Ġdaleko": 2551,
      "niÄĻty": 2552,
      "Ġwzro": 2553,
      "Ġabym": 2554,
      "Ġskle": 2555,
      "Ġskar": 2556,
      "ĠgÅĤÃ³w": 2557,
      "ĠEu": 2558,
      "ĠGdy": 2559,
      "Ġbutel": 2560,
      "Ġpozwoli": 2561,
      "ĠJeden": 2562,
      "Ġstoli": 2563,
      "ĠzdjÄĻcie": 2564,
      "stoty": 2565,
      "stolet": 2566,
      "ĠmÃ³z": 2567,
      "ĠzamkniÄĻ": 2568,
      "Ġciep": 2569,
      "Ġcier": 2570,
      "ĠsiedziaÅĤ": 2571,
      "ĠÅģ": 2572,
      "ĠChry": 2573,
      "ĠszedÅĤ": 2574,
      "dop": 2575,
      "ĠwagonÃ³w": 2576,
      "Ġzielo": 2577,
      "ĠRosja": 2578,
      "ĠWietn": 2579,
      "Ġprawda": 2580,
      "ĠdÅĤuÅ¼": 2581,
      "ĠÅĽwiece": 2582,
      "ĠÅ¼oÅĤnierze": 2583,
      "ĠÅ¼adnych": 2584,
      "ĠzrobiÄĩ": 2585,
      "ĠAnglicy": 2586,
      "Ġdaw": 2587,
      "Ġzostali": 2588,
      "ĠrÃ³Å¼nych": 2589,
      "Ġmart": 2590,
      "Ġgazet": 2591,
      "Ġfabry": 2592,
      "wÄħtpli": 2593,
      "ĠjednoczeÅĽnie": 2594,
      "ĠdzieciÄĻ": 2595,
      "ĠsÅĤoÅĦce": 2596,
      "ĠczÄĻÅĽÄĩ": 2597,
      "ĠczÄĻsto": 2598,
      "cyjnym": 2599,
      "Ġszyb": 2600,
      "ĠtÅĤuszcz": 2601,
      "Ġcywil": 2602,
      "Ġtalerz": 2603,
      "Ġdeszcz": 2604,
      "ĠczegoÅĽ": 2605,
      "Ġsamochod": 2606,
      "ĠmyÅĽlaÅĤ": 2607,
      "ĠOpty": 2608,
      "ĠmaÅĤym": 2609,
      "Ġistnie": 2610,
      "Ġbroni": 2611,
      "krotnie": 2612,
      "ĠÅĤyÅ¼": 2613,
      "ĠnaleÅ¼": 2614,
      "ĠcÃ³rka": 2615,
      "ĠSzko": 2616,
      "ĠobudziÅĤ": 2617,
      "ĠstraÅ¼nikÃ³w": 2618,
      "ĠpisaÅĤ": 2619,
      "Ġojca": 2620,
      "Ġwysoko": 2621,
      "Ġtortu": 2622,
      "Ġokien": 2623,
      "Ġbaraku": 2624,
      "ĠjÄĻzy": 2625,
      "ĠpoczÄħtku": 2626,
      "Ġnieprzytom": 2627,
      "Ġniewiele": 2628,
      "Ġgwiaz": 2629,
      "ĠMieli": 2630,
      "Ġznajduje": 2631,
      "ĠporzÄħdku": 2632,
      "Ġnauczyciel": 2633,
      "ĠYon": 2634,
      "ĠWszechÅĽwiat": 2635,
      "Ġrobot": 2636,
      "ĠKaÅ¼dy": 2637,
      "Ġrodzaj": 2638,
      "Trout": 2639,
      "bezpie": 2640,
      "Ġkatastro": 2641,
      "ĠludÅºmi": 2642,
      "wÄħtpliwie": 2643,
      "!\"": 2644,
      "Derby": 2645,
      "Monta": 2646,
      "Op": 2647,
      "Ros": 2648,
      "St": 2649,
      "Tymczasem": 2650,
      "dÃ³w": 2651,
      "dki": 2652,
      "dÅĤo": 2653,
      "dry": 2654,
      "ge": 2655,
      "gami": 2656,
      "gan": 2657,
      "gim": 2658,
      "kowy": 2659,
      "lnie": 2660,
      "lot": 2661,
      "nt": 2662,
      "nnych": 2663,
      "nnym": 2664,
      "nemu": 2665,
      "nowu": 2666,
      "oÅ¼": 2667,
      "ora": 2668,
      "por": 2669,
      "pral": 2670,
      "set": 2671,
      "tr": 2672,
      "try": 2673,
      "tkiem": 2674,
      "udy": 2675,
      "udzie": 2676,
      "wÃ³w": 2677,
      "wat": 2678,
      "zm": 2679,
      "Å»": 2680,
      "Ġse": 2681,
      "Ġsce": 2682,
      "Ġwpad": 2683,
      "ĠwÃ³z": 2684,
      "ĠweÅĤnia": 2685,
      "Ġznik": 2686,
      "Å¼o": 2687,
      "cznych": 2688,
      "czone": 2689,
      "Ġtle": 2690,
      "Ġtar": 2691,
      "Ġtralfamador": 2692,
      "chi": 2693,
      "chaÅĤa": 2694,
      "ĠdaÅĤ": 2695,
      "Ġdach": 2696,
      "Ġdlatego": 2697,
      "ĠmÄħ": 2698,
      "Ġmru": 2699,
      "ĠmÄħd": 2700,
      "ÅĽwiad": 2701,
      "ĠoglÄħdaÅĤ": 2702,
      "Ġoczach": 2703,
      "Ġki": 2704,
      "Ġkamie": 2705,
      "nice": 2706,
      "szem": 2707,
      "Ġjad": 2708,
      "liÅĤ": 2709,
      "liÄĩ": 2710,
      "stw": 2711,
      "Ġbie": 2712,
      "Ġbrze": 2713,
      "Ġpoka": 2714,
      "Ġpoda": 2715,
      "Ġpomie": 2716,
      "Ġpoje": 2717,
      "Ġposta": 2718,
      "Ġpozy": 2719,
      "Ġponu": 2720,
      "ĠpociÄħg": 2721,
      "Ġpoleg": 2722,
      "Ġpoczu": 2723,
      "Ġporusz": 2724,
      "ĠpojÄĻcia": 2725,
      "ĠpopoÅĤu": 2726,
      "rosz": 2727,
      "rozu": 2728,
      "Äĩmi": 2729,
      "lek": 2730,
      "leci": 2731,
      "cili": 2732,
      "akaÅĤ": 2733,
      "Ġniem": 2734,
      "Ġnieco": 2735,
      "ĠnieszczÄĻ": 2736,
      "ĠniewÄħtpliwie": 2737,
      "ĠBost": 2738,
      "arda": 2739,
      "ĠÅ¼yÅĤ": 2740,
      "naj": 2741,
      "dziÅĤo": 2742,
      "Ġzat": 2743,
      "Ġzawi": 2744,
      "Ġzaczy": 2745,
      "Ġzajm": 2746,
      "ers": 2747,
      "wiasem": 2748,
      "atru": 2749,
      "czych": 2750,
      "Ġwys": 2751,
      "Ġwyra": 2752,
      "Ġwyma": 2753,
      "Ġwymia": 2754,
      "Ġwybra": 2755,
      "Ġwyszli": 2756,
      "ĠwystÄħpi": 2757,
      "Ġwystar": 2758,
      "Ġstru": 2759,
      "ĠstamtÄħd": 2760,
      "cieÅ¼": 2761,
      "Ġgry": 2762,
      "Ġude": 2763,
      "ĠWiÄĻ": 2764,
      "noc": 2765,
      "nosiÅĤ": 2766,
      "noÅ¼Ã³ÅĤ": 2767,
      "lady": 2768,
      "lajÄħc": 2769,
      "rych": 2770,
      "Ġode": 2771,
      "Ġodw": 2772,
      "Ġodes": 2773,
      "ĠodraÅ¼ajÄħc": 2774,
      "ĠNowy": 2775,
      "ÅĦcÃ³w": 2776,
      "ĠTu": 2777,
      "ĠTru": 2778,
      "Ġkom": 2779,
      "Ġkoni": 2780,
      "ĠkogoÅĽ": 2781,
      "Ġprzygot": 2782,
      "siaj": 2783,
      "obnie": 2784,
      "ĠZe": 2785,
      "Ġchci": 2786,
      "Ġszale": 2787,
      "Ġgot": 2788,
      "aÅĤym": 2789,
      "czeni": 2790,
      "czeniu": 2791,
      "ĠpodÅĤo": 2792,
      "Ġtakich": 2793,
      "Ġmundu": 2794,
      "ĠCi": 2795,
      "bine": 2796,
      "ĠdziaÅĤ": 2797,
      "ĠSy": 2798,
      "Ġwieku": 2799,
      "Ġmoc": 2800,
      "Ġmodli": 2801,
      "owia": 2802,
      "ĠNiemiec": 2803,
      "Ġwojska": 2804,
      "Ġrozp": 2805,
      "onami": 2806,
      "Ġmasz": 2807,
      "ĠmieÅĽcie": 2808,
      "Ġwiad": 2809,
      "Ġjedna": 2810,
      "Å¼enie": 2811,
      "odu": 2812,
      "Ġczasem": 2813,
      "Ġinf": 2814,
      "Ġinny": 2815,
      "Ġinnym": 2816,
      "ĠczytaÅĤ": 2817,
      "Ġopera": 2818,
      "ĠopowiadaÅĤ": 2819,
      "ĠpielÄĻ": 2820,
      "zany": 2821,
      "niejsza": 2822,
      "Ġlepiej": 2823,
      "szczenia": 2824,
      "poko": 2825,
      "ĠPilgrima": 2826,
      "bok": 2827,
      "Ġwszystkim": 2828,
      "ĠramiÄĻ": 2829,
      "Ġkupi": 2830,
      "Ġprof": 2831,
      "Ġprodu": 2832,
      "Ġprosto": 2833,
      "fik": 2834,
      "ajÄħcych": 2835,
      "ĠpiÄĻciu": 2836,
      "ĠwiÄĻkszoÅĽÄĩ": 2837,
      "ĠmÃ³wiÄĩ": 2838,
      "ĠciaÅĤ": 2839,
      "Ġcisza": 2840,
      "ĠwziÄħ": 2841,
      "ĠwzglÄĻ": 2842,
      "Ġskra": 2843,
      "ĠskÄħd": 2844,
      "Ġotwar": 2845,
      "Ġotwarte": 2846,
      "Ġbog": 2847,
      "ĠEwa": 2848,
      "ĠGlu": 2849,
      "Ġbur": 2850,
      "ĠJed": 2851,
      "ĠÅĽwiatÅĤo": 2852,
      "ĠsÄħsied": 2853,
      "Ġtabli": 2854,
      "ĠZielonych": 2855,
      "Ġzamie": 2856,
      "Ġdwaj": 2857,
      "ĠksiÄħÅ¼ka": 2858,
      "Ġogro": 2859,
      "Ġdrugim": 2860,
      "Ġsym": 2861,
      "Ġelektry": 2862,
      "Ġrek": 2863,
      "Ġpanu": 2864,
      "ĠChi": 2865,
      "ĠChciaÅĤ": 2866,
      "ĠrÄĻka": 2867,
      "Ġdrzwiami": 2868,
      "Ġdrzwiach": 2869,
      "iaÅĦ": 2870,
      "Ġzobaczy": 2871,
      "ĠmoÅ¼li": 2872,
      "Ġtrzyma": 2873,
      "Ġjakiej": 2874,
      "Ġspodzie": 2875,
      "Ġ195": 2876,
      "ĠznaÅĤ": 2877,
      "ÅĽlaÅĤ": 2878,
      "ĠcaÅĤe": 2879,
      "ĠcaÅĤej": 2880,
      "ĠamerykaÅĦski": 2881,
      "ĠgÅĤoÅĽ": 2882,
      "Ġkont": 2883,
      "Ġchole": 2884,
      "ĠczÅĤowiekiem": 2885,
      "ĠÅĽmierciÄħ": 2886,
      "ĠmÃ³gÅĤby": 2887,
      "Ġdziw": 2888,
      "Ġwagon": 2889,
      "ĠWiel": 2890,
      "ĠdÅĤugie": 2891,
      "ĠÅĽwieÅ¼o": 2892,
      "Ġwetera": 2893,
      "ĠjeÅĦcami": 2894,
      "pisaÅĤ": 2895,
      "Ġmatki": 2896,
      "ĠgÃ³rze": 2897,
      "Ġobozu": 2898,
      "ĠpiÄĻkna": 2899,
      "ĠAnglikÃ³w": 2900,
      "Ġstarego": 2901,
      "trznych": 2902,
      "Ġzostanie": 2903,
      "resztÄħ": 2904,
      "ĠzdarzyÅĤo": 2905,
      "Ġwszystkiego": 2906,
      "kazaÅĤ": 2907,
      "ĠchÅĤopca": 2908,
      "ing": 2909,
      "ĠsinoÅ¼Ã³ÅĤ": 2910,
      "ĠpomÃ³": 2911,
      "Ġgazu": 2912,
      "ĠczterdzieÅĽci": 2913,
      "Ġniezwy": 2914,
      "Ġtelefon": 2915,
      "Ġtelewiz": 2916,
      "praszam": 2917,
      "ĠczÄĻÅĽci": 2918,
      "ĠMiaÅĤa": 2919,
      "Ġpytanie": 2920,
      "Jeden": 2921,
      "ĠÅļwiat": 2922,
      "ĠpÅĤaszcza": 2923,
      "ĠzwyciÄĻ": 2924,
      "ĠMaggie": 2925,
      "Zap": 2926,
      "Ġatom": 2927,
      "tkowo": 2928,
      "Ġwolno": 2929,
      "ĠlatajÄħcych": 2930,
      "ĠzwierzÄĻ": 2931,
      "ĠnapisaÅĤ": 2932,
      "Ġszpitalu": 2933,
      "ĠJork": 2934,
      "ĠznaleÅºÄĩ": 2935,
      "ĠczytaÄĩ": 2936,
      "Ġ1944": 2937,
      "ĠpomocÄħ": 2938,
      "Ġfacet": 2939,
      "Ġzamiar": 2940,
      "Ġsprzedaw": 2941,
      "ĠleÅ¼aÅĤy": 2942,
      "ĠpozostaÅĤych": 2943,
      "Ġzrozumie": 2944,
      "Ġnazwiskiem": 2945,
      "Amerykanie": 2946,
      "ĠwÅĤÄħczyÅĤ": 2947,
      "Ġmorfi": 2948,
      "ĠpudeÅĤku": 2949,
      "Ġdoskonale": 2950,
      "ĠwyjaÅĽ": 2951,
      "Ġumiera": 2952,
      "Ġwidocznie": 2953,
      "Ġbudynku": 2954,
      "ĠWszystko": 2955,
      "ĠtrafiÅĤ": 2956,
      "Ġdworze": 2957,
      "ĠmÃ³wiÄĻ": 2958,
      "Ġnieboszczy": 2959,
      "ĠwyÅĤÄħcznie": 2960,
      "ĠksiÄĻÅ¼yc": 2961,
      "ĠRobert": 2962,
      "gniar": 2963,
      "ĠnadziejÄĻ": 2964,
      "ĠtytuÅĤem": 2965,
      "ĠKopciuszka": 2966,
      "Ġporozmawi": 2967,
      "kolwiek": 2968,
      "Ġwszel": 2969,
      "Ġbrylan": 2970,
      "ĠKsiÄĻÅ¼y": 2971,
      "ĠEuro": 2972,
      "ĠChrystu": 2973,
      "ĠOptyki": 2974,
      "Montana": 2975,
      "ĠodesÅĤa": 2976,
      "ĠpielÄĻgniar": 2977,
      "An": 2978,
      "Jak": 2979,
      "Od": 2980,
      "Wy": 2981,
      "Wszy": 2982,
      "alu": 2983,
      "brzy": 2984,
      "dat": 2985,
      "dnia": 2986,
      "dowy": 2987,
      "dowaÅĤ": 2988,
      "dniu": 2989,
      "ecz": 2990,
      "eli": 2991,
      "gnie": 2992,
      "gÃ³w": 2993,
      "gen": 2994,
      "han": 2995,
      "hum": 2996,
      "is": 2997,
      "ina": 2998,
      "ine": 2999,
      "ium": 3000,
      "jÃ³w": 3001,
      "kowo": 3002,
      "kÃ³j": 3003,
      "liÄĻ": 3004,
      "lary": 3005,
      "mery": 3006,
      "mniej": 3007,
      "oby": 3008,
      "rgu": 3009,
      "sami": 3010,
      "ts": 3011,
      "tki": 3012,
      "twie": 3013,
      "tami": 3014,
      "wer": 3015,
      "wej": 3016,
      "zmu": 3017,
      "zent": 3018,
      "zde": 3019,
      "ĠÄĩ": 3020,
      "ĠÅĤu": 3021,
      "ÅĤego": 3022,
      "ÅĤÃ³w": 3023,
      "Ġpt": 3024,
      "Ġsa": 3025,
      "Ġsil": 3026,
      "Ġsek": 3027,
      "Ġscen": 3028,
      "Ġwd": 3029,
      "Ġwas": 3030,
      "ĠwnÄĻ": 3031,
      "Ġwew": 3032,
      "Ġnowy": 3033,
      "Ġnowi": 3034,
      "Ġnorma": 3035,
      "Ġzm": 3036,
      "Ġzwi": 3037,
      "Ġzre": 3038,
      "Ġzja": 3039,
      "Ġzga": 3040,
      "aÅĤÄħ": 3041,
      "rzÄħc": 3042,
      "rzono": 3043,
      "czkÄĻ": 3044,
      "ĠtuÅ¼": 3045,
      "chnia": 3046,
      "Ġdnie": 3047,
      "ĠdowiedziaÅĤ": 3048,
      "Ġmord": 3049,
      "Ġogo": 3050,
      "Ġosz": 3051,
      "Ġopi": 3052,
      "Ġozd": 3053,
      "Ġkat": 3054,
      "Ġkor": 3055,
      "Ġkryty": 3056,
      "iÄĻk": 3057,
      "rat": 3058,
      "nina": 3059,
      "nica": 3060,
      "nikiem": 3061,
      "sznie": 3062,
      "Ġnak": 3063,
      "Ġnatu": 3064,
      "ĠnarzÄĻ": 3065,
      "Ġju": 3066,
      "liz": 3067,
      "linie": 3068,
      "stÃ³w": 3069,
      "stych": 3070,
      "Ġbe": 3071,
      "ĠbÅĤa": 3072,
      "Ġbas": 3073,
      "Ġbut": 3074,
      "ĠbrzÄĻ": 3075,
      "niego": 3076,
      "niesi": 3077,
      "Ġpocz": 3078,
      "ĠpoÅĤo": 3079,
      "Ġpoja": 3080,
      "Ġpogar": 3081,
      "Ġposzli": 3082,
      "Ġposzu": 3083,
      "ĠpociÄħgu": 3084,
      "ĠpoÅĤowa": 3085,
      "rok": 3086,
      "ropu": 3087,
      "rzej": 3088,
      "rzenie": 3089,
      "cis": 3090,
      "ciÅĤo": 3091,
      "Ġnied": 3092,
      "ĠBu": 3093,
      "ĠBy": 3094,
      "Ġdosta": 3095,
      "ĠdoÅĽÄĩ": 3096,
      "Ġdotych": 3097,
      "ĠÅ¼ony": 3098,
      "kajÄħc": 3099,
      "rzyja": 3100,
      "dzili": 3101,
      "Ġzag": 3102,
      "Ġzawo": 3103,
      "Ġzanim": 3104,
      "eren": 3105,
      "wiÄĩ": 3106,
      "wiaÄĩ": 3107,
      "atÄĻ": 3108,
      "atera": 3109,
      "czycy": 3110,
      "ĠwyglÄħda": 3111,
      "ÅĤaÅĽnie": 3112,
      "Ġsty": 3113,
      "ciele": 3114,
      "Ġgi": 3115,
      "Ġgu": 3116,
      "Ġgnie": 3117,
      "Ġgrze": 3118,
      "ĠgÃ³r": 3119,
      "Ġprzej": 3120,
      "Ġprzep": 3121,
      "Ġprzesko": 3122,
      "Ġprzestrze": 3123,
      "Ġucz": 3124,
      "ĠukÅĤad": 3125,
      "Ġuspo": 3126,
      "ÄħcÄħ": 3127,
      "Ġad": 3128,
      "Ġalko": 3129,
      "owiec": 3130,
      "dziesiÄĻ": 3131,
      "redni": 3132,
      "lach": 3133,
      "Ġjaka": 3134,
      "wol": 3135,
      "Ġodby": 3136,
      "ĠoddaÅĤ": 3137,
      "Ġczek": 3138,
      "ĠNowego": 3139,
      "ÅĦcu": 3140,
      "ÅĦskiej": 3141,
      "owanego": 3142,
      "ĠTam": 3143,
      "Ġkomi": 3144,
      "Ġprzyje": 3145,
      "Ġprzytu": 3146,
      "ĠprzyjÄĻ": 3147,
      "ĠprzywiÄħ": 3148,
      "Ġprzyjem": 3149,
      "Ġprzypomnie": 3150,
      "tymi": 3151,
      "Ġmiod": 3152,
      "Ġtygo": 3153,
      "Ġtymi": 3154,
      "Ġspad": 3155,
      "obie": 3156,
      "ĠZnowu": 3157,
      "Ġchce": 3158,
      "Ġchirurg": 3159,
      "Ġniczego": 3160,
      "ĠDa": 3161,
      "ĠDru": 3162,
      "Ġgorz": 3163,
      "czech": 3164,
      "and": 3165,
      "ank": 3166,
      "Ġpodsta": 3167,
      "ĠpodszedÅĤ": 3168,
      "ĠpodniÃ³sÅĤ": 3169,
      "Ġmuf": 3170,
      "Ġmuzy": 3171,
      "jedno": 3172,
      "ĠdziÄĻki": 3173,
      "tero": 3174,
      "ĠSe": 3175,
      "ĠSp": 3176,
      "ĠSÅĤ": 3177,
      "ĠSie": 3178,
      "ĠSiÅĤ": 3179,
      "Ġwier": 3180,
      "Ġwielo": 3181,
      "Ġwielko": 3182,
      "ĠwiedzieÄĩ": 3183,
      "ĠmogÄħ": 3184,
      "szeli": 3185,
      "Ġcof": 3186,
      "ĠOna": 3187,
      "Ġfut": 3188,
      "Ġfrag": 3189,
      "ĠKu": 3190,
      "Ġoba": 3191,
      "pisa": 3192,
      "Ġrozpa": 3193,
      "Ġmag": 3194,
      "rzany": 3195,
      "ĠktÃ³rymi": 3196,
      "marz": 3197,
      "mysÅĤ": 3198,
      "ĠByÅĤem": 3199,
      "lum": 3200,
      "ĠdzieÄĩmi": 3201,
      "Ġkana": 3202,
      "ĠkazaÅĤ": 3203,
      "Ġjednego": 3204,
      "tuzja": 3205,
      "ĠRumfo": 3206,
      "Ġpali": 3207,
      "Ġpapie": 3208,
      "ĠpaÅĦst": 3209,
      "Ġpapiero": 3210,
      "giczne": 3211,
      "Ġinni": 3212,
      "waÅĤem": 3213,
      "ĠLuk": 3214,
      "ĠLudzie": 3215,
      "mujÄħc": 3216,
      "tof": 3217,
      "Ġsama": 3218,
      "Ġsame": 3219,
      "pular": 3220,
      "ĠÅ¼yÄĩ": 3221,
      "Ġlatry": 3222,
      "Ġkul": 3223,
      "ĠpiÄħ": 3224,
      "Ġprogra": 3225,
      "Ġpromieni": 3226,
      "Ġzapad": 3227,
      "dziÅĤem": 3228,
      "ĠPol": 3229,
      "ĠnajbliÅ¼": 3230,
      "Ġnajmniej": 3231,
      "ĠliÅĽcie": 3232,
      "nikami": 3233,
      "Ġwzrusz": 3234,
      "ĠmyÅĽle": 3235,
      "Ġskrzy": 3236,
      "Ġotw": 3237,
      "ĠÅĽmiechu": 3238,
      "ĠGe": 3239,
      "Ġpozwa": 3240,
      "ĠJedy": 3241,
      "Ġstoi": 3242,
      "Ġzde": 3243,
      "Ġzdoby": 3244,
      "skaÅĤ": 3245,
      "ĠwaÅ¼": 3246,
      "Ġstaro": 3247,
      "ĠstanÄħÅĤ": 3248,
      "burgu": 3249,
      "ĠmÃ³j": 3250,
      "Ġzamy": 3251,
      "ĠbÄĻdziecie": 3252,
      "czÄĻta": 3253,
      "ĠdrugÄħ": 3254,
      "ĠpierÅĽci": 3255,
      "Ġsypi": 3256,
      "Ġsyropu": 3257,
      "kÅĤada": 3258,
      "Ġecho": 3259,
      "ĠWyglÄħdaÅĤ": 3260,
      "ĠChÅĤo": 3261,
      "ĠrÄĻce": 3262,
      "iana": 3263,
      "ĠUhum": 3264,
      "Ġrzeczywi": 3265,
      "Ġtrzydziestu": 3266,
      "Ġspoj": 3267,
      "ĠszeÅĽciu": 3268,
      "ĠbyliÅĽmy": 3269,
      "Ġznak": 3270,
      "ĠcaÅĤkiem": 3271,
      "Ġokre": 3272,
      "zienki": 3273,
      "Ġpotwor": 3274,
      "ĠpotrzÄħs": 3275,
      "ĠFe": 3276,
      "ĠdziaÅĤa": 3277,
      "ĠziemiÄĻ": 3278,
      "ĠNiemczech": 3279,
      "ĠprawdÄħ": 3280,
      "Ġdrogi": 3281,
      "ĠÅ¼adnej": 3282,
      "Ġwojenny": 3283,
      "Ġwielki": 3284,
      "ĠwielkÄħ": 3285,
      "ĠpiÄĻkny": 3286,
      "ĠÅĤÃ³Å¼ko": 3287,
      "ĠÅĤazienki": 3288,
      "erenie": 3289,
      "ÅĦstwo": 3290,
      "akiÅĽ": 3291,
      "ĠwidziaÅĤem": 3292,
      "ĠsÅĤowo": 3293,
      "ĠczuÅĤ": 3294,
      "Ġczuje": 3295,
      "Ġpopro": 3296,
      "braÅĤa": 3297,
      "ĠsiÅĤy": 3298,
      "ĠnazwÄħ": 3299,
      "Ġgaze": 3300,
      "ĠzÅĤoci": 3301,
      "Ġkolek": 3302,
      "pomina": 3303,
      "urgo": 3304,
      "ciwko": 3305,
      "Ġzachwy": 3306,
      "ĠskoÅĦczyÅĤ": 3307,
      "Ġtalerzy": 3308,
      "Ġtalerza": 3309,
      "ĠjakÄħÅĽ": 3310,
      "dÅºcie": 3311,
      "Ġzginie": 3312,
      "Ġgodziny": 3313,
      "ĠgodzinÄĻ": 3314,
      "ĠsÅĤynnych": 3315,
      "ĠVerm": 3316,
      "Ġschro": 3317,
      "ĠwrÃ³ci": 3318,
      "Ġistot": 3319,
      "szÄĻdzie": 3320,
      "ĠuwaÅ¼aÅĤ": 3321,
      "ByÅĤo": 3322,
      "ĠpatrzeÄĩ": 3323,
      "ĠosÃ³b": 3324,
      "ĠwypadÅĤ": 3325,
      "Ġwypadek": 3326,
      "ĠcÃ³rki": 3327,
      "Ġspodnie": 3328,
      "ĠBern": 3329,
      "ĠBeret": 3330,
      "Ġwyobra": 3331,
      "Ġwyobrazi": 3332,
      "ĠPowietrznych": 3333,
      "Ġautom": 3334,
      "ĠlatajÄħcy": 3335,
      "Ġbombardowania": 3336,
      "Niem": 3337,
      "Ġzwiadowcami": 3338,
      "Ã³zÅĤ": 3339,
      "Ġostatni": 3340,
      "Ġjedynym": 3341,
      "Ġprzeciwko": 3342,
      "Ġszpitala": 3343,
      "Ġdziewczy": 3344,
      "Ġdziewczyn": 3345,
      "ĠwspÃ³l": 3346,
      "Ġ1945": 3347,
      "Ġ1967": 3348,
      "Ġokienka": 3349,
      "ĠwyjÄħtkiem": 3350,
      "ĠJezusa": 3351,
      "Ġopuszcz": 3352,
      "ĠpotrafiÅĤ": 3353,
      "ĠtyÅĤu": 3354,
      "ĠtyÅĤem": 3355,
      "Ġoficer": 3356,
      "ĠgÅĤupi": 3357,
      "Ġprzypomina": 3358,
      "Ġspecjali": 3359,
      "ĠzwiÄħz": 3360,
      "ĠnastÄĻpujÄħco": 3361,
      "ĠÅĽniegu": 3362,
      "ĠsprawdziÄĩ": 3363,
      "ĠDziÄĻkujÄĻ": 3364,
      "ĠopowieÅĽci": 3365,
      "dÅĤuÅ¼": 3366,
      "serw": 3367,
      "Ġener": 3368,
      "Ġentuzja": 3369,
      "ĠksztaÅĤcie": 3370,
      "ĠbryÅĤ": 3371,
      "ĠzatrzymaÅĤ": 3372,
      "Ġprzewodnik": 3373,
      "ĠPier": 3374,
      "Ġszklan": 3375,
      "ĠszczÄĻÅĽli": 3376,
      "gnajcie": 3377,
      "Ġgabine": 3378,
      "Ġnikogo": 3379,
      "ĠpowtarzaÅĤ": 3380,
      "Ġegzekucyjnym": 3381,
      "Teraz": 3382,
      "Ġokulary": 3383,
      "Ġstudi": 3384,
      "ĠPalce": 3385,
      "ĠdziesiÄĻÄĩ": 3386,
      "Ġpiechoty": 3387,
      "ĠchÅĤopiec": 3388,
      "Ġbitwy": 3389,
      "ĠmÄĻÅ¼czyzn": 3390,
      "Magiczne": 3391,
      "Ġtrzas": 3392,
      "Ġnieustan": 3393,
      "komoty": 3394,
      "ĠMerble": 3395,
      "onwojenci": 3396,
      "Ġobozowej": 3397,
      "stanowiÅĤ": 3398,
      "Ġwybuch": 3399,
      "ĠWrÃ³Å¼ka": 3400,
      "ĠodezwaÅĤ": 3401,
      "Ġmajor": 3402,
      "ĠGdyby": 3403,
      "Rosewater": 3404,
      "ĠtralfamadoriaÅĦ": 3405,
      "ĠmruknÄħÅĤ": 3406,
      "Ġinforma": 3407,
      "ĠEwang": 3408,
      "ĠChica": 3409,
      "ĠweteranÃ³w": 3410,
      "ĠporozmawiaÄĩ": 3411,
      "Angli": 3412,
      "Ġmorder": 3413,
      "Ġozdob": 3414,
      "ĠbutÃ³w": 3415,
      "Ġdotychczas": 3416,
      "ĠprzypomnieÄĩ": 3417,
      "Ġwielokrotnie": 3418,
      "ĠRumfoorda": 3419,
      "ĠVermont": 3420,
      "?\"": 3421,
      "Co": 3422,
      "KtoÅĽ": 3423,
      "Mo": 3424,
      "Ni": 3425,
      "Naj": 3426,
      "To": 3427,
      "bÅĤy": 3428,
      "bso": 3429,
      "cknÄħÅĤ": 3430,
      "dr": 3431,
      "fera": 3432,
      "gÃ³": 3433,
      "hu": 3434,
      "irosz": 3435,
      "jaÅĤ": 3436,
      "kra": 3437,
      "kÅĤo": 3438,
      "kaÅĤy": 3439,
      "kÄħd": 3440,
      "lnych": 3441,
      "lory": 3442,
      "laty": 3443,
      "lbrzy": 3444,
      "man": 3445,
      "nni": 3446,
      "oÅĤo": 3447,
      "oty": 3448,
      "opis": 3449,
      "pni": 3450,
      "pÃ³w": 3451,
      "pki": 3452,
      "pre": 3453,
      "ri": 3454,
      "tka": 3455,
      "tne": 3456,
      "ujÄħc": 3457,
      "wz": 3458,
      "wki": 3459,
      "wnia": 3460,
      "wszy": 3461,
      "zwo": 3462,
      "zwy": 3463,
      "zdu": 3464,
      "zosta": 3465,
      "znaÅĤ": 3466,
      "Åļ": 3467,
      "Ġrz": 3468,
      "Ġper": 3469,
      "Ġplan": 3470,
      "Ġpewien": 3471,
      "Ġskie": 3472,
      "Ġset": 3473,
      "ĠwÅĤo": 3474,
      "ĠwstaÅĤ": 3475,
      "ĠwdziÄĻ": 3476,
      "ĠwÃ³wczas": 3477,
      "ÄĻdz": 3478,
      "Ġnos": 3479,
      "ĠnowÄħ": 3480,
      "Ġnowe": 3481,
      "Ġznie": 3482,
      "ĠzÅĤa": 3483,
      "Ġzmi": 3484,
      "Ġzbi": 3485,
      "Ġzbie": 3486,
      "Ġzmu": 3487,
      "ĠznÃ³w": 3488,
      "ĠzÅĤam": 3489,
      "ĠzresztÄħ": 3490,
      "Å¼em": 3491,
      "Å¼one": 3492,
      "czem": 3493,
      "czej": 3494,
      "czona": 3495,
      "ĠtÄħ": 3496,
      "Ġtwar": 3497,
      "Ġtwier": 3498,
      "Ġteren": 3499,
      "Ġterenie": 3500,
      "chnÄħÅĤ": 3501,
      "chÃ³d": 3502,
      "Ġdum": 3503,
      "Ġdniu": 3504,
      "Ġdrabi": 3505,
      "ĠmÄĻ": 3506,
      "Ġmle": 3507,
      "ĠmaÅĤa": 3508,
      "Ġmater": 3509,
      "Ġmamy": 3510,
      "Ġono": 3511,
      "Ġobi": 3512,
      "ĠoglÄħda": 3513,
      "Ġkl": 3514,
      "ĠkÅĤo": 3515,
      "Ġkla": 3516,
      "Ġkale": 3517,
      "Ġkim": 3518,
      "ĠkÅĤam": 3519,
      "ram": 3520,
      "rami": 3521,
      "dzÃ³w": 3522,
      "dzaÄĩ": 3523,
      "Ġidzie": 3524,
      "niku": 3525,
      "nione": 3526,
      "nionu": 3527,
      "niwer": 3528,
      "szku": 3529,
      "szÅĤy": 3530,
      "szon": 3531,
      "szajÄħc": 3532,
      "szono": 3533,
      "Ġnasz": 3534,
      "Ġnaszych": 3535,
      "liwie": 3536,
      "liwy": 3537,
      "stego": 3538,
      "stki": 3539,
      "stwie": 3540,
      "ĠbÅĤy": 3541,
      "Ġbru": 3542,
      "Ġbos": 3543,
      "Ġbel": 3544,
      "Ġbrzu": 3545,
      "Ġbrytyj": 3546,
      "nieÅĽli": 3547,
      "Ġpos": 3548,
      "Ġpocie": 3549,
      "ĠpokÅĤa": 3550,
      "ĠpoÅĤÄħ": 3551,
      "ĠpojÄĻcie": 3552,
      "robiÅĤ": 3553,
      "rzeba": 3554,
      "rzeniem": 3555,
      "rzeciwko": 3556,
      "lec": 3557,
      "legÅĤ": 3558,
      "Ġniewi": 3559,
      "Ġniedzie": 3560,
      "Ġniesko": 3561,
      "Ġniebezpie": 3562,
      "ĠBa": 3563,
      "ĠBÄĻ": 3564,
      "ĠBra": 3565,
      "ĠBied": 3566,
      "Ġdoty": 3567,
      "Ġdostrze": 3568,
      "Ġdopiero": 3569,
      "ĠÅ¼ar": 3570,
      "ĠÅ¼on": 3571,
      "kania": 3572,
      "rzyli": 3573,
      "nastu": 3574,
      "Ġzapu": 3575,
      "Ġzabra": 3576,
      "ĠzajrzaÅĤ": 3577,
      "erry": 3578,
      "wiajÄħc": 3579,
      "wiony": 3580,
      "ĠjechaÅĤ": 3581,
      "neral": 3582,
      "atr": 3583,
      "atka": 3584,
      "atry": 3585,
      "Ġwyd": 3586,
      "Ġwyna": 3587,
      "Ġwybi": 3588,
      "Ġwysta": 3589,
      "Ġwysu": 3590,
      "ĠwyszedÅĤ": 3591,
      "Ġwyrzu": 3592,
      "ĠwystÄĻpu": 3593,
      "ĠwyszÅĤa": 3594,
      "ĠstrzaÅĤ": 3595,
      "ĠstwierdziÅĤ": 3596,
      "kom": 3597,
      "Ġgard": 3598,
      "Ġgrom": 3599,
      "ĠgraÅĤ": 3600,
      "Ġprzem": 3601,
      "Ġprzesz": 3602,
      "ĠprzeÅ¼yÅĤ": 3603,
      "Ġprzemawi": 3604,
      "Ġprzechodzi": 3605,
      "Ġprzekazy": 3606,
      "Ġprzerwy": 3607,
      "Ġuda": 3608,
      "Ġudzie": 3609,
      "Ġusi": 3610,
      "Ġupi": 3611,
      "ĠumiaÅĤ": 3612,
      "ÅĤoÅĦce": 3613,
      "Äħcej": 3614,
      "daje": 3615,
      "dzieÅ¼": 3616,
      "dziennie": 3617,
      "ĠWol": 3618,
      "ĠWreszcie": 3619,
      "waj": 3620,
      "wane": 3621,
      "wajÄħc": 3622,
      "ĠbyÅĤeÅĽ": 3623,
      "nona": 3624,
      "lana": 3625,
      "lano": 3626,
      "mina": 3627,
      "enta": 3628,
      "Ġton": 3629,
      "Ġtony": 3630,
      "ĠcaÅĤo": 3631,
      "Ġjakich": 3632,
      "ĠoddziaÅĤ": 3633,
      "Ġcza": 3634,
      "ĠczÅĤo": 3635,
      "Ġczwar": 3636,
      "ĠNowym": 3637,
      "ÅĦskie": 3638,
      "owani": 3639,
      "kur": 3640,
      "ĠÅĽla": 3641,
      "Ġprzyj": 3642,
      "Ġprzygo": 3643,
      "Ġprzypomni": 3644,
      "ĠprzypomniaÅĤ": 3645,
      "ĠprzybyÅĤ": 3646,
      "tycznie": 3647,
      "siÄĩ": 3648,
      "siada": 3649,
      "Ġrosyj": 3650,
      "ĠmiaÅĤo": 3651,
      "asy": 3652,
      "Ġspi": 3653,
      "ĠspaÄĩ": 3654,
      "ĠZost": 3655,
      "ĠZjedno": 3656,
      "wiesz": 3657,
      "Ġchara": 3658,
      "szyÄĩ": 3659,
      "szymi": 3660,
      "Ġlos": 3661,
      "Ġszczu": 3662,
      "ĠgoÅĽcie": 3663,
      "ĠMar": 3664,
      "Ġpodnie": 3665,
      "ĠpodrÃ³": 3666,
      "Ġpodsze": 3667,
      "Ġtaka": 3668,
      "jeni": 3669,
      "jechali": 3670,
      "Ġteore": 3671,
      "biÄĩ": 3672,
      "omy": 3673,
      "omoÅĽÄĩ": 3674,
      "staura": 3675,
      "stanawi": 3676,
      "ĠSu": 3677,
      "ĠSpo": 3678,
      "ĠSpot": 3679,
      "ĠSÅĤuch": 3680,
      "ĠSkur": 3681,
      "Ġwiesz": 3682,
      "szeni": 3683,
      "szenie": 3684,
      "szeÄĩ": 3685,
      "ĠAd": 3686,
      "ĠAmery": 3687,
      "owiÄħ": 3688,
      "owiada": 3689,
      "ĠOb": 3690,
      "ĠOtwo": 3691,
      "ĠNiech": 3692,
      "osmos": 3693,
      "Ġfurgo": 3694,
      "ĠKlu": 3695,
      "ĠKosmos": 3696,
      "Ġobja": 3697,
      "Ġmane": 3698,
      "ĠmajÄħc": 3699,
      "zygn": 3700,
      "rzaÄĩ": 3701,
      "mach": 3702,
      "mana": 3703,
      "ĠwidaÄĩ": 3704,
      "ĠwidzÃ³w": 3705,
      "lutnie": 3706,
      "Ġkapita": 3707,
      "Å¼eÅĦ": 3708,
      "tuje": 3709,
      "Ġlud": 3710,
      "ĠRze": 3711,
      "rÄĻÅ¼y": 3712,
      "Å¼yli": 3713,
      "ĠczasÃ³w": 3714,
      "Ġpana": 3715,
      "gich": 3716,
      "giwaÅĤ": 3717,
      "gicznym": 3718,
      "Ġprak": 3719,
      "Ġpracu": 3720,
      "Ġczyli": 3721,
      "Ġpiecy": 3722,
      "ĠpieniÄĻ": 3723,
      "ĠLwÃ³w": 3724,
      "zane": 3725,
      "ĠNastÄĻp": 3726,
      "Ġprzezna": 3727,
      "czyÅĤem": 3728,
      "ĠrzeÅº": 3729,
      "Ġlecz": 3730,
      "toÅĽÄĩ": 3731,
      "Ġsamego": 3732,
      "Ġbyd": 3733,
      "ĠmiaÅĤem": 3734,
      "Ġranka": 3735,
      "Ġhu": 3736,
      "Ġpiw": 3737,
      "Ġpusty": 3738,
      "ciÄħÅ¼": 3739,
      "ĠnosiÅĤ": 3740,
      "Ġnogach": 3741,
      "owiedziaÅĤem": 3742,
      "Ġprzedmi": 3743,
      "giem": 3744,
      "Ġzapa": 3745,
      "Ġrowie": 3746,
      "onymi": 3747,
      "ĠpiÄĻt": 3748,
      "ĠnajwiÄĻ": 3749,
      "Ġdaleka": 3750,
      "syte": 3751,
      "Ġliz": 3752,
      "ĠspytaÄĩ": 3753,
      "ĠAmerykanom": 3754,
      "niÄĻtego": 3755,
      "oÅĤe": 3756,
      "Ġpowodu": 3757,
      "ĠwzdÅĤuÅ¼": 3758,
      "Ġstrach": 3759,
      "ĠstraciÅĤ": 3760,
      "zuÅĤ": 3761,
      "ĠotwÃ³r": 3762,
      "ĠotrzymaÅĤ": 3763,
      "Ġboga": 3764,
      "Ġstopy": 3765,
      "terÃ³w": 3766,
      "ĠzdÄħ": 3767,
      "Ġwspomnie": 3768,
      "ĠwspomniaÅĤ": 3769,
      "Ġtara": 3770,
      "ĠksiÄħÅ¼kÄħ": 3771,
      "ĠÅĤzy": 3772,
      "Ġludziom": 3773,
      "Ġpiersi": 3774,
      "ĠWyomi": 3775,
      "Ġrestaura": 3776,
      "ĠrÄĻku": 3777,
      "ĠrÄĻkÄħ": 3778,
      "Ġimp": 3779,
      "Ġbaw": 3780,
      "ĠchÅĤodni": 3781,
      "ĠtrzydzieÅĽci": 3782,
      "ĠspojrzaÅĤ": 3783,
      "ÅĽlÄĻ": 3784,
      "ĠdzieciÅĦstwa": 3785,
      "ĠamerykaÅĦskie": 3786,
      "Ġdobre": 3787,
      "Ġchoro": 3788,
      "fonicz": 3789,
      "Ġokno": 3790,
      "Ġokrop": 3791,
      "Ġchwile": 3792,
      "Ġdziu": 3793,
      "Ġdzisiaj": 3794,
      "ĠRosjan": 3795,
      "ĠHirosz": 3796,
      "Ġpowiada": 3797,
      "ĠzostaÅĤo": 3798,
      "ĠWiem": 3799,
      "Ġpierwszego": 3800,
      "ĠsÅĤuÅ¼yÄĩ": 3801,
      "ĠwedÅĤu": 3802,
      "Ġdrob": 3803,
      "ĠjakoÅĽ": 3804,
      "ĠÅ¼oÅĤnierz": 3805,
      "Ġzabije": 3806,
      "Ġzabija": 3807,
      "Ġmatera": 3808,
      "ĠPrzed": 3809,
      "ĠPrzez": 3810,
      "Ġwielkie": 3811,
      "Ġwielkim": 3812,
      "ĠpiÄĻkne": 3813,
      "chana": 3814,
      "Ġniemiecki": 3815,
      "Ġniemieckie": 3816,
      "Ġniemieckich": 3817,
      "ĠzasÅĤu": 3818,
      "Ġkobieta": 3819,
      "Ġpoprze": 3820,
      "braÅĤ": 3821,
      "ukaÅĤ": 3822,
      "ĠmÅĤod": 3823,
      "Ġwydaw": 3824,
      "ĠCody": 3825,
      "Ġarmia": 3826,
      "nicÄħ": 3827,
      "nictwa": 3828,
      "ĠNic": 3829,
      "ĠKanionu": 3830,
      "Ġpierwszym": 3831,
      "ĠCzas": 3832,
      "Ġtwarzy": 3833,
      "raÅ¼nicy": 3834,
      "Ġaksami": 3835,
      "ĠrobiÄĩ": 3836,
      "cyjny": 3837,
      "Ġdrugiego": 3838,
      "czynaÅĤa": 3839,
      "ĠktÃ³remu": 3840,
      "ĠEdgara": 3841,
      "ĠdomÃ³w": 3842,
      "Ġcygara": 3843,
      "Ġrodziny": 3844,
      "ĠMiaÅĤy": 3845,
      "Ġskur": 3846,
      "Ġzako": 3847,
      "ĠzakÅĤa": 3848,
      "Ġpokry": 3849,
      "ĠpokÃ³j": 3850,
      "Ġczeko": 3851,
      "tyczny": 3852,
      "ĠStra": 3853,
      "Ġhistoria": 3854,
      "Ġprezy": 3855,
      "ĠwrÃ³ciÅĤ": 3856,
      "ĠuwaÅ¼a": 3857,
      "ĠwieczÃ³r": 3858,
      "Ġwieczoru": 3859,
      "ĠpeÅĤne": 3860,
      "Ġpewne": 3861,
      "ĠwpÅĤy": 3862,
      "ĠnaleÅ¼y": 3863,
      "ĠpoÅĽwiÄĻ": 3864,
      "ĠMogli": 3865,
      "ĠLeÅ¼aÅĤ": 3866,
      "ĠstraÅ¼nicy": 3867,
      "Ġplanety": 3868,
      "ĠzwrÃ³ciÅĤ": 3869,
      "Ġmasak": 3870,
      "ĠwyobraÅ¼": 3871,
      "Ġautorem": 3872,
      "Ġpowietrze": 3873,
      "Ġodpowiedni": 3874,
      "Ġbombardowa": 3875,
      "ĠzwiadowcÃ³w": 3876,
      "Ġdwudziestu": 3877,
      "Ġkrok": 3878,
      "Ġkrew": 3879,
      "Ġkrety": 3880,
      "ĠPodobnie": 3881,
      "ĠCampbella": 3882,
      "ĠwracaÅĤ": 3883,
      "ĠzmieniÄĩ": 3884,
      "ĠstronÄĻ": 3885,
      "ĠJezus": 3886,
      "Ġfroncie": 3887,
      "ĠstanowiÅĤa": 3888,
      "spery": 3889,
      "Ġdrezde": 3890,
      "Ġniewiel": 3891,
      "Ġgwizd": 3892,
      "Ġukry": 3893,
      "ĠMÃ³wiÅĤ": 3894,
      "Ġzrozumienia": 3895,
      "ĠdÅĤoni": 3896,
      "Ġpornografi": 3897,
      "Ġprzestali": 3898,
      "ĠMyÅĽlÄĻ": 3899,
      "ĠruszaÄĩ": 3900,
      "ĠwÄĻd": 3901,
      "ĠoÅĽmiu": 3902,
      "ĠokazaÅĤo": 3903,
      "Ġstuden": 3904,
      "ĠudziaÅĤu": 3905,
      "ĠkoÅĤnie": 3906,
      "Ġspokojnie": 3907,
      "ĠWszystkie": 3908,
      "ĠpamiÄĻtaÅĤ": 3909,
      "Ġizbie": 3910,
      "ĠbiaÅĤe": 3911,
      "ĠdorosÅĤy": 3912,
      "Ġcudow": 3913,
      "Ġmilion": 3914,
      "Ġnikomu": 3915,
      "Ġpacjent": 3916,
      "ĠciemnoÅĽci": 3917,
      "Ġkonwojent": 3918,
      "ĠzmiaÅ¼d": 3919,
      "ĠtworzÄħc": 3920,
      "ĠkÃ³ÅĤko": 3921,
      "niosÅĤa": 3922,
      "Ġnaprzeciwko": 3923,
      "ĠpoÅĤudnie": 3924,
      "ĠprzeczytaÅĤ": 3925,
      "Ġuzbro": 3926,
      "jeÅ¼dÅ¼": 3927,
      "ĠobejrzaÅĤ": 3928,
      "Ġrozmowy": 3929,
      "Ġokrut": 3930,
      "ĠprÃ³bowaÅĤ": 3931,
      "ĠwspÃ³ÅĤczes": 3932,
      "ĠpowaÅ¼": 3933,
      "Ġsoli": 3934,
      "Ġsiedem": 3935,
      "Ġzadowo": 3936,
      "Ġwyboru": 3937,
      "ĠusiÅĤowaÅĤ": 3938,
      "ĠÅĽlubu": 3939,
      "Ġchleb": 3940,
      "ĠrozpoczÄħ": 3941,
      "ĠNazywaÅĤ": 3942,
      "Ġradio": 3943,
      "Ġramiona": 3944,
      "ĠÅĽcianÄĻ": 3945,
      "ĠwÅĤÃ³czÄĻga": 3946,
      "ĠzÄĻby": 3947,
      "ĠpoÅ¼ar": 3948,
      "ĠzauwaÅ¼yÅĤ": 3949,
      "Ġuwagi": 3950,
      "ĠusiadÅĤ": 3951,
      "ĠOstate": 3952,
      "Ġfantastycz": 3953,
      "ĠheÅĤmu": 3954,
      "ĠmÃ³zgu": 3955,
      "dopod": 3956,
      "ĠWietnamie": 3957,
      "Ġfabryce": 3958,
      "Ġszybko": 3959,
      "Ġnieprzytomny": 3960,
      "Ġrodzaju": 3961,
      "ĠmÄħÅ¼": 3962,
      "ĠnieszczÄĻÅĽli": 3963,
      "Ġzatru": 3964,
      "Ġwymiarze": 3965,
      "Ġwystarczy": 3966,
      "owiadaÄĩ": 3967,
      "ĠGluck": 3968,
      "Ġburszty": 3969,
      "Ġsymbo": 3970,
      "Ġrekl": 3971,
      "ĠpomÃ³gÅĤ": 3972,
      "Ġniezwykle": 3973,
      "ĠKsiÄĻÅ¼yca": 3974,
      "ĠscenÄĻ": 3975,
      "ĠwewnÄħtrz": 3976,
      "Ġzrezygn": 3977,
      "Ġjuni": 3978,
      "ĠpoÅĤoÅ¼yÄĩ": 3979,
      "rzyjaÅºni": 3980,
      "Ġalkoho": 3981,
      "ĠprzywiÄħzany": 3982,
      "Ġtygodni": 3983,
      "Ġmagnety": 3984,
      "ĠpaÅĦstw": 3985,
      "ĠLuksem": 3986,
      "Ġsypialni": 3987,
      "Ġrzeczywisto": 3988,
      "ĠBeretÃ³w": 3989,
      "Niemcy": 3990,
      "ĠwspÃ³lnego": 3991,
      "ĠEwangeli": 3992,
      "ĠChicago": 3993,
      "bsolutnie": 3994,
      "Ġrzad": 3995,
      "Ġskierowa": 3996,
      "niwersyte": 3997,
      "ĠusiÅĤu": 3998,
      "Ġcharakt": 3999,
      "ĠpodrÃ³Å¼y": 4000,
      "Ġpodszew": 4001,
      "ĠKosmosu": 4002,
      "ĠWyoming": 4003,
      "ĠHiroszim": 4004,
      "ĠwedÅĤug": 4005,
      "Ale": 4006,
      "Ch": 4007,
      "Campbel": 4008,
      "Do": 4009,
      "Dzie": 4010,
      "JakiÅĽ": 4011,
      "Lazza": 4012,
      "Pos": 4013,
      "Sz": 4014,
      "arz": 4015,
      "any": 4016,
      "baÅĤ": 4017,
      "cÄħc": 4018,
      "cta": 4019,
      "cej": 4020,
      "cony": 4021,
      "cent": 4022,
      "dÅ¼": 4023,
      "dami": 4024,
      "dkÄħ": 4025,
      "dniem": 4026,
      "dowali": 4027,
      "eb": 4028,
      "ele": 4029,
      "fe": 4030,
      "fiÄĻ": 4031,
      "for": 4032,
      "fry": 4033,
      "giÄĻ": 4034,
      "gowi": 4035,
      "gÃ³r": 4036,
      "he": 4037,
      "hi": 4038,
      "ione": 4039,
      "jad": 4040,
      "jej": 4041,
      "jski": 4042,
      "kre": 4043,
      "kaÅĤa": 4044,
      "kowaÅĤ": 4045,
      "kto": 4046,
      "kowÄħ": 4047,
      "kowaÄĩ": 4048,
      "kowego": 4049,
      "knÄĻÅĤa": 4050,
      "lnej": 4051,
      "lowym": 4052,
      "mm": 4053,
      "nna": 4054,
      "naÅĤa": 4055,
      "nnÄħ": 4056,
      "naÅĤo": 4057,
      "nnego": 4058,
      "nkÃ³w": 4059,
      "nkÄħ": 4060,
      "nkt": 4061,
      "nownie": 4062,
      "nstru": 4063,
      "oh": 4064,
      "onie": 4065,
      "onym": 4066,
      "pl": 4067,
      "prz": 4068,
      "pcy": 4069,
      "pali": 4070,
      "pel": 4071,
      "rowaÅĤ": 4072,
      "rowego": 4073,
      "se": 4074,
      "tli": 4075,
      "tar": 4076,
      "ten": 4077,
      "tard": 4078,
      "uÅĤkow": 4079,
      "wne": 4080,
      "wÅĤa": 4081,
      "wen": 4082,
      "wsze": 4083,
      "wkami": 4084,
      "ymi": 4085,
      "yta": 4086,
      "zer": 4087,
      "zen": 4088,
      "©li": 4089,
      "Â«": 4090,
      "Â»": 4091,
      "Ã¼": 4092,
      "Ã©li": 4093,
      "Ġ2": 4094,
      "Ġ7": 4095,
      "Ġowa": 4096,
      "ĠciÄħ": 4097,
      "ĠciÄħg": 4098,
      "ĠrzÄĻ": 4099,
      "ĠciÄħgu": 4100,
      "ĠÂ«": 4101,
      "ÅĤku": 4102,
      "ÅĤaki": 4103,
      "ÅĤakaÅĤ": 4104,
      "ien": 4105,
      "ĠpÅĤu": 4106,
      "Ġpsem": 4107,
      "Ġska": 4108,
      "ĠsÄħd": 4109,
      "Ġsali": 4110,
      "Ġsal": 4111,
      "Ġscho": 4112,
      "Ġwst": 4113,
      "Ġwam": 4114,
      "Ġwej": 4115,
      "Ġwsta": 4116,
      "Ġwrzu": 4117,
      "ĠwstÄħpi": 4118,
      "ĠwÅĤoÅ¼yÅĤ": 4119,
      "ĠwciÄħÅ¼": 4120,
      "Ġzg": 4121,
      "ĠzaÅĤ": 4122,
      "Ġzem": 4123,
      "Ġzdzi": 4124,
      "Ġzwo": 4125,
      "Ġzje": 4126,
      "Ġzza": 4127,
      "Ġzdarza": 4128,
      "Ġzbo": 4129,
      "Ġzdu": 4130,
      "Ġzrzu": 4131,
      "ĠzarÄĻ": 4132,
      "Ġzoo": 4133,
      "Ġzmarz": 4134,
      "Ġzjad": 4135,
      "aÅĤu": 4136,
      "rzaÅĤa": 4137,
      "rzaÅĤo": 4138,
      "Å¼ÄĻ": 4139,
      "Å¼Äħc": 4140,
      "Å¼ono": 4141,
      "czar": 4142,
      "czajÄħc": 4143,
      "czkach": 4144,
      "czonych": 4145,
      "Ġterm": 4146,
      "owce": 4147,
      "oward": 4148,
      "owlÄĻ": 4149,
      "cham": 4150,
      "Ġdie": 4151,
      "Ġdam": 4152,
      "Ġder": 4153,
      "Ġdowo": 4154,
      "ĠdajÄħc": 4155,
      "ĠdwÃ³r": 4156,
      "Ġdrap": 4157,
      "Ġdenty": 4158,
      "Ġmak": 4159,
      "ĠmaÅĤych": 4160,
      "ÅĽla": 4161,
      "ÅĽwie": 4162,
      "Ġor": 4163,
      "Ġost": 4164,
      "Ġorze": 4165,
      "Ġoka": 4166,
      "Ġone": 4167,
      "Ġoby": 4168,
      "ĠoÅ¼e": 4169,
      "Ġopie": 4170,
      "Ġozna": 4171,
      "Ġorg": 4172,
      "ĠopisaÅĤ": 4173,
      "Ġolbrzy": 4174,
      "Ġkam": 4175,
      "ĠkÅĤa": 4176,
      "Ġkas": 4177,
      "Ġklu": 4178,
      "Ġkory": 4179,
      "rali": 4180,
      "raÅºniej": 4181,
      "raÅĦcz": 4182,
      "rafy": 4183,
      "ĠiÅ¼": 4184,
      "ĠiÅĽÄĩ": 4185,
      "niaÅĤy": 4186,
      "niony": 4187,
      "szÄħc": 4188,
      "szkÄĻ": 4189,
      "Ġnaro": 4190,
      "Ġnaci": 4191,
      "Ġnami": 4192,
      "Ġnalot": 4193,
      "liÅ¼": 4194,
      "liwe": 4195,
      "strz": 4196,
      "ster": 4197,
      "stami": 4198,
      "staÅĤy": 4199,
      "Ġban": 4200,
      "Ġblu": 4201,
      "Ġpoch": 4202,
      "Ġpora": 4203,
      "Ġpoci": 4204,
      "Ġpolu": 4205,
      "ĠposÅĤu": 4206,
      "ĠpoÅĤoÅ¼yÅĤ": 4207,
      "Ġpopular": 4208,
      "ĠpostanowiÅĤ": 4209,
      "Ġponownie": 4210,
      "rost": 4211,
      "rzeli": 4212,
      "rzewaÅĤ": 4213,
      "ler": 4214,
      "lenie": 4215,
      "letnie": 4216,
      "ciarni": 4217,
      "akami": 4218,
      "akowaÅĤ": 4219,
      "Ġnienawi": 4220,
      "ĠniektÃ³": 4221,
      "ĠBoba": 4222,
      "ĠBrytyj": 4223,
      "arowaÅĤ": 4224,
      "emo": 4225,
      "emy": 4226,
      "Ġdoko": 4227,
      "Ġdobie": 4228,
      "Ġdopy": 4229,
      "ĠdodaÅĤ": 4230,
      "ĠdoÅĽwiad": 4231,
      "Ġdodat": 4232,
      "kaja": 4233,
      "kazu": 4234,
      "rzyma": 4235,
      "dzial": 4236,
      "Ġzacie": 4237,
      "Ġzain": 4238,
      "Ġzawiera": 4239,
      "Ġzastanawi": 4240,
      "ĠzaczynaÅĤa": 4241,
      "erb": 4242,
      "erie": 4243,
      "erii": 4244,
      "wiÅĤo": 4245,
      "wiÅĤy": 4246,
      "wiono": 4247,
      "necta": 4248,
      "czyby": 4249,
      "czytaÅĤ": 4250,
      "Ġwyt": 4251,
      "Ġwyle": 4252,
      "Ġwystawi": 4253,
      "Ġwyrusz": 4254,
      "ĠwyciÄħgnÄħÅĤ": 4255,
      "ĠwyglÄħdali": 4256,
      "ĠwymyÅĽl": 4257,
      "ÅĤaszcz": 4258,
      "Ġstaj": 4259,
      "ciej": 4260,
      "Ġge": 4261,
      "Ġgwo": 4262,
      "Ġprzera": 4263,
      "Ġprzepra": 4264,
      "Ġprzebiera": 4265,
      "Ġprzeprowa": 4266,
      "Ġust": 4267,
      "Ġuja": 4268,
      "ĠuczyÅĤ": 4269,
      "Ġuzna": 4270,
      "Ġumar": 4271,
      "ĠudaÅĤo": 4272,
      "Ġuszko": 4273,
      "ĠPro": 4274,
      "ĠPla": 4275,
      "ĠPen": 4276,
      "ĠPali": 4277,
      "ĠPit": 4278,
      "Ġabsolutnie": 4279,
      "dania": 4280,
      "dawano": 4281,
      "orge": 4282,
      "ĠWs": 4283,
      "ĠWÅĤaÅĽnie": 4284,
      "wany": 4285,
      "noÅĽ": 4286,
      "ren": 4287,
      "lali": 4288,
      "lacji": 4289,
      "lacjÄĻ": 4290,
      "enu": 4291,
      "entem": 4292,
      "ryz": 4293,
      "ĠtobÄħ": 4294,
      "byÅĽ": 4295,
      "byÅĽmy": 4296,
      "Ġcali": 4297,
      "woÅĽÄĩ": 4298,
      "ĠodÅ¼y": 4299,
      "Ġczaj": 4300,
      "ĠNo": 4301,
      "ĠNat": 4302,
      "owana": 4303,
      "owanÄħ": 4304,
      "owanym": 4305,
      "kujÄħc": 4306,
      "ĠTego": 4307,
      "ĠTowarzy": 4308,
      "Ġkogo": 4309,
      "Ġkoja": 4310,
      "Ġkolo": 4311,
      "Ġkoszu": 4312,
      "Ġkoszt": 4313,
      "Ġkorzysta": 4314,
      "Ġkolum": 4315,
      "Ġprzychodzi": 4316,
      "Ġprzypuszcz": 4317,
      "sia": 4318,
      "siÅĤa": 4319,
      "Ġroli": 4320,
      "cyd": 4321,
      "cyfik": 4322,
      "ĠmiarÄĻ": 4323,
      "Ġminer": 4324,
      "Ġmiota": 4325,
      "adel": 4326,
      "tali": 4327,
      "Ġtylu": 4328,
      "niajÄħc": 4329,
      "ÅĤynÄĻÅĤa": 4330,
      "Ġspa": 4331,
      "ĠsprÄĻÅ¼y": 4332,
      "obra": 4333,
      "ĠZni": 4334,
      "ĠZach": 4335,
      "ĠZgodnie": 4336,
      "wiezi": 4337,
      "ÅĽciÅĤa": 4338,
      "rusza": 4339,
      "ĠchÄĻ": 4340,
      "Ġchmu": 4341,
      "Ġchory": 4342,
      "szyli": 4343,
      "Ġlamp": 4344,
      "ĠlÅĽni": 4345,
      "Ġszp": 4346,
      "Ġszali": 4347,
      "ĠszkÅĤa": 4348,
      "Ġgod": 4349,
      "Ġgospo": 4350,
      "Ġwoz": 4351,
      "Ġwody": 4352,
      "Ġwozie": 4353,
      "czeka": 4354,
      "ĠMÃ³j": 4355,
      "anego": 4356,
      "anÃ³w": 4357,
      "Ġpodko": 4358,
      "Ġpodej": 4359,
      "Ġpowietrz": 4360,
      "Ġpowiedzenia": 4361,
      "cenia": 4362,
      "ĠCy": 4363,
      "bia": 4364,
      "oma": 4365,
      "ĠJerry": 4366,
      "ĠJoh": 4367,
      "ĠSch": 4368,
      "ĠSÅĤu": 4369,
      "ĠStu": 4370,
      "ĠSzu": 4371,
      "ĠSche": 4372,
      "ĠSÅĤoÅĦce": 4373,
      "ĠwierzyÅĤ": 4374,
      "Ġwiedzieli": 4375,
      "ĠwierzyÄĩ": 4376,
      "rÃ³ciÅĤa": 4377,
      "aleÅĦ": 4378,
      "Åºdzi": 4379,
      "owymi": 4380,
      "owywaÅĤ": 4381,
      "imo": 4382,
      "Ġmonografi": 4383,
      "ĠAu": 4384,
      "Ġcoraz": 4385,
      "Ġcodziennie": 4386,
      "ĠOj": 4387,
      "ĠOni": 4388,
      "ĠObie": 4389,
      "ĠObok": 4390,
      "ĠNiektÃ³": 4391,
      "ĠwojnÄħ": 4392,
      "Ġwojsku": 4393,
      "ĠfaÅĤ": 4394,
      "Ġfar": 4395,
      "Ġfote": 4396,
      "ĠKsiÄħ": 4397,
      "ĠKto": 4398,
      "ĠKtoÅĽ": 4399,
      "Ġobli": 4400,
      "ĠobjÄĻ": 4401,
      "Ġobaj": 4402,
      "ĠobsÅĤu": 4403,
      "pik": 4404,
      "piaÅĤ": 4405,
      "piÄħ": 4406,
      "Ġrozwo": 4407,
      "Ġroznosi": 4408,
      "ĠrozlegÅĤ": 4409,
      "onowaÄĩ": 4410,
      "cali": 4411,
      "Ġmali": 4412,
      "Ġmalu": 4413,
      "rzali": 4414,
      "mysÅĤu": 4415,
      "Ġmiesza": 4416,
      "ĠmiesiÄĻcy": 4417,
      "Ġwisi": 4418,
      "Ġwios": 4419,
      "ĠwidzieÄĩ": 4420,
      "Ġwidzenia": 4421,
      "ĠwidzÄħ": 4422,
      "Ġwidzia": 4423,
      "ĠwisiaÅĤ": 4424,
      "Ġdzieli": 4425,
      "Ġkabi": 4426,
      "Ġkazano": 4427,
      "Ġkapral": 4428,
      "Ġkalory": 4429,
      "Ġzegara": 4430,
      "tury": 4431,
      "rÄĻcz": 4432,
      "rÄĻdz": 4433,
      "Ġczasopis": 4434,
      "Ġpanie": 4435,
      "ĠInd": 4436,
      "ĠIdÅºcie": 4437,
      "gaÄĩ": 4438,
      "Ġznali": 4439,
      "cjata": 4440,
      "cjonowaÄĩ": 4441,
      "Ġprawo": 4442,
      "Ġopraw": 4443,
      "ĠoprÃ³cz": 4444,
      "Ġpies": 4445,
      "Ġpieca": 4446,
      "Ġpieprz": 4447,
      "ĠLa": 4448,
      "ĠLo": 4449,
      "ĠLuf": 4450,
      "zali": 4451,
      "zaÄĩ": 4452,
      "ĠNawet": 4453,
      "ĠNagle": 4454,
      "locie": 4455,
      "lonym": 4456,
      "niejszych": 4457,
      "niejszÄħ": 4458,
      "czyÅĤy": 4459,
      "Ġrzeki": 4460,
      "ĠrzeczÄħ": 4461,
      "Ġlegowi": 4462,
      "szczenie": 4463,
      "ĠsamÄħ": 4464,
      "poli": 4465,
      "alaÅĤ": 4466,
      "szczone": 4467,
      "eÅĤko": 4468,
      "Ġram": 4469,
      "Ġrany": 4470,
      "Ġraju": 4471,
      "ĠracjÄĻ": 4472,
      "Ġha": 4473,
      "Ġhi": 4474,
      "ĠhaÅĤa": 4475,
      "Ġhon": 4476,
      "azdy": 4477,
      "Ġkuchen": 4478,
      "Ġpistolet": 4479,
      "ewni": 4480,
      "ewnego": 4481,
      "ewatera": 4482,
      "Ġpubli": 4483,
      "ĠpuÅĤku": 4484,
      "Ġprzedmie": 4485,
      "Ġprzedsta": 4486,
      "chodzie": 4487,
      "chodziÄĩ": 4488,
      "achu": 4489,
      "Ġzaple": 4490,
      "Ġzapach": 4491,
      "ĠzaprzyjaÅºni": 4492,
      "gÅĤÄĻ": 4493,
      "ĠrÄħ": 4494,
      "ĠPoÅĤu": 4495,
      "ĠPozosta": 4496,
      "ajcie": 4497,
      "ĠwiÄĻk": 4498,
      "Ġnajp": 4499,
      "ĠnajwyÅ¼": 4500,
      "moc": 4501,
      "Ġlin": 4502,
      "Ġlicz": 4503,
      "Ġlili": 4504,
      "ĠmÃ³wili": 4505,
      "ĠmÃ³wiÅĤa": 4506,
      "ĠAmerykanin": 4507,
      "gujÄħc": 4508,
      "niÄĻte": 4509,
      "niÄĻcia": 4510,
      "Ġpowstrzy": 4511,
      "ĠmydÅĤo": 4512,
      "ĠskÃ³": 4513,
      "Ġsklep": 4514,
      "Ġstraszli": 4515,
      "wÃ³d": 4516,
      "Ġotwiera": 4517,
      "siÄĻÅ¼": 4518,
      "ĠEl": 4519,
      "ĠEli": 4520,
      "ĠGo": 4521,
      "Ġbutach": 4522,
      "Ġstole": 4523,
      "ĠTralfamadoriÄĻ": 4524,
      "teres": 4525,
      "Ġzdra": 4526,
      "Ġzdob": 4527,
      "skaki": 4528,
      "ĠsÄħdziÅĤ": 4529,
      "burg": 4530,
      "ĠmÃ³c": 4531,
      "Ġtaniec": 4532,
      "ĠtaÅĦca": 4533,
      "ĠZiemiÄĻ": 4534,
      "Ġzamarz": 4535,
      "ĠksiÄħÅ¼ce": 4536,
      "onek": 4537,
      "paÅĽÄĩ": 4538,
      "Ġogni": 4539,
      "Ġognia": 4540,
      "ĠÅĤat": 4541,
      "Ġdrugi": 4542,
      "glÄħdaÅĤo": 4543,
      "Ġsyna": 4544,
      "Ġrepre": 4545,
      "landa": 4546,
      "ĠUniwersyte": 4547,
      "ĠkaÅ¼da": 4548,
      "ĠsÅĤychaÄĩ": 4549,
      "grania": 4550,
      "sÅĤaÅĤ": 4551,
      "ĠmoÅ¼emy": 4552,
      "Ġmiejsc": 4553,
      "ĠtrzymaÅĤ": 4554,
      "ĠtrzymaÄĩ": 4555,
      "ĠjakiegoÅĽ": 4556,
      "Ġspoczy": 4557,
      "Ġszes": 4558,
      "Ġszero": 4559,
      "ĠamerykaÅĦskiego": 4560,
      "ĠamerykaÅĦskÄħ": 4561,
      "pytaÅĤ": 4562,
      "Ġrui": 4563,
      "Ġdobry": 4564,
      "ĠgÅĤosy": 4565,
      "ĠWalencjÄħ": 4566,
      "lazÅĤ": 4567,
      "Ġkondu": 4568,
      "ĠchodziÅĤ": 4569,
      "garni": 4570,
      "Å¼yÅĤa": 4571,
      "Ġtrzewi": 4572,
      "Ġtrzema": 4573,
      "Ġokna": 4574,
      "ĠchwilÄħ": 4575,
      "Ġznajdzie": 4576,
      "Ġpotrzeb": 4577,
      "ĠÅĽmiertel": 4578,
      "ĠFil": 4579,
      "Ġwagonach": 4580,
      "dech": 4581,
      "Ġbomby": 4582,
      "ĠRosewatera": 4583,
      "ĠHar": 4584,
      "ĠWiedziaÅĤ": 4585,
      "ĠWiedzieli": 4586,
      "ĠÅĽrodek": 4587,
      "ĠprawdÄĻ": 4588,
      "ĠsÅĤuchaÅĤ": 4589,
      "Ġweszli": 4590,
      "ĠdrogÄħ": 4591,
      "ĠÅ¼oÅĤnierza": 4592,
      "ĠzabiÄĩ": 4593,
      "Ġzabici": 4594,
      "Ġzabitych": 4595,
      "czuÅĤ": 4596,
      "czucie": 4597,
      "Ġbiednego": 4598,
      "mawiaÅĤ": 4599,
      "ĠRolanda": 4600,
      "ĠPrzecieÅ¼": 4601,
      "ĠPrzepraszam": 4602,
      "ĠpiÄĻknych": 4603,
      "ĠpiÄĻknego": 4604,
      "ĠbombowcÃ³w": 4605,
      "ĠÅĤagodnie": 4606,
      "ĠÅĤaÅĦcu": 4607,
      "Ġdanej": 4608,
      "ĠpÃ³j": 4609,
      "ĠpÃ³Åº": 4610,
      "ĠzaÅĽpie": 4611,
      "wieraÅĤa": 4612,
      "ĠpÅĤaszczy": 4613,
      "Ġniemiecku": 4614,
      "Ġniemieckiego": 4615,
      "ĠzasÅĤo": 4616,
      "Ġczub": 4617,
      "Ġkieszon": 4618,
      "kazaÅĤo": 4619,
      "Ġmarmo": 4620,
      "ĠwydawaÅĤ": 4621,
      "Ġarchi": 4622,
      "ĠzÅĤoÅ¼yli": 4623,
      "Ġniezbyt": 4624,
      "Ġprzyjaciela": 4625,
      "ĠCzÄĻ": 4626,
      "Ġlasku": 4627,
      "ĠBogu": 4628,
      "Ġdziecka": 4629,
      "ksztaÅĤ": 4630,
      "ĠsÅĤoÅĦca": 4631,
      "ĠduÅ¼y": 4632,
      "Ġducha": 4633,
      "ĠrobiÅĤ": 4634,
      "ĠmuszÄĻ": 4635,
      "ĠmuszÄħ": 4636,
      "Ġmusztard": 4637,
      "ĠmieszkaÅĦcy": 4638,
      "Ġzupy": 4639,
      "ĠtÅĤum": 4640,
      "ĠtÅĤuma": 4641,
      "Ġkarmi": 4642,
      "Ġkartof": 4643,
      "niczej": 4644,
      "Ġkolcza": 4645,
      "Ġtakiej": 4646,
      "Ġznajdowali": 4647,
      "Ġtrum": 4648,
      "Ġgrudki": 4649,
      "ĠcaÅĤym": 4650,
      "Ġrodzinnym": 4651,
      "jÄħcymi": 4652,
      "Ġfilmie": 4653,
      "ĠpiÄĻÄĩdziesiÄħt": 4654,
      "ĠpiÄĻÄĩdziesiÄĻ": 4655,
      "ĠwyÅĤoÅ¼": 4656,
      "Ġkraju": 4657,
      "tycznego": 4658,
      "ĠpracÄĻ": 4659,
      "ĠpracowaÅĤ": 4660,
      "ĠpracowaÄĩ": 4661,
      "ĠpracowaÅĤem": 4662,
      "Ġpytania": 4663,
      "Ġwargi": 4664,
      "Ġwarto": 4665,
      "ĠzginÄħÅĤ": 4666,
      "ĠmomentÃ³w": 4667,
      "Ġgrali": 4668,
      "Ġgraciarni": 4669,
      "Ġczarny": 4670,
      "Ġczarne": 4671,
      "ĠÅĽciany": 4672,
      "Ġgodzin": 4673,
      "ĠsÅĤynnÄħ": 4674,
      "ĠsÅĤynnej": 4675,
      "ĠpÅĤak": 4676,
      "ĠpÃ³ÅĤwy": 4677,
      "ĠwrÃ³ble": 4678,
      "Ġzwyczaj": 4679,
      "ĠbroÅĦ": 4680,
      "ropej": 4681,
      "miaÅĤe": 4682,
      "ĠDopiero": 4683,
      "Przed": 4684,
      "ĠÅĤyÅ¼e": 4685,
      "ĠksiÄĻgarni": 4686,
      "ĠpoÅĽwiat": 4687,
      "ĠpomyÅĽlaÅĤ": 4688,
      "Ġwypadku": 4689,
      "ĠMoÅ¼e": 4690,
      "Ġpowinna": 4691,
      "ĠprÃ³cz": 4692,
      "Ġzwraca": 4693,
      "Ġmasa": 4694,
      "niÄħdze": 4695,
      "ĠDzikiego": 4696,
      "ĠlatajÄħcego": 4697,
      "PociÄħg": 4698,
      "Ġpowoli": 4699,
      "Ġpowodzeniem": 4700,
      "Ġzwiadowcy": 4701,
      "Ġkroku": 4702,
      "ĠnapisaÄĩ": 4703,
      "dziano": 4704,
      "Ġprzeciwnika": 4705,
      "ĠznaleÅºli": 4706,
      "ĠsamolotÃ³w": 4707,
      "ĠwÅĤasnych": 4708,
      "ĠkaÅ¼dej": 4709,
      "Ġ1968": 4710,
      "ĠmÄĻÅ¼czyÅºni": 4711,
      "Ġpasy": 4712,
      "ĠwraÅ¼enie": 4713,
      "ĠdÅºwi": 4714,
      "Ġpomoc": 4715,
      "ĠwyjÄħÅĤ": 4716,
      "Ġstronie": 4717,
      "ĠupÅĤy": 4718,
      "ĠmogÅĤy": 4719,
      "ĠrozmawiaÅĤ": 4720,
      "Ġrozmawiali": 4721,
      "ĠrozmawiaÄĩ": 4722,
      "bieraÄĩ": 4723,
      "ĠpotrafiÄħ": 4724,
      "Ġfaceta": 4725,
      "ĠprowadzÄħc": 4726,
      "ĠwÄħt": 4727,
      "Ġzamiast": 4728,
      "Ġdrzew": 4729,
      "Ġdrzewa": 4730,
      "Ġdrewni": 4731,
      "arÅĤat": 4732,
      "ĠwyglÄħdaÅĤy": 4733,
      "Ġcelu": 4734,
      "ĠprzypominaÅĤ": 4735,
      "ĠprawdziwÄħ": 4736,
      "Ġnazwisko": 4737,
      "ĠwalczyÄĩ": 4738,
      "ĠzwiÄħzane": 4739,
      "Ġdymu": 4740,
      "ĠdÅĤonie": 4741,
      "Ġkrwi": 4742,
      "Ġkrwa": 4743,
      "ĠprzekonaÄĩ": 4744,
      "ĠÅĽnieg": 4745,
      "ĠsprawÄĻ": 4746,
      "ĠdzwoniÅĤ": 4747,
      "Ġdzwonek": 4748,
      "ĠobiecaÅĤ": 4749,
      "ĠrozlegaÅĤ": 4750,
      "Ġmaszyn": 4751,
      "Ġmaszyna": 4752,
      "ĠruszyÅĤ": 4753,
      "ĠciÄĻÅ¼ar": 4754,
      "ĠszeregowcÃ³w": 4755,
      "ĠpudeÅĤecz": 4756,
      "Ġdowiedzieli": 4757,
      "Ġokoli": 4758,
      "ĠokoÅĤo": 4759,
      "ĠksztaÅĤt": 4760,
      "ĠpomaraÅĦcz": 4761,
      "Ġdotar": 4762,
      "ĠzaczÄĻli": 4763,
      "ĠzaczÄĻÅĤa": 4764,
      "ĠumrzeÄĩ": 4765,
      "ĠuÅ¼yte": 4766,
      "ĠkoÅĤdry": 4767,
      "ĠkomuÅĽ": 4768,
      "Ġkomuni": 4769,
      "ĠkopuÅĤy": 4770,
      "Ġloka": 4771,
      "ĠszczegÃ³l": 4772,
      "Ġsztuki": 4773,
      "ĠDziewi": 4774,
      "Ġwidok": 4775,
      "Ġludzkie": 4776,
      "ĠNajbardziej": 4777,
      "Ġlekarz": 4778,
      "Ġspokoju": 4779,
      "Ġartyle": 4780,
      "Ġartyku": 4781,
      "Ġmuszkietera": 4782,
      "Ġsrebrne": 4783,
      "Ġsrebrnych": 4784,
      "gryz": 4785,
      "Ġpluton": 4786,
      "ĠmiÄĻso": 4787,
      "ĠnastÄĻpnego": 4788,
      "ĠbiaÅĤego": 4789,
      "Ġpolega": 4790,
      "wiajÄħ": 4791,
      "Ġwykony": 4792,
      "Ġcudownie": 4793,
      "ÅĦczykÃ³w": 4794,
      "ĠMusiaÅĤ": 4795,
      "Ġpowierzchni": 4796,
      "ĠpowierzchniÄĻ": 4797,
      "ĠwziÄĻli": 4798,
      "Ġkierownicy": 4799,
      "ĠdÅºwiÄĻk": 4800,
      "ĠdÅºwiÄĻki": 4801,
      "ĠRoberta": 4802,
      "Cztero": 4803,
      "Ġplecami": 4804,
      "Ġkliniki": 4805,
      "Ġkrucyfik": 4806,
      "ĠkrÃ³tko": 4807,
      "ĠpoÅĤudniu": 4808,
      "ĠuznaÅĤ": 4809,
      "ĠkoÅĽcioÅĤa": 4810,
      "Ġprzybyli": 4811,
      "Ġprzytomny": 4812,
      "ĠprzytomnoÅĽÄĩ": 4813,
      "Ġszczyt": 4814,
      "ĠDobra": 4815,
      "ĠobejrzeÄĩ": 4816,
      "ĠwspaniaÅĤych": 4817,
      "Å¼onymi": 4818,
      "Ġorgani": 4819,
      "Ġpogrzeb": 4820,
      "Ġulicy": 4821,
      "ĠusÅĤyszaÅĤ": 4822,
      "ĠprzyszÅĤoÅĽÄĩ": 4823,
      "Ġchleba": 4824,
      "ÅĤuchajcie": 4825,
      "Ġfunk": 4826,
      "ĠfuntÃ³w": 4827,
      "ĠrozpoczÄĻ": 4828,
      "Ġramionami": 4829,
      "Ġpunktu": 4830,
      "ĠskÅĤad": 4831,
      "Ġsytuacji": 4832,
      "ĠÅĽrednim": 4833,
      "ĠochotÄĻ": 4834,
      "Ġrozstrzelany": 4835,
      "Ġekspery": 4836,
      "Ġpiln": 4837,
      "ĠwrogÃ³w": 4838,
      "ĠtrÃ³jgrania": 4839,
      "Ġoczeki": 4840,
      "Ġpodziura": 4841,
      "Ġjeziorem": 4842,
      "ĠprzeÅ¼ywaÅĤ": 4843,
      "ĠprzeszÅĤoÅĽÄĩ": 4844,
      "ĠukoÅĦczyÅĤ": 4845,
      "Ġutrzyma": 4846,
      "ĠPrac": 4847,
      "ĠCadillakiem": 4848,
      "Ġkapelana": 4849,
      "ĠkarabinÃ³w": 4850,
      "ĠÅ¼ywnoÅĽci": 4851,
      "Ġsklepu": 4852,
      "ĠgÅĤÃ³wnie": 4853,
      "ĠbutelkÄĻ": 4854,
      "ĠpozwoliÅĤ": 4855,
      "stoletni": 4856,
      "ĠRosjanie": 4857,
      "ĠdÅĤuÅ¼ej": 4858,
      "ĠdzieciÄĻca": 4859,
      "ĠistnieÄĩ": 4860,
      "ĠnaleÅ¼aÅĤo": 4861,
      "ĠYonson": 4862,
      "ĠWszechÅĽwiata": 4863,
      "Ġkatastrofie": 4864,
      "Ġseku": 4865,
      "ĠweÅĤniane": 4866,
      "Ġpozycji": 4867,
      "ĠniemowlÄĻ": 4868,
      "ĠBostonu": 4869,
      "najdowaÅĤ": 4870,
      "Ġzaczyna": 4871,
      "ĠwyraÅºnie": 4872,
      "Ġwybrali": 4873,
      "ĠwystÄħpiÄĩ": 4874,
      "ĠWiÄĻkszoÅĽÄĩ": 4875,
      "ĠTrumana": 4876,
      "Ġprofes": 4877,
      "Ġproduk": 4878,
      "ĠwziÄħÅĤ": 4879,
      "ĠmoÅ¼liwoÅĽci": 4880,
      "Ġ1958": 4881,
      "Zapan": 4882,
      "Ġatomowej": 4883,
      "ĠzwierzÄĻta": 4884,
      "ĠzrozumieÄĩ": 4885,
      "Ġnieboszczykiem": 4886,
      "ĠEuropie": 4887,
      "tsburg": 4888,
      "ĠÄĩwi": 4889,
      "Ġptaki": 4890,
      "Ġnatural": 4891,
      "niesiono": 4892,
      "Ġposzuki": 4893,
      "ĠprzeskoczyÅĤ": 4894,
      "Ġuspokaja": 4895,
      "rednio": 4896,
      "ĠczekaÅĤ": 4897,
      "Ġmiodowy": 4898,
      "Ġchcesz": 4899,
      "Ġgorzkie": 4900,
      "ĠwielkoÅĽci": 4901,
      "ĠcofnÄħÅĤ": 4902,
      "Ġfragment": 4903,
      "ĠpapierosÃ³w": 4904,
      "Ġznakomi": 4905,
      "ĠpoprosiÅĤ": 4906,
      "Ġgazety": 4907,
      "ĠkolekcjÄĻ": 4908,
      "ĠwyobraziÄĩ": 4909,
      "Ġenergii": 4910,
      "Ġzmian": 4911,
      "Ġbrutal": 4912,
      "ĠpokÅĤadzie": 4913,
      "ĠnieskoÅĦcz": 4914,
      "ĠÅ¼onÄĻ": 4915,
      "ĠzabraÄĩ": 4916,
      "Ġgromad": 4917,
      "ĠprzemÃ³wi": 4918,
      "Ġprzemawia": 4919,
      "Ġupior": 4920,
      "nonauk": 4921,
      "Ġczwartym": 4922,
      "Ġrosyjskich": 4923,
      "asyfam": 4924,
      "ĠZostaÅĤ": 4925,
      "ĠSkurczyby": 4926,
      "Ġmanew": 4927,
      "ĠpieniÄĻdzy": 4928,
      "Ġpiwnicy": 4929,
      "Ġcudowne": 4930,
      "ĠrozpoczÄħÄĩ": 4931,
      "ĠOstatecznie": 4932,
      "Ġfantastycznonauk": 4933,
      "Ġsymboli": 4934,
      "Ġjunior": 4935,
      "ĠLuksemburgu": 4936,
      "ĠrzeczywistoÅĽci": 4937,
      "Campbell": 4938,
      "Lazzaro": 4939,
      "PosÅĤuchajcie": 4940,
      "gÃ³rki": 4941,
      "uÅĤkownik": 4942,
      "Ã©line": 4943,
      "Ġdentystycz": 4944,
      "ĠzastanawiaÅĤ": 4945,
      "nectady": 4946,
      "Ġstajni": 4947,
      "ĠPittsburg": 4948,
      "adelfi": 4949,
      "ĠSchenectady": 4950,
      "ĠKsiÄħÅ¼": 4951,
      "ĠIndiana": 4952,
      "Ġarchitek": 4953,
      "Ġmusztardowego": 4954,
      "ĠpudeÅĤeczko": 4955,
      "Czteroo": 4956,
      "ĠPittsburghu": 4957,
      ".Â»": 4958,
      "41": 4959,
      "?\",": 4960,
      "Czy": 4961,
      "Dru": 4962,
      "Dobra": 4963,
      "It": 4964,
      "Ja": 4965,
      "Ko": 4966,
      "Konwojenci": 4967,
      "Le": 4968,
      "Lily": 4969,
      "Mie": 4970,
      "MÃ³wi": 4971,
      "MÃ³j": 4972,
      "No": 4973,
      "Obok": 4974,
      "Pa": 4975,
      "Pie": 4976,
      "Pro": 4977,
      "Praw": 4978,
      "PowiedziaÅĤem": 4979,
      "PuÅĤkownik": 4980,
      "Sta": 4981,
      "Ta": 4982,
      "Tego": 4983,
      "Tam": 4984,
      "Ten": 4985,
      "WiÄĻ": 4986,
      "Walen": 4987,
      "Wreszcie": 4988,
      "Zas": 4989,
      "aÅ¼": 4990,
      "anÄħ": 4991,
      "be": 4992,
      "brz": 4993,
      "biÄĻ": 4994,
      "bni": 4995,
      "bnÄħ": 4996,
      "bliÄĻ": 4997,
      "ct": 4998,
      "cki": 4999,
      "cono": 5000,
      "cona": 5001,
      "di": 5002,
      "dra": 5003,
      "dna": 5004,
      "dÄħc": 5005,
      "del": 5006,
      "dent": 5007,
      "dio": 5008,
      "ela": 5009,
      "eÅĽmy": 5010,
      "fÄħ": 5011,
      "fek": 5012,
      "fory": 5013,
      "ferm": 5014,
      "gÅĤa": 5015,
      "gaÅĤa": 5016,
      "gÅĤy": 5017,
      "gary": 5018,
      "grzany": 5019,
      "imi": 5020,
      "iom": 5021,
      "jny": 5022,
      "jnÄħ": 5023,
      "jony": 5024,
      "kni": 5025,
      "krÄĻ": 5026,
      "knÄħÄĩ": 5027,
      "kÅĤych": 5028,
      "lt": 5029,
      "laÅĤa": 5030,
      "lnÄħ": 5031,
      "laÅĤy": 5032,
      "lnego": 5033,
      "lowany": 5034,
      "me": 5035,
      "mat": 5036,
      "menty": 5037,
      "nf": 5038,
      "ns": 5039,
      "nam": 5040,
      "nne": 5041,
      "num": 5042,
      "nut": 5043,
      "nnymi": 5044,
      "nÄħcy": 5045,
      "oj": 5046,
      "oni": 5047,
      "orze": 5048,
      "ole": 5049,
      "oÅĽci": 5050,
      "paÅĤ": 5051,
      "pry": 5052,
      "paÅĤy": 5053,
      "pet": 5054,
      "paty": 5055,
      "pchniÄĻ": 5056,
      "rv": 5057,
      "rw": 5058,
      "rego": 5059,
      "rko": 5060,
      "rkÄĻ": 5061,
      "rowo": 5062,
      "ria": 5063,
      "sh": 5064,
      "sow": 5065,
      "snÄħÅĤ": 5066,
      "sowej": 5067,
      "tÃ³": 5068,
      "tro": 5069,
      "tam": 5070,
      "tnÄħ": 5071,
      "towy": 5072,
      "tnej": 5073,
      "towaÅĤ": 5074,
      "tkami": 5075,
      "towych": 5076,
      "tho": 5077,
      "tnicÄĻ": 5078,
      "uch": 5079,
      "udzi": 5080,
      "uropej": 5081,
      "vre": 5082,
      "wam": 5083,
      "wraca": 5084,
      "wczÄĻta": 5085,
      "ya": 5086,
      "yty": 5087,
      "znÄĻ": 5088,
      "Ġ(": 5089,
      "Ġ3": 5090,
      "Ġ8": 5091,
      "Ġowi": 5092,
      "Ġare": 5093,
      "ÅĤb": 5094,
      "ÅĤej": 5095,
      "ÅĤÃ³d": 5096,
      "ÅĤowÄĻ": 5097,
      "Ġpe": 5098,
      "Ġpami": 5099,
      "ĠprzyÅĤa": 5100,
      "Ġsm": 5101,
      "Ġswa": 5102,
      "Ġsowy": 5103,
      "Ġsmu": 5104,
      "Ġsuk": 5105,
      "Ġsur": 5106,
      "Ġwez": 5107,
      "Ġwali": 5108,
      "Ġwpu": 5109,
      "Ġwsty": 5110,
      "ĠwciÄħgnÄħÅĤ": 5111,
      "Ġwers": 5112,
      "ĠwszÄĻdzie": 5113,
      "Ġner": 5114,
      "Ġnot": 5115,
      "Ġnowego": 5116,
      "Ġnowym": 5117,
      "ĠnÄĻdz": 5118,
      "Ġzi": 5119,
      "Ġzle": 5120,
      "ĠzaÅĤa": 5121,
      "ĠzÅĤy": 5122,
      "Ġzmie": 5123,
      "ĠzÅĤu": 5124,
      "Ġzbli": 5125,
      "ĠzmarÅĤ": 5126,
      "Ġzgot": 5127,
      "Å¼ej": 5128,
      "Å¼owaniu": 5129,
      "czna": 5130,
      "czÄħc": 5131,
      "czami": 5132,
      "czaÅĤo": 5133,
      "czkÄħ": 5134,
      "cznik": 5135,
      "czono": 5136,
      "cznymi": 5137,
      "czÄħcy": 5138,
      "czonego": 5139,
      "cznicÄĻ": 5140,
      "Ġtre": 5141,
      "Ġtan": 5142,
      "Ġtran": 5143,
      "owbo": 5144,
      "owÃ³d": 5145,
      "chami": 5146,
      "chajÄħc": 5147,
      "Ã³cie": 5148,
      "Ġdar": 5149,
      "ĠdaÅĤo": 5150,
      "ĠdaÄĩ": 5151,
      "Ġdrg": 5152,
      "Ġdrga": 5153,
      "ĠdrÅ¼": 5154,
      "Ġdram": 5155,
      "Ġmro": 5156,
      "ĠmnÄħ": 5157,
      "Ġmaka": 5158,
      "ĠmaleÅĦ": 5159,
      "ĠmgÅĤÄĻ": 5160,
      "ÅĽma": 5161,
      "ÅĽpie": 5162,
      "ÅĽnikÃ³w": 5163,
      "Ġodz": 5164,
      "ĠoÅ¼y": 5165,
      "ĠosiÄħ": 5166,
      "Ġocho": 5167,
      "Ġodzy": 5168,
      "ĠokÅĤad": 5169,
      "Ġoferm": 5170,
      "ĠkaÅĤ": 5171,
      "Ġkrz": 5172,
      "Ġkan": 5173,
      "Ġkwiat": 5174,
      "gor": 5175,
      "gosÅĤu": 5176,
      "rac": 5177,
      "rakt": 5178,
      "rator": 5179,
      "dzwo": 5180,
      "dztwie": 5181,
      "Ġilo": 5182,
      "Ġistoty": 5183,
      "niaÅĤo": 5184,
      "ninem": 5185,
      "szyÅĤ": 5186,
      "szaÅĤy": 5187,
      "szony": 5188,
      "szkaÅĤ": 5189,
      "Ġnar": 5190,
      "Ġnaczy": 5191,
      "Ġnato": 5192,
      "Ġnauk": 5193,
      "ĠnastÄħpi": 5194,
      "Ġnagro": 5195,
      "Ġnatry": 5196,
      "Ġnawiasem": 5197,
      "Ġnagich": 5198,
      "linÄĻ": 5199,
      "stos": 5200,
      "stwem": 5201,
      "Ġbrz": 5202,
      "ĠbÄħ": 5203,
      "Ġbato": 5204,
      "nieni": 5205,
      "nierze": 5206,
      "nienia": 5207,
      "niesie": 5208,
      "Ġpona": 5209,
      "Ġpodzie": 5210,
      "ĠpoÅ¼y": 5211,
      "Ġpocho": 5212,
      "Ġpostu": 5213,
      "Ġpopraw": 5214,
      "Ġpokazy": 5215,
      "ĠposÅĤa": 5216,
      "ĠpobliÅ¼": 5217,
      "Ġpoczeka": 5218,
      "roczy": 5219,
      "roku": 5220,
      "rodu": 5221,
      "rolinie": 5222,
      "rzeÅĽci": 5223,
      "rzebie": 5224,
      "les": 5225,
      "leni": 5226,
      "lega": 5227,
      "cid": 5228,
      "ciak": 5229,
      "ciaÅĤy": 5230,
      "cisk": 5231,
      "akom": 5232,
      "aktu": 5233,
      "ament": 5234,
      "Ġniech": 5235,
      "Ġnieraz": 5236,
      "Ġnieto": 5237,
      "Ġniedo": 5238,
      "Ġniepraw": 5239,
      "Ġniepot": 5240,
      "ĠBob": 5241,
      "ĠBel": 5242,
      "ĠBere": 5243,
      "aria": 5244,
      "Ġdoj": 5245,
      "ĠdoÅĤ": 5246,
      "Ġdomy": 5247,
      "ĠdoÅĤÄħ": 5248,
      "Ġdotk": 5249,
      "ĠÅ¼mi": 5250,
      "ĠÅ¼yÅĤa": 5251,
      "ĠÅ¼onÄħ": 5252,
      "karze": 5253,
      "rzym": 5254,
      "nali": 5255,
      "nasty": 5256,
      "nasto": 5257,
      "nastego": 5258,
      "nastoletni": 5259,
      "Ã³wka": 5260,
      "Ã³wno": 5261,
      "dzik": 5262,
      "dziale": 5263,
      "Ġzaj": 5264,
      "Ġzaro": 5265,
      "ĠzaÅĽcie": 5266,
      "Ġzasa": 5267,
      "Ġzawar": 5268,
      "Ġzazwy": 5269,
      "Ġzawiesz": 5270,
      "eru": 5271,
      "erÄĻ": 5272,
      "erÅ¼y": 5273,
      "eret": 5274,
      "erner": 5275,
      "wiaÅĤ": 5276,
      "wiali": 5277,
      "wiazdy": 5278,
      "ĠjechaÄĩ": 5279,
      "neg": 5280,
      "kinie": 5281,
      "czyli": 5282,
      "czyna": 5283,
      "czykÃ³w": 5284,
      "Ġwym": 5285,
      "Ġwyr": 5286,
      "ĠwyÅ¼": 5287,
      "Ġwych": 5288,
      "Ġwyci": 5289,
      "Ġwypi": 5290,
      "Ġwybie": 5291,
      "Ġwyto": 5292,
      "Ġwypo": 5293,
      "Ġwysy": 5294,
      "Ġwyzna": 5295,
      "ĠwysÅĤ": 5296,
      "Ġwydo": 5297,
      "ĠwyciÄħg": 5298,
      "ĠwypeÅĤ": 5299,
      "Ġwypra": 5300,
      "ĠwyraÅ¼": 5301,
      "Ġwypuszcz": 5302,
      "ĠwydaÅĤo": 5303,
      "ÅĤach": 5304,
      "ÅĤaÄĩ": 5305,
      "ÅĤaniaÅĤy": 5306,
      "Ġstad": 5307,
      "ĠstoÅĤ": 5308,
      "cier": 5309,
      "cielem": 5310,
      "kora": 5311,
      "koje": 5312,
      "koÅĽÄĩ": 5313,
      "koÅĦczyÅĤ": 5314,
      "ĠgÄĻ": 5315,
      "Ġgar": 5316,
      "Ġgen": 5317,
      "Ġgim": 5318,
      "Ġgum": 5319,
      "ĠgaÅĤÄħ": 5320,
      "Ġprzech": 5321,
      "Ġprzeko": 5322,
      "Ġprzesu": 5323,
      "ĠprzeszedÅĤ": 5324,
      "ĠprzepeÅĤ": 5325,
      "Ġprzechod": 5326,
      "ĠprzecieÅ¼": 5327,
      "ĠprzepaÅĽÄĩ": 5328,
      "Ġuj": 5329,
      "Ġur": 5330,
      "Ġusz": 5331,
      "Ġuwie": 5332,
      "Ġuszy": 5333,
      "Ġucze": 5334,
      "Ġuzy": 5335,
      "Ġulu": 5336,
      "ĠuczÄĻ": 5337,
      "ĠudaÄĩ": 5338,
      "Ġuleg": 5339,
      "ĠuwiÄĻ": 5340,
      "Ġustawi": 5341,
      "ĠustÄĻp": 5342,
      "Ġund": 5343,
      "Ġugot": 5344,
      "ĠuÅĽwiad": 5345,
      "ĠunosiÅĤ": 5346,
      "dywaÅĤ": 5347,
      "ĠPe": 5348,
      "ĠPi": 5349,
      "ĠPat": 5350,
      "ĠPale": 5351,
      "ĠPowi": 5352,
      "ĠPot": 5353,
      "ĠPÃ³ÅĤ": 5354,
      "ĠPraw": 5355,
      "ĠPewien": 5356,
      "ĠPiÄĻk": 5357,
      "ĠPyta": 5358,
      "ĠPewnego": 5359,
      "Ġau": 5360,
      "Ġaudy": 5361,
      "danie": 5362,
      "dano": 5363,
      "orÄĻ": 5364,
      "orst": 5365,
      "ortu": 5366,
      "dziecie": 5367,
      "dzieliÅĽmy": 5368,
      "ĠWe": 5369,
      "ĠWszedÅĤ": 5370,
      "ĠWÅĽrÃ³d": 5371,
      "ĠWÃ³wczas": 5372,
      "ĠWszÄĻdzie": 5373,
      "wagi": 5374,
      "waniu": 5375,
      "wagÄĻ": 5376,
      "lane": 5377,
      "lajÄħcych": 5378,
      "laliÄĻ": 5379,
      "mini": 5380,
      "miar": 5381,
      "mija": 5382,
      "enne": 5383,
      "ryli": 5384,
      "Ġtodze": 5385,
      "bysz": 5386,
      "ĠcaÅĤa": 5387,
      "Ġcel": 5388,
      "Ġcent": 5389,
      "ĠcÃ³Å¼": 5390,
      "wodnik": 5391,
      "Ġodczu": 5392,
      "ĠodÅĤam": 5393,
      "ĠodgÅĤo": 5394,
      "ĠodbyÅĤ": 5395,
      "ĠNor": 5396,
      "ĠNew": 5397,
      "ĠNasyfam": 5398,
      "ÅĦczyÄĩ": 5399,
      "ÅĦskich": 5400,
      "ÅĦskiego": 5401,
      "owaliÅĽmy": 5402,
      "kuje": 5403,
      "ĠTato": 5404,
      "ĠTrzeba": 5405,
      "Ġkot": 5406,
      "Ġkocem": 5407,
      "ĠÅĽle": 5408,
      "ĠÅĽwiÄĻ": 5409,
      "ĠÅĽliz": 5410,
      "Ġprzysz": 5411,
      "Ġprzywie": 5412,
      "Ġprzysta": 5413,
      "Ġprzywy": 5414,
      "ĠprzyszedÅĤ": 5415,
      "Ġprzywar": 5416,
      "Ġprzyszli": 5417,
      "Ġprzyczyn": 5418,
      "ĠprzyszÅĤa": 5419,
      "tykÄĻ": 5420,
      "sik": 5421,
      "Ġrocznie": 5422,
      "ĠrolÄĻ": 5423,
      "Ġrodem": 5424,
      "kier": 5425,
      "cych": 5426,
      "cywaÅĤ": 5427,
      "ĠmiÅĤy": 5428,
      "ĠmiÅĤe": 5429,
      "Ġminut": 5430,
      "adne": 5431,
      "tarz": 5432,
      "tania": 5433,
      "taczajÄħc": 5434,
      "Ġtyto": 5435,
      "niach": 5436,
      "Ġspu": 5437,
      "ĠspÄĻ": 5438,
      "ĠspÅĤo": 5439,
      "Ġspry": 5440,
      "Ġsplu": 5441,
      "ĠspÃ³ÅĤ": 5442,
      "Ġspin": 5443,
      "ĠspoÅĤe": 5444,
      "obnÄħ": 5445,
      "obec": 5446,
      "ĠZami": 5447,
      "ÅĽcia": 5448,
      "ÅĽcili": 5449,
      "ÅĽciÃ³ÅĤ": 5450,
      "ÅĽciach": 5451,
      "rum": 5452,
      "Ġchrap": 5453,
      "ĠchcÄĻ": 5454,
      "Ġchudy": 5455,
      "ĠchcÄħc": 5456,
      "ĠchrzeÅĽci": 5457,
      "szysz": 5458,
      "ĠlÃ³d": 5459,
      "Ġszkie": 5460,
      "Ġszos": 5461,
      "ĠszukaÅĤ": 5462,
      "Ġszorst": 5463,
      "Ġgol": 5464,
      "aÅĤymi": 5465,
      "ĠwoÅĤa": 5466,
      "Ġwola": 5467,
      "Ġwozu": 5468,
      "ĠwodÄĻ": 5469,
      "ĠwodÄħ": 5470,
      "ĠwoÅĤaÅĤ": 5471,
      "czeÅĦstwa": 5472,
      "mieÅĦ": 5473,
      "mieniu": 5474,
      "ĠMam": 5475,
      "ĠMot": 5476,
      "ĠMÄĻÅ¼": 5477,
      "ĠMiÄĻdzy": 5478,
      "ĠMatka": 5479,
      "ĠMimo": 5480,
      "ance": 5481,
      "anowaÄĩ": 5482,
      "antÃ³w": 5483,
      "Ġpodu": 5484,
      "ĠpoddaÄĩ": 5485,
      "ĠpodsunÄħÅĤ": 5486,
      "ĠpodarowaÅĤ": 5487,
      "ĠpodÅĽciÃ³ÅĤ": 5488,
      "ĠpowieÅĽÄĩ": 5489,
      "Ġpowiedzieli": 5490,
      "ĠtaksÃ³w": 5491,
      "cep": 5492,
      "cenie": 5493,
      "ceniem": 5494,
      "cede": 5495,
      "ĠCie": 5496,
      "ĠCzuÅĤ": 5497,
      "ĠCÃ©line": 5498,
      "Ġteat": 5499,
      "ĠteÅĽÄĩ": 5500,
      "bij": 5501,
      "bite": 5502,
      "ĠdziÄĻkujÄĻ": 5503,
      "teli": 5504,
      "tepi": 5505,
      "tesk": 5506,
      "jach": 5507,
      "jajÄħc": 5508,
      "jadali": 5509,
      "jazdu": 5510,
      "ĠJaki": 5511,
      "ĠJank": 5512,
      "ĠSpÄĻ": 5513,
      "ĠSÅĤowa": 5514,
      "ĠSpytaÅĤ": 5515,
      "Ġwierz": 5516,
      "ĠwiedzÄħc": 5517,
      "rÃ³b": 5518,
      "alerz": 5519,
      "alenie": 5520,
      "owywaÄĩ": 5521,
      "Ġmocz": 5522,
      "Ġmoje": 5523,
      "Ġmoja": 5524,
      "ĠmojÄħ": 5525,
      "Ġmojej": 5526,
      "ĠmosiÄĻÅ¼": 5527,
      "szenia": 5528,
      "ĠAni": 5529,
      "ĠAha": 5530,
      "owiad": 5531,
      "ĠOjciec": 5532,
      "otu": 5533,
      "otÃ³w": 5534,
      "osfory": 5535,
      "Ġfran": 5536,
      "Ġfryz": 5537,
      "Ġfosfory": 5538,
      "ĠjesteÅĽmy": 5539,
      "ĠKor": 5540,
      "ĠKonwojenci": 5541,
      "Ġobcy": 5542,
      "Ġobserw": 5543,
      "ĠobowiÄħ": 5544,
      "ĠoberÅ¼y": 5545,
      "Ġroze": 5546,
      "Ġrozu": 5547,
      "ĠrozciÄħg": 5548,
      "Ġrozgrzany": 5549,
      "onowaÅĤ": 5550,
      "caÄĩ": 5551,
      "cajÄħc": 5552,
      "mac": 5553,
      "mywaÅĤ": 5554,
      "jÄħÄĩ": 5555,
      "ĠmieszkaÅĤ": 5556,
      "Ġwidni": 5557,
      "Ġwidzieli": 5558,
      "Ġwitami": 5559,
      "ĠwiÃ³zÅĤ": 5560,
      "Ġdziel": 5561,
      "Ġdzieje": 5562,
      "ĠdziewiÄĻ": 5563,
      "ĠdziesiÄħt": 5564,
      "bienie": 5565,
      "Ġkawa": 5566,
      "ĠkawÄĻ": 5567,
      "ĠbyÅĤoby": 5568,
      "ode": 5569,
      "odora": 5570,
      "odpor": 5571,
      "tur": 5572,
      "tura": 5573,
      "Ġlunety": 5574,
      "Ġczasy": 5575,
      "Ġparze": 5576,
      "ĠpagÃ³rki": 5577,
      "ĠIowa": 5578,
      "ĠIstoty": 5579,
      "ĠIrv": 5580,
      "piec": 5581,
      "gaÅ¼": 5582,
      "Ġinnej": 5583,
      "Ġinsty": 5584,
      "Ġindziej": 5585,
      "Ġinteli": 5586,
      "ĠpragnÄħÅĤ": 5587,
      "Ġopar": 5588,
      "ĠopowiadaÄĩ": 5589,
      "Ġoperet": 5590,
      "templ": 5591,
      "Ġpiekie": 5592,
      "ĠpiekÅĤo": 5593,
      "ĠpieniÄħdze": 5594,
      "siÄħÅĽÄĩ": 5595,
      "ĠLi": 5596,
      "lody": 5597,
      "lonÄħ": 5598,
      "loodpor": 5599,
      "ezer": 5600,
      "niejszej": 5601,
      "Ġrzekomo": 5602,
      "ÅĽciem": 5603,
      "ĠleÅ¼eli": 5604,
      "szczeniu": 5605,
      "tonie": 5606,
      "topni": 5607,
      "Ġbyle": 5608,
      "pujÄħc": 5609,
      "puje": 5610,
      "puÅĽciÅĤ": 5611,
      "borator": 5612,
      "alne": 5613,
      "ralne": 5614,
      "szczonymi": 5615,
      "eÅĤni": 5616,
      "eÅĤny": 5617,
      "utor": 5618,
      "Ġhote": 5619,
      "Ġhand": 5620,
      "Ġkule": 5621,
      "Ġkucem": 5622,
      "Ġpij": 5623,
      "ĠpiÅĤ": 5624,
      "Ġpija": 5625,
      "Ġpisze": 5626,
      "Ġproble": 5627,
      "Ġpuszka": 5628,
      "Ġpuszek": 5629,
      "Ġpukanie": 5630,
      "Ġpunkt": 5631,
      "ychali": 5632,
      "Ġnogami": 5633,
      "ĠnoÅ¼em": 5634,
      "Ġkiedykolwiek": 5635,
      "dzony": 5636,
      "dzone": 5637,
      "ciaÅ¼": 5638,
      "Ġzapar": 5639,
      "ĠzapamiÄĻ": 5640,
      "Ġzaprag": 5641,
      "Ġzapobie": 5642,
      "Ġzapyty": 5643,
      "Ġzapalenie": 5644,
      "gÅĤem": 5645,
      "Ġrow": 5646,
      "ĠPoczÄħ": 5647,
      "ĠPostawi": 5648,
      "ajor": 5649,
      "ĠwiÄĻzie": 5650,
      "ĠwiÄĻksz": 5651,
      "ĠnajwaÅ¼": 5652,
      "Ġnajgor": 5653,
      "moÅ¼": 5654,
      "ĠWearym": 5655,
      "sujÄħc": 5656,
      "syl": 5657,
      "Ġlinia": 5658,
      "ĠliczyÄĩ": 5659,
      "Ġlitera": 5660,
      "Ġlinii": 5661,
      "ĠlitoÅĽÄĩ": 5662,
      "Ġrazy": 5663,
      "ĠmÃ³wiÄħ": 5664,
      "ĠAmerykanina": 5665,
      "ĠAmerykaninem": 5666,
      "oÅĤem": 5667,
      "oÅĤÄĻÅ¼": 5668,
      "oÅĤnierze": 5669,
      "Ġciche": 5670,
      "Ġpowszech": 5671,
      "ĠpowtÃ³": 5672,
      "Ġwzmac": 5673,
      "rzyÅĤy": 5674,
      "ĠmyÄĩ": 5675,
      "ĠstraÅ¼y": 5676,
      "zuje": 5677,
      "iedmi": 5678,
      "Ġbochen": 5679,
      "ĠEak": 5680,
      "ĠEwÄĻ": 5681,
      "ĠGÃ³wno": 5682,
      "ĠGwiazdy": 5683,
      "Ġpozba": 5684,
      "Ġpozdr": 5685,
      "Ġpoziom": 5686,
      "ĠodpowiadaÅĤ": 5687,
      "ĠJedno": 5688,
      "ell": 5689,
      "Ġbezpie": 5690,
      "ĠstoÅĤy": 5691,
      "ĠstoÅĤu": 5692,
      "ĠstojÄħcÄħ": 5693,
      "terowie": 5694,
      "Ġzdej": 5695,
      "ĠzdjÄĻ": 5696,
      "ĠzdjÄĻcia": 5697,
      "ÅĽnieÅĦ": 5698,
      "ĠsÄħsie": 5699,
      "ĠsÄħsiad": 5700,
      "Ġwabi": 5701,
      "Ġstara": 5702,
      "bud": 5703,
      "bush": 5704,
      "Ġwschod": 5705,
      "Ġwspomina": 5706,
      "ĠwschÃ³d": 5707,
      "Ġzamro": 5708,
      "ĠdwanaÅĽcie": 5709,
      "ĠbÄĻdziemy": 5710,
      "ĠksiÄħÅ¼kach": 5711,
      "Ġ12": 5712,
      "Ġ18": 5713,
      "Ġcieka": 5714,
      "Ġogrze": 5715,
      "ĠogÃ³l": 5716,
      "ĠÅĤeb": 5717,
      "Ġdruh": 5718,
      "Ġdruga": 5719,
      "Ġludziach": 5720,
      "Ġsyn": 5721,
      "Ġela": 5722,
      "Ġefek": 5723,
      "Ġeuropej": 5724,
      "Ġsiedzieli": 5725,
      "ĠWyp": 5726,
      "ĠWyglÄħdali": 5727,
      "ĠWyglÄħdaÅĤo": 5728,
      "ĠrÃ³wnie": 5729,
      "Ġresz": 5730,
      "Ġreli": 5731,
      "Ġreje": 5732,
      "Ġregu": 5733,
      "Ġrezu": 5734,
      "Ġreszty": 5735,
      "ĠpanowaÅĤ": 5736,
      "landz": 5737,
      "ĠCho": 5738,
      "ĠChyba": 5739,
      "ĠChcÄĻ": 5740,
      "ziÄħ": 5741,
      "zione": 5742,
      "ĠUmarÅĤ": 5743,
      "Ġbana": 5744,
      "Ġjadal": 5745,
      "ĠsÅĤyszeÄĩ": 5746,
      "gramy": 5747,
      "rowadzono": 5748,
      "ÅĤowiek": 5749,
      "Ġjakiego": 5750,
      "ĠspoÅĽrÃ³d": 5751,
      "ĠspokÃ³j": 5752,
      "Ġszep": 5753,
      "waliÄĩ": 5754,
      "waliÅĽmy": 5755,
      "ĠcaÅĤego": 5756,
      "ĠamerykaÅĦska": 5757,
      "ĠamerykaÅĦskim": 5758,
      "Ġruch": 5759,
      "Ġruchu": 5760,
      "ĠdobrÄħ": 5761,
      "Ġdobrych": 5762,
      "ĠgÅĤosiÅĤ": 5763,
      "ĠgÅĤosem": 5764,
      "laznej": 5765,
      "Ġkonty": 5766,
      "Ġkonserw": 5767,
      "Ġkoncent": 5768,
      "Ġkontempl": 5769,
      "ĠchociaÅ¼": 5770,
      "garbush": 5771,
      "ĠokrÄĻ": 5772,
      "Ġbior": 5773,
      "Ġbibli": 5774,
      "Ġbiur": 5775,
      "Ġbitwa": 5776,
      "ĠpotÄĻÅ¼": 5777,
      "padÅĤ": 5778,
      "ĠmusiaÅĤa": 5779,
      "Ġmusimy": 5780,
      "ĠdziÅĽ": 5781,
      "Ġdziale": 5782,
      "ĠÅ¼oÅĤÄħd": 5783,
      "ĠTeÅ¼": 5784,
      "ĠZap": 5785,
      "ĠNiemcom": 5786,
      "ĠHoward": 5787,
      "ĠzostaÅĤa": 5788,
      "wiÄħz": 5789,
      "wiÄħte": 5790,
      "wiÄħzy": 5791,
      "ĠWiesz": 5792,
      "ĠWielu": 5793,
      "ĠprawÄħ": 5794,
      "Ġmiast": 5795,
      "Ġmiastem": 5796,
      "Ġpierwszej": 5797,
      "ĠsÅĤup": 5798,
      "ĠsÅĤuÅ¼": 5799,
      "ĠsÅĤuÅ¼yÅĤ": 5800,
      "ĠsÅĤucha": 5801,
      "ĠsÅĤucham": 5802,
      "Ġwest": 5803,
      "ĠjeÅĦcom": 5804,
      "ĠÅ¼oÅĤnierzem": 5805,
      "rzÄħt": 5806,
      "ĠÅ¼aden": 5807,
      "ĠzabiÅĤ": 5808,
      "Ġzrobili": 5809,
      "ĠzrobiÅĤy": 5810,
      "ĠzrobiÅĤem": 5811,
      "Ġbiednych": 5812,
      "ĠbiedakÃ³w": 5813,
      "orys": 5814,
      "Ġwielka": 5815,
      "Ġwielkiego": 5816,
      "ĠAnglika": 5817,
      "ĠÅĤago": 5818,
      "ereg": 5819,
      "ÅĦstwie": 5820,
      "ĠkoÅĦczyÅĤa": 5821,
      "Ġstart": 5822,
      "Ġstarca": 5823,
      "ĠstarcÃ³w": 5824,
      "Ġzostawili": 5825,
      "Ġzostawiono": 5826,
      "Nawiasem": 5827,
      "ĠrÃ³Å¼ne": 5828,
      "ĠrÃ³Å¼owÄħ": 5829,
      "ĠsÅĤow": 5830,
      "ĠsÅĤÃ³w": 5831,
      "Ġzdarzy": 5832,
      "Ġzdania": 5833,
      "Ġzdaniem": 5834,
      "Ġniemieckiej": 5835,
      "ĠzasnÄħÄĩ": 5836,
      "ĠczujÄħc": 5837,
      "Ġkobiet": 5838,
      "Ġpowrocie": 5839,
      "ĠpytaÅĤ": 5840,
      "Ġkieszeni": 5841,
      "ĠkieÅĤb": 5842,
      "Ġpopra": 5843,
      "ĠchÅĤopcÃ³w": 5844,
      "ĠchÅĤopcem": 5845,
      "ĠsiÅĤ": 5846,
      "ĠmÅĤodzi": 5847,
      "ĠmÅĤoda": 5848,
      "ĠmÅĤode": 5849,
      "ĠwydawaÅĤo": 5850,
      "Ġwydarzenie": 5851,
      "ĠCoca": 5852,
      "Ġarmi": 5853,
      "Ġstarym": 5854,
      "ĠKarolinie": 5855,
      "ĠmaÅĤego": 5856,
      "stÄħpie": 5857,
      "Ġniezmie": 5858,
      "Ġprzyjaciel": 5859,
      "ĠCzter": 5860,
      "ĠCzwar": 5861,
      "ĠCzerwo": 5862,
      "Ġtelefonicz": 5863,
      "Ġjednost": 5864,
      "jemy": 5865,
      "Ġlaborator": 5866,
      "Ġtwarze": 5867,
      "ĠtwarzÄħ": 5868,
      "ĠBoga": 5869,
      "ĠOdp": 5870,
      "ĠOdby": 5871,
      "Ġaktu": 5872,
      "Ġakura": 5873,
      "Ġdusz": 5874,
      "Ġdusza": 5875,
      "ĠkrzyÅ¼a": 5876,
      "ĠBarb": 5877,
      "ĠBardzo": 5878,
      "Ġkolei": 5879,
      "ĠrobiÅĤa": 5880,
      "cyjnych": 5881,
      "ĠszybÄĻ": 5882,
      "Ġmieszkali": 5883,
      "ĠmieszkaÅĦ": 5884,
      "ĠmieszkaÅĦcÃ³w": 5885,
      "dzÄħce": 5886,
      "szulek": 5887,
      "ĠpokojÃ³w": 5888,
      "Ġkolce": 5889,
      "Ġkoloru": 5890,
      "ĠÅ»y": 5891,
      "ĠÅ»oÅĤnierze": 5892,
      "ĠtrupÃ³w": 5893,
      "ĠzachÄĻ": 5894,
      "Ġcyf": 5895,
      "Ġfilmu": 5896,
      "Ġskonstru": 5897,
      "Ġskurwy": 5898,
      "ĠzakrÄĻ": 5899,
      "Ġdekora": 5900,
      "Ġkraj": 5901,
      "ĠkradzieÅ¼": 5902,
      "ĠnauczyÅĤ": 5903,
      "ĠbraÄĩ": 5904,
      "Ġbramy": 5905,
      "Ġpokra": 5906,
      "Ġpokryty": 5907,
      "ĠczeÅĽÄĩ": 5908,
      "Ġczekali": 5909,
      "ĠczekaÄĩ": 5910,
      "tycznych": 5911,
      "tycznej": 5912,
      "ĠStaÅĤo": 5913,
      "ĠStrach": 5914,
      "ĠÅ¼yciem": 5915,
      "ĠhistoriÄĻ": 5916,
      "iomie": 5917,
      "Ġsens": 5918,
      "Ġwarstw": 5919,
      "ĠzginÄĻli": 5920,
      "ÅĽmiesz": 5921,
      "Ġgranicy": 5922,
      "Ġczarnego": 5923,
      "ĠÅĽcianach": 5924,
      "ĠOpowiedziaÅĤ": 5925,
      "ĠOpowiadaÅĤ": 5926,
      "ĠsÅĤynnego": 5927,
      "glÄħdajÄħc": 5928,
      "ĠpÅĤakaÅĤ": 5929,
      "ĠpÅĤÃ³cie": 5930,
      "Ġprezent": 5931,
      "Ġprenum": 5932,
      "ĠschowaÅĤ": 5933,
      "Ġzwykle": 5934,
      "roponowaÅĤ": 5935,
      "Ġdopas": 5936,
      "ĠuwaÅ¼aÅĤa": 5937,
      "telnik": 5938,
      "Ġwieczor": 5939,
      "ĠwiecznoÅĽÄĩ": 5940,
      "Ġnocnym": 5941,
      "Ġnocnej": 5942,
      "ĠmyÅĽliw": 5943,
      "ĠmusiaÅĤby": 5944,
      "wiadowcy": 5945,
      "Przez": 5946,
      "Ġataku": 5947,
      "Ġatmos": 5948,
      "ĠpatrzyÅĤ": 5949,
      "ĠpeÅĤni": 5950,
      "Ġpewnie": 5951,
      "Ġwpatru": 5952,
      "Ġwpatry": 5953,
      "ĠwpakowaÅĤ": 5954,
      "ÅĽleÄĩ": 5955,
      "ĠksiÄĻgi": 5956,
      "ĠpomysÅĤ": 5957,
      "ĠpomyÅĽleÄĩ": 5958,
      "ĠcÃ³rkÄħ": 5959,
      "Ġlotnictwa": 5960,
      "Ġlotniczej": 5961,
      "ĠMontanie": 5962,
      "ĠMontanÄħ": 5963,
      "Ġwojskowy": 5964,
      "ĠwojskowÄħ": 5965,
      "Ġwojskowego": 5966,
      "Ġoptyka": 5967,
      "stycznych": 5968,
      "Ġpowinno": 5969,
      "ĠzwrÃ³": 5970,
      "ĠzwÅĤaszcz": 5971,
      "Ġmedali": 5972,
      "Ġmetal": 5973,
      "Ġmelody": 5974,
      "ĠPowiedz": 5975,
      "ĠPowiedzieli": 5976,
      "Ġautor": 5977,
      "Ġauten": 5978,
      "Ġsprawie": 5979,
      "Ġsprawy": 5980,
      "Ġszeregu": 5981,
      "ĠDziki": 5982,
      "ĠDziaÅĤo": 5983,
      "ĠwolnoÅĽÄĩ": 5984,
      "Ġpowietrza": 5985,
      "ĠpisaÄĩ": 5986,
      "ĠpisaÅĤem": 5987,
      "ĠodpowiedÅº": 5988,
      "Ġbombardowaniu": 5989,
      "kÅĤego": 5990,
      "omiÅĤ": 5991,
      "Ġostatnie": 5992,
      "Ġostatnim": 5993,
      "Ġostatniego": 5994,
      "Ġjedynie": 5995,
      "Ġwysokie": 5996,
      "ĠÅĽpiew": 5997,
      "ĠdziewczÄĻta": 5998,
      "Ġpalce": 5999,
      "ĠpalcÃ³w": 6000,
      "Ġczytania": 6001,
      "Ġsamolotu": 6002,
      "ĠprzedstawiaÅĤ": 6003,
      "ĠprzedstawiaÄĩ": 6004,
      "ĠwÅĤasne": 6005,
      "ĠwÅĤasnej": 6006,
      "ĠJestem": 6007,
      "Ġmiejscach": 6008,
      "Ġ1964": 6009,
      "lator": 6010,
      "ĠtorbÄĻ": 6011,
      "Ġstrony": 6012,
      "siadÅĤ": 6013,
      "ĠmusieliÅĽmy": 6014,
      "Ġmogliby": 6015,
      "Ġparape": 6016,
      "ĠopuÅĽciÄĩ": 6017,
      "Ġstanowisko": 6018,
      "ĠwÄħtpli": 6019,
      "czniku": 6020,
      "Ġtrakt": 6021,
      "Ġdrzewo": 6022,
      "Ġdrewnia": 6023,
      "Ġofice": 6024,
      "Ġoficja": 6025,
      "ĠjÄĻki": 6026,
      "stracyj": 6027,
      "ĠpoczÄħtkowo": 6028,
      "ĠwyglÄħdaÅĤa": 6029,
      "Ġgrona": 6030,
      "Ġgrotesk": 6031,
      "ĠgÅĤupie": 6032,
      "Ġukra": 6033,
      "Ġceny": 6034,
      "ĠMÃ³wiÅĤa": 6035,
      "ĠleÅ¼Äħc": 6036,
      "Ġkurty": 6037,
      "ĠpozostaÅĤo": 6038,
      "Ġprawdziwego": 6039,
      "torÃ³w": 6040,
      "ĠpÅĤyt": 6041,
      "Ġmorskiej": 6042,
      "ĠnastÄĻpujÄħcÄħ": 6043,
      "Ġporwany": 6044,
      "Ġstalowego": 6045,
      "Ġstalowych": 6046,
      "ĠprzestaÄĩ": 6047,
      "ĠPowiedziaÅĤem": 6048,
      "Ġczterysta": 6049,
      "ĠDzwo": 6050,
      "ĠMyÅĽli": 6051,
      "ĠAleÅ¼": 6052,
      "ĠfiliÅ¼": 6053,
      "ĠobietnicÄĻ": 6054,
      "ĠopowiedzieÄĩ": 6055,
      "Ġpozostanie": 6056,
      "ĠFrank": 6057,
      "ĠFrancji": 6058,
      "ĠFrancu": 6059,
      "ĠRolandem": 6060,
      "Ġangielsku": 6061,
      "Ġszeregow": 6062,
      "Ġserce": 6063,
      "Ġserca": 6064,
      "ĠdowiedzieÄĩ": 6065,
      "ĠoÅĽwiad": 6066,
      "Ġokazji": 6067,
      "ĠnazywajÄħ": 6068,
      "ĠbraÅĤa": 6069,
      "ĠdotknÄħÅĤ": 6070,
      "ĠdotarÅĤ": 6071,
      "Ġdoskon": 6072,
      "ĠzatrzymaÄĩ": 6073,
      "ĠwyjÅĽÄĩ": 6074,
      "Ġprzewodni": 6075,
      "Ġumil": 6076,
      "ĠumieraÅĤ": 6077,
      "ĠWilli": 6078,
      "nosili": 6079,
      "ĠkoÅĤd": 6080,
      "ĠkopuÅĤÄħ": 6081,
      "Ġlodzie": 6082,
      "Ġlokomoty": 6083,
      "Ġlodem": 6084,
      "ĠlodÃ³wki": 6085,
      "Ġobecnych": 6086,
      "Ġlekarza": 6087,
      "ĠwÅĤaÅĽciwie": 6088,
      "ĠwÅĤaÅĽciciel": 6089,
      "ĠbohaterÃ³w": 6090,
      "Ġbudynkiem": 6091,
      "ĠznajdujÄħ": 6092,
      "Ġziemskie": 6093,
      "Ġziemskiej": 6094,
      "Ġkolejowej": 6095,
      "ĠmuszkieterÃ³w": 6096,
      "klej": 6097,
      "Ġprywat": 6098,
      "Ġplutonie": 6099,
      "Ġzbrod": 6100,
      "Ġzniszczone": 6101,
      "ĠtrafiÅĤa": 6102,
      "Ġtajemnicy": 6103,
      "ĠtajemnicÄħ": 6104,
      "Ġdwoma": 6105,
      "Ġbliska": 6106,
      "Ġpolecenia": 6107,
      "Ġwykorzysta": 6108,
      "Ġstrzel": 6109,
      "ĠurzÄħdzenia": 6110,
      "ĠurzÄħdzenie": 6111,
      "ÅĦczycy": 6112,
      "ĠTyle": 6113,
      "Ġmiliony": 6114,
      "Ġspotka": 6115,
      "Ġgorsze": 6116,
      "ĠMusi": 6117,
      "Ġpowierzchnia": 6118,
      "Ġzebranie": 6119,
      "ĠpacjentÃ³w": 6120,
      "ciÄħgali": 6121,
      "Ġpowtarza": 6122,
      "ĠÅĽmiesznego": 6123,
      "ĠGdzieÅĽ": 6124,
      "Ġogromnie": 6125,
      "Ġogromne": 6126,
      "ĠkonwojentÃ³w": 6127,
      "ĠkierownicÄĻ": 6128,
      "ĠmÅĤodych": 6129,
      "ĠksiÄĻÅ¼yca": 6130,
      "Czas": 6131,
      "ĠÅĤoÅ¼a": 6132,
      "ĠplecÃ³w": 6133,
      "Ġzmianie": 6134,
      "Ġdiabli": 6135,
      "Ġmamo": 6136,
      "Ġklinice": 6137,
      "ĠkrzeÅĽle": 6138,
      "Ġkrucjata": 6139,
      "Ġubranie": 6140,
      "ĠuÅĽmiechem": 6141,
      "resaria": 6142,
      "ĠtytuÅĤ": 6143,
      "jeÅ¼dÅ¼aÅĤ": 6144,
      "Ġfortepi": 6145,
      "Ġpiechocie": 6146,
      "Ġpiosenki": 6147,
      "ĠpiosenkÄĻ": 6148,
      "Ġstraszne": 6149,
      "Ġstopni": 6150,
      "Ġzdrowy": 6151,
      "Ġokrucie": 6152,
      "Ġbitwie": 6153,
      "ĠpowaÅ¼nie": 6154,
      "sztowany": 6155,
      "Ġblasku": 6156,
      "ĠbrzmiaÅĤa": 6157,
      "Ġpogrzebie": 6158,
      "Ġpolicji": 6159,
      "ĠBibliÄĻ": 6160,
      "ĠzastrzeliÄĩ": 6161,
      "Ġwybory": 6162,
      "Ġcuch": 6163,
      "Ġkonieczne": 6164,
      "ĠprzyszÅĤoÅĽci": 6165,
      "Ġszaf": 6166,
      "ĠMercede": 6167,
      "omoÅĽci": 6168,
      "ĠStanÃ³w": 6169,
      "Ġfotografi": 6170,
      "Ġfotografie": 6171,
      "onwojent": 6172,
      "Ġlekka": 6173,
      "Ġpisarz": 6174,
      "Ġpunktem": 6175,
      "ĠskÅĤadaÅĤ": 6176,
      "ĠsytuacjÄĻ": 6177,
      "ĠUwaÅ¼aÅĤ": 6178,
      "ĠÅ»egnajcie": 6179,
      "ĠÅ»elaznej": 6180,
      "Ġlotniczych": 6181,
      "Ġplanecie": 6182,
      "ĠszeÅĽÄĩdziesiÄħtce": 6183,
      "Ġfrontowych": 6184,
      "ĠgÅĤÄĻboko": 6185,
      "rÅ¼nÄħÅĤ": 6186,
      "ĠrzuciÅĤ": 6187,
      "ĠparÄħ": 6188,
      "ĠnÃ³Å¼kami": 6189,
      "ĠzÄĻb": 6190,
      "ĠzgodziÅĤ": 6191,
      "ĠzaÅĤoÅ¼onymi": 6192,
      "Ġdowci": 6193,
      "ĠdowÃ³d": 6194,
      "Ġoczeku": 6195,
      "ĠkrÄĻgosÅĤu": 6196,
      "ĠpogodÄĻ": 6197,
      "ĠÅ¼Ã³ÅĤtej": 6198,
      "ĠuwagÄĻ": 6199,
      "ĠutrzymaÄĩ": 6200,
      "ĠusiadÅĤa": 6201,
      "ĠPrawie": 6202,
      "ĠszukaÄĩ": 6203,
      "Ġsztyw": 6204,
      "Ġsztylet": 6205,
      "ĠpodrygiwaÅĤ": 6206,
      "ĠOstatniÄħ": 6207,
      "Ġfantasty": 6208,
      "ĠKrzyÅ¼a": 6209,
      "ĠwindÄħ": 6210,
      "Ġkapelu": 6211,
      "Ġzapewne": 6212,
      "Ġwzroku": 6213,
      "Ġwzrostu": 6214,
      "Ġsklepie": 6215,
      "Ġstoliku": 6216,
      "ĠmÃ³zg": 6217,
      "ĠciepÅĤo": 6218,
      "ĠcierpiaÅĤ": 6219,
      "Ġzielonym": 6220,
      "ĠRosjanin": 6221,
      "ĠWietnam": 6222,
      "ĠdzieciÄĻcej": 6223,
      "ĠtÅĤuszczu": 6224,
      "Ġsamochodu": 6225,
      "ĠsamochodÃ³w": 6226,
      "ĠÅĤyÅ¼ki": 6227,
      "ĠÅĤyÅ¼kÄĻ": 6228,
      "ĠSzkoÅĤy": 6229,
      "ĠwysokoÅĽci": 6230,
      "Ġtortur": 6231,
      "Ġtorturach": 6232,
      "ĠjÄĻzyku": 6233,
      "StraÅ¼nicy": 6234,
      "Ġscenie": 6235,
      "ĠwpadaÅĤo": 6236,
      "ĠwÃ³zka": 6237,
      "ĠmÄħdro": 6238,
      "ĠkamieÅĦ": 6239,
      "Ġbiegn": 6240,
      "ĠpokazaÄĩ": 6241,
      "Ġpomieszczenia": 6242,
      "Ġpostaci": 6243,
      "ĠpolegaÅĤa": 6244,
      "ĠpolegÅĤych": 6245,
      "ĠpoczuÅĤ": 6246,
      "ĠpopoÅĤudniem": 6247,
      "Ġzawias": 6248,
      "ĠzaczynaÅĤ": 6249,
      "ĠzajmowaÅĤ": 6250,
      "Ġstrumienia": 6251,
      "ĠpodÅĤogi": 6252,
      "Ġmundur": 6253,
      "ĠdziaÅĤaÅĤ": 6254,
      "ĠdziaÅĤka": 6255,
      "Ġmocno": 6256,
      "Ġmodlit": 6257,
      "Ġrozpro": 6258,
      "Ġwiadomo": 6259,
      "ĠwiadomoÅĽÄĩ": 6260,
      "ĠkupiÅĤ": 6261,
      "ĠciaÅĤami": 6262,
      "ĠwziÄħÄĩ": 6263,
      "ĠwzglÄĻdu": 6264,
      "ĠwzglÄĻdem": 6265,
      "Ġskraj": 6266,
      "Ġotwartym": 6267,
      "Ġbogat": 6268,
      "Ġbogaty": 6269,
      "ĠJednak": 6270,
      "ĠsÄħsiednim": 6271,
      "Ġzamieszka": 6272,
      "Ġogrodzie": 6273,
      "Ġzobaczyli": 6274,
      "Ġtrzymano": 6275,
      "ĠjakiejÅĽ": 6276,
      "ĠamerykaÅĦskimi": 6277,
      "ĠgÅĤoÅĽnik": 6278,
      "ĠsinoÅ¼Ã³ÅĤtymi": 6279,
      "Ġtelewizji": 6280,
      "ĠczÄĻÅĽciowo": 6281,
      "Ġsprzedawca": 6282,
      "ĠwyjaÅĽniÄĩ": 6283,
      "ĠwszelkÄħ": 6284,
      "Ġbrylant": 6285,
      "ĠChrystusa": 6286,
      "ĠodesÅĤano": 6287,
      "Wszyst": 6288,
      "Wszyscy": 6289,
      "gencji": 6290,
      "Ġseksu": 6291,
      "ĠwnÄĻt": 6292,
      "Ġzwis": 6293,
      "Ġzjawi": 6294,
      "Ġopisy": 6295,
      "Ġkatak": 6296,
      "Ġkordzik": 6297,
      "Ġnakry": 6298,
      "ĠniedoÅĤÄĻÅ¼": 6299,
      "ĠdostaÄĩ": 6300,
      "ĠzawoÅĤaÅĤ": 6301,
      "Ġstylu": 6302,
      "Ġgrzecznie": 6303,
      "ĠprzejÅĽÄĩ": 6304,
      "Ġprzestrzeni": 6305,
      "ĠukÅĤadaÅĤ": 6306,
      "Ġadres": 6307,
      "lachtho": 6308,
      "ĠprzyjÄĻciu": 6309,
      "ĠDrugi": 6310,
      "Ġmufki": 6311,
      "Ġmuzyka": 6312,
      "ĠSÅĤowi": 6313,
      "ĠSÅĤowo": 6314,
      "Ġkanapy": 6315,
      "Ġlatryny": 6316,
      "Ġkulmina": 6317,
      "ĠmyÅĽleli": 6318,
      "ĠmyÅĽleÄĩ": 6319,
      "ĠskrzyÅ¼owaniu": 6320,
      "Ġotwory": 6321,
      "ĠGeneral": 6322,
      "ĠGeorge": 6323,
      "Ġzdecyd": 6324,
      "Ġzamyka": 6325,
      "ĠpierÅĽcion": 6326,
      "ĠpierÅĽcionek": 6327,
      "ĠecholaliÄĻ": 6328,
      "Ġspojrzenia": 6329,
      "ĠpotrzÄħsnÄħÅĤ": 6330,
      "ĠFevre": 6331,
      "Ġzachwytu": 6332,
      "ĠskoÅĦczyÅĤa": 6333,
      "ĠBernard": 6334,
      "ĠBernarda": 6335,
      "Ġdziewczynki": 6336,
      "ĠgÅĤupio": 6337,
      "Ġspecjalista": 6338,
      "ĠzwiÄħzku": 6339,
      "Ġentuzjazmu": 6340,
      "Ġgabinetu": 6341,
      "Ġnieustannie": 6342,
      "Anglik": 6343,
      "Anglicy": 6344,
      "Nikt": 6345,
      "wzglÄĻ": 6346,
      "zwoi": 6347,
      "ĠzÅĤamanÄħ": 6348,
      "ĠmateriaÅĤ": 6349,
      "Ġobiad": 6350,
      "ĠoglÄħdania": 6351,
      "Ġklien": 6352,
      "ĠkÅĤopot": 6353,
      "Ġnaszpik": 6354,
      "Ġbrzuch": 6355,
      "ĠBiedny": 6356,
      "ĠzapukaÅĤ": 6357,
      "Ġwydosta": 6358,
      "ĠoddziaÅĤu": 6359,
      "Ġprzygoda": 6360,
      "ĠprzypomniaÅĤa": 6361,
      "ĠZjednoczonych": 6362,
      "ĠSugarbush": 6363,
      "ĠSÅĤucham": 6364,
      "ĠAdama": 6365,
      "ĠAmeryce": 6366,
      "ĠOtworzyÅĤ": 6367,
      "ĠKlubu": 6368,
      "ĠRzeczywiÅĽcie": 6369,
      "ĠpraktykÄĻ": 6370,
      "ĠbydÅĤa": 6371,
      "Ġhukiem": 6372,
      "Ġpustyni": 6373,
      "ĠnajwiÄĻksz": 6374,
      "Ġtaras": 6375,
      "Ġimpresaria": 6376,
      "ĠbaweÅĤnia": 6377,
      "Ġdziury": 6378,
      "Ġdrobne": 6379,
      "Ġaksamitem": 6380,
      "ĠzakoÅĦczyÅĤ": 6381,
      "Ġczekola": 6382,
      "Ġprezyden": 6383,
      "ĠwyobraÅ¼aÄĩ": 6384,
      "Ġbombardowaniem": 6385,
      "ĠdrezdeÅĦczykÃ³w": 6386,
      "ĠkoÅĤnierz": 6387,
      "ĠdorosÅĤych": 6388,
      "ĠmilionÃ³w": 6389,
      "Ġramionach": 6390,
      "ĠpoÅ¼arnej": 6391,
      "dopodobnÄħ": 6392,
      "ĠszybkoÅĽciÄħ": 6393,
      "Ġbursztynie": 6394,
      "Ġreklamy": 6395,
      "ĠzrezygnowaÄĩ": 6396,
      "Ġmagnetyzm": 6397,
      "ĠEwangelii": 6398,
      "ĠusiÅĤujÄħc": 6399,
      "Ġcharaktery": 6400,
      "ĠpodszewkÄħ": 6401,
      "ĠHiroszimÄĻ": 6402,
      "Ã¼nf": 6403,
      "ĠciÄħÅ¼y": 6404,
      "ĠpÅĤuc": 6405,
      "ĠzaÅĤat": 6406,
      "Ġzoolo": 6407,
      "ĠokaÅ¼e": 6408,
      "Ġobywat": 6409,
      "ĠkamerÄĻ": 6410,
      "Ġpociski": 6411,
      "ĠniektÃ³rych": 6412,
      "Ġdopyty": 6413,
      "kazujÄħc": 6414,
      "Ġzainteres": 6415,
      "ĠgwoÅºdzi": 6416,
      "ĠprzeraÅºli": 6417,
      "ĠPlacid": 6418,
      "ĠPensyl": 6419,
      "ĠWschod": 6420,
      "ĠNathan": 6421,
      "Ġkolorze": 6422,
      "ĠkorzystajÄħc": 6423,
      "ĠmineraÅĤy": 6424,
      "wieziono": 6425,
      "ĠgodnoÅĽÄĩ": 6426,
      "Ġwozem": 6427,
      "Ġpodkoszulek": 6428,
      "ĠpodejrzewaÅĤ": 6429,
      "ĠJohna": 6430,
      "ĠSchlachtho": 6431,
      "ĠSÅĤusznie": 6432,
      "Ġmonografii": 6433,
      "ĠfarbÄħ": 6434,
      "Ġmalutki": 6435,
      "Ġmieszani": 6436,
      "Ġkabiny": 6437,
      "Ġkaloryfera": 6438,
      "Ġczasopism": 6439,
      "ĠLokomoty": 6440,
      "Ġlegowiska": 6441,
      "polis": 6442,
      "Ġhonoru": 6443,
      "ĠprzedmieÅĽciu": 6444,
      "Ġzaplecze": 6445,
      "ĠPoÅĤudni": 6446,
      "ĠPozostali": 6447,
      "ĠnajpiÄĻk": 6448,
      "ĠliczbÄĻ": 6449,
      "ĠEliot": 6450,
      "ĠUniwersytetu": 6451,
      "Ġkonduktor": 6452,
      "Ġtrzewiki": 6453,
      "ĠÅĽmiertelnie": 6454,
      "ĠFiladelfi": 6455,
      "Ġmarmolady": 6456,
      "Ġtrumny": 6457,
      "ĠpiÄĻÄĩdziesiÄĻciu": 6458,
      "ĠpÅĤakaÄĩ": 6459,
      "ĠpÃ³ÅĤwys": 6460,
      "ĠpoÅĽwiata": 6461,
      "ĠokolicznoÅĽci": 6462,
      "Ġlokalu": 6463,
      "ĠDziewicy": 6464,
      "Ġartylerzy": 6465,
      "gryzÅĤa": 6466,
      "Ġplutonem": 6467,
      "ĠfunkcjonowaÄĩ": 6468,
      "ĠskÅĤadaÅĤa": 6469,
      "Ġsekun": 6470,
      "Ġprofesorem": 6471,
      "Ġznakomicie": 6472,
      "ĠnieskoÅĦczono": 6473,
      "ĠSkurczybykÃ³w": 6474,
      "ĠmanewrÃ³w": 6475,
      "Ġfantastycznonaukowych": 6476,
      "ĠIndianapolis": 6477,
      "Czterookich": 6478,
      "Walencja": 6479,
      "Ġaresztowany": 6480,
      "ĠpamiÄħ": 6481,
      "Ġswasty": 6482,
      "ĠzaÅĤad": 6483,
      "Ġtransp": 6484,
      "Ġodzna": 6485,
      "Ġnatomiast": 6486,
      "Ġbatonik": 6487,
      "Ġponad": 6488,
      "ĠpobliÅ¼u": 6489,
      "Ġnietope": 6490,
      "ĠnieprawdopodobnÄħ": 6491,
      "Ġniepotrzeb": 6492,
      "Ġzazwyczaj": 6493,
      "Ġwydoby": 6494,
      "Ġgener": 6495,
      "Ġgimnasty": 6496,
      "ĠgaÅĤÄħz": 6497,
      "Ġulubi": 6498,
      "ĠuÅĽwiadomiÅĤ": 6499,
      "ĠPalesty": 6500,
      "Ġcentrum": 6501,
      "ĠÅĽlizgaÅĤ": 6502,
      "ĠprzywykÅĤ": 6503,
      "Ġspinki": 6504,
      "ĠZamiast": 6505,
      "ĠchrzeÅĽcija": 6506,
      "ĠMÄĻÅ¼czy": 6507,
      "Ġfrancu": 6508,
      "Ġfosforyzu": 6509,
      "topniowo": 6510,
      "Ġhotelu": 6511,
      "Ġzapragnie": 6512,
      "ĠPoczÄħtkowo": 6513,
      "ĠsÄħsiedztwie": 6514,
      "Ġskurwysy": 6515,
      "Ġprenumera": 6516,
      "ĠzwÅĤaszcza": 6517,
      "ĠfiliÅ¼an": 6518,
      "ĠSchlachthof": 6519,
      "ĠFiladelfii": 6520,
      "12": 6521,
      "35": 6522,
      "39": 6523,
      "Ach": 6524,
      "Autor": 6525,
      "Bo": 6526,
      "Bar": 6527,
      "Bied": 6528,
      "Ci": 6529,
      "Dro": 6530,
      "Dwa": 6531,
      "Dale": 6532,
      "Dowo": 6533,
      "Dwaj": 6534,
      "Fre": 6535,
      "Istoty": 6536,
      "Kilgore": 6537,
      "Kwartet": 6538,
      "Kobie": 6539,
      "Konwojent": 6540,
      "Mi": 6541,
      "Major": 6542,
      "Nad": 6543,
      "Re": 6544,
      "Sp": 6545,
      "SÄħ": 6546,
      "Sam": 6547,
      "Spy": 6548,
      "Sze": 6549,
      "Stopniowo": 6550,
      "Trze": 6551,
      "Tej": 6552,
      "Tralfamador": 6553,
      "Wi": 6554,
      "Wie": 6555,
      "WÅĤa": 6556,
      "Wtedy": 6557,
      "WÅĤaÅĽnie": 6558,
      "Werner": 6559,
      "Zie": 6560,
      "Zat": 6561,
      "ZnajdowaÅĤ": 6562,
      "ac": 6563,
      "ag": 6564,
      "asz": 6565,
      "api": 6566,
      "aun": 6567,
      "bÅĤ": 6568,
      "bnie": 6569,
      "brze": 6570,
      "bem": 6571,
      "ber": 6572,
      "bki": 6573,
      "bÅĤa": 6574,
      "bru": 6575,
      "bnego": 6576,
      "bod": 6577,
      "baÄĩ": 6578,
      "bard": 6579,
      "bÅĤÄĻ": 6580,
      "byÅĤa": 6581,
      "brzmi": 6582,
      "ckie": 6583,
      "cone": 6584,
      "caÅĤem": 6585,
      "cÄħcy": 6586,
      "conego": 6587,
      "ctwo": 6588,
      "ckimi": 6589,
      "dro": 6590,
      "dak": 6591,
      "dre": 6592,
      "dby": 6593,
      "dnÄħ": 6594,
      "dnych": 6595,
      "dom": 6596,
      "dnej": 6597,
      "dol": 6598,
      "dowe": 6599,
      "dÄħcy": 6600,
      "domy": 6601,
      "ev": 6602,
      "enie": 6603,
      "eta": 6604,
      "ebu": 6605,
      "esie": 6606,
      "eszÅĤa": 6607,
      "elektry": 6608,
      "egnajcie": 6609,
      "fil": 6610,
      "fery": 6611,
      "fel": 6612,
      "fes": 6613,
      "fur": 6614,
      "fszty": 6615,
      "ffe": 6616,
      "fÃ¼nf": 6617,
      "grze": 6618,
      "gne": 6619,
      "gat": 6620,
      "gla": 6621,
      "gnÄħ": 6622,
      "gÅĤu": 6623,
      "hard": 6624,
      "iw": 6625,
      "iÄĩ": 6626,
      "iÅĤo": 6627,
      "iaÅĤy": 6628,
      "iÅĽcie": 6629,
      "iament": 6630,
      "jer": 6631,
      "jaÅĤy": 6632,
      "jnym": 6633,
      "jskiego": 6634,
      "jonu": 6635,
      "jczycy": 6636,
      "kam": 6637,
      "kar": 6638,
      "krzy": 6639,
      "kcie": 6640,
      "kary": 6641,
      "kowej": 6642,
      "kraw": 6643,
      "kowych": 6644,
      "kaÅĤem": 6645,
      "kowaÅĤa": 6646,
      "kÃ³d": 6647,
      "kowany": 6648,
      "karÅĤat": 6649,
      "ll": 6650,
      "ls": 6651,
      "lÄħ": 6652,
      "lÃ³": 6653,
      "lli": 6654,
      "lak": 6655,
      "lki": 6656,
      "lowaÅĤ": 6657,
      "lÄħd": 6658,
      "lowaÄĩ": 6659,
      "lnoÅĽÄĩ": 6660,
      "lnicz": 6661,
      "lsyj": 6662,
      "mÄħ": 6663,
      "mki": 6664,
      "men": 6665,
      "mami": 6666,
      "met": 6667,
      "nko": 6668,
      "nnej": 6669,
      "nowaÅĤ": 6670,
      "nga": 6671,
      "nowego": 6672,
      "nkach": 6673,
      "nÄħcego": 6674,
      "nÄħcÄħ": 6675,
      "ok": 6676,
      "ox": 6677,
      "oz": 6678,
      "oro": 6679,
      "ocie": 6680,
      "olo": 6681,
      "ogni": 6682,
      "ps": 6683,
      "pÅĤ": 6684,
      "piÄĻ": 6685,
      "pnie": 6686,
      "ple": 6687,
      "pla": 6688,
      "pon": 6689,
      "pnÄħÅĤ": 6690,
      "pek": 6691,
      "pter": 6692,
      "pera": 6693,
      "przytom": 6694,
      "ptr": 6695,
      "pchnÄħÅĤ": 6696,
      "ppel": 6697,
      "qu": 6698,
      "rna": 6699,
      "raÅĤa": 6700,
      "rowy": 6701,
      "rowi": 6702,
      "rwaÅĤ": 6703,
      "rpu": 6704,
      "rowej": 6705,
      "rche": 6706,
      "ring": 6707,
      "rowiec": 6708,
      "rtne": 6709,
      "sf": 6710,
      "sm": 6711,
      "sch": 6712,
      "sÅĤo": 6713,
      "sen": 6714,
      "snÄħ": 6715,
      "saÅĤy": 6716,
      "sÄħd": 6717,
      "skÄĻ": 6718,
      "skÃ³w": 6719,
      "sek": 6720,
      "seÅĤ": 6721,
      "sych": 6722,
      "ssa": 6723,
      "sowe": 6724,
      "syÅĤa": 6725,
      "sji": 6726,
      "spomina": 6727,
      "sachu": 6728,
      "tra": 6729,
      "tny": 6730,
      "tak": 6731,
      "tnego": 6732,
      "tkÄĻ": 6733,
      "trÄħ": 6734,
      "tamy": 6735,
      "tniki": 6736,
      "towano": 6737,
      "than": 6738,
      "uli": 6739,
      "uen": 6740,
      "uje": 6741,
      "utem": 6742,
      "uza": 6743,
      "upe": 6744,
      "ujÄħcych": 6745,
      "uszek": 6746,
      "varda": 6747,
      "vox": 6748,
      "wak": 6749,
      "wza": 6750,
      "wkÄĻ": 6751,
      "wowej": 6752,
      "wemu": 6753,
      "wszÄħ": 6754,
      "wrÃ³ciÅĤ": 6755,
      "wren": 6756,
      "yne": 6757,
      "ymo": 6758,
      "ydra": 6759,
      "zaÅĤa": 6760,
      "znÄħ": 6761,
      "zjÄħ": 6762,
      "zowej": 6763,
      "zel": 6764,
      "zdni": 6765,
      "znem": 6766,
      "zji": 6767,
      "zwanie": 6768,
      "zmem": 6769,
      "Ġow": 6770,
      "ĠÃ³w": 6771,
      "Ġew": 6772,
      "ĠrzÄħd": 6773,
      "Ġrzym": 6774,
      "Ġvox": 6775,
      "ÅĤowi": 6776,
      "ÅĤÄħd": 6777,
      "ÅĤowÄħ": 6778,
      "ieÅĤ": 6779,
      "ienie": 6780,
      "ierÄĻ": 6781,
      "Ġpl": 6782,
      "Ġpne": 6783,
      "Ġpta": 6784,
      "Ġpale": 6785,
      "Ġpowy": 6786,
      "Ġpary": 6787,
      "ĠprÄĻ": 6788,
      "ĠprzyÅĤo": 6789,
      "Ġsno": 6790,
      "Ġsowa": 6791,
      "Ġsera": 6792,
      "Ġsnach": 6793,
      "Ġswemu": 6794,
      "Ġwcze": 6795,
      "ĠwÅĽcie": 6796,
      "Ġwet": 6797,
      "Ġwsu": 6798,
      "Ġwsa": 6799,
      "Ġwpraw": 6800,
      "ĠwciÄħg": 6801,
      "ĠwstÄĻp": 6802,
      "Ġwilgo": 6803,
      "Ġwpuszcz": 6804,
      "ĠwchodziÅĤ": 6805,
      "ĠwciÄĻ": 6806,
      "Ġwnios": 6807,
      "Ġwcis": 6808,
      "Ġwpisa": 6809,
      "ĠwrÄĻcz": 6810,
      "Ġwobec": 6811,
      "ĠwtrÄħ": 6812,
      "ÄĻcz": 6813,
      "ÄĻdzie": 6814,
      "Ġnowych": 6815,
      "ĠnÃ³g": 6816,
      "Ġzar": 6817,
      "Ġzer": 6818,
      "Ġzor": 6819,
      "Ġzwa": 6820,
      "Ġzej": 6821,
      "Ġzmy": 6822,
      "Ġzwar": 6823,
      "Ġzgra": 6824,
      "Ġzwali": 6825,
      "ĠzÅĤÄħ": 6826,
      "Ġzmienia": 6827,
      "Ġzbiera": 6828,
      "ĠzÅĤych": 6829,
      "ĠzbliÅ¼": 6830,
      "ĠzÅĤego": 6831,
      "ĠznoÅĽ": 6832,
      "aÅĤe": 6833,
      "aÅĤÄĻ": 6834,
      "aÅĤÃ³w": 6835,
      "aÅĤej": 6836,
      "aÅĤos": 6837,
      "aÅĤek": 6838,
      "rzak": 6839,
      "rzaÅĤy": 6840,
      "rzona": 6841,
      "rzonych": 6842,
      "rzaku": 6843,
      "rzÄħcych": 6844,
      "Äħb": 6845,
      "Å¼on": 6846,
      "Å¼onego": 6847,
      "Å¼noÅĽciÄħ": 6848,
      "Å¼niku": 6849,
      "czak": 6850,
      "czam": 6851,
      "czer": 6852,
      "czkÃ³w": 6853,
      "cznicy": 6854,
      "czÄħce": 6855,
      "czÄħcego": 6856,
      "Ġtow": 6857,
      "Ġtch": 6858,
      "Ġtraw": 6859,
      "ĠtwÃ³r": 6860,
      "Ġtkli": 6861,
      "Ġtato": 6862,
      "owÅĤo": 6863,
      "owod": 6864,
      "owemu": 6865,
      "owsku": 6866,
      "ownikÃ³w": 6867,
      "ownika": 6868,
      "chÄħ": 6869,
      "chno": 6870,
      "chÅĤy": 6871,
      "chaÅĤy": 6872,
      "chce": 6873,
      "chot": 6874,
      "chaÅĤem": 6875,
      "chnÄĻli": 6876,
      "chanego": 6877,
      "Ã³rz": 6878,
      "Ã³ra": 6879,
      "Ã³Åºniej": 6880,
      "Ã³Å¼ek": 6881,
      "Ã³stwo": 6882,
      "Ġdem": 6883,
      "ĠdaÅĤa": 6884,
      "Ġdali": 6885,
      "Ġdal": 6886,
      "Ġdaj": 6887,
      "Ġdes": 6888,
      "ĠdwÃ³j": 6889,
      "Ġdamy": 6890,
      "Ġdwoj": 6891,
      "Ġdrzem": 6892,
      "Ġdiament": 6893,
      "Ġmego": 6894,
      "Ġmowa": 6895,
      "Ġmary": 6896,
      "Ġmrok": 6897,
      "ÅĽmi": 6898,
      "ÅĽÅĦ": 6899,
      "ÅĽwiÄĻ": 6900,
      "ÅĽmiu": 6901,
      "ÅĽniÄĻty": 6902,
      "ÅĽrednio": 6903,
      "Ġocie": 6904,
      "Ġokiem": 6905,
      "Ġosu": 6906,
      "ĠoglÄħd": 6907,
      "Ġoszu": 6908,
      "ĠoÅĽle": 6909,
      "Ġostro": 6910,
      "Ġokazy": 6911,
      "ĠoÅĤÃ³w": 6912,
      "ĠocknÄħÅĤ": 6913,
      "ĠodzieÅ¼": 6914,
      "Ġoczami": 6915,
      "ĠotaczajÄħc": 6916,
      "ĠoÅĽmiesz": 6917,
      "ĠkÄħ": 6918,
      "Ġkwi": 6919,
      "Ġkami": 6920,
      "Ġklo": 6921,
      "Ġkraw": 6922,
      "ĠkrÄħ": 6923,
      "Ġkran": 6924,
      "ĠkÅĤÄĻ": 6925,
      "Ġkwarte": 6926,
      "Ġkrop": 6927,
      "ĠkÅĤÃ³": 6928,
      "Ġkato": 6929,
      "gon": 6930,
      "godziÅĤ": 6931,
      "iÄĻci": 6932,
      "iÄĻcie": 6933,
      "iÄĻgnÄħÅĤ": 6934,
      "raj": 6935,
      "rak": 6936,
      "raÄĩ": 6937,
      "rane": 6938,
      "raki": 6939,
      "rado": 6940,
      "ranicz": 6941,
      "racaÅĤ": 6942,
      "radny": 6943,
      "rastÃ³w": 6944,
      "dzaÅĤa": 6945,
      "dzce": 6946,
      "dzali": 6947,
      "dzajÄħc": 6948,
      "dzajÄħcych": 6949,
      "Ġina": 6950,
      "Ġide": 6951,
      "Ġiden": 6952,
      "Ġign": 6953,
      "nio": 6954,
      "niny": 6955,
      "niÃ³w": 6956,
      "niÄħc": 6957,
      "niaÅĤa": 6958,
      "nicami": 6959,
      "nionych": 6960,
      "niarni": 6961,
      "niczych": 6962,
      "szÃ³w": 6963,
      "szer": 6964,
      "szkie": 6965,
      "sznego": 6966,
      "szczyÅĤ": 6967,
      "szkÃ³w": 6968,
      "szkÄħ": 6969,
      "szemu": 6970,
      "szpa": 6971,
      "szoÅĽÄĩ": 6972,
      "szyÅĤa": 6973,
      "szalni": 6974,
      "Ġnat": 6975,
      "Ġnarze": 6976,
      "Ġnawo": 6977,
      "Ġnaszy": 6978,
      "Ġnapi": 6979,
      "Ġnapo": 6980,
      "Ġnabo": 6981,
      "Ġnarod": 6982,
      "Ġnastawi": 6983,
      "Ġnapra": 6984,
      "Ġnaszego": 6985,
      "Ġnapot": 6986,
      "ĠnabraÅĤa": 6987,
      "ĠnaÅĽla": 6988,
      "Ġnadawano": 6989,
      "Ġnalocie": 6990,
      "Ġnaklej": 6991,
      "Ġnaelektry": 6992,
      "Ġnawza": 6993,
      "Ġjod": 6994,
      "Ġjach": 6995,
      "Ġjemu": 6996,
      "lili": 6997,
      "lina": 6998,
      "liÅĤo": 6999,
      "liÅĤy": 7000,
      "likiem": 7001,
      "limet": 7002,
      "stam": 7003,
      "stkÄĻ": 7004,
      "strÃ³j": 7005,
      "ĠbaÅĤ": 7006,
      "Ġbil": 7007,
      "Ġbal": 7008,
      "Ġbet": 7009,
      "ĠbeÅĤko": 7010,
      "ĠbÅĤÄħd": 7011,
      "nienie": 7012,
      "niepoko": 7013,
      "niewieraÅĤa": 7014,
      "Ġpola": 7015,
      "Ġpoby": 7016,
      "Ġposi": 7017,
      "ĠpoÅĤy": 7018,
      "ĠpodziaÅĤ": 7019,
      "Ġporu": 7020,
      "ĠpoÅ¼e": 7021,
      "Ġpopie": 7022,
      "Ġpogr": 7023,
      "Ġposzcze": 7024,
      "Ġpoto": 7025,
      "Ġpobo": 7026,
      "ĠpociÄħ": 7027,
      "Ġposy": 7028,
      "Ġposa": 7029,
      "ĠpoglÄħd": 7030,
      "Ġporzu": 7031,
      "ĠposiÅĤ": 7032,
      "ĠpostÄĻp": 7033,
      "Ġpokaz": 7034,
      "Ġpojem": 7035,
      "ĠpoÅĽmie": 7036,
      "ĠpoÅĤam": 7037,
      "Ġpochodzi": 7038,
      "ĠpochodziÅĤ": 7039,
      "ĠpociÄħga": 7040,
      "ĠpokazaÅĤ": 7041,
      "ĠposzÅĤy": 7042,
      "Ġpobud": 7043,
      "Ġpoeta": 7044,
      "robi": 7045,
      "rotnie": 7046,
      "rodzenie": 7047,
      "rzekÅĤ": 7048,
      "rzedaw": 7049,
      "rzeniami": 7050,
      "rzemija": 7051,
      "ille": 7052,
      "ilerie": 7053,
      "len": 7054,
      "leÄĩ": 7055,
      "lery": 7056,
      "lenia": 7057,
      "letek": 7058,
      "lebÄĻ": 7059,
      "lepiej": 7060,
      "cina": 7061,
      "ciaÅĤo": 7062,
      "ciod": 7063,
      "ciÅĤem": 7064,
      "ciliÅĽmy": 7065,
      "ciaka": 7066,
      "amki": 7067,
      "ampa": 7068,
      "amul": 7069,
      "amkni": 7070,
      "Ġniena": 7071,
      "Ġniece": 7072,
      "ĠnieÅº": 7073,
      "Ġniebie": 7074,
      "ĠnieÅ¼y": 7075,
      "Ġnieba": 7076,
      "Ġnietk": 7077,
      "Ġniespo": 7078,
      "Ġniedaw": 7079,
      "Ġniepoko": 7080,
      "Ġniewol": 7081,
      "Ġniebia": 7082,
      "ĠBaÅĤ": 7083,
      "ĠBom": 7084,
      "ĠBrÄħ": 7085,
      "arny": 7086,
      "arwi": 7087,
      "arki": 7088,
      "armi": 7089,
      "arkÄħ": 7090,
      "arsa": 7091,
      "Ġdory": 7092,
      "ĠdorÄĻ": 7093,
      "ĠdokÅĤa": 7094,
      "Ġdotycz": 7095,
      "Ġdokona": 7096,
      "Ġdochodzi": 7097,
      "Ġdopuszcz": 7098,
      "Ġdolny": 7099,
      "Ġdostar": 7100,
      "Ġdoktor": 7101,
      "ĠdokÄħd": 7102,
      "ĠdoznaÅĤ": 7103,
      "ĠdostaÅĤy": 7104,
      "ĠÅ¼er": 7105,
      "ĠÅ¼ÅĤo": 7106,
      "ĠÅ¼alu": 7107,
      "ĠÅ¼onie": 7108,
      "kani": 7109,
      "kane": 7110,
      "kate": 7111,
      "rzyÅ¼": 7112,
      "rzydzenia": 7113,
      "naÅ¼": 7114,
      "naÄĩ": 7115,
      "nady": 7116,
      "narod": 7117,
      "nacje": 7118,
      "Ã³wnieÅ¼": 7119,
      "dzin": 7120,
      "dziny": 7121,
      "dziwa": 7122,
      "dziÅĤy": 7123,
      "dziono": 7124,
      "dziliÅĽmy": 7125,
      "Ġzao": 7126,
      "Ġzady": 7127,
      "Ġzaby": 7128,
      "Ġzacze": 7129,
      "Ġzaga": 7130,
      "ĠzaÅĽli": 7131,
      "Ġzagu": 7132,
      "Ġzask": 7133,
      "Ġzarzu": 7134,
      "Ġzasko": 7135,
      "ĠzadaÄĩ": 7136,
      "Ġzastawi": 7137,
      "ĠzastÄĻp": 7138,
      "ĠzastaÅĤ": 7139,
      "ĠzaszÅĤo": 7140,
      "Ġzarabi": 7141,
      "ĠzadaÅĤ": 7142,
      "Ġzauf": 7143,
      "Ġzastanowi": 7144,
      "Ġzastrzy": 7145,
      "Ġzacis": 7146,
      "ĠzabraÅĤa": 7147,
      "ĠzastanowiÅĤ": 7148,
      "Ġzadzwo": 7149,
      "Ġzastos": 7150,
      "Ġzaniepoko": 7151,
      "erÃ³w": 7152,
      "erre": 7153,
      "erek": 7154,
      "eremo": 7155,
      "erhard": 7156,
      "wiaÅĤy": 7157,
      "widen": 7158,
      "wioru": 7159,
      "wiczki": 7160,
      "wionych": 7161,
      "wialni": 7162,
      "widzial": 7163,
      "ĠjeÅĽÄĩ": 7164,
      "Ġjedzenia": 7165,
      "Ġjeniec": 7166,
      "Ġjechali": 7167,
      "Ġjedzenie": 7168,
      "Ġjezdni": 7169,
      "atego": 7170,
      "atki": 7171,
      "atali": 7172,
      "atek": 7173,
      "czysz": 7174,
      "czyny": 7175,
      "czymy": 7176,
      "czysto": 7177,
      "czyliÅĽmy": 7178,
      "czynaÅĤ": 7179,
      "Ġwygo": 7180,
      "Ġwyla": 7181,
      "Ġwywo": 7182,
      "Ġwywie": 7183,
      "Ġwysze": 7184,
      "Ġwymy": 7185,
      "Ġwygi": 7186,
      "ĠwyÅĽcie": 7187,
      "Ġwywar": 7188,
      "ĠwydaÄĩ": 7189,
      "ĠwysiÅĤ": 7190,
      "ĠwystÄĻp": 7191,
      "Ġwychu": 7192,
      "ĠwyjrzaÅĤ": 7193,
      "ĠwydaÅĤ": 7194,
      "Ġwykona": 7195,
      "ĠwychodziÅĤ": 7196,
      "ĠwygÅĤo": 7197,
      "ĠwyciÄħgu": 7198,
      "Ġwytrze": 7199,
      "ĠwynosiÅĤ": 7200,
      "Ġwypisa": 7201,
      "ĠwykÅĤada": 7202,
      "ĠwyjeÅ¼dÅ¼": 7203,
      "ĠwychodziÄĩ": 7204,
      "Ġwydech": 7205,
      "ĠwyksztaÅĤ": 7206,
      "ĠwybieraÄĩ": 7207,
      "ĠwystÄħpie": 7208,
      "ĠwylÄħd": 7209,
      "Ġwyzwanie": 7210,
      "ÅĤaszcze": 7211,
      "Ġster": 7212,
      "Ġstwo": 7213,
      "ĠstÅĤu": 7214,
      "Ġstale": 7215,
      "ĠstÃ³ÅĤ": 7216,
      "Ġstew": 7217,
      "Ġstet": 7218,
      "Ġstere": 7219,
      "Ġstron": 7220,
      "Ġstuk": 7221,
      "ĠstrÃ³j": 7222,
      "ciem": 7223,
      "cieÄĩ": 7224,
      "cieliÅĽmy": 7225,
      "Ġgrz": 7226,
      "Ġgnia": 7227,
      "Ġgale": 7228,
      "Ġgary": 7229,
      "Ġget": 7230,
      "ĠgnieÅ¼": 7231,
      "Ġgarni": 7232,
      "ĠgieÅĤ": 7233,
      "ĠgaÅĤÄĻ": 7234,
      "ĠglebÄĻ": 7235,
      "Ġprzet": 7236,
      "Ġprzest": 7237,
      "Ġprzewi": 7238,
      "ĠprzeÅĤo": 7239,
      "Ġprzeby": 7240,
      "Ġprzepi": 7241,
      "ĠprzesiÄħ": 7242,
      "ĠprzejÄĻ": 7243,
      "Ġprzenik": 7244,
      "Ġprzebra": 7245,
      "Ġprzeszka": 7246,
      "Ġprzepis": 7247,
      "ĠprzestÄĻp": 7248,
      "ĠprzeraÅ¼": 7249,
      "ĠprzestaÅĤ": 7250,
      "ĠprzeÅĤam": 7251,
      "Ġprzekro": 7252,
      "ĠprzesunÄħÅĤ": 7253,
      "Ġprzenosi": 7254,
      "Ġprzegro": 7255,
      "ĠprzeraÅ¼ajÄħc": 7256,
      "ĠprzemÃ³w": 7257,
      "ĠprzekazaÅĤ": 7258,
      "Ġprzepraszam": 7259,
      "Ġprzelaty": 7260,
      "Ġprzeniesiono": 7261,
      "ĠprzegryzÅĤa": 7262,
      "Ġuci": 7263,
      "Ġuwi": 7264,
      "Ġuczy": 7265,
      "ĠuÅĤo": 7266,
      "Ġury": 7267,
      "Ġuru": 7268,
      "Ġuma": 7269,
      "Ġucho": 7270,
      "ĠuczÄħ": 7271,
      "Ġucha": 7272,
      "Ġudali": 7273,
      "ĠujrzaÅĤ": 7274,
      "ĠusÅĤu": 7275,
      "Ġubezpie": 7276,
      "Ġupoko": 7277,
      "Ġurat": 7278,
      "ĠumysÅĤ": 7279,
      "ĠumysÅĤu": 7280,
      "Ġuczucie": 7281,
      "ĠusiÄħÅĽÄĩ": 7282,
      "ÅĤotniki": 7283,
      "dyn": 7284,
      "dyni": 7285,
      "dynie": 7286,
      "dywaÄĩ": 7287,
      "dykujÄĻ": 7288,
      "dydat": 7289,
      "ĠPÅĤy": 7290,
      "ĠProwa": 7291,
      "ĠPamiÄĻ": 7292,
      "ĠPres": 7293,
      "ĠPine": 7294,
      "ĠPomy": 7295,
      "ĠPÅĤakaÅĤ": 7296,
      "ĠPÅĤaszcze": 7297,
      "Ġapa": 7298,
      "Ġauf": 7299,
      "Ġapat": 7300,
      "Ġapel": 7301,
      "dan": 7302,
      "darzy": 7303,
      "dana": 7304,
      "dacy": 7305,
      "dajÄħc": 7306,
      "dapter": 7307,
      "owieÅĽÄĩ": 7308,
      "orny": 7309,
      "orki": 7310,
      "oria": 7311,
      "dzieÅ¼y": 7312,
      "dzielajÄħc": 7313,
      "ĠWz": 7314,
      "ĠWar": 7315,
      "ĠWal": 7316,
      "ĠWes": 7317,
      "ĠWin": 7318,
      "ĠWstaÅĤ": 7319,
      "ĠWÅĤoÅ¼yÅĤ": 7320,
      "ĠWcale": 7321,
      "ĠWrÃ³ciÅĤ": 7322,
      "ĠWhi": 7323,
      "ĠWoj": 7324,
      "wani": 7325,
      "wanymi": 7326,
      "wanii": 7327,
      "ĠbyÅĤych": 7328,
      "noty": 7329,
      "nozie": 7330,
      "nois": 7331,
      "noszÄħc": 7332,
      "noll": 7333,
      "reb": 7334,
      "rek": 7335,
      "reny": 7336,
      "rena": 7337,
      "recja": 7338,
      "realu": 7339,
      "lany": 7340,
      "laga": 7341,
      "lazna": 7342,
      "laczego": 7343,
      "miaÅĤem": 7344,
      "ryw": 7345,
      "Ġtorze": 7346,
      "Ġtoale": 7347,
      "Ġtobie": 7348,
      "ĠtonÄĻ": 7349,
      "Ġtonem": 7350,
      "ĠtoczyÅĤa": 7351,
      "Ġcem": 7352,
      "Ġcyli": 7353,
      "ĠcentÃ³w": 7354,
      "Ġcowbo": 7355,
      "Ġceremo": 7356,
      "wojÄħ": 7357,
      "woÅĽciÄħ": 7358,
      "Ġodk": 7359,
      "Ġoder": 7360,
      "Ġodczy": 7361,
      "Ġodda": 7362,
      "Ġoddzie": 7363,
      "Ġodpo": 7364,
      "ĠodwaÅ¼": 7365,
      "ĠoddaÄĩ": 7366,
      "Ġodgry": 7367,
      "Ġodchy": 7368,
      "Ġodnale": 7369,
      "ĠodczytaÅĤ": 7370,
      "Ġodskaki": 7371,
      "Ġoddech": 7372,
      "Ġoddziale": 7373,
      "Ġodwagi": 7374,
      "ĠodbyÅĤa": 7375,
      "Ġczwo": 7376,
      "ĠczoÅĤ": 7377,
      "ĠczwÃ³r": 7378,
      "Ġcztero": 7379,
      "ĠczoÅĤo": 7380,
      "ĠNad": 7381,
      "ĠNan": 7382,
      "ĠNale": 7383,
      "ĠNum": 7384,
      "ÅĦska": 7385,
      "ÅĦskim": 7386,
      "ĠTim": 7387,
      "ĠTym": 7388,
      "ĠTatu": 7389,
      "ĠTrzymaÅĤ": 7390,
      "ĠTrzej": 7391,
      "ĠTalerz": 7392,
      "Ġkosz": 7393,
      "Ġkota": 7394,
      "ĠkoÅĤy": 7395,
      "Ġkoce": 7396,
      "Ġkopi": 7397,
      "Ġkopy": 7398,
      "Ġkocha": 7399,
      "ĠkolÄĻ": 7400,
      "Ġkostki": 7401,
      "Ġkochana": 7402,
      "ĠkolacjÄĻ": 7403,
      "ĠÅĽcie": 7404,
      "ĠÅĽnia": 7405,
      "ĠÅĽciÄħg": 7406,
      "ĠÅĽmiaÅĤ": 7407,
      "Ġprzym": 7408,
      "Ġprzywi": 7409,
      "Ġprzybi": 7410,
      "Ġprzywil": 7411,
      "Ġprzyzna": 7412,
      "ĠprzyglÄħdaÅĤ": 7413,
      "Ġprzytrzy": 7414,
      "Ġprzyjm": 7415,
      "ĠprzyjÄĻcie": 7416,
      "Ġprzykro": 7417,
      "ĠprzychodziÅĤ": 7418,
      "ĠprzysÅĤa": 7419,
      "ĠprzyglÄħdali": 7420,
      "ĠprzyznaÅĤ": 7421,
      "ĠprzyszÅĤy": 7422,
      "ĠprzynieÅĽli": 7423,
      "ĠprzyniosÅĤa": 7424,
      "ĠprzyÅĽpie": 7425,
      "Ġprzycisk": 7426,
      "Ġprzyzwoi": 7427,
      "Ġprzyczyny": 7428,
      "tyw": 7429,
      "tyfik": 7430,
      "siu": 7431,
      "siÅĤo": 7432,
      "Ġrobie": 7433,
      "Ġrokiem": 7434,
      "Ġrobo": 7435,
      "ĠrosÅĤy": 7436,
      "Ġroman": 7437,
      "Ġrolki": 7438,
      "kiet": 7439,
      "cynacje": 7440,
      "Ġmir": 7441,
      "ĠminÄħÅĤ": 7442,
      "ĠmitÃ³w": 7443,
      "Ġmikro": 7444,
      "ĠmijaÅĤ": 7445,
      "Ġmineral": 7446,
      "Ġmistrz": 7447,
      "adÅĤ": 7448,
      "adÄĻ": 7449,
      "adÅĤa": 7450,
      "adek": 7451,
      "tasa": 7452,
      "tajcie": 7453,
      "tarzem": 7454,
      "Ġtypu": 7455,
      "Ġtylnym": 7456,
      "niarz": 7457,
      "niania": 7458,
      "niajÄħ": 7459,
      "ÅĤyby": 7460,
      "ÅĤynÄħÄĩ": 7461,
      "aski": 7462,
      "asÅĤo": 7463,
      "asÅĤy": 7464,
      "assachu": 7465,
      "ĠspaÅĤ": 7466,
      "Ġspor": 7467,
      "Ġspali": 7468,
      "Ġspada": 7469,
      "ĠspeÅĤni": 7470,
      "obrze": 7471,
      "obem": 7472,
      "ĠZd": 7473,
      "ĠZu": 7474,
      "ĠZas": 7475,
      "ĠZwie": 7476,
      "ĠZaÅĤo": 7477,
      "ĠZaz": 7478,
      "ĠZoba": 7479,
      "ĠZosta": 7480,
      "ĠZgÅĤo": 7481,
      "ĠZgro": 7482,
      "ĠZresztÄħ": 7483,
      "ĠZrobiÅĤ": 7484,
      "ĠZdaje": 7485,
      "ĠZnajdowaÅĤ": 7486,
      "ĠZwiÄħz": 7487,
      "ĠZwiadowcy": 7488,
      "ĠZamkni": 7489,
      "wiec": 7490,
      "wiej": 7491,
      "wienie": 7492,
      "wieci": 7493,
      "wienia": 7494,
      "wierzyÅĤ": 7495,
      "ÅĽciÅĤo": 7496,
      "ÅĽciowych": 7497,
      "ÅĽciciel": 7498,
      "rus": 7499,
      "ruch": 7500,
      "ruÅ¼yÅĤ": 7501,
      "rudno": 7502,
      "runku": 7503,
      "Ġchi": 7504,
      "Ġchu": 7505,
      "Ġchod": 7506,
      "ĠchowaÅĤ": 7507,
      "ĠchcÄħ": 7508,
      "ĠchÅĤÃ³d": 7509,
      "Ġszar": 7510,
      "ĠszÅĤa": 7511,
      "Ġszan": 7512,
      "Ġszpi": 7513,
      "Ġszet": 7514,
      "Ġsznu": 7515,
      "Ġszuf": 7516,
      "Ġszok": 7517,
      "Ġszampa": 7518,
      "Ġniby": 7519,
      "Ġniski": 7520,
      "Ġniskich": 7521,
      "Ġnikim": 7522,
      "ĠDu": 7523,
      "ĠDer": 7524,
      "ĠDwie": 7525,
      "ĠDale": 7526,
      "ĠDali": 7527,
      "ĠDost": 7528,
      "ĠDaj": 7529,
      "ĠDrzwi": 7530,
      "ĠDlatego": 7531,
      "ĠDela": 7532,
      "ĠDarwi": 7533,
      "Ġgory": 7534,
      "ĠgoÅĽÄĩ": 7535,
      "ĠgorÄħ": 7536,
      "ĠgoÅĤÄħ": 7537,
      "Ġgong": 7538,
      "ĠgodÅĤo": 7539,
      "ĠgoliÄĩ": 7540,
      "Ġgorzej": 7541,
      "raziÅĤ": 7542,
      "Ġwod": 7543,
      "Ġwoli": 7544,
      "Ġwoda": 7545,
      "Ġwosk": 7546,
      "czeli": 7547,
      "czeÅĦ": 7548,
      "mieli": 7549,
      "miewaÅĤ": 7550,
      "mierzyÅĤ": 7551,
      "mienieni": 7552,
      "ĠMnie": 7553,
      "ĠMod": 7554,
      "ĠMal": 7555,
      "ĠMyli": 7556,
      "ĠMont": 7557,
      "ĠMassachu": 7558,
      "Ġpodwo": 7559,
      "Ġpodpi": 7560,
      "ĠpodrÄĻ": 7561,
      "ĠpodjÄĻ": 7562,
      "Ġpodtrzy": 7563,
      "ĠpodwÃ³r": 7564,
      "ĠpodwyÅ¼": 7565,
      "Ġpodkowy": 7566,
      "ĠpodniosÅĤa": 7567,
      "Ġpoddano": 7568,
      "Ġpodjadali": 7569,
      "Ġpowiedz": 7570,
      "Ġpowieszono": 7571,
      "ĠpowiesiÄĩ": 7572,
      "Ġpowiedziano": 7573,
      "ĠtakÄħ": 7574,
      "Ġmuze": 7575,
      "jera": 7576,
      "jekt": 7577,
      "jechaÅĤ": 7578,
      "jechaÅĤa": 7579,
      "cek": 7580,
      "ceni": 7581,
      "cero": 7582,
      "cewa": 7583,
      "cesie": 7584,
      "cesyj": 7585,
      "ĠCod": 7586,
      "ĠCÃ³Å¼": 7587,
      "ĠCaÅĤÄħ": 7588,
      "Ġteni": 7589,
      "Ġteatru": 7590,
      "ĠteraÅºniej": 7591,
      "ÅĤuma": 7592,
      "bili": 7593,
      "bina": 7594,
      "omos": 7595,
      "omet": 7596,
      "telu": 7597,
      "teran": 7598,
      "terom": 7599,
      "tesik": 7600,
      "jaÄĩ": 7601,
      "ĠJakiÅĽ": 7602,
      "ĠSen": 7603,
      "ĠSan": 7604,
      "ĠStaÅĤ": 7605,
      "ĠSwego": 7606,
      "ĠSkÅĤad": 7607,
      "ĠSkali": 7608,
      "ĠSina": 7609,
      "ĠSkÄħd": 7610,
      "ĠSaun": 7611,
      "ĠSqu": 7612,
      "ĠSiÄĻgnÄħÅĤ": 7613,
      "ĠSwojÄħ": 7614,
      "Ġwiecie": 7615,
      "ĠwieÅĽÄĩ": 7616,
      "ĠwieÅ¼y": 7617,
      "Ġwiejski": 7618,
      "rÃ³l": 7619,
      "rÃ³bu": 7620,
      "aledwie": 7621,
      "aleÅ¼nie": 7622,
      "Åºdzie": 7623,
      "Åºnia": 7624,
      "ÅºniÄĻ": 7625,
      "owywali": 7626,
      "ima": 7627,
      "Ġmorzu": 7628,
      "Ġmorzem": 7629,
      "Ġmotor": 7630,
      "Ġmodel": 7631,
      "ĠmogÅĤem": 7632,
      "Ġmotelu": 7633,
      "szeniu": 7634,
      "ĠAl": 7635,
      "ĠAr": 7636,
      "ĠAfry": 7637,
      "owiÅĤ": 7638,
      "Ġcokolwiek": 7639,
      "ĠOk": 7640,
      "ĠOczy": 7641,
      "ĠOfi": 7642,
      "ĠOba": 7643,
      "ĠOzna": 7644,
      "ĠOgÃ³l": 7645,
      "ĠOcknÄħÅĤ": 7646,
      "ĠOkazaÅĤo": 7647,
      "ĠNiebie": 7648,
      "osa": 7649,
      "osko": 7650,
      "osob": 7651,
      "Ġwojnach": 7652,
      "Ġfra": 7653,
      "Ġfak": 7654,
      "Ġfas": 7655,
      "Ġforma": 7656,
      "Ġflami": 7657,
      "ĠfrÄĻdz": 7658,
      "Ġflaga": 7659,
      "ĠKru": 7660,
      "ĠKin": 7661,
      "ĠKenne": 7662,
      "ĠKnoll": 7663,
      "Ġobc": 7664,
      "Ġobwie": 7665,
      "Ġobma": 7666,
      "ĠobrÄĻ": 7667,
      "Ġobol": 7668,
      "ĠobÃ³z": 7669,
      "ĠobjÄħÅĤ": 7670,
      "Ġobrzydzenia": 7671,
      "pij": 7672,
      "piÅĤ": 7673,
      "pionego": 7674,
      "Ġrozko": 7675,
      "ĠrozÅĤo": 7676,
      "Ġrozbi": 7677,
      "Ġrozsze": 7678,
      "Ġrozba": 7679,
      "ĠrozdÄĻ": 7680,
      "ĠrozkÅĤa": 7681,
      "ĠrozeÅĽ": 7682,
      "Ġrozczu": 7683,
      "Ġrozkaz": 7684,
      "Ġrozjem": 7685,
      "Ġrozpra": 7686,
      "ĠrozpÄĻ": 7687,
      "Ġrozbrz": 7688,
      "ĠrozwiÄħzy": 7689,
      "Ġrozryw": 7690,
      "cal": 7691,
      "Ġmanie": 7692,
      "Ġmaci": 7693,
      "Ġmacie": 7694,
      "Ġmaga": 7695,
      "ĠmajÄħcy": 7696,
      "Ġmachi": 7697,
      "zysu": 7698,
      "zyjnÄħ": 7699,
      "rzanym": 7700,
      "madzenie": 7701,
      "Ġjegomo": 7702,
      "Ġmienia": 7703,
      "ĠmieÅĽciÅĤ": 7704,
      "ĠmieÅĽciÅĤa": 7705,
      "ĠwiÄħ": 7706,
      "Ġwina": 7707,
      "Ġwidzi": 7708,
      "Ġwino": 7709,
      "ĠwidzÄħc": 7710,
      "Ġwiatr": 7711,
      "ĠwidywaÅĤ": 7712,
      "Ġwitajcie": 7713,
      "Ġswoimi": 7714,
      "Ġswobod": 7715,
      "biego": 7716,
      "biegÅĤ": 7717,
      "bieraÅĤ": 7718,
      "Ġkawy": 7719,
      "Ġkapra": 7720,
      "Ġkaste": 7721,
      "Ġkazali": 7722,
      "Ġkafel": 7723,
      "ĠkazaÅĤa": 7724,
      "Ġkawioru": 7725,
      "Å¼eÄĩ": 7726,
      "odÃ³w": 7727,
      "odÅº": 7728,
      "odrÃ³Å¼": 7729,
      "odwagÄĻ": 7730,
      "wym": 7731,
      "wyciÄĩ": 7732,
      "wyraÅºniej": 7733,
      "Ġzegary": 7734,
      "ĠzepchniÄĻ": 7735,
      "Ġzechce": 7736,
      "tuÅĤ": 7737,
      "tujÄħc": 7738,
      "Ġluk": 7739,
      "Ġlune": 7740,
      "Ġlubi": 7741,
      "Ġlutego": 7742,
      "ĠlubiÅĤ": 7743,
      "Ġlubia": 7744,
      "ĠRe": 7745,
      "ĠRaz": 7746,
      "ĠRÃ³Å¼": 7747,
      "nÄħÅĤem": 7748,
      "nÄĻdz": 7749,
      "Å¼yny": 7750,
      "Å¼ynka": 7751,
      "Ġczasach": 7752,
      "Ġpaczki": 7753,
      "Ġpachni": 7754,
      "Ġpaczka": 7755,
      "Ġpachami": 7756,
      "Ġpauza": 7757,
      "gia": 7758,
      "gicznego": 7759,
      "ĠIn": 7760,
      "ĠIle": 7761,
      "ĠInny": 7762,
      "ĠInni": 7763,
      "ĠIlli": 7764,
      "pieÅĦ": 7765,
      "gali": 7766,
      "ĠznaÄĩ": 7767,
      "Ġznany": 7768,
      "Ġznanej": 7769,
      "cjami": 7770,
      "cjan": 7771,
      "umaty": 7772,
      "Ġinna": 7773,
      "ĠinnÄħ": 7774,
      "Ġinstru": 7775,
      "Ġpraca": 7776,
      "ĠprasÄĻ": 7777,
      "Ġczysto": 7778,
      "ĠczytaÅĤa": 7779,
      "Ġczytelnik": 7780,
      "Ġopra": 7781,
      "ĠoparÅĤ": 7782,
      "Ġopowiada": 7783,
      "ĠopanowaÄĩ": 7784,
      "Ġoptycznej": 7785,
      "Ġpiec": 7786,
      "ĠLot": 7787,
      "ĠLos": 7788,
      "ĠLance": 7789,
      "zach": 7790,
      "zacji": 7791,
      "ĠNasz": 7792,
      "ĠNarod": 7793,
      "ĠNarodzenie": 7794,
      "logii": 7795,
      "logiÄĻ": 7796,
      "eze": 7797,
      "niejsi": 7798,
      "niejszy": 7799,
      "niejsze": 7800,
      "niejszymi": 7801,
      "Ġprzezroczy": 7802,
      "czyÅĤo": 7803,
      "aliÅĤ": 7804,
      "aliÅĽmy": 7805,
      "Ġrzeka": 7806,
      "ĠrzekÄĻ": 7807,
      "Ġrzezi": 7808,
      "Ġlemo": 7809,
      "Ġlezie": 7810,
      "Ġlewych": 7811,
      "ĠleciaÅĤy": 7812,
      "tora": 7813,
      "tostra": 7814,
      "Ġsamej": 7815,
      "Ġsamych": 7816,
      "Ġsamol": 7817,
      "Ġsamymi": 7818,
      "poki": 7819,
      "poty": 7820,
      "popular": 7821,
      "poÅĽrednio": 7822,
      "eksu": 7823,
      "boje": 7824,
      "boga": 7825,
      "bogat": 7826,
      "alt": 7827,
      "alnie": 7828,
      "alny": 7829,
      "alaÅĤa": 7830,
      "alaÅĤy": 7831,
      "Ġwszystkimi": 7832,
      "szczÄħc": 7833,
      "ĠÅ¼yra": 7834,
      "ĠÅ¼ywi": 7835,
      "ĠÅ¼yczyÅĤ": 7836,
      "ĠÅ¼yrafy": 7837,
      "ĠÅ¼yletek": 7838,
      "uth": 7839,
      "utÄħ": 7840,
      "utkie": 7841,
      "Ġrasy": 7842,
      "ĠradÄĻ": 7843,
      "Ġrado": 7844,
      "Ġrachu": 7845,
      "Ġranny": 7846,
      "Ġrannych": 7847,
      "Ġraczej": 7848,
      "Ġramieniu": 7849,
      "Ġhum": 7850,
      "Ġhalu": 7851,
      "Ġherb": 7852,
      "Ġhydra": 7853,
      "Ġlatach": 7854,
      "Ġkup": 7855,
      "Ġkula": 7856,
      "Ġkuca": 7857,
      "Ġkucha": 7858,
      "ĠkulÄĻ": 7859,
      "Ġkulami": 7860,
      "Ġkuchnia": 7861,
      "Ġkuloodpor": 7862,
      "Ġkupuje": 7863,
      "Ġkutasa": 7864,
      "Ġpigu": 7865,
      "ĠpiszÄħ": 7866,
      "Ġpiwni": 7867,
      "ĠpidÅ¼": 7868,
      "ĠpiÃ³ra": 7869,
      "ĠproszÄĻ": 7870,
      "Ġproszku": 7871,
      "Ġprocesie": 7872,
      "ewnie": 7873,
      "Ġpuszcz": 7874,
      "ĠpuÅĤk": 7875,
      "Ġpuste": 7876,
      "Ġpustych": 7877,
      "Ġpurpu": 7878,
      "owoÅĽci": 7879,
      "owoÅĽÄĩ": 7880,
      "ÅĽliÅĤ": 7881,
      "ÅĽliwy": 7882,
      "ĠnoÅ¼y": 7883,
      "ĠnogÄĻ": 7884,
      "Ġnozd": 7885,
      "Ġnocach": 7886,
      "Ġnotesik": 7887,
      "ĠprzedsiÄĻ": 7888,
      "ĠprzedÅĽmie": 7889,
      "ĠprzedpÅĤ": 7890,
      "ĠbÄĻdÄĻ": 7891,
      "gier": 7892,
      "chodzono": 7893,
      "ĠksiÄħÅ¼e": 7894,
      "ostrze": 7895,
      "ostatu": 7896,
      "dzeni": 7897,
      "dzeniu": 7898,
      "dzonych": 7899,
      "dzonej": 7900,
      "Ġbarki": 7901,
      "Ġbarwy": 7902,
      "Ġbarwach": 7903,
      "ĠzapÄĻ": 7904,
      "Ġzapra": 7905,
      "Ġzapro": 7906,
      "Ġzaprze": 7907,
      "ĠzapÅĤa": 7908,
      "ĠzapowiedziaÅĤ": 7909,
      "ĠzaproponowaÅĤ": 7910,
      "ĠzapaÅĤek": 7911,
      "dÅĤem": 7912,
      "gÅĤowie": 7913,
      "Ġrdze": 7914,
      "ĠPoniewaÅ¼": 7915,
      "ĠPokÃ³j": 7916,
      "ĠPosiada": 7917,
      "ĠPoczuÅĤ": 7918,
      "ĠpiÄĻtrze": 7919,
      "rawe": 7920,
      "ĠnajsÅĤy": 7921,
      "Ġnajlepiej": 7922,
      "ĠnajwyraÅºniej": 7923,
      "Ġnajbogat": 7924,
      "dusz": 7925,
      "duje": 7926,
      "ĠwÅĤadzy": 7927,
      "suje": 7928,
      "sym": 7929,
      "cjach": 7930,
      "Ġlinie": 7931,
      "Ġlisty": 7932,
      "Ġlistu": 7933,
      "ĠlistÄĻ": 7934,
      "Ġliczne": 7935,
      "Ġlicznym": 7936,
      "ĠmÃ³wisz": 7937,
      "ĠmÃ³wiÅĤo": 7938,
      "ĠmÃ³wiÅĤem": 7939,
      "ĠAmerykanami": 7940,
      "ĠAmerykaÅĦski": 7941,
      "ĠAmerykaÅĦskich": 7942,
      "guerre": 7943,
      "niÄĻcie": 7944,
      "niÄĻta": 7945,
      "niÄĻto": 7946,
      "niÄĻciu": 7947,
      "Ġcicho": 7948,
      "ĠciszÄĻ": 7949,
      "Ġpowsta": 7950,
      "Ġwzru": 7951,
      "ĠwzgÃ³": 7952,
      "rzyÅĤem": 7953,
      "waÅ¼niejszÄħ": 7954,
      "Ġskry": 7955,
      "ĠskrÃ³": 7956,
      "ĠskrÄĻ": 7957,
      "ĠstraciÅĤa": 7958,
      "Ġstracili": 7959,
      "ĠgÅĤÄħb": 7960,
      "Ġotwor": 7961,
      "Ġboj": 7962,
      "ĠbojÄĻ": 7963,
      "ĠbolaÅĤ": 7964,
      "ĠbocznicÄĻ": 7965,
      "ĠÅĽmiechem": 7966,
      "ĠEk": 7967,
      "ĠEner": 7968,
      "ĠGi": 7969,
      "ĠGenu": 7970,
      "ĠGÅĤowÄĻ": 7971,
      "ĠGerhard": 7972,
      "Ġbudzi": 7973,
      "Ġbunt": 7974,
      "ĠburzÄħcych": 7975,
      "ĠpoznaÅĤ": 7976,
      "ĠJean": 7977,
      "ĠJechaÅĤ": 7978,
      "ĠJechali": 7979,
      "ĠJeÅ¼eli": 7980,
      "Ġbezbo": 7981,
      "ĠbezmyÅĽl": 7982,
      "ĠbezwÅĤa": 7983,
      "ĠbezwzglÄĻ": 7984,
      "Ġbezradny": 7985,
      "ĠbezpoÅĽrednio": 7986,
      "ĠÅ¼ebym": 7987,
      "ĠstojÄħcy": 7988,
      "ĠstojÄħcych": 7989,
      "ĠstojÄħco": 7990,
      "ĠstopieÅĦ": 7991,
      "ĠÅĽwiatu": 7992,
      "ĠÅĽwiatowa": 7993,
      "ĠÅĽwiateÅĤ": 7994,
      "ĠÅĽwiatowÄħ": 7995,
      "Ġzdol": 7996,
      "Ġzdrzem": 7997,
      "Ġzdech": 7998,
      "ÅĽnienia": 7999,
      "stosz": 8000,
      "sky": 8001,
      "skaÅĤo": 8002,
      "skowe": 8003,
      "ĠsÄħdzÄĻ": 8004,
      "Ġwah": 8005,
      "Ġwap": 8006,
      "Ġwaszym": 8007,
      "ĠstawaÅĤ": 8008,
      "Ġstacji": 8009,
      "Ġstaran": 8010,
      "ĠstanÄħÄĩ": 8011,
      "Ġwspi": 8012,
      "Ġwskaz": 8013,
      "Ġwspomni": 8014,
      "Ġwskazy": 8015,
      "ĠwskazujÄħc": 8016,
      "Ġtacy": 8017,
      "stuje": 8018,
      "rodku": 8019,
      "Ġzamk": 8020,
      "Ġzamord": 8021,
      "ĠzamoÅ¼": 8022,
      "Ġzamachu": 8023,
      "ĠbÄĻdziesz": 8024,
      "ĠksiÄħÅ¼kami": 8025,
      "onel": 8026,
      "pady": 8027,
      "pano": 8028,
      "scypli": 8029,
      "ware": 8030,
      "Ġ10": 8031,
      "Ġ135": 8032,
      "ĠcieÅĦ": 8033,
      "ĠcieszyÄĩ": 8034,
      "ĠcienkÄħ": 8035,
      "ĠogÅĤu": 8036,
      "Ġogniu": 8037,
      "Ġogrod": 8038,
      "Ġogniem": 8039,
      "Ġogranicz": 8040,
      "ĠÅĤÄħ": 8041,
      "ĠÅĤama": 8042,
      "ĠÅĤÃ³Å¼ek": 8043,
      "Ġdrut": 8044,
      "ĠdrutÃ³w": 8045,
      "ĠdruÅ¼yny": 8046,
      "ĠbyÅĤyby": 8047,
      "ĠpierÅĽ": 8048,
      "sier": 8049,
      "Ġsymu": 8050,
      "Ġsyrop": 8051,
      "Ġsystem": 8052,
      "Ġsyren": 8053,
      "ĠnadszedÅĤ": 8054,
      "Ġelem": 8055,
      "Ġelekt": 8056,
      "Ġechem": 8057,
      "Ġewiden": 8058,
      "Ġepoki": 8059,
      "Ġsier": 8060,
      "ĠsiedziaÅĤa": 8061,
      "ĠsiedzieÄĩ": 8062,
      "ĠsierÅ¼": 8063,
      "ĠWysta": 8064,
      "ĠWyszedÅĤ": 8065,
      "ĠWyglÄħda": 8066,
      "ĠrÃ³wne": 8067,
      "ĠrÃ³wno": 8068,
      "Ġrela": 8069,
      "Ġrezy": 8070,
      "Ġrezer": 8071,
      "Ġredak": 8072,
      "ĠpanowaÅĤa": 8073,
      "ĠChar": 8074,
      "zika": 8075,
      "ziki": 8076,
      "ĠrÄĻcznik": 8077,
      "Ġdrzwiczkach": 8078,
      "ĠUnika": 8079,
      "ĠUdaÅĤo": 8080,
      "ĠUkoÅĦczyÅĤ": 8081,
      "ĠUwierzyÅĤ": 8082,
      "Ġbawili": 8083,
      "ĠbawiÅĤa": 8084,
      "Ġbarok": 8085,
      "ĠbawiÄĩ": 8086,
      "ĠbawiÅĤo": 8087,
      "Ġbadania": 8088,
      "Ġbagne": 8089,
      "Ġbawialni": 8090,
      "Ġjaja": 8091,
      "Ġjapo": 8092,
      "brano": 8093,
      "ĠsÅĤyszeli": 8094,
      "rowadziÅĤa": 8095,
      "ĠmoÅ¼noÅĽci": 8096,
      "olÄĻ": 8097,
      "olami": 8098,
      "skach": 8099,
      "skawi": 8100,
      "Ġtrzynastego": 8101,
      "Ġspoczyn": 8102,
      "ĠbyliÅĽcie": 8103,
      "Ġdziecinnych": 8104,
      "ĠamerykaÅĦskiej": 8105,
      "nuowaÅĤ": 8106,
      "Ġrury": 8107,
      "Ġruin": 8108,
      "ĠruszyÄĩ": 8109,
      "ĠrurkÄĻ": 8110,
      "Ġdobro": 8111,
      "ĠdobraÅĤ": 8112,
      "ĠgÅĤodu": 8113,
      "ĠgÅĤosu": 8114,
      "ĠgÅĤodny": 8115,
      "ĠWalencjÄĻ": 8116,
      "Ġkonf": 8117,
      "Ġkonwu": 8118,
      "Ġkonser": 8119,
      "Ġkonstru": 8120,
      "Ġchorzy": 8121,
      "garniÄĻ": 8122,
      "Å¼yÅĤo": 8123,
      "Å¼yÅĤem": 8124,
      "Ġtrzem": 8125,
      "Ġtrzeci": 8126,
      "ĠtrzeciÄħ": 8127,
      "Ġtrzeciej": 8128,
      "Ã³rka": 8129,
      "Ġoknie": 8130,
      "Ġoknem": 8131,
      "Ġokryli": 8132,
      "ĠbiaÅĤych": 8133,
      "ĠbiaÅĤym": 8134,
      "ĠbiaÅĤymi": 8135,
      "Ġbicep": 8136,
      "ardÃ³w": 8137,
      "Ġchwilami": 8138,
      "ĠspytaÅĤem": 8139,
      "ĠczÅĤowieku": 8140,
      "ĠFanta": 8141,
      "Ġmusicie": 8142,
      "ĠmusiaÅĤo": 8143,
      "ĠmusiaÅĤem": 8144,
      "Ġdziar": 8145,
      "Ġdziwa": 8146,
      "Ġdzikie": 8147,
      "ĠAnn": 8148,
      "ĠAnkary": 8149,
      "dechu": 8150,
      "Ġzielone": 8151,
      "Ġbomba": 8152,
      "ordowanych": 8153,
      "ĠTele": 8154,
      "ĠTeodora": 8155,
      "ĠZanim": 8156,
      "ĠZawsze": 8157,
      "ĠZajazdu": 8158,
      "ĠZaczynaÅĤ": 8159,
      "ĠNiemcami": 8160,
      "blia": 8161,
      "blikowaÅĤa": 8162,
      "prawÄĻ": 8163,
      "ĠHu": 8164,
      "ĠHand": 8165,
      "ĠHole": 8166,
      "ĠWiele": 8167,
      "ĠÅĽrodkÃ³w": 8168,
      "ĠÅĽrodkami": 8169,
      "Ġprawdopod": 8170,
      "ciÄħgaÅĤ": 8171,
      "ĠodpowiedziaÅĤem": 8172,
      "ĠdÅĤugi": 8173,
      "ĠdÅĤugich": 8174,
      "ĠÅĽwiet": 8175,
      "ĠÅĽwietli": 8176,
      "Ġmiano": 8177,
      "Ġmiaste": 8178,
      "Ġpierwsze": 8179,
      "ĠsÅĤupie": 8180,
      "ĠsÅĤuchaÄĩ": 8181,
      "Ġweteran": 8182,
      "ĠjeÅĦca": 8183,
      "Ġjakoby": 8184,
      "rÃ³dÅĤo": 8185,
      "ĠÅ¼adna": 8186,
      "ĠÅ¼adnym": 8187,
      "ĠzabiÅĤy": 8188,
      "Ġzabitymi": 8189,
      "Ġwojenna": 8190,
      "ĠwojennÄħ": 8191
    },
    "merges": [
      "Å Ĥ",
      "i e",
      "č Ċ",
      "Ġ p",
      "Ġ s",
      "Ġ w",
      "Ä Ļ",
      "Ġ n",
      "Ġ z",
      "a ÅĤ",
      "r z",
      "Ä ħ",
      "Å ¼",
      "c z",
      "Ġ t",
      "o w",
      "c h",
      "Ã ³",
      "Ġ d",
      "Ġ m",
      "Å Ľ",
      "Ġ o",
      "Ġ k",
      "g o",
      "i ÄĻ",
      "r a",
      "d z",
      "Ġ i",
      "n i",
      "s z",
      "Ġn a",
      "Ġ j",
      "l i",
      "s t",
      "Ġ b",
      "n ie",
      "Ġp o",
      "r o",
      "rz e",
      "i l",
      "â Ģ",
      "Ġs iÄĻ",
      "Ä ĩ",
      "l e",
      "e go",
      "âĢ ĵ",
      "c i",
      "n y",
      "a k",
      "y ÅĤ",
      "a m",
      "Ġn ie",
      "Ġ B",
      "a r",
      "e m",
      "Ġd o",
      "Ġ Å¼",
      "il l",
      "k a",
      "ill y",
      "rz y",
      "n a",
      "Ã³ w",
      "dz i",
      "Ġz a",
      "e r",
      "w i",
      "Ġj e",
      "n e",
      "Ġ *",
      "a t",
      "k i",
      "ĠB illy",
      "ĠÅ¼ e",
      "cz y",
      "Ġw y",
      "ÅĤ a",
      "Ġs t",
      "c ie",
      "k o",
      "Ġ g",
      "Ġp rze",
      "Ġ u",
      "ÅĤ o",
      "Äħ c",
      "d y",
      "Ġ P",
      "Ġ a",
      "d a",
      "ow ie",
      "o r",
      "dz ie",
      "Ġ W",
      "Ġ âĢĵ",
      "w a",
      "Ġb yÅĤ",
      "n o",
      "r e",
      "l a",
      "m i",
      "Ġk t",
      "e n",
      "r y",
      "Ġt o",
      "b y",
      "Ġ c",
      "Ġj ak",
      "w o",
      "Ġkt Ã³",
      "Ġo d",
      "Ġ cz",
      "Ġ N",
      "Å Ħ",
      "ow a",
      "k u",
      "Ġ T",
      "Ġk o",
      "aÅĤ a",
      "Ġ ÅĽ",
      "Ġp rzy",
      "n Äħ",
      "t y",
      "s i",
      "Ġ ro",
      "k ie",
      "c y",
      "Ġm i",
      "a d",
      "t a",
      "e j",
      "Ġt y",
      "ni a",
      "ÅĤ y",
      "a s",
      "Ġs p",
      "o b",
      "Ġ Z",
      "j Äħc",
      "w ie",
      "ÅĽ ci",
      "dzi aÅĤ",
      "r u",
      "Ġ ch",
      "sz y",
      "Ġ l",
      "am i",
      "Ġs z",
      "Ġn i",
      "Ġ D",
      "Ġ go",
      "aÅĤ y",
      "ra z",
      "Ġw o",
      "cz e",
      "m ie",
      "Ġ M",
      "a n",
      "Ġpo d",
      "Ġp owie",
      "Ġt ak",
      "Ġm u",
      "ny ch",
      "j e",
      "c e",
      "Ġ C",
      "Ġt e",
      "ÅĤ u",
      "b i",
      "o m",
      "Ġd z",
      "st a",
      "t e",
      "j a",
      "Ġ J",
      "Ġ S",
      "Ġw ie",
      "r Ã³",
      "a le",
      "Å º",
      "ow y",
      "i m",
      "Ġm o",
      "sz e",
      "Ġ A",
      "ow i",
      "Ġc o",
      "Ġ O",
      "o t",
      "ĠN ie",
      "o s",
      "Ġwo j",
      "B illy",
      "Ġ f",
      "Ġje st",
      "Ġ K",
      "aÅĤ o",
      "Ġo b",
      "ny m",
      "p i",
      "Ġro z",
      "o n",
      "c a",
      "er y",
      "Ġm a",
      "z y",
      "ÅĽ Äĩ",
      "rz a",
      "ĠktÃ³ ry",
      "m a",
      "m y",
      "Ġj ego",
      "ar y",
      "j Äħ",
      "ĠB yÅĤ",
      "n ego",
      "Ġm ie",
      "Ġw i",
      "Ġs wo",
      "l u",
      "Ġdz ie",
      "b ie",
      "Ġk a",
      "Ġje d",
      "Å¼ e",
      "ĠbyÅĤ o",
      "o d",
      "ne j",
      "w y",
      "Ġz e",
      "t u",
      "Ġl u",
      "Ġ R",
      "nÄħ ÅĤ",
      "n ÄĻ",
      "r ÄĻ",
      "Å¼ y",
      "Ġcz as",
      "Ġp a",
      "g i",
      "Ġ I",
      "ery ka",
      "p ie",
      "ie dy",
      "ow aÅĤ",
      "g a",
      "Ġz na",
      "c j",
      "u m",
      "Ġw szy",
      "Ġpowie dziaÅĤ",
      "Ġi n",
      "Ġp ra",
      "Äħ d",
      "Ġ czy",
      "Ġs ob",
      "w aÅĤ",
      "Ġo p",
      "t em",
      "Ġp ie",
      "g l",
      "si Äħ",
      "Ġ L",
      "z a",
      "ĠN a",
      "Ġty m",
      "l o",
      "e z",
      "m u",
      "u Å¼",
      "Ã³ ÅĤ",
      "da rza",
      "k ÄĻ",
      "nie j",
      "Ġprze z",
      "Ġd la",
      "kie m",
      "g r",
      "cz yÅĤ",
      "a li",
      "k Ã³w",
      "Ġ rze",
      "ÅĽ cie",
      "k Äħ",
      "Ġ le",
      "sz cze",
      "l ko",
      "t o",
      "Ġs am",
      "Ġb y",
      "ĠP il",
      "p o",
      "p u",
      "Ġsob ie",
      "gr im",
      "e k",
      "t aÅĤ",
      "Ġmi aÅĤ",
      "ĠPil grim",
      "b o",
      "Ġt ego",
      "a l",
      "ra l",
      "Ġa le",
      "Ġwszy st",
      "sz cz",
      "âĢ ľ",
      "ĠÅ¼ y",
      "e ÅĤ",
      "s ki",
      "a Äĩ",
      "u t",
      "Ã³w i",
      "j ÄĻ",
      "Ġ ra",
      "wi at",
      "Ġ h",
      "Ġl at",
      "a z",
      "Ġk u",
      "Ġp i",
      "Ġp ro",
      "Ġi ch",
      "Ġj uÅ¼",
      "Ġty lko",
      "e w",
      "Ġp u",
      "ci Äħ",
      "e t",
      "e ary",
      "f i",
      "y ch",
      "Ġt am",
      "ow o",
      "ÅĽ li",
      "Ġn o",
      "owie dziaÅĤ",
      "b a",
      "m eryka",
      "Ġprze d",
      "Ġb ÄĻ",
      "g ie",
      "ow ej",
      "ch o",
      "Ġk siÄħ",
      "c Ã³w",
      "o st",
      "Ġk iedy",
      "Ġje szcze",
      "ĠktÃ³ re",
      "ĠD re",
      "a ch",
      "f am",
      "dz e",
      "dz o",
      "k t",
      "ni u",
      "Ġb ar",
      "ci a",
      "em u",
      "Ġza p",
      "d ÅĤ",
      "g ÅĤ",
      "Ġ r",
      "st y",
      "dzi ÅĤ",
      "a jÄħc",
      "o ny",
      "ĠP o",
      "ĠZ darza",
      "Ġte Å¼",
      "ral fam",
      "ralfam ad",
      "a j",
      "Ġp iÄĻ",
      "Ġw iÄĻ",
      "ra w",
      "Ġna j",
      "ĠbyÅĤ a",
      "ralfamad or",
      "d u",
      "m o",
      "Ġ âĢľ",
      "Ġw ÅĤa",
      "Ġd ale",
      "ĠW eary",
      "g li",
      "s u",
      "s y",
      "s kie",
      "c ja",
      "Ġ li",
      "Ġ raz",
      "Ġm Ã³wi",
      "ni k",
      "Ġsp y",
      "ĠA meryka",
      "g u",
      "n iÄĻ",
      "o ÅĤ",
      "Ġ ci",
      "Ġg dy",
      "Ġp ow",
      "Ġw z",
      "rz yÅĤ",
      "Ġm y",
      "Ġa by",
      "wa Å¼",
      "s a",
      "Ġs k",
      "Ġst ra",
      "Ġg ÅĤ",
      "w Ã³",
      "z u",
      "ie d",
      "ow Äħ",
      "Ġo t",
      "Ġb o",
      "ĠÅĽ mie",
      "s iÄĻ",
      "Ġ E",
      "Ġ G",
      "Ġb u",
      "Ġpo z",
      "Ġod p",
      "ĠJ e",
      "d ÄĻ",
      "e l",
      "Ġt en",
      "Ġb ez",
      "ĠÅ¼e by",
      "Ġst o",
      "ĠT ralfamador",
      "ĠÅĽ wiat",
      "cj i",
      "t er",
      "Ġz d",
      "ÅĽ nie",
      "ÅĽ my",
      "st o",
      "i aÅĤ",
      "o no",
      "s k",
      "Ġs Äħ",
      "Ġw a",
      "Ġst a",
      "Ġg dzie",
      "en t",
      "b u",
      "Ġw s",
      "Ġm Ã³",
      "Ġni ch",
      "Ġte raz",
      "n Ã³w",
      "Ġt a",
      "st u",
      "ro d",
      "Ġa ni",
      "ĠT o",
      "ĠZ ie",
      "sze dÅĤ",
      "Ġz am",
      "Ġd wa",
      "owa Äĩ",
      "ĠT ro",
      "ob a",
      "ĠbÄĻ dzie",
      "ĠksiÄħ Å¼",
      "o ne",
      "p a",
      "s cy",
      "w ar",
      "Ġ 1",
      "Ġ cie",
      "cz ÄĻ",
      "cz nie",
      "Ġo g",
      "mi a",
      "ĠktÃ³ rzy",
      "k ami",
      "Ġ ÅĤ",
      "cz Äħ",
      "Ġd ru",
      "st ÄĻ",
      "nie m",
      "ĠbyÅĤ y",
      "Ġdale j",
      "i i",
      "w il",
      "z na",
      "no ÅĽci",
      "ĠC zy",
      "rÃ³ Å¼",
      "Ġlu dzi",
      "Ġpie r",
      "gl Äħd",
      "c u",
      "i ch",
      "o sta",
      "s ie",
      "Ġs y",
      "Ġna d",
      "er by",
      "k ÅĤa",
      "Ġ e",
      "Ġs ie",
      "rz wi",
      "ĠW y",
      "Ġr Ã³w",
      "ĠwiÄĻ c",
      "Ġ Å",
      "Ġ re",
      "Ġp an",
      "Ġz ro",
      "Ã³ Å¼",
      "la n",
      "ĠC h",
      "Ġbar dzo",
      "d ni",
      "z i",
      "Ġ rÄĻ",
      "Ġd rzwi",
      "Ġi m",
      "d Äħ",
      "i a",
      "r Äħ",
      "Ġ U",
      "Ġz oba",
      "rz u",
      "Ġb a",
      "Ġni m",
      "Ġka Å¼",
      "j s",
      "ow ego",
      "Ġj a",
      "owy ch",
      "b ra",
      "Ġ am",
      "Ġs ÅĤy",
      "Ġpo tem",
      "Ġje j",
      "ale n",
      "Ġrze czy",
      "g ra",
      "r owa",
      "s ÅĤ",
      "cz as",
      "Ġt u",
      "nie Å¼",
      "Ġro ku",
      "Ġch ÅĤo",
      "ĠD erby",
      "Ġmo Å¼",
      "Ġmie js",
      "Ġam eryka",
      "o l",
      "s ka",
      "s ko",
      "ÅĤ owie",
      "Ġt rzy",
      "ny mi",
      "Ġjak ie",
      "Ġsp o",
      "Ġsz e",
      "Ġby li",
      "Ġ1 9",
      "ÅĤ em",
      "Ġz n",
      "rz aÅĤ",
      "ÅĽ l",
      "Ġo czy",
      "dz y",
      "st rze",
      "ci u",
      "wa li",
      "Ġc aÅĤ",
      "Ġwoj nie",
      "Ġdzie ci",
      "Ġameryka ÅĦ",
      "g dy",
      "n u",
      "p y",
      "Ġ ru",
      "ow e",
      "Ġdo b",
      "at er",
      "Ġg ÅĤo",
      "ĠW alen",
      "la z",
      "Ġko n",
      "Ġch o",
      "ot em",
      "Ġczas u",
      "f o",
      "g ar",
      "Å¼ yÅĤ",
      "Ġt rze",
      "Ã³ r",
      "Ġm nie",
      "Ġo k",
      "Ġb i",
      "ar d",
      "Ġch wil",
      "Ġzna j",
      "gl Äħ",
      "Ġspy taÅĤ",
      "z ie",
      "sz a",
      "Ġpo t",
      "ki ch",
      "da Äĩ",
      "Ġcz ÅĤowie",
      "Ġwoj ny",
      "ĠÅĽmie r",
      "ĠmÃ³ gÅĤ",
      "ĠrÃ³w nieÅ¼",
      "d o",
      "k nÄħÅĤ",
      "p ad",
      "Ġ F",
      "sz ka",
      "Ġnie go",
      "wi ÅĽcie",
      "Ġmu si",
      "Ġdz i",
      "ĠA n",
      "Ġczas ie",
      "Ġwa go",
      "d e",
      "g ÄĻ",
      "Ġz ie",
      "Ġt ej",
      "Ġb om",
      "ci aÅĤ",
      "ĠÅ¼ oÅĤ",
      "czy Äĩ",
      "or d",
      "ĠT e",
      "ĠZ a",
      "ĠNie m",
      "ĠR os",
      "b li",
      "p raw",
      "y m",
      "Ġ H",
      "Ġp owi",
      "Ġz ost",
      "ni cy",
      "wi Äħ",
      "Ġa l",
      "ĠW ie",
      "ĠÅĽ rod",
      "Ġpra w",
      "ski ch",
      "az za",
      "ciÄħ g",
      "Ġodp owiedziaÅĤ",
      "e ÅĽ",
      "o na",
      "aÅĤ em",
      "cz ego",
      "ow u",
      "Ġd ÅĤu",
      "le g",
      "ar e",
      "Ġdo mu",
      "wi ad",
      "Ġkt o",
      "ĠktÃ³ ra",
      "ĠÅĽ wie",
      "Ġmi a",
      "mie c",
      "owy m",
      "Ġco ÅĽ",
      "Ġgdy Å¼",
      "Ġpier w",
      "e ra",
      "j u",
      "m ar",
      "w iÄĻ",
      "Ġs ÅĤu",
      "Ġw e",
      "Ã³ b",
      "Ġd ro",
      "Ġk il",
      "Ġje ÅĦ",
      "Ġjak o",
      "si ÅĤ",
      "ĠM iaÅĤ",
      "rÃ³ d",
      "ĠÅ¼oÅĤ nie",
      "j cie",
      "w ego",
      "ÅĤ Äħ",
      "rz Äħ",
      "li ÅĽmy",
      "ĠÅ¼ ad",
      "dzi aÅĤa",
      "Ġza bi",
      "Ġwoj en",
      "pi s",
      "ĠwÅĤa ÅĽnie",
      "ĠTro ut",
      "Ġzro bi",
      "cz u",
      "Ġm at",
      "li um",
      "Ġb ied",
      "Ġg Ã³",
      "sta wi",
      "ĠJ ego",
      "ma wi",
      "ĠR o",
      "um fo",
      "ĠL azza",
      "Ġal bo",
      ". .",
      "d en",
      "i st",
      "n ak",
      "p om",
      "Ġo n",
      "ĠP rze",
      "or y",
      "Ġni c",
      "Ġwie l",
      "Åº nie",
      "Ġob o",
      "Ġswo je",
      "ĠI lium",
      "ĠpiÄĻ k",
      "ĠÅĤ Ã³Å¼",
      "ĠAn gli",
      "Ġbom b",
      "e s",
      "Ġ ÅĤa",
      "ch a",
      "sz aÅĤ",
      "Ġj Äħ",
      "ci ÅĤ",
      "er e",
      "da li",
      "ÅĦ st",
      "owa li",
      "Ġko ÅĦ",
      "Ġsp os",
      "Ġjed en",
      "stÄĻ p",
      "c ami",
      "ÄĻ Å¼",
      "ch u",
      "Ġd a",
      "iÄĻ dzy",
      "ak i",
      "ka ch",
      "Ġza w",
      "Ġst ar",
      "dzie j",
      "wa Äĩ",
      "ĠT ak",
      "Ġwi dziaÅĤ",
      "cj ÄĻ",
      "ĠmoÅ¼ na",
      "H are",
      "t rz",
      "Ġp Ã³",
      "Ġz osta",
      "rz ÄĻ",
      "Ġt em",
      "Ġza ÅĽ",
      "da l",
      "dzie Äĩ",
      "re sz",
      "Ġjak i",
      "si Äħc",
      "wie r",
      "Åº ni",
      "ĠktÃ³ry ch",
      "ĠByÅĤ a",
      "Ġwszy scy",
      "Ġwszyst ko",
      "ĠDre zna",
      "glÄħd aÅĤ",
      "Ġspos Ã³b",
      "N a",
      "d nie",
      "s o",
      "t aÅĤa",
      "w et",
      "Ġ rÃ³Å¼",
      "Ġp ÅĤa",
      "Ġs ÅĤ",
      "Ġz da",
      "Å¼ aÅĤ",
      "ÅĽ rÃ³d",
      "ra fi",
      "Ġnie miec",
      "Ġza s",
      "Ġcz u",
      "Ġko bie",
      "ty ch",
      "Ġch ciaÅĤ",
      "Ġpowie dziaÅĤa",
      "Ġswo j",
      "Ġswo ich",
      "Ġjed nak",
      "nÄĻ ÅĤa",
      "Ġin nych",
      "Ġby Äĩ",
      "Ġwszyst kie",
      "Ġpow ro",
      "Ġtem at",
      ". \"",
      "l ÄĻ",
      "s ku",
      "Ġp y",
      "Ġk ie",
      "ra n",
      "sz li",
      "Ġpo p",
      "ro n",
      "ka z",
      "ki m",
      "Ġst an",
      "ĠP rzy",
      "Ġmi aÅĤa",
      "Ġni gdy",
      "te dy",
      "ĠTralfamador czy",
      "ĠZie mi",
      "ĠkaÅ¼ dy",
      "ĠchÅĤo p",
      "umfo ord",
      "0 0",
      "Z darza",
      "b r",
      "i n",
      "n aÅĤ",
      "u k",
      "w aÅĤa",
      "Ġs i",
      "ow aÅĤa",
      "Ġd nia",
      "Ġm ar",
      "Ġm ÅĤo",
      "Ġwy da",
      "dzie li",
      "Ġty ch",
      "ĠC o",
      "Åº niej",
      "ĠK iedy",
      "Ġmie li",
      "wÃ³ j",
      "ĠTralfamador ii",
      "Ġzn owu",
      "ĠWalen cja",
      "praw dÄĻ",
      "p eÅĤ",
      "t om",
      "y li",
      "z e",
      "Ġ ar",
      "Ġo raz",
      "ni c",
      "Ġna z",
      "Ġpo m",
      "dzi Äĩ",
      "at y",
      "Ġst aÅĤ",
      "Ġst ary",
      "Ġg az",
      "or u",
      "ĠW szy",
      "Ġcz ter",
      "ĠN i",
      "nÄħ Äĩ",
      "te k",
      "Ġf a",
      "ĠK a",
      "ĠktÃ³ry m",
      "Ġzna laz",
      "Ġpierw szy",
      "Ġzaw sze",
      "p e",
      "t Äħ",
      "t nie",
      "w Äħ",
      "Ġw tedy",
      "Ġz ÅĤo",
      "Ġt ÄĻ",
      "Ã³ sÅĤ",
      "Ġm aÅĤ",
      "ni kÃ³w",
      "st Äħ",
      "il go",
      "am y",
      "Ġnie z",
      "wi li",
      "dzie ÅĽci",
      "Ġjak by",
      "Ġprzy ja",
      "mie ni",
      "ĠC z",
      "Ġte le",
      "Ġjed no",
      "Ġh ist",
      "ew ater",
      "ĠDre Åºnie",
      "Ġsta nie",
      "kÅĤa d",
      "Ġsie bie",
      "Ġzoba czyÅĤ",
      "ĠTe raz",
      "ĠLazza ro",
      "Ġpowro tem",
      "j em",
      "p ra",
      "s ÅĤy",
      "t rzy",
      "w u",
      "Ġ la",
      "Ġs wego",
      "cz ne",
      "Ġt wa",
      "Ã³ d",
      "ra Å¼",
      "ni Ã³sÅĤ",
      "Ġna s",
      "st aÅĤ",
      "st at",
      "am p",
      "ĠB o",
      "no ÅĽÄĩ",
      "Ġc iÄĻ",
      "owa nia",
      "Ġmi mo",
      "ĠO d",
      "on ta",
      "Ġdzie c",
      "Ġlu dzie",
      "Ġczy m",
      "ĠktÃ³re j",
      "b ÄĻ",
      "b el",
      "k sz",
      "w e",
      "Ġ ak",
      "ÅĤ k",
      "ÅĤ ÄĻ",
      "Ġs ÅĤo",
      "Ġs wÃ³j",
      "cz a",
      "Ġd u",
      "Ġk rzy",
      "Ġna dal",
      "Ġna wet",
      "ĠB ar",
      "ĠktÃ³ rÄħ",
      "Ġcz ÄĻ",
      "Ġko le",
      "Ġro bi",
      "cy j",
      "Ġsz y",
      "aÅĤy ch",
      "Ġmu sz",
      "ĠJ a",
      "Ġmie szka",
      "Ġswo im",
      "po mi",
      "ĠAmeryka nÃ³w",
      "Ġdru gie",
      "Ġkil ka",
      "ĠjeÅĦ cÃ³w",
      "ilgo re",
      "\" .",
      "s em",
      "u r",
      "u ta",
      "z d",
      "Ġz u",
      "Ġt ÅĤu",
      "Ġk ar",
      "dz Äħc",
      "ni cz",
      "sz u",
      "sz ÅĤo",
      "st e",
      "Ġpo ko",
      "czy n",
      "wo j",
      "ĠktÃ³ r",
      "Ġko l",
      "Ġtak ie",
      "pi ta",
      "Ġswo jÄħ",
      "Ġwszyst kich",
      "dze nia",
      "skie j",
      "skie go",
      "Ġot wo",
      "ĠE d",
      "ĠÅ »",
      "Ġznaj d",
      "K iedy",
      "t Ã³w",
      "u d",
      "w aÅĤy",
      "cz ki",
      "Ġt ru",
      "ch aÅĤ",
      "Ã³ j",
      "sz ego",
      "nie c",
      "ro m",
      "ci w",
      "Ġdo m",
      "na ch",
      "Ġza ch",
      "Ġg ru",
      "ĠP otem",
      "Ġc y",
      "Ġc aÅĤy",
      "Ġro dzi",
      "jÄħc y",
      "jÄħc ych",
      "Ġsz ko",
      "ĠM i",
      "Ġpod ob",
      "Ġmo Å¼e",
      "Ġf il",
      "ĠK ilgore",
      "ĠpiÄĻ Äĩ",
      "ĠAmeryka nie",
      "ĠczÅĤowie k",
      "Ġzost aÅĤ",
      "ĠpÃ³ Åºniej",
      "resz cie",
      "Ġznalaz ÅĤ",
      "a da",
      "g Äħ",
      "j m",
      "n em",
      "n ka",
      "u n",
      "Ġs ko",
      "Ġs ku",
      "Ġw yÅĤ",
      "Ġw ÅĽrÃ³d",
      "Ġz ak",
      "Å¼ a",
      "Ġt ale",
      "ow ÄĻ",
      "Ġd e",
      "Ġk ra",
      "ni ka",
      "Ġna u",
      "Ġb ra",
      "nie waÅ¼",
      "Ġpo k",
      "ĠB yli",
      "cie l",
      "Ġjak Äħ",
      "Ġcz e",
      "Ġcz ego",
      "ĠÅĽ re",
      "ty cz",
      "ad aÅĤ",
      "ĠS t",
      "rÃ³ t",
      "ĠK o",
      "Å¼e k",
      "ĠR umfoord",
      "Ġpra c",
      "Ġsob Äħ",
      "Ġsam o",
      "ĠÅ¼y cie",
      "Ġno cy",
      "Ġmy ÅĽl",
      "ĠTro uta",
      "jcie c",
      "Ġswoj ej",
      "Ġpy ta",
      "Ġhist or",
      "J e",
      "d Åº",
      "i o",
      "m aÅĤ",
      "o nych",
      "o ÅĽÄĩ",
      "r g",
      "z no",
      "Ġs en",
      "Ġw ar",
      "Ġw raz",
      "Ġz gi",
      "ch od",
      "Ġd Ã³ÅĤ",
      "Ġm om",
      "Ġm ÄĻÅ¼",
      "ÅĽ mie",
      "ar ÄĻ",
      "Ġg ra",
      "ĠP a",
      "Ġa Å¼",
      "Ġcz ar",
      "ĠÅĽ cia",
      "szy ch",
      "Ġgo dzi",
      "Ġwie dziaÅĤ",
      "ĠO p",
      "Ġma jÄħ",
      "Ġpra wie",
      "siÄħ t",
      "ĠmÃ³wi ÅĤ",
      "Ġspy taÅĤa",
      "wÃ³ r",
      "war te",
      "ĠÅ ļ",
      "ĠsÅĤy n",
      "ol ot",
      "glÄħ da",
      "ĠRos ewater",
      "ĠpÅĤa szcz",
      "amp bel",
      "ÅĤk ow",
      "c Äħ",
      "g le",
      "j rzaÅĤ",
      "l ar",
      "n ami",
      "s ÅĤu",
      "Ġ V",
      "ÅĤ am",
      "Ġp ÅĤ",
      "Ġp re",
      "Ġp Ã³ÅĤ",
      "Ġs ch",
      "Ġw rÃ³",
      "Ġz wy",
      "Ã³ l",
      "Ġm aÅĤy",
      "Ġm iÄĻdzy",
      "ra bi",
      "Ġi st",
      "ni m",
      "ni ÅĤ",
      "sz ÄĻ",
      "sz czy",
      "Ġb ro",
      "ro p",
      "il y",
      "Ġdo p",
      "Ġu waÅ¼",
      "Äħc y",
      "mi aÅĤ",
      "ry ty",
      "Ġch wili",
      "Ġni Å¼",
      "ĠD o",
      "ĠM a",
      "te l",
      "Ġwie cz",
      "nÄĻ li",
      "jÄĻ cie",
      "Ġpro stu",
      "Ġno c",
      "ĠbÄĻ dÄħ",
      "ĠksiÄħ Å¼ek",
      "Ġmy ÅĽli",
      "lan d",
      "Ġdob rze",
      "ĠgÅĤo s",
      "Ġmusi aÅĤ",
      "wiad ow",
      "mar ÅĤ",
      "pom ni",
      "B yÅĤ",
      "P rze",
      "P otem",
      "Z a",
      "c aÅĤ",
      "d aÅĤ",
      "d niej",
      "k ro",
      "m iÄĻ",
      "p li",
      "r aÅĤ",
      "w ÄĻ",
      "Ġ at",
      "Ġ ÅĤy",
      "Ġp at",
      "Ġp eÅĤ",
      "Ġp ew",
      "Ġw p",
      "Ġt ro",
      "Ġd ni",
      "Ġd wie",
      "Ġm il",
      "ÅĽ le",
      "Ġo s",
      "Ġk siÄĻ",
      "Ġna le",
      "Ġpo ÅĽ",
      "Ġpo my",
      "Ġpo niewaÅ¼",
      "rze m",
      "Ġnie j",
      "at a",
      "ĠBilly m",
      "Ġwy pad",
      "ko na",
      "ÅĤo ÅĽci",
      "Ġa n",
      "by t",
      "Ġc Ã³r",
      "wo li",
      "ÅĦ czyÅĤ",
      "owa ny",
      "kie go",
      "ta ch",
      "Ġsp od",
      "ru sz",
      "Ġl ot",
      "ĠD la",
      "ĠM o",
      "ĠM onta",
      "ĠJ ak",
      "ĠS z",
      "Ġwoj sk",
      "Ġob u",
      "Ġop ty",
      "ĠL e",
      "ba ra",
      "Ġkiedy ÅĽ",
      "ĠDre zno",
      "sty cz",
      "Ġstra Å¼",
      "ĠksiÄħÅ¼ ki",
      "ĠksiÄħÅ¼ kÄĻ",
      "stÄĻ pu",
      "ĠNiem cy",
      "Ġpowi n",
      "ĠdÅĤu go",
      "Ġjaki ÅĽ",
      "Ġkobie ty",
      "Ġdrugie j",
      "ĠktÃ³r ego",
      "b le",
      "c k",
      "c em",
      "i ÅĤ",
      "p ot",
      "t k",
      "u ra",
      "Ġp la",
      "Ġp rÃ³",
      "Ġn um",
      "Ġz w",
      "Å¼ d",
      "ch ali",
      "Ġm e",
      "Ġm as",
      "Ġo jciec",
      "dz Äħ",
      "ni Äħ",
      "Ġna prawdÄĻ",
      "rze Äĩ",
      "ĠB er",
      "Ġje ÅĽli",
      "ne k",
      "Ġwy ob",
      "ĠP owie",
      "Ġa ut",
      "or em",
      "ĠW i",
      "owa rzy",
      "owa ne",
      "Ġsp ra",
      "jÄħc e",
      "Ġsz ere",
      "ĠD zi",
      "Ġwo l",
      "Ġpowie t",
      "Ġtak Å¼e",
      "Å¼y Äĩ",
      "pie ro",
      "lo ne",
      "Ġlat a",
      "Ġlat ajÄħc",
      "Ġpi s",
      "dze nie",
      "Ġodp owie",
      "ĠÅĽwiat owej",
      "ĠZie mia",
      "mia st",
      "Ġzoba czyÄĩ",
      "Ġsze ÅĽÄĩ",
[...]
