{
  "version": "1.0",
  "truncation": null,
  "padding": null,
  "added_tokens": [
    {
      "id": 0,
      "content": "[UNK]",
      "single_word": false,
      "lstrip": false,
      "rstrip": false,
      "normalized": false,
      "special": true
    },
    {
      "id": 1,
      "content": "[CLS]",
      "single_word": false,
      "lstrip": false,
      "rstrip": false,
      "normalized": false,
      "special": true
    },
    {
      "id": 2,
      "content": "[SEP]",
      "single_word": false,
      "lstrip": false,
      "rstrip": false,
      "normalized": false,
      "special": true
    },
    {
      "id": 3,
      "content": "[PAD]",
      "single_word": false,
      "lstrip": false,
      "rstrip": false,
      "normalized": false,
      "special": true
    },
    {
      "id": 4,
      "content": "[MASK]",
      "single_word": false,
      "lstrip": false,
      "rstrip": false,
      "normalized": false,
      "special": true
    }
  ],
  "normalizer": null,
  "pre_tokenizer": {
    "type": "ByteLevel",
    "add_prefix_space": true,
    "trim_offsets": true,
    "use_regex": true
  },
  "post_processor": {
    "type": "ByteLevel",
    "add_prefix_space": true,
    "trim_offsets": true,
    "use_regex": true
  },
  "decoder": {
    "type": "ByteLevel",
    "add_prefix_space": true,
    "trim_offsets": true,
    "use_regex": true
  },
  "model": {
    "type": "BPE",
    "dropout": null,
    "unk_token": null,
    "continuing_subword_prefix": null,
    "end_of_word_suffix": null,
    "fuse_unk": false,
    "byte_fallback": false,
    "vocab": {
      "[UNK]": 0,
      "[CLS]": 1,
      "[SEP]": 2,
      "[PAD]": 3,
      "[MASK]": 4,
      "!": 5,
      "\"": 6,
      "&": 7,
      "'": 8,
      "(": 9,
      ")": 10,
      "*": 11,
      ",": 12,
      "-": 13,
      ".": 14,
      "0": 15,
      "1": 16,
      "2": 17,
      "3": 18,
      "4": 19,
      "5": 20,
      "6": 21,
      "7": 22,
      "8": 23,
      "9": 24,
      ":": 25,
      ";": 26,
      "?": 27,
      "A": 28,
      "B": 29,
      "C": 30,
      "D": 31,
      "E": 32,
      "F": 33,
      "G": 34,
      "H": 35,
      "I": 36,
      "J": 37,
      "K": 38,
      "L": 39,
      "M": 40,
      "N": 41,
      "O": 42,
      "P": 43,
      "R": 44,
      "S": 45,
      "T": 46,
      "U": 47,
      "V": 48,
      "W": 49,
      "Y": 50,
      "Z": 51,
      "a": 52,
      "b": 53,
      "c": 54,
      "d": 55,
      "e": 56,
      "f": 57,
      "g": 58,
      "h": 59,
      "i": 60,
      "j": 61,
      "k": 62,
      "l": 63,
      "m": 64,
      "n": 65,
      "o": 66,
      "p": 67,
      "q": 68,
      "r": 69,
      "s": 70,
      "t": 71,
      "u": 72,
      "v": 73,
      "w": 74,
      "x": 75,
      "y": 76,
      "z": 77,
      "©": 78,
      "«": 79,
      "³": 80,
      "¶": 81,
      "¹": 82,
      "º": 83,
      "»": 84,
      "¼": 85,
      "Â": 86,
      "Ã": 87,
      "Ä": 88,
      "Å": 89,
      "â": 90,
      "Ċ": 91,
      "č": 92,
      "Ġ": 93,
      "Ģ": 94,
      "ģ": 95,
      "Ĥ": 96,
      "Ħ": 97,
      "ħ": 98,
      "ĩ": 99,
      "ĵ": 100,
      "Ļ": 101,
      "ļ": 102,
      "Ľ": 103,
      "ľ": 104,
      "ÅĤ": 105,
      "ie": 106,
      "čĊ": 107,
      "Ġp": 108,
      "Ġs": 109,
      "Ġw": 110,
      "ÄĻ": 111,
      "Ġn": 112,
      "ĠčĊ": 113,
      "Ġz": 114,
      "aÅĤ": 115,
      "rz": 116,
      "Äħ": 117,
      "Å¼": 118,
      "cz": 119,
      "Ġt": 120,
      "ow": 121,
      "ch": 122,
      "Ã³": 123,
      "Ġd": 124,
      "Ġm": 125,
      "ÅĽ": 126,
      "Ġo": 127,
      "Ġk": 128,
      "go": 129,
      "iÄĻ": 130,
      "ra": 131,
      "dz": 132,
      "Ġi": 133,
      "ni": 134,
      "sz": 135,
      "Ġna": 136,
      "Ġj": 137,
      "li": 138,
      "st": 139,
      "Ġb": 140,
      "nie": 141,
      "Ġpo": 142,
      "ro": 143,
      "ĠB": 144,
      "rze": 145,
      "il": 146,
      "âĢ": 147,
      "ĠâĢ": 148,
      "ĠsiÄĻ": 149,
      "Äĩ": 150,
      "le": 151,
      "ego": 152,
      "ĠâĢĵ": 153,
      "ci": 154,
      "ny": 155,
      "ak": 156,
      "yÅĤ": 157,
      "am": 158,
      "Ġnie": 159,
      "ar": 160,
      "Ġ*": 161,
      "em": 162,
      "Ġdo": 163,
      "ĠÅ¼": 164,
      "ill": 165,
      "ĠBill": 166,
      "ka": 167,
      "ĠBilly": 168,
      "rzy": 169,
      "na": 170,
      "Ã³w": 171,
      "dzi": 172,
      "Ġza": 173,
      "er": 174,
      "wi": 175,
      "Ġje": 176,
      "ne": 177,
      "ĠP": 178,
      "at": 179,
      "ki": 180,
      "ĠW": 181,
      "ĠÅ¼e": 182,
      "czy": 183,
      "Ġwy": 184,
      "ÅĤa": 185,
      "Ġst": 186,
      "cie": 187,
      "ko": 188,
      "Ġg": 189,
      "Ġprze": 190,
      "Ġu": 191,
      "ÅĤo": 192,
      "Äħc": 193,
      "dy": 194,
      "Ġa": 195,
      "da": 196,
      "owie": 197,
      "or": 198,
      "dzie": 199,
      "wa": 200,
      "ĠbyÅĤ": 201,
      "no": 202,
      "re": 203,
      "ĠN": 204,
      "la": 205,
      "mi": 206,
      "Ġkt": 207,
      "en": 208,
      "ry": 209,
      "Ġto": 210,
      "ĠT": 211,
      "by": 212,
      "Ġc": 213,
      "Ġjak": 214,
      "wo": 215,
      "Ġod": 216,
      "ĠktÃ³": 217,
      "Ġcz": 218,
      "ÅĦ": 219,
      "ĠZ": 220,
      "owa": 221,
      "ku": 222,
      "Ġko": 223,
      "aÅĤa": 224,
      "ĠÅĽ": 225,
      "Ġprzy": 226,
      "nÄħ": 227,
      "ty": 228,
      "si": 229,
      "Ġro": 230,
      "kie": 231,
      "cy": 232,
      "Ġmi": 233,
      "ad": 234,
      "ta": 235,
      "ej": 236,
      "Ġty": 237,
      "nia": 238,
      "ÅĤy": 239,
      "as": 240,
      "Ġsp": 241,
      "ob": 242,
      "jÄħc": 243,
      "wie": 244,
      "ĠD": 245,
      "ÅĽci": 246,
      "dziaÅĤ": 247,
      "ru": 248,
      "Ġch": 249,
      "szy": 250,
      "Ġl": 251,
      "ami": 252,
      "Ġsz": 253,
      "ĠM": 254,
      "Ġni": 255,
      "Ġgo": 256,
      "aÅĤy": 257,
      "raz": 258,
      "Ġwo": 259,
      "cze": 260,
      "mie": 261,
      "an": 262,
      "ĠC": 263,
      "ĠS": 264,
      "Ġpod": 265,
      "Ġpowie": 266,
      "Ġtak": 267,
      "ĠJ": 268,
      "Ġmu": 269,
      "ĠA": 270,
      "ĠK": 271,
      "nych": 272,
      "je": 273,
      "ĠO": 274,
      "ce": 275,
      "Ġte": 276,
      "ÅĤu": 277,
      "bi": 278,
      "om": 279,
      "Ġdz": 280,
      "sta": 281,
      "te": 282,
      "ja": 283,
      "Ġwie": 284,
      "rÃ³": 285,
      "ale": 286,
      "ĠNie": 287,
      "Åº": 288,
      "owy": 289,
      "Ġmo": 290,
      "im": 291,
      "sze": 292,
      "owi": 293,
      "Ġco": 294,
      "ot": 295,
      "os": 296,
      "Ġwoj": 297,
      "Ġf": 298,
      "Ġjest": 299,
      "ĠI": 300,
      "aÅĤo": 301,
      "Ġob": 302,
      "nym": 303,
      "pi": 304,
      "Ġroz": 305,
      "ĠByÅĤ": 306,
      "on": 307,
      "ca": 308,
      "ĠR": 309,
      "ery": 310,
      "Ġma": 311,
      "zy": 312,
      "ÅĽÄĩ": 313,
      "rza": 314,
      "ĠktÃ³ry": 315,
      "ma": 316,
      "my": 317,
      "Ġjego": 318,
      "ary": 319,
      "jÄħ": 320,
      "nego": 321,
      "Ġmie": 322,
      "Ġwi": 323,
      "Ġswo": 324,
      "ĠNa": 325,
      "lu": 326,
      "Ġdzie": 327,
      "bie": 328,
      "Ġka": 329,
      "Ġjed": 330,
      "Å¼e": 331,
      "ĠbyÅĤo": 332,
      "nej": 333,
      "wy": 334,
      "Ġze": 335,
      "tu": 336,
      "Ġlu": 337,
      "nÄħÅĤ": 338,
      "nÄĻ": 339,
      "od": 340,
      "rÄĻ": 341,
      "Å¼y": 342,
      "Ġczas": 343,
      "Ġpa": 344,
      "gi": 345,
      "eryka": 346,
      "pie": 347,
      "iedy": 348,
      "owaÅĤ": 349,
      "ga": 350,
      "Ġzna": 351,
      "cj": 352,
      "um": 353,
      "ĠL": 354,
      "Ġwszy": 355,
      "ĠpowiedziaÅĤ": 356,
      "Ġin": 357,
      "Ġpra": 358,
      "Äħd": 359,
      "Ġczy": 360,
      "Ġsob": 361,
      "waÅĤ": 362,
      "Ġop": 363,
      "tem": 364,
      "Ġpie": 365,
      "gl": 366,
      "siÄħ": 367,
      "za": 368,
      "Ġtym": 369,
      "lo": 370,
      "ez": 371,
      "mu": 372,
      "uÅ¼": 373,
      "Ã³ÅĤ": 374,
      "darza": 375,
      "kÄĻ": 376,
      "niej": 377,
      "Ġprzez": 378,
      "Ġdla": 379,
      "kiem": 380,
      "gr": 381,
      "czyÅĤ": 382,
      "ali": 383,
      "kÃ³w": 384,
      "Ġrze": 385,
      "ÅĽcie": 386,
      "kÄħ": 387,
      "Ġle": 388,
      "szcze": 389,
      "lko": 390,
      "to": 391,
      "Ġsam": 392,
      "Ġby": 393,
      "ĠPil": 394,
      "ĠZdarza": 395,
      "po": 396,
      "pu": 397,
      "Ġsobie": 398,
      "grim": 399,
      "ek": 400,
      "taÅĤ": 401,
      "ĠmiaÅĤ": 402,
      "ĠPilgrim": 403,
      "bo": 404,
      "Ġtego": 405,
      "ral": 406,
      "al": 407,
      "Ġale": 408,
      "Ġwszyst": 409,
      "szcz": 410,
      "ĠâĢľ": 411,
      "ĠÅ¼y": 412,
      "eÅĤ": 413,
      "ski": 414,
      "aÄĩ": 415,
      "ut": 416,
      "Ã³wi": 417,
      "jÄĻ": 418,
      "Ġra": 419,
      "wiat": 420,
      "ĠWe": 421,
      "Ġh": 422,
      "ĠPo": 423,
      "Ġlat": 424,
      "az": 425,
      "Ġku": 426,
      "Ġpi": 427,
      "Ġpro": 428,
      "Ġich": 429,
      "ĠjuÅ¼": 430,
      "Ġtylko": 431,
      "ew": 432,
      "Ġpu": 433,
      "ciÄħ": 434,
      "ĠAm": 435,
      "et": 436,
      "fi": 437,
      "ych": 438,
      "Ġtam": 439,
      "owo": 440,
      "ÅĽli": 441,
      "ĠWeary": 442,
      "Ġno": 443,
      "owiedziaÅĤ": 444,
      "ba": 445,
      "Ġprzed": 446,
      "ĠbÄĻ": 447,
      "ĠJe": 448,
      "gie": 449,
      "owej": 450,
      "ĠAmeryka": 451,
      "cho": 452,
      "ĠksiÄħ": 453,
      "ĠDre": 454,
      "cÃ³w": 455,
      "ost": 456,
      "ĠG": 457,
      "Ġkiedy": 458,
      "Ġjeszcze": 459,
      "ĠktÃ³re": 460,
      "ach": 461,
      "fam": 462,
      "dze": 463,
      "dzo": 464,
      "kt": 465,
      "niu": 466,
      "Ġbar": 467,
      "cia": 468,
      "emu": 469,
      "Ġzap": 470,
      "dÅĤ": 471,
      "gÅĤ": 472,
      "Ġr": 473,
      "sty": 474,
      "dziÅĤ": 475,
      "ajÄħc": 476,
      "ony": 477,
      "ĠteÅ¼": 478,
      "ralfam": 479,
      "ralfamad": 480,
      "ĠpiÄĻ": 481,
      "ĠwiÄĻ": 482,
      "raw": 483,
      "Ġnaj": 484,
      "ĠbyÅĤa": 485,
      "ralfamador": 486,
      "du": 487,
      "ĠwÅĤa": 488,
      "Ġta": 489,
      "Ġdale": 490,
      "gli": 491,
      "mo": 492,
      "su": 493,
      "sy": 494,
      "skie": 495,
      "cja": 496,
      "Ġli": 497,
      "Ġraz": 498,
      "ĠmÃ³wi": 499,
      "nik": 500,
      "Ġspy": 501,
      "gu": 502,
      "niÄĻ": 503,
      "oÅĤ": 504,
      "Ġci": 505,
      "Ġgdy": 506,
      "Ġpow": 507,
      "Ġwz": 508,
      "rzyÅĤ": 509,
      "Ġmy": 510,
      "Ġaby": 511,
      "waÅ¼": 512,
      "sa": 513,
      "ĠE": 514,
      "Ġsk": 515,
      "Ġstra": 516,
      "ĠgÅĤ": 517,
      "ĠTro": 518,
      "wÃ³": 519,
      "zu": 520,
      "ied": 521,
      "owÄħ": 522,
      "Ġot": 523,
      "Ġbo": 524,
      "Ġsta": 525,
      "ĠTralfamador": 526,
      "ĠÅĽmie": 527,
      "siÄĻ": 528,
      "Ġbu": 529,
      "Ġpoz": 530,
      "Ġodp": 531,
      "ĠMi": 532,
      "dÄĻ": 533,
      "el": 534,
      "Ġten": 535,
      "Ġbez": 536,
      "ĠÅ¼eby": 537,
      "Ġsto": 538,
      "ĠTo": 539,
      "ĠÅĽwiat": 540,
      "cji": 541,
      "ter": 542,
      "Ġzd": 543,
      "ÅĽnie": 544,
      "ÅĽmy": 545,
      "sto": 546,
      "ono": 547,
      "sk": 548,
      "ĠsÄħ": 549,
      "Ġwa": 550,
      "Ġgdzie": 551,
      "ent": 552,
      "ĠZie": 553,
      "bu": 554,
      "Ġws": 555,
      "ĠmÃ³": 556,
      "Ġnich": 557,
      "Ġteraz": 558,
      "nÃ³w": 559,
      "Ġ1": 560,
      "stu": 561,
      "rod": 562,
      "Ġani": 563,
      "ĠZa": 564,
      "szedÅĤ": 565,
      "ĠU": 566,
      "Ġzam": 567,
      "Ġdwa": 568,
      "ĠWy": 569,
      "owaÄĩ": 570,
      "oba": 571,
      "ĠbÄĻdzie": 572,
      "ĠksiÄħÅ¼": 573,
      "one": 574,
      "pa": 575,
      "scy": 576,
      "war": 577,
      "ĠÅ": 578,
      "Ġcie": 579,
      "czÄĻ": 580,
      "cznie": 581,
      "Ġog": 582,
      "mia": 583,
      "ĠktÃ³rzy": 584,
      "ĠCzy": 585,
      "kami": 586,
      "ĠÅĤ": 587,
      "czÄħ": 588,
      "Ġdru": 589,
      "stÄĻ": 590,
      "niem": 591,
      "ĠbyÅĤy": 592,
      "ĠDer": 593,
      "ĠCh": 594,
      "Ġdalej": 595,
      "ii": 596,
      "wil": 597,
      "zna": 598,
      "noÅĽci": 599,
      "rÃ³Å¼": 600,
      "Ġludzi": 601,
      "Ġpier": 602,
      "glÄħd": 603,
      "cu": 604,
      "osta": 605,
      "sie": 606,
      "Ġsy": 607,
      "Ġnad": 608,
      "Ġbi": 609,
      "ĠDerby": 610,
      "ich": 611,
      "kÅĤa": 612,
      "zi": 613,
      "Ġe": 614,
      "Ġsie": 615,
      "rzwi": 616,
      "ĠrÃ³w": 617,
      "ĠwiÄĻc": 618,
      "aj": 619,
      "Ġre": 620,
      "Ġpan": 621,
      "Ġzro": 622,
      "Ã³Å¼": 623,
      "lan": 624,
      "Ġbardzo": 625,
      "dni": 626,
      "ĠrÄĻ": 627,
      "Ġdrzwi": 628,
      "Ġim": 629,
      "dÄħ": 630,
      "rÄħ": 631,
      "Ġzoba": 632,
      "rzu": 633,
      "Ġba": 634,
      "Ġnim": 635,
      "ĠKiedy": 636,
      "ĠkaÅ¼": 637,
      "ia": 638,
      "js": 639,
      "owego": 640,
      "Ġja": 641,
      "ĠPrze": 642,
      "owych": 643,
      "bra": 644,
      "Ġam": 645,
      "ĠsÅĤy": 646,
      "Ġpotem": 647,
      "Ġjej": 648,
      "ĠTe": 649,
      "Ġdzi": 650,
      "alen": 651,
      "Ġrzeczy": 652,
      "gra": 653,
      "rowa": 654,
      "sÅĤ": 655,
      "czas": 656,
      "Ġtu": 657,
      "nieÅ¼": 658,
      "ĠWalen": 659,
      "Ġroku": 660,
      "ĠchÅĤo": 661,
      "ĠAn": 662,
      "ĠmoÅ¼": 663,
      "ĠRos": 664,
      "Ġmiejs": 665,
      "Ġameryka": 666,
      "ol": 667,
      "ska": 668,
      "sko": 669,
      "ÅĤowie": 670,
      "Ġtrzy": 671,
      "nymi": 672,
      "Ġjakie": 673,
      "Ġspo": 674,
      "Ġsze": 675,
      "ĠNiem": 676,
      "Ġbyli": 677,
      "Ġ19": 678,
      "ÅĤem": 679,
      "Ġzn": 680,
      "rzaÅĤ": 681,
      "ÅĽl": 682,
      "Ġoczy": 683,
      "dzy": 684,
      "strze": 685,
      "ciu": 686,
      "wali": 687,
      "ĠcaÅĤ": 688,
      "Ġwojnie": 689,
      "Ġdzieci": 690,
      "ĠamerykaÅĦ": 691,
      "gdy": 692,
      "nu": 693,
      "py": 694,
      "ĠF": 695,
      "Ġru": 696,
      "owe": 697,
      "Ġdob": 698,
      "ĠPot": 699,
      "ater": 700,
      "ĠgÅĤo": 701,
      "laz": 702,
      "Ġkon": 703,
      "Ġcho": 704,
      "Ġczasu": 705,
      "ĠTrout": 706,
      "fo": 707,
      "gar": 708,
      "Å¼yÅĤ": 709,
      "Ġtrze": 710,
      "Ã³r": 711,
      "Ġmnie": 712,
      "Ġok": 713,
      "ard": 714,
      "Ġchwil": 715,
      "Ġznaj": 716,
      "glÄħ": 717,
      "ĠspytaÅĤ": 718,
      "zie": 719,
      "sza": 720,
      "Ġpot": 721,
      "ĠPrzy": 722,
      "kich": 723,
      "daÄĩ": 724,
      "ĠczÅĤowie": 725,
      "Ġwojny": 726,
      "ĠÅĽmier": 727,
      "ĠmÃ³gÅĤ": 728,
      "ĠrÃ³wnieÅ¼": 729,
      "do": 730,
      "knÄħÅĤ": 731,
      "pad": 732,
      "ĠH": 733,
      "szka": 734,
      "Ġniego": 735,
      "wiÅĽcie": 736,
      "ĠWie": 737,
      "Ġmusi": 738,
      "ĠRo": 739,
      "Ġczasie": 740,
      "Ġwago": 741,
      "de": 742,
      "gÄĻ": 743,
      "Ġzie": 744,
      "aÅĤem": 745,
      "Ġtej": 746,
      "Ġbom": 747,
      "ciaÅĤ": 748,
      "ĠÅ¼oÅĤ": 749,
      "czyÄĩ": 750,
      "ord": 751,
      "ĠTak": 752,
      "ĠAngli": 753,
      "ĠPotem": 754,
      "bli": 755,
      "praw": 756,
      "ym": 757,
      "Ġpowi": 758,
      "Ġzost": 759,
      "nicy": 760,
      "wiÄħ": 761,
      "Ġal": 762,
      "ĠÅĽrod": 763,
      "ĠLaz": 764,
      "Ġpraw": 765,
      "skich": 766,
      "ciÄħg": 767,
      "ĠodpowiedziaÅĤ": 768,
      "ĠLazza": 769,
      "eÅĽ": 770,
      "ona": 771,
      "czego": 772,
      "owu": 773,
      "ĠdÅĤu": 774,
      "leg": 775,
      "are": 776,
      "Ġdomu": 777,
      "wiad": 778,
      "Ġkto": 779,
      "ĠktÃ³ra": 780,
      "ĠÅĽwie": 781,
      "Ġmia": 782,
      "miec": 783,
      "owym": 784,
      "ĠcoÅĽ": 785,
      "ĠgdyÅ¼": 786,
      "Ġpierw": 787,
      "era": 788,
      "ju": 789,
      "mar": 790,
      "wiÄĻ": 791,
      "ĠsÅĤu": 792,
      "Ġwe": 793,
      "Ã³b": 794,
      "Ġdro": 795,
      "Ġkil": 796,
      "ĠjeÅĦ": 797,
      "Ġjako": 798,
      "siÅĤ": 799,
      "rÃ³d": 800,
      "ĠMiaÅĤ": 801,
      "ĠÅ¼oÅĤnie": 802,
      "jem": 803,
      "jcie": 804,
      "wego": 805,
      "ÅĤÄħ": 806,
      "rzÄħ": 807,
      "liÅĽmy": 808,
      "ĠÅ¼ad": 809,
      "dziaÅĤa": 810,
      "Ġzabi": 811,
      "Ġwojen": 812,
      "pis": 813,
      "ĠwÅĤaÅĽnie": 814,
      "Ġzrobi": 815,
      "czu": 816,
      "Ġmat": 817,
      "lium": 818,
      "Ġbied": 819,
      "ĠgÃ³": 820,
      "ĠJego": 821,
      "stawi": 822,
      "ĠRum": 823,
      "mawi": 824,
      "Ġalbo": 825,
      "ĠRumfo": 826,
      "..": 827,
      "den": 828,
      "ist": 829,
      "nak": 830,
      "pom": 831,
      "Ġon": 832,
      "ory": 833,
      "Ġnic": 834,
      "Ġwiel": 835,
      "Åºnie": 836,
      "ĠIlium": 837,
      "Ġobo": 838,
      "Ġswoje": 839,
      "ĠpiÄĻk": 840,
      "ĠÅĤÃ³Å¼": 841,
      "Ġbomb": 842,
      "ĠÅĤa": 843,
      "cha": 844,
      "szaÅĤ": 845,
      "ĠjÄħ": 846,
      "ciÅĤ": 847,
      "ere": 848,
      "ĠWszy": 849,
      "dali": 850,
      "ÅĦst": 851,
      "owali": 852,
      "ĠkoÅĦ": 853,
      "Ġspos": 854,
      "ĠByÅĤa": 855,
      "Ġjeden": 856,
      "stÄĻp": 857,
      "cami": 858,
      "ÄĻÅ¼": 859,
      "chu": 860,
      "Ġda": 861,
      "iÄĻdzy": 862,
      "aki": 863,
      "kach": 864,
      "Ġzaw": 865,
      "Ġstar": 866,
      "dziej": 867,
      "waÄĩ": 868,
      "ĠwidziaÅĤ": 869,
      "cjÄĻ": 870,
      "ĠmoÅ¼na": 871,
      "Hare": 872,
      "es": 873,
      "so": 874,
      "trz": 875,
      "ĠpÃ³": 876,
      "Ġzosta": 877,
      "rzÄĻ": 878,
      "Ġtem": 879,
      "ĠzaÅĽ": 880,
      "dal": 881,
      "dzieÄĩ": 882,
      "resz": 883,
      "ĠNi": 884,
      "Ġjaki": 885,
      "siÄħc": 886,
      "wier": 887,
      "ĠCo": 888,
      "ĠCz": 889,
      "ĠOd": 890,
      "Åºni": 891,
      "ĠktÃ³rych": 892,
      "Ġwszyscy": 893,
      "Ġwszystko": 894,
      "ĠDrezna": 895,
      "ĠTralfamadorczy": 896,
      "glÄħdaÅĤ": 897,
      "ĠTeraz": 898,
      "ĠWalencja": 899,
      "ĠsposÃ³b": 900,
      "dnie": 901,
      "taÅĤa": 902,
      "wet": 903,
      "ĠrÃ³Å¼": 904,
      "ĠpÅĤa": 905,
      "ĠsÅĤ": 906,
      "Ġzda": 907,
      "Å¼aÅĤ": 908,
      "ÅĽrÃ³d": 909,
      "rafi": 910,
      "Ġniemiec": 911,
      "Ġzas": 912,
      "Ġczu": 913,
      "Ġkobie": 914,
      "tych": 915,
      "ĠchciaÅĤ": 916,
      "ĠpowiedziaÅĤa": 917,
      "Ġswoj": 918,
      "Ġswoich": 919,
      "Ġjednak": 920,
      "nÄĻÅĤa": 921,
      "Ġinnych": 922,
      "ĠbyÄĩ": 923,
      "Ġwszystkie": 924,
      "Ġpowro": 925,
      "ĠRosew": 926,
      "ĠLazzaro": 927,
      "Ġtemat": 928,
      ".\"": 929,
      "lÄĻ": 930,
      "sku": 931,
      "Ġpy": 932,
      "Ġkie": 933,
      "ran": 934,
      "szli": 935,
      "Ġpop": 936,
      "ron": 937,
      "kaz": 938,
      "kim": 939,
      "Ġstan": 940,
      "ĠmiaÅĤa": 941,
      "Ġnigdy": 942,
      "ĠSt": 943,
      "tedy": 944,
      "ĠZiemi": 945,
      "ĠkaÅ¼dy": 946,
      "ĠchÅĤop": 947,
      "ĠRumfoord": 948,
      "00": 949,
      "br": 950,
      "in": 951,
      "naÅĤ": 952,
      "uk": 953,
      "waÅĤa": 954,
      "Ġsi": 955,
      "owaÅĤa": 956,
      "Ġdnia": 957,
      "Ġmar": 958,
      "ĠmÅĤo": 959,
      "Ġwyda": 960,
      "dzieli": 961,
      "Ġtych": 962,
      "ĠKa": 963,
      "Åºniej": 964,
      "Ġmieli": 965,
      "ĠAmerykanie": 966,
      "wÃ³j": 967,
      "ĠTralfamadorii": 968,
      "Ġznowu": 969,
      "prawdÄĻ": 970,
      "peÅĤ": 971,
      "tom": 972,
      "yli": 973,
      "ze": 974,
      "Ġar": 975,
      "aÅĤe": 976,
      "Ġoraz": 977,
      "nic": 978,
      "Ġnaz": 979,
      "Ġpom": 980,
      "ĠBo": 981,
      "dziÄĩ": 982,
      "aty": 983,
      "Ġstary": 984,
      "Ġgaz": 985,
      "oru": 986,
      "Ġczter": 987,
      "nÄħÄĩ": 988,
      "ĠMon": 989,
      "ĠOp": 990,
      "tek": 991,
      "Ġfa": 992,
      "ĠktÃ³rym": 993,
      "Ġznalaz": 994,
      "Ġpierwszy": 995,
      "Ġzawsze": 996,
      "pe": 997,
      "tÄħ": 998,
      "tnie": 999,
      "wÄħ": 1000,
      "Ġwtedy": 1001,
      "ĠzÅĤo": 1002,
      "ĠtÄĻ": 1003,
      "Ã³sÅĤ": 1004,
      "nikÃ³w": 1005,
      "stÄħ": 1006,
      "ĠBar": 1007,
      "ilgo": 1008,
      "amy": 1009,
      "Ġniez": 1010,
      "wili": 1011,
      "dzieÅĽci": 1012,
      "Ġjakby": 1013,
      "Ġprzyja": 1014,
      "mieni": 1015,
      "ĠJa": 1016,
      "Ġtele": 1017,
      "Ġjedno": 1018,
      "Ġhist": 1019,
      "ĠDreÅºnie": 1020,
      "Ġstanie": 1021,
      "ĠÅ»": 1022,
      "kÅĤad": 1023,
      "Ġsiebie": 1024,
      "ĠzobaczyÅĤ": 1025,
      "Ġpowrotem": 1026,
      "ĠRosewater": 1027,
      "sÅĤy": 1028,
      "trzy": 1029,
      "wu": 1030,
      "Ġla": 1031,
      "Ġswego": 1032,
      "czne": 1033,
      "Ġtwa": 1034,
      "Ã³d": 1035,
      "raÅ¼": 1036,
      "niÃ³sÅĤ": 1037,
      "Ġnas": 1038,
      "staÅĤ": 1039,
      "stat": 1040,
      "amp": 1041,
      "ĠPod": 1042,
      "ĠstaÅĤ": 1043,
      "noÅĽÄĩ": 1044,
      "ĠciÄĻ": 1045,
      "owania": 1046,
      "Ġmimo": 1047,
      "Ġdziec": 1048,
      "Ġludzie": 1049,
      "Ġczym": 1050,
      "ĠAmerykanÃ³w": 1051,
      "ĠktÃ³rej": 1052,
      "ĠMonta": 1053,
      "bÄĻ": 1054,
      "bel": 1055,
      "ksz": 1056,
      "pra": 1057,
      "we": 1058,
      "Ġak": 1059,
      "ÅĤk": 1060,
      "ÅĤÄĻ": 1061,
      "ĠsÅĤo": 1062,
      "ĠswÃ³j": 1063,
      "cza": 1064,
      "Ġdu": 1065,
      "Ġkrzy": 1066,
      "Ġnadal": 1067,
      "Ġnawet": 1068,
      "ĠPa": 1069,
      "ĠktÃ³rÄħ": 1070,
      "ĠczÄĻ": 1071,
      "Ġkole": 1072,
      "Ġrobi": 1073,
      "cyj": 1074,
      "Ġszy": 1075,
      "aÅĤych": 1076,
      "Ġmusz": 1077,
      "ĠKo": 1078,
      "ĠKilgo": 1079,
      "Ġmieszka": 1080,
      "Ġswoim": 1081,
      "pomi": 1082,
      "ĠEd": 1083,
      "Ġdrugie": 1084,
      "Ġkilka": 1085,
      "ĠjeÅĦcÃ³w": 1086,
      "ĠKilgore": 1087,
      "\".": 1088,
      "sem": 1089,
      "ur": 1090,
      "uta": 1091,
      "zd": 1092,
      "Ġzu": 1093,
      "ĠtÅĤu": 1094,
      "Ġkar": 1095,
      "dzÄħc": 1096,
      "nicz": 1097,
      "szu": 1098,
      "szÅĤo": 1099,
      "ste": 1100,
      "Ġpoko": 1101,
      "czyn": 1102,
      "woj": 1103,
      "ĠktÃ³r": 1104,
      "Ġkol": 1105,
      "ĠMo": 1106,
      "Ġtakie": 1107,
      "ĠJak": 1108,
      "pita": 1109,
      "ĠswojÄħ": 1110,
      "Ġwszystkich": 1111,
      "dzenia": 1112,
      "skiej": 1113,
      "skiego": 1114,
      "Ġotwo": 1115,
      "ĠNiemcy": 1116,
      "Ġznajd": 1117,
      "jm": 1118,
      "tÃ³w": 1119,
      "ud": 1120,
      "waÅĤy": 1121,
      "czki": 1122,
      "Ġtru": 1123,
      "chaÅĤ": 1124,
      "Ã³j": 1125,
      "szego": 1126,
      "niec": 1127,
      "rom": 1128,
      "ciw": 1129,
      "Ġdom": 1130,
      "nach": 1131,
      "Ġzach": 1132,
      "Ġgru": 1133,
      "Ġcy": 1134,
      "ĠcaÅĤy": 1135,
      "Ġrodzi": 1136,
      "jÄħcy": 1137,
      "jÄħcych": 1138,
      "ĠDo": 1139,
      "Ġszko": 1140,
      "ĠMa": 1141,
      "Ġpodob": 1142,
      "ĠmoÅ¼e": 1143,
      "Ġfil": 1144,
      "ĠByÅĤo": 1145,
      "ĠpiÄĻÄĩ": 1146,
      "ĠÅļ": 1147,
      "olot": 1148,
      "ĠczÅĤowiek": 1149,
      "ĠzostaÅĤ": 1150,
      "ĠpÃ³Åºniej": 1151,
      "reszcie": 1152,
      "ĠznalazÅĤ": 1153,
      "ada": 1154,
      "gÄħ": 1155,
      "nem": 1156,
      "nka": 1157,
      "un": 1158,
      "Ġsko": 1159,
      "Ġsku": 1160,
      "ĠwyÅĤ": 1161,
      "ĠwÅĽrÃ³d": 1162,
      "Ġzak": 1163,
      "Å¼a": 1164,
      "Ġtale": 1165,
      "owÄĻ": 1166,
      "Ġde": 1167,
      "Ġkra": 1168,
      "nika": 1169,
      "Ġnau": 1170,
      "Ġbra": 1171,
      "niewaÅ¼": 1172,
      "Ġpok": 1173,
      "ĠByli": 1174,
      "ciel": 1175,
      "ĠjakÄħ": 1176,
      "Ġcze": 1177,
      "Ġczego": 1178,
      "ĠÅĽre": 1179,
      "tycz": 1180,
      "adaÅĤ": 1181,
      "rÃ³t": 1182,
      "Å¼ek": 1183,
      "ĠLe": 1184,
      "Ġprac": 1185,
      "ĠsobÄħ": 1186,
      "Ġsamo": 1187,
      "ĠÅ¼ycie": 1188,
      "Ġnocy": 1189,
      "ĠDrez": 1190,
      "ĠGdzie": 1191,
      "ĠmyÅĽl": 1192,
      "ĠTrouta": 1193,
      "jciec": 1194,
      "Ġswojej": 1195,
      "Ġpyta": 1196,
      "Ġhistor": 1197,
      "dÅº": 1198,
      "io": 1199,
      "maÅĤ": 1200,
      "onych": 1201,
      "oÅĽÄĩ": 1202,
      "rg": 1203,
      "Ġsen": 1204,
      "Ġwar": 1205,
      "Ġwraz": 1206,
      "Ġzgi": 1207,
      "chod": 1208,
      "ĠdÃ³ÅĤ": 1209,
      "Ġmom": 1210,
      "ĠmÄĻÅ¼": 1211,
      "ÅĽmie": 1212,
      "arÄĻ": 1213,
      "Ġgra": 1214,
      "ĠaÅ¼": 1215,
      "Ġczar": 1216,
      "ĠÅĽcia": 1217,
      "szych": 1218,
      "Ġgodzi": 1219,
      "ĠCamp": 1220,
      "ĠwiedziaÅĤ": 1221,
      "ĠmajÄħ": 1222,
      "Ġprawie": 1223,
      "siÄħt": 1224,
      "ĠmÃ³wiÅĤ": 1225,
      "ĠspytaÅĤa": 1226,
      "wÃ³r": 1227,
      "warte": 1228,
      "ĠsÅĤyn": 1229,
      "glÄħda": 1230,
      "ĠpÅĤaszcz": 1231,
      "ÅĤkow": 1232,
      "ĠCampbel": 1233,
      "cÄħ": 1234,
      "gle": 1235,
      "jrzaÅĤ": 1236,
      "lar": 1237,
      "nami": 1238,
      "sÅĤu": 1239,
      "ĠV": 1240,
      "ÅĤam": 1241,
      "ĠpÅĤ": 1242,
      "Ġpre": 1243,
      "ĠpÃ³ÅĤ": 1244,
      "Ġsch": 1245,
      "ĠwrÃ³": 1246,
      "Ġzwy": 1247,
      "Ã³l": 1248,
      "ĠmaÅĤy": 1249,
      "ĠmiÄĻdzy": 1250,
      "rac": 1251,
      "rabi": 1252,
      "Ġist": 1253,
      "nim": 1254,
      "niÅĤ": 1255,
      "szÄĻ": 1256,
      "szczy": 1257,
      "Ġbro": 1258,
      "rop": 1259,
      "ily": 1260,
      "Ġdop": 1261,
      "ĠWi": 1262,
      "ĠuwaÅ¼": 1263,
      "Äħcy": 1264,
      "ryty": 1265,
      "ĠDla": 1266,
      "ĠDzi": 1267,
      "Ġchwili": 1268,
      "ĠniÅ¼": 1269,
      "ĠSz": 1270,
      "tel": 1271,
      "Ġwiecz": 1272,
      "nÄĻli": 1273,
      "ĠLily": 1274,
      "jÄĻcie": 1275,
      "Ġprostu": 1276,
      "Ġnoc": 1277,
      "ĠbÄĻdÄħ": 1278,
      "ĠksiÄħÅ¼ek": 1279,
      "ĠmyÅĽli": 1280,
      "land": 1281,
      "Ġdobrze": 1282,
      "ĠgÅĤos": 1283,
      "ĠmusiaÅĤ": 1284,
      "wiadow": 1285,
      "marÅĤ": 1286,
      "pomni": 1287,
      "ĠDrezno": 1288,
      "daÅĤ": 1289,
      "dniej": 1290,
      "kro": 1291,
      "miÄĻ": 1292,
      "pli": 1293,
      "raÅĤ": 1294,
      "wÄĻ": 1295,
      "Ġat": 1296,
      "ĠÅĤy": 1297,
      "Ġpat": 1298,
      "ĠpeÅĤ": 1299,
      "Ġpew": 1300,
      "Ġwp": 1301,
      "Ġtro": 1302,
      "Ġdni": 1303,
      "Ġdwie": 1304,
      "Ġmil": 1305,
      "ÅĽle": 1306,
      "Ġos": 1307,
      "ĠksiÄĻ": 1308,
      "Ġnale": 1309,
      "ĠpoÅĽ": 1310,
      "Ġpomy": 1311,
      "ĠponiewaÅ¼": 1312,
      "rzem": 1313,
      "Ġniej": 1314,
      "ĠBillym": 1315,
      "ata": 1316,
      "Ġwypad": 1317,
      "kona": 1318,
      "ÅĤoÅĽci": 1319,
      "Ġan": 1320,
      "ĠTym": 1321,
      "byt": 1322,
      "ĠcÃ³r": 1323,
      "woli": 1324,
      "ÅĦczyÅĤ": 1325,
      "owany": 1326,
      "kiego": 1327,
      "tach": 1328,
      "Ġspod": 1329,
      "rusz": 1330,
      "Ġlot": 1331,
      "Ġwojsk": 1332,
      "Ġobu": 1333,
      "Ġopty": 1334,
      "Ġsamolot": 1335,
      "bara": 1336,
      "ĠJest": 1337,
      "ĠkiedyÅĽ": 1338,
      "stycz": 1339,
      "ĠstraÅ¼": 1340,
      "ĠZiemia": 1341,
      "ĠksiÄħÅ¼ki": 1342,
      "ĠksiÄħÅ¼kÄĻ": 1343,
      "stÄĻpu": 1344,
      "Ġpowin": 1345,
      "ĠdÅĤugo": 1346,
      "ĠjakiÅĽ": 1347,
      "Ġkobiety": 1348,
      "ĠBarbara": 1349,
      "ĠEdgar": 1350,
      "Ġdrugiej": 1351,
      "ĠktÃ³rego": 1352,
      "ble": 1353,
      "ck": 1354,
      "cem": 1355,
      "iÅĤ": 1356,
      "pot": 1357,
      "tk": 1358,
      "Ġpla": 1359,
      "ĠprÃ³": 1360,
      "Ġnum": 1361,
      "Ġzw": 1362,
      "Å¼d": 1363,
      "chali": 1364,
      "Ġme": 1365,
      "Ġmas": 1366,
      "Ġojciec": 1367,
      "dzÄħ": 1368,
      "niÄħ": 1369,
      "ĠnaprawdÄĻ": 1370,
      "ĠBer": 1371,
      "rzeÄĩ": 1372,
      "ĠjeÅĽli": 1373,
      "nek": 1374,
      "ĠPowie": 1375,
      "ĠPowiedziaÅĤ": 1376,
      "Ġwyob": 1377,
      "Ġaut": 1378,
      "orem": 1379,
      "owarzy": 1380,
      "owane": 1381,
      "Ġspra": 1382,
      "jÄħce": 1383,
      "Ġszere": 1384,
      "ĠMie": 1385,
      "ĠMÃ³wi": 1386,
      "Ġwol": 1387,
      "Ġpowiet": 1388,
      "ĠtakÅ¼e": 1389,
      "ĠAle": 1390,
      "Å¼yÄĩ": 1391,
      "piero": 1392,
      "lone": 1393,
      "Ġlata": 1394,
      "ĠlatajÄħc": 1395,
      "Ġpis": 1396,
      "dzenie": 1397,
      "Ġodpowie": 1398,
      "ĠÅĽwiatowej": 1399,
      "miast": 1400,
      "ĠzobaczyÄĩ": 1401,
      "ĠszeÅĽÄĩ": 1402,
      "ĠÅĽrodka": 1403,
      "ĠÅ¼oÅĤnierzy": 1404,
      "Ġmatka": 1405,
      "ĠgÃ³rÄĻ": 1406,
      "Ġbombard": 1407,
      "ĠWszyscy": 1408,
      "ĠsÅĤowa": 1409,
      "peÅĤnie": 1410,
      "ĠBoÅ¼e": 1411,
      "stÄħpi": 1412,
      "kÅĤ": 1413,
      "omi": 1414,
      "row": 1415,
      "tej": 1416,
      "ura": 1417,
      "waÅĤo": 1418,
      "Ġpowo": 1419,
      "ĠwszedÅĤ": 1420,
      "Ġzwie": 1421,
      "Ġzwiadow": 1422,
      "Ġtemu": 1423,
      "chni": 1424,
      "chaÄĩ": 1425,
      "Ã³z": 1426,
      "Ġdwu": 1427,
      "Ġoj": 1428,
      "Ġostat": 1429,
      "Ġkro": 1430,
      "Ġkre": 1431,
      "szÅĤa": 1432,
      "Ġnapis": 1433,
      "ciÅĤa": 1434,
      "amie": 1435,
      "amiÄĻ": 1436,
      "dzia": 1437,
      "Ġjedy": 1438,
      "Ġwyp": 1439,
      "Ġwyso": 1440,
      "Ġprzeciw": 1441,
      "dziesiÄħt": 1442,
      "ĠÅĽpie": 1443,
      "tym": 1444,
      "ĠtysiÄħc": 1445,
      "ĠDzie": 1446,
      "ÅĽciÄħ": 1447,
      "Ġszpita": 1448,
      "ĠniÄħ": 1449,
      "czenie": 1450,
      "mienia": 1451,
      "ĠJor": 1452,
      "ĠJez": 1453,
      "ĠIn": 1454,
      "ĠByÅĤy": 1455,
      "Ġdziew": 1456,
      "Ġjednym": 1457,
      "Ġpal": 1458,
      "Ġznale": 1459,
      "Ġczyta": 1460,
      "Ġdlaczego": 1461,
      "skim": 1462,
      "Ġprzedstawi": 1463,
      "chodzi": 1464,
      "ĠwÅĤas": 1465,
      "ĠgÅĤowÄħ": 1466,
      "Ġwsp": 1467,
      "ĠzamknÄħÅĤ": 1468,
      "ĠkaÅ¼d": 1469,
      "czasem": 1470,
      "Ġmiejsca": 1471,
      "Ġ194": 1472,
      "Ġ196": 1473,
      "ĠamerykaÅĦskich": 1474,
      "Ġtrzech": 1475,
      "ĠchwilÄĻ": 1476,
      "ĠÅĽmierci": 1477,
      "...": 1478,
      "ĠÅĤÃ³Å¼ka": 1479,
      "ĠTralfamadorczycy": 1480,
      "ĠkaÅ¼dym": 1481,
      "ĠMontana": 1482,
      "ĠotworzyÅĤ": 1483,
      "ĠszkoÅĤy": 1484,
      "Ġmomen": 1485,
      "ĠmÄĻÅ¼czy": 1486,
      "ĠJezu": 1487,
      "dno": 1488,
      "ec": 1489,
      "ech": 1490,
      "kaÅĤ": 1491,
      "kowi": 1492,
      "laÅĤ": 1493,
      "lat": 1494,
      "ng": 1495,
      "Ġpas": 1496,
      "Ġzmieni": 1497,
      "rzmi": 1498,
      "Ġtor": 1499,
      "owaÅĤy": 1500,
      "ĠdÅº": 1501,
      "ĠduÅ¼": 1502,
      "Ġokie": 1503,
      "got": 1504,
      "rach": 1505,
      "szÄħ": 1506,
      "stan": 1507,
      "Ġpomo": 1508,
      "lep": 1509,
      "let": 1510,
      "aka": 1511,
      "aku": 1512,
      "yÅĤa": 1513,
      "erm": 1514,
      "ĠPie": 1515,
      "ĠwyjÄħ": 1516,
      "Ġstro": 1517,
      "Ġup": 1518,
      "orma": 1519,
      "bym": 1520,
      "nÄħtrz": 1521,
      "siad": 1522,
      "kiej": 1523,
      "Ġnikt": 1524,
      "Ġmusie": 1525,
      "Ġwiele": 1526,
      "Ġwielu": 1527,
      "Ġmog": 1528,
      "Ġmogli": 1529,
      "szech": 1530,
      "owiadaÅĤ": 1531,
      "Ġfron": 1532,
      "Ġrozmawi": 1533,
      "onu": 1534,
      "ĠRob": 1535,
      "ĠNaj": 1536,
      "biera": 1537,
      "Ġpara": 1538,
      "Ġinnymi": 1539,
      "Ġopu": 1540,
      "Ġrzecz": 1541,
      "puszcz": 1542,
      "ĠÅ¼ycia": 1543,
      "ĠpuÅĤkow": 1544,
      "ĠJeden": 1545,
      "ĠgÅĤowÄĻ": 1546,
      "Ġbara": 1547,
      "ĠsÅĤyszaÅĤ": 1548,
      "ĠrzeczywiÅĽcie": 1549,
      "Ġpotrafi": 1550,
      "ĠRoland": 1551,
      "Ġmiasta": 1552,
      "Ġwojennych": 1553,
      "Ġbiedny": 1554,
      "ĠWszyst": 1555,
      "ÅĦstwa": 1556,
      "Ġstanowi": 1557,
      "Ġface": 1558,
      "ĠzupeÅĤnie": 1559,
      "ĠDlaczego": 1560,
      "ĠTymczasem": 1561,
      "Ġnumer": 1562,
      "ecja": 1563,
      "oo": 1564,
      "onej": 1565,
      "rÃ³w": 1566,
      "rga": 1567,
      "sp": 1568,
      "skÄħ": 1569,
      "tego": 1570,
      "twa": 1571,
      "ĠÅº": 1572,
      "ÅĤÃ³": 1573,
      "Ġprowa": 1574,
      "Ġsre": 1575,
      "ĠwÄħ": 1576,
      "Ġwreszcie": 1577,
      "Ġzami": 1578,
      "rzÄħd": 1579,
      "czo": 1580,
      "czni": 1581,
      "cznym": 1582,
      "Ġtra": 1583,
      "ĠtyÅĤ": 1584,
      "owaÅĤo": 1585,
      "Ġdrze": 1586,
      "Ġdre": 1587,
      "Ġofi": 1588,
      "niÄĩ": 1589,
      "szej": 1590,
      "ĠjÄĻ": 1591,
      "stro": 1592,
      "ĠpoczÄħ": 1593,
      "Ġniep": 1594,
      "Ġniewie": 1595,
      "arÅĤ": 1596,
      "kazy": 1597,
      "Ġzale": 1598,
      "ĠzaczÄħ": 1599,
      "nety": 1600,
      "ĠwyglÄħd": 1601,
      "Ġgro": 1602,
      "Ġgwi": 1603,
      "ĠgÅĤu": 1604,
      "ĠprzeniÃ³sÅĤ": 1605,
      "Ġuk": 1606,
      "Ġuro": 1607,
      "ÅĤoÅ¼yÅĤ": 1608,
      "Ġce": 1609,
      "ÅĦce": 1610,
      "ĠkoÅĤo": 1611,
      "Ġprzypomi": 1612,
      "taj": 1613,
      "Ġtyle": 1614,
      "Ġsprze": 1615,
      "Ġspecja": 1616,
      "jÄħcÄħ": 1617,
      "biÅĤ": 1618,
      "ÅºÄĩ": 1619,
      "ĠwojnÄĻ": 1620,
      "onego": 1621,
      "Ġpani": 1622,
      "gara": 1623,
      "ĠrzeÅºni": 1624,
      "ĠleÅ¼": 1625,
      "jÄĻcia": 1626,
      "Ġkur": 1627,
      "Ġpud": 1628,
      "chodziÅĤ": 1629,
      "Ġbardziej": 1630,
      "Ġrazem": 1631,
      "Ġbuty": 1632,
      "Ġpozost": 1633,
      "entÃ³w": 1634,
      "ĠdwadzieÅĽci": 1635,
      "Ġzrozu": 1636,
      "ĠoczywiÅĽcie": 1637,
      "ĠÅĽmierÄĩ": 1638,
      "ĠRoz": 1639,
      "ĠAnglik": 1640,
      "Ġprawdzi": 1641,
      "ĠktoÅĽ": 1642,
      "ĠÅ¼adnego": 1643,
      "ĠNigdy": 1644,
      "wierdziÅĤ": 1645,
      "000": 1646,
      "Ġnazwi": 1647,
      "Ġpokoju": 1648,
      "ĠznajdowaÅĤ": 1649,
      "ĠCampbell": 1650,
      "ĠdwadzieÅĽcia": 1651,
      "dwie": 1652,
      "gn": 1653,
      "gÅĤo": 1654,
      "ha": 1655,
      "hater": 1656,
      "ner": 1657,
      "nku": 1658,
      "ogra": 1659,
      "spo": 1660,
      "tor": 1661,
      "tery": 1662,
      "uf": 1663,
      "wem": 1664,
      "Ġ000": 1665,
      "ĠpÅĤy": 1666,
      "Ġwk": 1667,
      "Ġwal": 1668,
      "ĠwÅĤÄħ": 1669,
      "ĠzwiÄħ": 1670,
      "Ġdy": 1671,
      "ĠdÅĤo": 1672,
      "ĠmaÅĤ": 1673,
      "Ġmor": 1674,
      "ĠmaÅĤe": 1675,
      "Ġoch": 1676,
      "Ġoto": 1677,
      "Ġkr": 1678,
      "sztaÅĤ": 1679,
      "ĠnastÄĻpu": 1680,
      "Ġjas": 1681,
      "stra": 1682,
      "Ġpor": 1683,
      "rzeb": 1684,
      "lem": 1685,
      "lekt": 1686,
      "akÃ³w": 1687,
      "Ġstal": 1688,
      "cieli": 1689,
      "Ġprzesta": 1690,
      "Ġprzekona": 1691,
      "ĠumarÅĤ": 1692,
      "miaÅĤ": 1693,
      "Ġcztery": 1694,
      "ĠÅĽnie": 1695,
      "ÅĤych": 1696,
      "Ġspraw": 1697,
      "ĠDob": 1698,
      "Ġchor": 1699,
      "ĠMy": 1700,
      "ĠMary": 1701,
      "ĠKto": 1702,
      "Ġdzwo": 1703,
      "Ġfi": 1704,
      "Ġobie": 1705,
      "Ġrozleg": 1706,
      "Ġmaszy": 1707,
      "ĠjednÄħ": 1708,
      "wych": 1709,
      "Ġinter": 1710,
      "Ġopowie": 1711,
      "ĠJeÅĽli": 1712,
      "giel": 1713,
      "sunÄħÅĤ": 1714,
      "ĠgÅĤÄĻ": 1715,
      "siÄĻcy": 1716,
      "Ġpozosta": 1717,
      "pani": 1718,
      "Ġmiejsce": 1719,
      "ĠjakieÅĽ": 1720,
      "ĠcaÅĤkowi": 1721,
      "ĠFran": 1722,
      "Ġrusz": 1723,
      "ĠkoÅĦca": 1724,
      "Ġtwarz": 1725,
      "ĠciÄĻÅ¼": 1726,
      "kszoÅĽÄĩ": 1727,
      "Ġangiel": 1728,
      "Ġszereg": 1729,
      "ĠpudeÅĤ": 1730,
      "bar": 1731,
      "co": 1732,
      "cen": 1733,
      "com": 1734,
      "dli": 1735,
      "dem": 1736,
      "dÅĤu": 1737,
      "fie": 1738,
      "fon": 1739,
      "gze": 1740,
      "ji": 1741,
      "kli": 1742,
      "lny": 1743,
      "nk": 1744,
      "nki": 1745,
      "oli": 1746,
      "ser": 1747,
      "sÅĤa": 1748,
      "Ġen": 1749,
      "Ġser": 1750,
      "ĠsÅĤa": 1751,
      "ĠwÄĻ": 1752,
      "Ġzim": 1753,
      "Ġzbyt": 1754,
      "czaÅĤ": 1755,
      "cznÄħ": 1756,
      "cznego": 1757,
      "czony": 1758,
      "Ġtowarzy": 1759,
      "ownie": 1760,
      "che": 1761,
      "Ã³p": 1762,
      "Ġdowie": 1763,
      "ĠdwÃ³": 1764,
      "ĠoÅĽ": 1765,
      "Ġoko": 1766,
      "Ġokaz": 1767,
      "ĠksztaÅĤ": 1768,
      "raca": 1769,
      "nin": 1770,
      "Ġnazy": 1771,
      "Ġnagle": 1772,
      "Ġbr": 1773,
      "nien": 1774,
      "Ġpoma": 1775,
      "Ġdot": 1776,
      "Ġdosko": 1777,
      "rzytom": 1778,
      "ĠzaczÄĻ": 1779,
      "Ġzatrzy": 1780,
      "ĠWil": 1781,
      "czywiÅĽcie": 1782,
      "Ġwyj": 1783,
      "Ġwyja": 1784,
      "ĠwyglÄħdaÅĤ": 1785,
      "Ġstu": 1786,
      "ĠstÃ³p": 1787,
      "Ġprzewo": 1788,
      "Ġum": 1789,
      "ĠudziaÅĤ": 1790,
      "Ġumie": 1791,
      "ĠuÅ¼y": 1792,
      "Äħce": 1793,
      "dziestu": 1794,
      "wanie": 1795,
      "wano": 1796,
      "nosi": 1797,
      "ĠTy": 1798,
      "Ġodwie": 1799,
      "ĠkoÅĤ": 1800,
      "Ġkomu": 1801,
      "Ġkopu": 1802,
      "Ġkoniec": 1803,
      "ĠÅĽci": 1804,
      "ĠmiaÅĤy": 1805,
      "tal": 1806,
      "jÄħco": 1807,
      "ÅĽciu": 1808,
      "ÅĽciÄĩ": 1809,
      "Ġlo": 1810,
      "Ġlod": 1811,
      "Ġszk": 1812,
      "Ġszcze": 1813,
      "Ġsztu": 1814,
      "ĠszczÄĻ": 1815,
      "czenia": 1816,
      "ĠSp": 1817,
      "ĠSta": 1818,
      "ĠpodrÃ³Å¼": 1819,
      "Ġpodczas": 1820,
      "ĠpowiedzieÄĩ": 1821,
      "ĠOn": 1822,
      "tera": 1823,
      "Ġwiem": 1824,
      "rÃ³j": 1825,
      "otogra": 1826,
      "ĠjesteÅĽ": 1827,
      "Ġobec": 1828,
      "Ġwido": 1829,
      "ĠdzieÅĦ": 1830,
      "Ġlub": 1831,
      "Ġludz": 1832,
      "ĠpowiedziaÅĤem": 1833,
      "Ġinnego": 1834,
      "Ġpracy": 1835,
      "lonych": 1836,
      "czyÅĤa": 1837,
      "Ġleka": 1838,
      "ĠleÅ¼aÅĤ": 1839,
      "ciÄħgu": 1840,
      "ĠwÅĤaÅĽci": 1841,
      "Ġgdyby": 1842,
      "rzyÅĤo": 1843,
      "Ġbohater": 1844,
      "Ġbudy": 1845,
      "ĠrÄĻkami": 1846,
      "Ġmiejscu": 1847,
      "Ġspoko": 1848,
      "Ġznajdu": 1849,
      "Ġziem": 1850,
      "ĠÅĽrodku": 1851,
      "ciÄħgnÄħÅĤ": 1852,
      "ĠÅĽwiecie": 1853,
      "Ġmiasto": 1854,
      "pomnie": 1855,
      "Ġarty": 1856,
      "nicÄĻ": 1857,
      "Ġkolej": 1858,
      "Ġmuszkie": 1859,
      "ĠÅĽredniej": 1860,
      "ĠGdzieÅĽ": 1861,
      "Ġhistorii": 1862,
      "ĠÅĽcianie": 1863,
      "Ġmusieli": 1864,
      "Ġsrebr": 1865,
      "ĠzaczÄħÅĤ": 1866,
      "Ġchorych": 1867,
      "bardziej": 1868,
      "gzeku": 1869,
      "ĠdwÃ³ch": 1870,
      "\",": 1871,
      "ciÄĻ": 1872,
      "cer": 1873,
      "cjÄħ": 1874,
      "gna": 1875,
      "gry": 1876,
      "it": 1877,
      "iÄħ": 1878,
      "kle": 1879,
      "kniÄĻ": 1880,
      "lnym": 1881,
      "sÃ³w": 1882,
      "skiem": 1883,
      "tÄĻ": 1884,
      "tpli": 1885,
      "ul": 1886,
      "yba": 1887,
      "Ġry": 1888,
      "Ġpry": 1889,
      "Ġplu": 1890,
      "ĠpamiÄĻ": 1891,
      "ĠwÅĤÃ³": 1892,
      "Ġzb": 1893,
      "Ġzni": 1894,
      "czka": 1895,
      "Ġtrafi": 1896,
      "chy": 1897,
      "Ã³le": 1898,
      "Ã³ki": 1899,
      "Ġdwo": 1900,
      "ĠmiÄĻ": 1901,
      "ĠmÃ³w": 1902,
      "goÅĽ": 1903,
      "godnie": 1904,
      "rag": 1905,
      "rap": 1906,
      "dzÄĻ": 1907,
      "Ġiz": 1908,
      "niki": 1909,
      "ĠnastÄĻp": 1910,
      "Ġnatych": 1911,
      "star": 1912,
      "Ġbli": 1913,
      "ĠbÅĤÄĻ": 1914,
      "Ġbrzmi": 1915,
      "Ġpole": 1916,
      "Ġpoza": 1917,
      "ĠposzedÅĤ": 1918,
      "ĠporzÄħd": 1919,
      "akie": 1920,
      "Ġniebo": 1921,
      "Ġdoro": 1922,
      "naÅĽcie": 1923,
      "erwo": 1924,
      "wia": 1925,
      "wiÅĤ": 1926,
      "atu": 1927,
      "czym": 1928,
      "Ġwyko": 1929,
      "Ġstrze": 1930,
      "Ġga": 1931,
      "ĠurzÄħ": 1932,
      "Äħcych": 1933,
      "daw": 1934,
      "ĠTa": 1935,
      "ĠTen": 1936,
      "Ġcud": 1937,
      "Ġodleg": 1938,
      "ÅĦcz": 1939,
      "ÅĦczy": 1940,
      "owaniu": 1941,
      "kujÄĻ": 1942,
      "Ġmili": 1943,
      "asem": 1944,
      "Ġspot": 1945,
      "jÄħcego": 1946,
      "ĠDz": 1947,
      "szym": 1948,
      "ĠMu": 1949,
      "Ġniko": 1950,
      "Ġgor": 1951,
      "anta": 1952,
      "Ġpowierz": 1953,
      "ĠJej": 1954,
      "ĠIch": 1955,
      "maÄĩ": 1956,
      "ĠmiesiÄħc": 1957,
      "ĠNaprawdÄĻ": 1958,
      "Ġzew": 1959,
      "Ġzebra": 1960,
      "Ġpacj": 1961,
      "owaÅĤem": 1962,
      "szczÄĻ": 1963,
      "ĠÅ¼yje": 1964,
      "ĠÅ¼yciu": 1965,
      "eÅĤnia": 1966,
      "ciÄħga": 1967,
      "stym": 1968,
      "Ġtajem": 1969,
      "ĠciaÅĤa": 1970,
      "Ġpowta": 1971,
      "ĠwziÄĻ": 1972,
      "ĠÅĽmiesz": 1973,
      "ĠÅĽwiatÅĤa": 1974,
      "ĠZap": 1975,
      "Ġciem": 1976,
      "Ġciebie": 1977,
      "Ġogrom": 1978,
      "Ġegzeku": 1979,
      "ĠwiÄĻcej": 1980,
      "Ġtutaj": 1981,
      "Ġkonwoj": 1982,
      "Ġchwila": 1983,
      "glÄħdaÄĩ": 1984,
      "glÄħdali": 1985,
      "ĠczÅĤowieka": 1986,
      "Ġwagonu": 1987,
      "ĠAnglicy": 1988,
      "bliÅ¼": 1989,
      "Ġpowinien": 1990,
      "Ġdrodze": 1991,
      "Ġkilku": 1992,
      "ĠzrobiÅĤ": 1993,
      "ĠgÃ³ry": 1994,
      "Ġobok": 1995,
      "ĠkoÅĦcu": 1996,
      "ĠNikt": 1997,
      "Ġkierow": 1998,
      "ĠmÅĤody": 1999,
      "Ġczterech": 2000,
      "Ġprzyjaci": 2001,
      "ĠKop": 2002,
      "ĠwyÅĤÄħ": 2003,
      "Ġnauczy": 2004,
      "rÃ³tce": 2005,
      "wartet": 2006,
      "larÃ³w": 2007,
      "ĠdopÃ³ki": 2008,
      "pomniaÅĤ": 2009,
      "ĠksiÄĻÅ¼y": 2010,
      "Ġmomencie": 2011,
      "ĠdÅºwiÄĻ": 2012,
      "ĠRober": 2013,
      "ĠpuÅĤkownik": 2014,
      "Ġintere": 2015,
      "Ġnatychmiast": 2016,
      "ara": 2017,
      "bÄħ": 2018,
      "caÅĤ": 2019,
      "cale": 2020,
      "gaÅĤ": 2021,
      "gni": 2022,
      "gro": 2023,
      "lni": 2024,
      "lne": 2025,
      "nd": 2026,
      "oÅĤa": 2027,
      "sied": 2028,
      "two": 2029,
      "tku": 2030,
      "wor": 2031,
      "ĠY": 2032,
      "ĠÅĤo": 2033,
      "Ġple": 2034,
      "Ġsu": 2035,
      "Ġzbu": 2036,
      "Ġzmia": 2037,
      "cznej": 2038,
      "Ġtwo": 2039,
      "chÄĻ": 2040,
      "chem": 2041,
      "chniÄĻ": 2042,
      "Ã³g": 2043,
      "Ġdia": 2044,
      "Ġmam": 2045,
      "Ġoku": 2046,
      "Ġosie": 2047,
      "Ġostrze": 2048,
      "Ġkli": 2049,
      "Ġkrze": 2050,
      "Ġkru": 2051,
      "ĠkÃ³ÅĤ": 2052,
      "ĠkrÃ³t": 2053,
      "dziÄĻ": 2054,
      "nios": 2055,
      "szty": 2056,
      "Ġnap": 2057,
      "Ġnadzie": 2058,
      "stwa": 2059,
      "stwo": 2060,
      "stru": 2061,
      "ĠpoÅĤu": 2062,
      "ĠBi": 2063,
      "rzenia": 2064,
      "ĠdostaÅĤ": 2065,
      "kali": 2066,
      "kaÄĩ": 2067,
      "dziÅĤa": 2068,
      "Ġzaba": 2069,
      "ĠPan": 2070,
      "ĠPal": 2071,
      "ato": 2072,
      "kit": 2073,
      "ĠWiÄĻ": 2074,
      "ĠWszech": 2075,
      "Ġwyraz": 2076,
      "ĠstaÅĤa": 2077,
      "ĠstaÅĤy": 2078,
      "Ġstos": 2079,
      "ĠstaÅĤo": 2080,
      "Ġstud": 2081,
      "Ġprzep": 2082,
      "Ġprzeczy": 2083,
      "Ġuz": 2084,
      "Ġubra": 2085,
      "ĠuÅĽmie": 2086,
      "dach": 2087,
      "nogra": 2088,
      "res": 2089,
      "enci": 2090,
      "Ġoddali": 2091,
      "ÅĦcy": 2092,
      "ÅĦca": 2093,
      "owano": 2094,
      "ĠkoÅĽci": 2095,
      "Ġprzyby": 2096,
      "Ġprzytom": 2097,
      "ĠprzykÅĤad": 2098,
      "Ġrob": 2099,
      "Ġrok": 2100,
      "Ġtytu": 2101,
      "Ġszczy": 2102,
      "Ġnimi": 2103,
      "czeÅĽnie": 2104,
      "ĠSam": 2105,
      "Ġtakim": 2106,
      "jeÅ¼d": 2107,
      "rÃ³ciÅĤ": 2108,
      "Åºli": 2109,
      "ĠmogÄĻ": 2110,
      "osen": 2111,
      "Ġfor": 2112,
      "Ġjestem": 2113,
      "Ġobej": 2114,
      "Ġobraz": 2115,
      "Ġrozm": 2116,
      "Ġrozp": 2117,
      "jÄħÅĤ": 2118,
      "ĠmieÄĩ": 2119,
      "ĠdziesiÄĻ": 2120,
      "ĠkawaÅĤ": 2121,
      "piej": 2122,
      "Ġznacznie": 2123,
      "ĠopowiedziaÅĤ": 2124,
      "Ġpiecho": 2125,
      "glÄĻ": 2126,
      "lony": 2127,
      "Ġsamym": 2128,
      "alni": 2129,
      "Ġpiosen": 2130,
      "dzono": 2131,
      "ĠmÃ³wiÄħc": 2132,
      "Ġstrasz": 2133,
      "ĠgÅĤowy": 2134,
      "Ġstop": 2135,
      "Ġzdr": 2136,
      "Ġwspani": 2137,
      "ĠogÃ³le": 2138,
      "ĠChi": 2139,
      "noÅĽciÄħ": 2140,
      "Ġbit": 2141,
      "ĠWalencji": 2142,
      "ĠchÅĤopie": 2143,
      "ĠchoÄĩ": 2144,
      "Ġtrzeba": 2145,
      "Ġokru": 2146,
      "Ġwagonie": 2147,
      "rzÄħs": 2148,
      "ĠÅĤÃ³Å¼ku": 2149,
      "ĠTralfamadorczykÃ³w": 2150,
      "ĠZiemian": 2151,
      "ĠKaÅ¼": 2152,
      "ĠpomiÄĻdzy": 2153,
      "Ġdziecko": 2154,
      "ĠczymÅĽ": 2155,
      "ĠkrzyÅ¼": 2156,
      "Ġtakiego": 2157,
      "Ġfilm": 2158,
      "Ġskutek": 2159,
      "ĠtrochÄĻ": 2160,
      "Ġosob": 2161,
      "ĠoptykÃ³w": 2162,
      "ĠZiemianie": 2163,
      "ĠprÃ³b": 2164,
      "ĠtysiÄħce": 2165,
      "ĠwspÃ³ÅĤ": 2166,
      "ĠkaÅ¼dego": 2167,
      "ĠmÄĻÅ¼czyz": 2168,
      "ĠduÅ¼o": 2169,
      "ĠmogÅĤa": 2170,
      "ĠÅºle": 2171,
      "Ġzaledwie": 2172,
      "ĠwkrÃ³tce": 2173,
      "lektry": 2174,
      "ĠzewnÄħtrz": 2175,
      "ĠKopciu": 2176,
      "byÅĤ": 2177,
      "cÄĻ": 2178,
      "dny": 2179,
      "daÅĤo": 2180,
      "dnik": 2181,
      "dha": 2182,
      "ewie": 2183,
      "gÃ³l": 2184,
      "ho": 2185,
      "lami": 2186,
      "mem": 2187,
      "mos": 2188,
      "nnie": 2189,
      "sÄĻ": 2190,
      "trze": 2191,
      "ton": 2192,
      "ÅĤe": 2193,
      "ÅĤowa": 2194,
      "ĠpÅĤo": 2195,
      "Ġpowa": 2196,
      "Ġpsa": 2197,
      "Ġsami": 2198,
      "Ġsied": 2199,
      "Å¼nie": 2200,
      "Å¼ony": 2201,
      "czny": 2202,
      "czach": 2203,
      "Ġtrz": 2204,
      "chen": 2205,
      "Ġmniej": 2206,
      "ÅĽni": 2207,
      "ÅĽwiat": 2208,
      "Ġoni": 2209,
      "Ġogie": 2210,
      "Ġorga": 2211,
      "ĠoglÄħdaÄĩ": 2212,
      "iÄĻkujÄĻ": 2213,
      "raÅ¼e": 2214,
      "dzaÅĤ": 2215,
      "dzaj": 2216,
      "Ġile": 2217,
      "niami": 2218,
      "szt": 2219,
      "Ġnam": 2220,
      "stej": 2221,
      "Ġbla": 2222,
      "Ġpog": 2223,
      "Ġpoli": 2224,
      "Ġporo": 2225,
      "ciÄĩ": 2226,
      "Ġnieu": 2227,
      "Ġniewoli": 2228,
      "ĠdolarÃ³w": 2229,
      "ĠÅ¼ona": 2230,
      "rzysta": 2231,
      "nale": 2232,
      "nawi": 2233,
      "najm": 2234,
      "Ã³wczas": 2235,
      "Ġzad": 2236,
      "Ġzastrze": 2237,
      "wiz": 2238,
      "wiÅĤa": 2239,
      "kimi": 2240,
      "ĠWÅĤa": 2241,
      "ĠÅ¼elaz": 2242,
      "Ġwyb": 2243,
      "Ġstali": 2244,
      "kol": 2245,
      "komo": 2246,
      "Ġuli": 2247,
      "ĠusiÅĤ": 2248,
      "ĠusÅĤy": 2249,
      "ore": 2250,
      "orda": 2251,
      "wania": 2252,
      "ĠbyÅĤem": 2253,
      "nom": 2254,
      "miu": 2255,
      "enty": 2256,
      "ĠTam": 2257,
      "Ġcu": 2258,
      "woÅĽci": 2259,
      "owanych": 2260,
      "Ġkop": 2261,
      "Ġkonie": 2262,
      "ĠÅĽlu": 2263,
      "Ġprzypad": 2264,
      "ĠprzyszÅĤo": 2265,
      "siaÅĤ": 2266,
      "Ġrodzaj": 2267,
      "ĠmiÅĤo": 2268,
      "ĠtysiÄĻcy": 2269,
      "jÄħcej": 2270,
      "ĠDru": 2271,
      "ÅĽciÅĤ": 2272,
      "rurg": 2273,
      "Ġchle": 2274,
      "Ġchcieli": 2275,
      "Ġsza": 2276,
      "ĠMer": 2277,
      "czek": 2278,
      "czes": 2279,
      "ĠCi": 2280,
      "ĠSÅĤy": 2281,
      "ĠSÅĤu": 2282,
      "Ġtaki": 2283,
      "ĠJaki": 2284,
      "ĠKon": 2285,
      "ĠKsiÄĻ": 2286,
      "ĠObo": 2287,
      "ĠOczywiÅĽcie": 2288,
      "omo": 2289,
      "szek": 2290,
      "Ġfun": 2291,
      "Ġfotogra": 2292,
      "Ġrozpo": 2293,
      "Ġrozstrze": 2294,
      "cach": 2295,
      "ĠNazy": 2296,
      "Å¼eli": 2297,
      "tua": 2298,
      "nÄĻÅĤy": 2299,
      "gach": 2300,
      "Ġlek": 2301,
      "Ġrad": 2302,
      "Ġrami": 2303,
      "ĠPoza": 2304,
      "Ġkuchni": 2305,
      "Ġpisa": 2306,
      "Ġpunk": 2307,
      "ĠGdy": 2308,
      "Ġnajlep": 2309,
      "syj": 2310,
      "Ġlist": 2311,
      "Ġrazu": 2312,
      "Ġrazie": 2313,
      "ĠciaÅĤo": 2314,
      "rzyÅĤa": 2315,
      "ĠskÅĤa": 2316,
      "Ġstrachu": 2317,
      "ĠÅĽwiata": 2318,
      "ĠgdzieÅĽ": 2319,
      "ĠUwaÅ¼": 2320,
      "Ġsytua": 2321,
      "ĠrÄĻkÄĻ": 2322,
      "ĠPrzed": 2323,
      "ĠRosja": 2324,
      "ĠNiemcÃ³w": 2325,
      "ĠcaÅĤÄħ": 2326,
      "Ġchodzi": 2327,
      "ĠHm": 2328,
      "Ġziemi": 2329,
      "ĠzostaÅĤy": 2330,
      "ĠLazzara": 2331,
      "ĠdrogÄĻ": 2332,
      "Ġoboz": 2333,
      "ĠzasnÄħÅĤ": 2334,
      "Ġswojego": 2335,
      "ĠchÅĤopcy": 2336,
      "ĠÅ»e": 2337,
      "raÅ¼ajÄħc": 2338,
      "ĠPaul": 2339,
      "Ġkolor": 2340,
      "Ġpodobnie": 2341,
      "ĠÅĽredni": 2342,
      "ĠpÅĤci": 2343,
      "rytyj": 2344,
      "Ġlotni": 2345,
      "Ġpowinni": 2346,
      "Ġplane": 2347,
      "ĠMieli": 2348,
      "Ġpowietrzu": 2349,
      "ĠszeÅĽÄĩdziesiÄħt": 2350,
      "ĠJorku": 2351,
      "latego": 2352,
      "stanowi": 2353,
      "Ġfront": 2354,
      "Ġochot": 2355,
      "ĠKtoÅĽ": 2356,
      "ĠgÅĤÄĻbo": 2357,
      "ĠcaÅĤkowicie": 2358,
      "ĠWildha": 2359,
      "ĠÅĽcian": 2360,
      "ĠwÅĤÃ³czÄĻ": 2361,
      "ĠbÅĤÄĻkit": 2362,
      "akiem": 2363,
      "ĠodlegÅĤoÅĽci": 2364,
      "ĠprzyjaciÃ³ÅĤ": 2365,
      "Ġinteresu": 2366,
      "Ġosiem": 2367,
      "nografi": 2368,
      "ewien": 2369,
      "ĠogieÅĦ": 2370,
      "najmniej": 2371,
      "ĠKonwoj": 2372,
      "Ġrozstrzela": 2373,
      "ĠWildhack": 2374,
      "ast": 2375,
      "bro": 2376,
      "bry": 2377,
      "bez": 2378,
      "cka": 2379,
      "cje": 2380,
      "dne": 2381,
      "fa": 2382,
      "fy": 2383,
      "gnÄħÅĤ": 2384,
      "ggie": 2385,
      "jnie": 2386,
      "jan": 2387,
      "kÃ³ÅĤ": 2388,
      "lot": 2389,
      "mÃ³w": 2390,
      "ment": 2391,
      "nkiem": 2392,
      "ndu": 2393,
      "onÄħ": 2394,
      "ota": 2395,
      "ote": 2396,
      "pat": 2397,
      "rÅ¼": 2398,
      "rem": 2399,
      "rwy": 2400,
      "son": 2401,
      "tn": 2402,
      "tÄħd": 2403,
      "uwaÅ¼": 2404,
      "wni": 2405,
      "zÄĻ": 2406,
      "zaÅĤ": 2407,
      "zja": 2408,
      "Ġek": 2409,
      "Ġrzu": 2410,
      "ÅĤaÅĤ": 2411,
      "ĠpÄĻ": 2412,
      "Ġpil": 2413,
      "Ġpar": 2414,
      "ĠparÄĻ": 2415,
      "Ġwro": 2416,
      "Ġwsze": 2417,
      "Ġwcale": 2418,
      "Ġnowo": 2419,
      "ĠnÃ³Å¼": 2420,
      "ĠzÄĻ": 2421,
      "Ġzgo": 2422,
      "ĠzaÅĤo": 2423,
      "Ġzmar": 2424,
      "Å¼Ã³ÅĤ": 2425,
      "cznoÅĽci": 2426,
      "czaj": 2427,
      "ĠtwierdziÅĤ": 2428,
      "ĠtrÃ³j": 2429,
      "owcÃ³w": 2430,
      "chi": 2431,
      "chaÅĤa": 2432,
      "Ġdow": 2433,
      "Ġona": 2434,
      "Ġocze": 2435,
      "Ġkat": 2436,
      "Ġkry": 2437,
      "ĠkrÄĻ": 2438,
      "Ġkata": 2439,
      "Ġkwartet": 2440,
      "iÄĻki": 2441,
      "dza": 2442,
      "nii": 2443,
      "szam": 2444,
      "szki": 2445,
      "szko": 2446,
      "Ġnagie": 2447,
      "stem": 2448,
      "strzy": 2449,
      "Ġbry": 2450,
      "Ġpol": 2451,
      "ĠpoÅ¼": 2452,
      "Ġpogo": 2453,
      "Ġpodzi": 2454,
      "ĠBÃ³g": 2455,
      "ama": 2456,
      "amtÄħd": 2457,
      "arni": 2458,
      "Ġdole": 2459,
      "ĠÅ¼Ã³ÅĤ": 2460,
      "kanie": 2461,
      "rzyÄĩ": 2462,
      "rzymaÅĤ": 2463,
      "Ã³wki": 2464,
      "Ġzada": 2465,
      "Ġzaraz": 2466,
      "ĠzauwaÅ¼": 2467,
      "Ġjezi": 2468,
      "ĠWa": 2469,
      "ĠWrÃ³Å¼": 2470,
      "ĠWreszcie": 2471,
      "Ġwybu": 2472,
      "ĠstÄħd": 2473,
      "ciela": 2474,
      "ĠprzeÅ¼y": 2475,
      "ĠprzeszÅĤo": 2476,
      "Ġucie": 2477,
      "Ġuko": 2478,
      "Ġuwa": 2479,
      "Ġusta": 2480,
      "Ġutrzy": 2481,
      "Ġusiad": 2482,
      "Äħcego": 2483,
      "wach": 2484,
      "wajÄħ": 2485,
      "ĠNowy": 2486,
      "Ġjakim": 2487,
      "Ġodbi": 2488,
      "Ġodez": 2489,
      "Ġczerwo": 2490,
      "ÅĦski": 2491,
      "ĠZoo": 2492,
      "owanie": 2493,
      "ĠÅĽwi": 2494,
      "ĠÅĽwiad": 2495,
      "Ġprzynajmniej": 2496,
      "ĠmiÅĤoÅĽci": 2497,
      "adill": 2498,
      "taÄĩ": 2499,
      "ÅĤym": 2500,
      "wiek": 2501,
      "wiera": 2502,
      "wieni": 2503,
      "Ġchi": 2504,
      "Ġchyba": 2505,
      "Ġszu": 2506,
      "Ġszty": 2507,
      "Ġniczym": 2508,
      "ĠgoÅĽci": 2509,
      "razi": 2510,
      "ĠwokÃ³ÅĤ": 2511,
      "ĠCadill": 2512,
      "ĠSy": 2513,
      "Ġpodry": 2514,
      "ĠpowieÅĽci": 2515,
      "ĠKrzy": 2516,
      "ĠOstat": 2517,
      "rÃ³cz": 2518,
      "Ġmoim": 2519,
      "Ġmoich": 2520,
      "Ġwojna": 2521,
      "Ġfanta": 2522,
      "ĠByÅĤem": 2523,
      "ont": 2524,
      "Ġmaj": 2525,
      "myÅĽl": 2526,
      "Ġwin": 2527,
      "Ġkape": 2528,
      "Ġkarabi": 2529,
      "Ġjednej": 2530,
      "wyÅ¼": 2531,
      "Ġzegar": 2532,
      "ĠludÅº": 2533,
      "nÄĻÅĤo": 2534,
      "gii": 2535,
      "Ġznaczy": 2536,
      "Ġinne": 2537,
      "zano": 2538,
      "lono": 2539,
      "Ġlep": 2540,
      "poÅĤu": 2541,
      "ĠÅ¼yw": 2542,
      "ĠheÅĤ": 2543,
      "Ġprote": 2544,
      "Ġnogi": 2545,
      "ĠJed": 2546,
      "ĠJedy": 2547,
      "ĠGlu": 2548,
      "dzeniem": 2549,
      "ktÃ³": 2550,
      "ktor": 2551,
      "Ġzapew": 2552,
      "Ġnajbardziej": 2553,
      "Ġdaleko": 2554,
      "niÄĻty": 2555,
      "Ġwzro": 2556,
      "Ġabym": 2557,
      "ĠEu": 2558,
      "Ġskle": 2559,
      "Ġskar": 2560,
      "ĠgÅĤÃ³w": 2561,
      "Ġbutel": 2562,
      "Ġpozwoli": 2563,
      "ĠMiaÅĤa": 2564,
      "Ġstoli": 2565,
      "ĠzdjÄĻcie": 2566,
      "stoty": 2567,
      "stolet": 2568,
      "ĠmÃ³z": 2569,
      "ĠzamkniÄĻ": 2570,
      "ĠÅģ": 2571,
      "Ġciep": 2572,
      "Ġcier": 2573,
      "ĠChry": 2574,
      "ĠsiedziaÅĤ": 2575,
      "ĠPrzez": 2576,
      "ĠszedÅĤ": 2577,
      "dop": 2578,
      "ĠWiel": 2579,
      "ĠWietn": 2580,
      "ĠwagonÃ³w": 2581,
      "Ġzielo": 2582,
      "Ġprawda": 2583,
      "ĠdÅĤuÅ¼": 2584,
      "ĠÅĽwiece": 2585,
      "ĠÅ¼oÅĤnierze": 2586,
      "ĠÅ¼adnych": 2587,
      "ĠzrobiÄĩ": 2588,
      "Ġdaw": 2589,
      "Ġzostali": 2590,
      "ĠCzas": 2591,
      "ĠrÃ³Å¼nych": 2592,
      "Ġmart": 2593,
      "Ġgazet": 2594,
      "ĠOpty": 2595,
      "Ġfabry": 2596,
      "wÄħtpli": 2597,
      "ĠjednoczeÅĽnie": 2598,
      "ĠdzieciÄĻ": 2599,
      "ĠsÅĤoÅĦce": 2600,
      "ĠczÄĻÅĽÄĩ": 2601,
      "ĠczÄĻsto": 2602,
      "cyjnym": 2603,
      "Ġszyb": 2604,
      "ĠtÅĤuszcz": 2605,
      "Ġcywil": 2606,
      "ĠMaggie": 2607,
      "ĠÅļwiat": 2608,
      "Ġtalerz": 2609,
      "Ġdeszcz": 2610,
      "ĠczegoÅĽ": 2611,
      "Ġsamochod": 2612,
      "ĠmyÅĽlaÅĤ": 2613,
      "ĠmaÅĤym": 2614,
      "Ġistnie": 2615,
      "Ġbroni": 2616,
      "ĠSzko": 2617,
      "krotnie": 2618,
      "ĠÅĤyÅ¼": 2619,
      "ĠnaleÅ¼": 2620,
      "ĠcÃ³rka": 2621,
      "ĠobudziÅĤ": 2622,
      "ĠstraÅ¼nikÃ³w": 2623,
      "ĠpisaÅĤ": 2624,
      "Ġojca": 2625,
      "Ġwysoko": 2626,
      "Ġtortu": 2627,
      "Ġokien": 2628,
      "Ġbaraku": 2629,
      "ĠWszystko": 2630,
      "ĠjÄĻzy": 2631,
      "ĠpoczÄħtku": 2632,
      "Ġnieprzytom": 2633,
      "Ġniewiele": 2634,
      "Ġgwiaz": 2635,
      "Ġznajduje": 2636,
      "ĠporzÄħdku": 2637,
      "Ġnauczyciel": 2638,
      "ĠYon": 2639,
      "ĠWszechÅĽwiat": 2640,
      "Ġrobot": 2641,
      "ĠKaÅ¼dy": 2642,
      "bezpie": 2643,
      "Ġkatastro": 2644,
      "ĠludÅºmi": 2645,
      "wÄħtpliwie": 2646,
      "!\"": 2647,
      "agi": 2648,
      "dÃ³w": 2649,
      "dki": 2650,
      "dÅĤo": 2651,
      "dry": 2652,
      "ge": 2653,
      "gami": 2654,
      "gan": 2655,
      "gim": 2656,
      "kowy": 2657,
      "lnie": 2658,
      "nt": 2659,
      "nemu": 2660,
      "nowu": 2661,
      "oÅ¼": 2662,
      "ora": 2663,
      "por": 2664,
      "pral": 2665,
      "set": 2666,
      "tr": 2667,
      "try": 2668,
      "tkiem": 2669,
      "udy": 2670,
      "udzie": 2671,
      "wÃ³w": 2672,
      "wat": 2673,
      "zm": 2674,
      "zmawi": 2675,
      "Ġse": 2676,
      "Ġsce": 2677,
      "Ġwpad": 2678,
      "ĠwÃ³z": 2679,
      "ĠweÅĤnia": 2680,
      "Ġznik": 2681,
      "Å¼o": 2682,
      "cznych": 2683,
      "czone": 2684,
      "Ġtle": 2685,
      "Ġtar": 2686,
      "Ġtralfamador": 2687,
      "cham": 2688,
      "ĠdaÅĤ": 2689,
      "Ġdach": 2690,
      "Ġdlatego": 2691,
      "ĠmÄħ": 2692,
      "Ġmru": 2693,
      "ĠmÄħd": 2694,
      "ÅĽwiad": 2695,
      "ĠoglÄħdaÅĤ": 2696,
      "Ġoczach": 2697,
      "Ġki": 2698,
      "Ġkamie": 2699,
      "nice": 2700,
      "szem": 2701,
      "Ġjad": 2702,
      "liÅĤ": 2703,
      "liÄĩ": 2704,
      "stw": 2705,
      "Ġbie": 2706,
      "Ġbrze": 2707,
      "Ġpoka": 2708,
      "Ġpoda": 2709,
      "Ġpomie": 2710,
      "Ġpoje": 2711,
      "Ġposta": 2712,
      "Ġpozy": 2713,
      "Ġponu": 2714,
      "ĠpociÄħg": 2715,
      "Ġpoleg": 2716,
      "Ġpoczu": 2717,
      "Ġporusz": 2718,
      "ĠpojÄĻcia": 2719,
      "ĠpopoÅĤu": 2720,
      "rosz": 2721,
      "rozu": 2722,
      "ĠBost": 2723,
      "ĠBied": 2724,
      "Äĩmi": 2725,
      "lek": 2726,
      "leci": 2727,
      "cili": 2728,
      "akaÅĤ": 2729,
      "Ġniem": 2730,
      "Ġnieco": 2731,
      "ĠnieszczÄĻ": 2732,
      "ĠniewÄħtpliwie": 2733,
      "arda": 2734,
      "ĠÅ¼yÅĤ": 2735,
      "naj": 2736,
      "dziÅĤo": 2737,
      "Ġzat": 2738,
      "Ġzawi": 2739,
      "Ġzaczy": 2740,
      "Ġzajm": 2741,
      "ers": 2742,
      "wiasem": 2743,
      "ĠPro": 2744,
      "atru": 2745,
      "czych": 2746,
      "Ġwys": 2747,
      "Ġwyra": 2748,
      "Ġwyma": 2749,
      "Ġwymia": 2750,
      "Ġwybra": 2751,
      "Ġwyszli": 2752,
      "ĠwystÄħpi": 2753,
      "Ġwystar": 2754,
      "Ġstru": 2755,
      "ĠstamtÄħd": 2756,
      "cieÅ¼": 2757,
      "Ġgry": 2758,
      "Ġude": 2759,
      "noc": 2760,
      "nosiÅĤ": 2761,
      "noÅ¼Ã³ÅĤ": 2762,
      "lady": 2763,
      "lajÄħc": 2764,
      "rych": 2765,
      "ĠTu": 2766,
      "ĠTrze": 2767,
      "ĠTego": 2768,
      "ĠTru": 2769,
      "Ġode": 2770,
      "Ġodw": 2771,
      "Ġodes": 2772,
      "ĠodraÅ¼ajÄħc": 2773,
      "ÅĦcÃ³w": 2774,
      "ĠZe": 2775,
      "ĠZnowu": 2776,
      "Ġkom": 2777,
      "Ġkoni": 2778,
      "ĠkogoÅĽ": 2779,
      "Ġprzygot": 2780,
      "siaj": 2781,
      "obnie": 2782,
      "Ġchci": 2783,
      "Ġszale": 2784,
      "Ġgot": 2785,
      "aÅĤym": 2786,
      "czeni": 2787,
      "czeniu": 2788,
      "ĠSie": 2789,
      "ĠpodÅĤo": 2790,
      "Ġtakich": 2791,
      "Ġmundu": 2792,
      "ĠKu": 2793,
      "bine": 2794,
      "Ġwieku": 2795,
      "ĠNiemiec": 2796,
      "Ġmoc": 2797,
      "Ġmodli": 2798,
      "owia": 2799,
      "Ġwojska": 2800,
      "onami": 2801,
      "Ġmasz": 2802,
      "ĠmieÅĽcie": 2803,
      "Ġwiad": 2804,
      "ĠNastÄĻp": 2805,
      "Ġjedna": 2806,
      "Å¼enia": 2807,
      "odu": 2808,
      "Ġczasem": 2809,
      "ĠLudzie": 2810,
      "Ġinf": 2811,
      "Ġinny": 2812,
      "Ġinnym": 2813,
      "ĠczytaÅĤ": 2814,
      "Ġopera": 2815,
      "ĠopowiadaÅĤ": 2816,
      "ĠpielÄĻ": 2817,
      "zany": 2818,
      "niejsza": 2819,
      "Ġlepiej": 2820,
      "szczenia": 2821,
      "poko": 2822,
      "ĠPilgrima": 2823,
      "Ġwszystkim": 2824,
      "Ġran": 2825,
      "ĠramiÄĻ": 2826,
      "ĠPoz": 2827,
      "Ġkupi": 2828,
      "Ġprof": 2829,
      "Ġprodu": 2830,
      "Ġprosto": 2831,
      "fik": 2832,
      "ajÄħcych": 2833,
      "ĠpiÄĻciu": 2834,
      "ĠwiÄĻkszoÅĽÄĩ": 2835,
      "Ġtabli": 2836,
      "ĠmÃ³wiÄĩ": 2837,
      "ĠciaÅĤ": 2838,
      "Ġcisza": 2839,
      "ĠwziÄħ": 2840,
      "ĠwzglÄĻ": 2841,
      "ĠEwa": 2842,
      "Ġskra": 2843,
      "ĠskÄħd": 2844,
      "Ġotwar": 2845,
      "Ġotwarte": 2846,
      "Ġbog": 2847,
      "Ġbur": 2848,
      "ĠÅĽwiatÅĤo": 2849,
      "ĠsÄħsied": 2850,
      "ĠZielonych": 2851,
      "Ġzamie": 2852,
      "Ġdwaj": 2853,
      "ĠWyglÄħdaÅĤ": 2854,
      "ĠksiÄħÅ¼ka": 2855,
      "Ġogro": 2856,
      "Ġdrugim": 2857,
      "ĠChÅĤo": 2858,
      "ĠChciaÅĤ": 2859,
      "Ġsym": 2860,
      "Ġelektry": 2861,
      "Ġrek": 2862,
      "Ġpanu": 2863,
      "ĠrÄĻka": 2864,
      "Ġdrzwiami": 2865,
      "Ġdrzwiach": 2866,
      "Ġzobaczy": 2867,
      "iaÅĦ": 2868,
      "Ġdziw": 2869,
      "ĠdziaÅĤ": 2870,
      "ĠmoÅ¼li": 2871,
      "Ġtrzyma": 2872,
      "Ġjakiej": 2873,
      "Ġspodzie": 2874,
      "Ġ195": 2875,
      "ĠznaÅĤ": 2876,
      "ÅĽlaÅĤ": 2877,
      "ĠcaÅĤe": 2878,
      "ĠcaÅĤej": 2879,
      "ĠamerykaÅĦski": 2880,
      "ĠgÅĤoÅĽ": 2881,
      "Ġkont": 2882,
      "Ġchole": 2883,
      "ĠczÅĤowiekiem": 2884,
      "ĠÅĽmierciÄħ": 2885,
      "ĠmÃ³gÅĤby": 2886,
      "Ġwagon": 2887,
      "ĠAnglikÃ³w": 2888,
      "ĠdÅĤugie": 2889,
      "ĠÅĽwieÅ¼o": 2890,
      "Ġwetera": 2891,
      "ĠjeÅĦcami": 2892,
      "pisaÅĤ": 2893,
      "Ġmatki": 2894,
      "ĠgÃ³rze": 2895,
      "Ġobozu": 2896,
      "ĠpiÄĻkna": 2897,
      "Ġstarego": 2898,
      "trznych": 2899,
      "Ġzostanie": 2900,
      "resztÄħ": 2901,
      "ĠzdarzyÅĤo": 2902,
      "Ġwszystkiego": 2903,
      "kazaÅĤ": 2904,
      "ĠchÅĤopca": 2905,
      "ing": 2906,
      "ĠsinoÅ¼Ã³ÅĤ": 2907,
      "ĠpomÃ³": 2908,
      "Ġgazu": 2909,
      "ĠczterdzieÅĽci": 2910,
      "Ġniezwy": 2911,
      "Ġtelefon": 2912,
      "Ġtelewiz": 2913,
      "praszam": 2914,
      "ĠczÄĻÅĽci": 2915,
      "ĠMogli": 2916,
      "Ġpytanie": 2917,
      "ĠpÅĤaszcza": 2918,
      "ĠzwyciÄĻ": 2919,
      "racaÅĤ": 2920,
      "Ġatom": 2921,
      "tkowo": 2922,
      "Ġwolno": 2923,
      "ĠlatajÄħcych": 2924,
      "ĠzwierzÄĻ": 2925,
      "ĠnapisaÅĤ": 2926,
      "Ġszpitalu": 2927,
      "ĠJork": 2928,
      "ĠznaleÅºÄĩ": 2929,
      "ĠczytaÄĩ": 2930,
      "Ġ1944": 2931,
      "ĠpomocÄħ": 2932,
      "ĠPier": 2933,
      "ĠWszystkie": 2934,
      "Ġfacet": 2935,
      "Ġzamiar": 2936,
      "Ġsprzedaw": 2937,
      "ĠleÅ¼aÅĤy": 2938,
      "ĠpozostaÅĤych": 2939,
      "Ġzrozumie": 2940,
      "Ġnazwiskiem": 2941,
      "ĠwÅĤÄħczyÅĤ": 2942,
      "Ġmorfi": 2943,
      "ĠDobra": 2944,
      "ĠpudeÅĤku": 2945,
      "Ġdoskonale": 2946,
      "ĠwyjaÅĽ": 2947,
      "Ġumiera": 2948,
      "Ġwidocznie": 2949,
      "Ġbudynku": 2950,
      "ĠtrafiÅĤ": 2951,
      "Ġdworze": 2952,
      "ĠmÃ³wiÄĻ": 2953,
      "Ġnieboszczy": 2954,
      "ĠwyÅĤÄħcznie": 2955,
      "ĠksiÄĻÅ¼yc": 2956,
      "ĠRobert": 2957,
      "gniar": 2958,
      "ĠnadziejÄĻ": 2959,
      "ĠtytuÅĤem": 2960,
      "ĠKopciuszka": 2961,
      "Ġporozmawi": 2962,
      "kolwiek": 2963,
      "ĠKsiÄĻÅ¼y": 2964,
      "ĠObok": 2965,
      "Ġwszel": 2966,
      "Ġbrylan": 2967,
      "ĠEuro": 2968,
      "ĠChrystu": 2969,
      "ĠOptyki": 2970,
      "ĠodesÅĤa": 2971,
      "ĠpielÄĻgniar": 2972,
      "Magi": 2973,
      "alu": 2974,
      "brzy": 2975,
      "dat": 2976,
      "dnia": 2977,
      "dowy": 2978,
      "dowaÅĤ": 2979,
      "dniu": 2980,
      "ecz": 2981,
      "eli": 2982,
      "gnie": 2983,
      "gÃ³w": 2984,
      "gen": 2985,
      "han": 2986,
      "hum": 2987,
      "is": 2988,
      "ina": 2989,
      "ine": 2990,
      "ium": 2991,
      "jÃ³w": 2992,
      "kowo": 2993,
      "kÃ³j": 2994,
      "liÄĻ": 2995,
      "lary": 2996,
      "mniej": 2997,
      "nnym": 2998,
      "oby": 2999,
      "rgu": 3000,
      "sami": 3001,
      "ts": 3002,
      "tki": 3003,
      "twie": 3004,
      "tami": 3005,
      "wer": 3006,
      "wej": 3007,
      "zmu": 3008,
      "zent": 3009,
      "ĠÄĩ": 3010,
      "ĠÅĤu": 3011,
      "ÅĤego": 3012,
      "ÅĤÃ³w": 3013,
      "Ġpt": 3014,
      "Ġsa": 3015,
      "Ġsil": 3016,
      "Ġsek": 3017,
      "Ġscen": 3018,
      "Ġwd": 3019,
      "Ġwas": 3020,
      "ĠwnÄĻ": 3021,
      "Ġwew": 3022,
      "ĠwraÅ¼e": 3023,
      "ÄĻdz": 3024,
      "Ġnowy": 3025,
      "Ġnowi": 3026,
      "Ġnorma": 3027,
      "Ġzm": 3028,
      "Ġzwi": 3029,
      "Ġzre": 3030,
      "Ġzja": 3031,
      "Ġzga": 3032,
      "aÅĤÄħ": 3033,
      "rzÄħc": 3034,
      "rzono": 3035,
      "czkÄĻ": 3036,
      "ĠtuÅ¼": 3037,
      "chnia": 3038,
      "Ġdnie": 3039,
      "ĠdowiedziaÅĤ": 3040,
      "Ġmord": 3041,
      "Ġogo": 3042,
      "Ġosz": 3043,
      "Ġopi": 3044,
      "Ġozd": 3045,
      "Ġkor": 3046,
      "Ġkryty": 3047,
      "iÄĻk": 3048,
      "rat": 3049,
      "nina": 3050,
      "nica": 3051,
      "nikiem": 3052,
      "sznie": 3053,
      "Ġnak": 3054,
      "Ġnatu": 3055,
      "ĠnarzÄĻ": 3056,
      "Ġju": 3057,
      "liz": 3058,
      "linie": 3059,
      "stÃ³w": 3060,
      "stych": 3061,
      "Ġbe": 3062,
      "ĠbÅĤa": 3063,
      "Ġbas": 3064,
      "Ġbut": 3065,
      "ĠbrzÄĻ": 3066,
      "niego": 3067,
      "niesi": 3068,
      "Ġpocz": 3069,
      "ĠpoÅĤo": 3070,
      "Ġpoja": 3071,
      "Ġpogar": 3072,
      "Ġposzli": 3073,
      "Ġposzu": 3074,
      "ĠpociÄħgu": 3075,
      "ĠpoÅĤowa": 3076,
      "rok": 3077,
      "ropu": 3078,
      "ĠBu": 3079,
      "ĠBy": 3080,
      "ĠBÄĻ": 3081,
      "ĠBra": 3082,
      "rzenie": 3083,
      "cis": 3084,
      "ciÅĤo": 3085,
      "Ġnied": 3086,
      "Ġdosta": 3087,
      "ĠdoÅĽÄĩ": 3088,
      "Ġdotych": 3089,
      "ĠÅ¼ony": 3090,
      "kajÄħc": 3091,
      "rzyja": 3092,
      "dzili": 3093,
      "Ġzag": 3094,
      "Ġzawo": 3095,
      "Ġzanim": 3096,
      "eren": 3097,
      "wiÄĩ": 3098,
      "wiaÄĩ": 3099,
      "atÄĻ": 3100,
      "atry": 3101,
      "atera": 3102,
      "ĠwyglÄħda": 3103,
      "Ġsty": 3104,
      "ciele": 3105,
      "Ġgi": 3106,
      "Ġgu": 3107,
      "Ġgnie": 3108,
      "Ġgrze": 3109,
      "ĠgÃ³r": 3110,
      "Ġprzej": 3111,
      "Ġprzesko": 3112,
      "Ġprzestrze": 3113,
      "Ġucz": 3114,
      "ĠukÅĤad": 3115,
      "Ġuspo": 3116,
      "ÄħcÄħ": 3117,
      "Ġad": 3118,
      "Ġalko": 3119,
      "owiec": 3120,
      "dziesiÄĻ": 3121,
      "redni": 3122,
      "ĠNo": 3123,
      "ĠNowego": 3124,
      "lach": 3125,
      "Ġjaka": 3126,
      "wol": 3127,
      "Ġodby": 3128,
      "ĠoddaÅĤ": 3129,
      "Ġczek": 3130,
      "ÅĦcu": 3131,
      "ÅĦskiej": 3132,
      "ĠZost": 3133,
      "owanego": 3134,
      "Ġkomi": 3135,
      "Ġprzyje": 3136,
      "Ġprzytu": 3137,
      "ĠprzyjÄĻ": 3138,
      "ĠprzywiÄħ": 3139,
      "Ġprzyjem": 3140,
      "Ġprzypomnie": 3141,
      "tymi": 3142,
      "Ġmiod": 3143,
      "Ġtygo": 3144,
      "Ġtymi": 3145,
      "Ġspad": 3146,
      "obie": 3147,
      "ĠDa": 3148,
      "Ġchce": 3149,
      "ĠMÃ³j": 3150,
      "Ġniczego": 3151,
      "Ġgorz": 3152,
      "czech": 3153,
      "and": 3154,
      "ank": 3155,
      "ĠSe": 3156,
      "ĠSÅĤ": 3157,
      "ĠSpo": 3158,
      "ĠSpy": 3159,
      "ĠSiÅĤ": 3160,
      "Ġpodsta": 3161,
      "ĠpodszedÅĤ": 3162,
      "ĠpodniÃ³sÅĤ": 3163,
      "Ġmuf": 3164,
      "Ġmuzy": 3165,
      "jedno": 3166,
      "ĠOna": 3167,
      "ĠOtwo": 3168,
      "ĠdziÄĻki": 3169,
      "tero": 3170,
      "Ġwier": 3171,
      "Ġwielo": 3172,
      "Ġwielko": 3173,
      "ĠwiedzieÄĩ": 3174,
      "ĠmogÄħ": 3175,
      "szeli": 3176,
      "Ġcof": 3177,
      "Ġfut": 3178,
      "Ġfrag": 3179,
      "Ġoba": 3180,
      "pisa": 3181,
      "Ġrozpa": 3182,
      "ĠRze": 3183,
      "Ġmag": 3184,
      "rzany": 3185,
      "ĠktÃ³rymi": 3186,
      "marz": 3187,
      "mysÅĤ": 3188,
      "lum": 3189,
      "ĠdzieÄĩmi": 3190,
      "Ġkana": 3191,
      "ĠkazaÅĤ": 3192,
      "Ġjednego": 3193,
      "tuzja": 3194,
      "Ġpali": 3195,
      "Ġpapie": 3196,
      "ĠpaÅĦst": 3197,
      "Ġpapiero": 3198,
      "ĠLuk": 3199,
      "Ġinni": 3200,
      "waÅĤem": 3201,
      "mujÄħc": 3202,
      "tof": 3203,
      "Ġsama": 3204,
      "Ġsame": 3205,
      "pular": 3206,
      "ĠÅ¼yÄĩ": 3207,
      "ĠPol": 3208,
      "Ġlatry": 3209,
      "Ġkul": 3210,
      "ĠpiÄħ": 3211,
      "Ġprogra": 3212,
      "Ġpromieni": 3213,
      "ĠGe": 3214,
      "Ġzapad": 3215,
      "dziÅĤem": 3216,
      "ĠnajbliÅ¼": 3217,
      "Ġnajmniej": 3218,
      "ĠliÅĽcie": 3219,
      "nikami": 3220,
      "Ġwzrusz": 3221,
      "ĠmyÅĽle": 3222,
      "Ġskrzy": 3223,
      "Ġotw": 3224,
      "Ġstaro": 3225,
      "ĠstanÄħÅĤ": 3226,
      "ĠÅĽmiechu": 3227,
      "Ġpozwa": 3228,
      "Ġstoi": 3229,
      "Ġzde": 3230,
      "Ġzdoby": 3231,
      "skaÅĤ": 3232,
      "ĠwaÅ¼": 3233,
      "burgu": 3234,
      "ĠmÃ³j": 3235,
      "ĠUhum": 3236,
      "Ġzamy": 3237,
      "ĠbÄĻdziecie": 3238,
      "czÄĻta": 3239,
      "ĠdrugÄħ": 3240,
      "ĠpierÅĽci": 3241,
      "Ġsypi": 3242,
      "Ġsyropu": 3243,
      "ĠbiaÅĤ": 3244,
      "kÅĤada": 3245,
      "Ġecho": 3246,
      "ĠrÄĻce": 3247,
      "iana": 3248,
      "ĠdziaÅĤa": 3249,
      "Ġrzeczywi": 3250,
      "Ġtrzydziestu": 3251,
      "Ġspoj": 3252,
      "ĠszeÅĽciu": 3253,
      "ĠNiemczech": 3254,
      "ĠbyliÅĽmy": 3255,
      "Ġznak": 3256,
      "ĠcaÅĤkiem": 3257,
      "ĠFe": 3258,
      "Ġokre": 3259,
      "zienki": 3260,
      "Ġpotwor": 3261,
      "ĠpotrzÄħs": 3262,
      "ĠziemiÄĻ": 3263,
      "ĠprawdÄħ": 3264,
      "Ġdrogi": 3265,
      "ĠÅ¼adnej": 3266,
      "Ġwojenny": 3267,
      "ĠRumfoorda": 3268,
      "Ġwielki": 3269,
      "ĠwielkÄħ": 3270,
      "ĠpiÄĻkny": 3271,
      "ĠÅĤÃ³Å¼ko": 3272,
      "ĠÅĤazienki": 3273,
      "erenie": 3274,
      "ÅĦstwo": 3275,
      "ĠwidziaÅĤem": 3276,
      "ĠsÅĤowo": 3277,
      "ĠczuÅĤ": 3278,
      "Ġczuje": 3279,
      "Ġpopro": 3280,
      "ĠStra": 3281,
      "braÅĤa": 3282,
      "ĠsiÅĤy": 3283,
      "ĠnazwÄħ": 3284,
      "Ġgaze": 3285,
      "ĠOpowiedziaÅĤ": 3286,
      "ĠzÅĤoci": 3287,
      "Ġkolek": 3288,
      "pomina": 3289,
      "urgo": 3290,
      "ciwko": 3291,
      "Ġzachwy": 3292,
      "ĠskoÅĦczyÅĤ": 3293,
      "Ġtalerzy": 3294,
      "Ġtalerza": 3295,
      "ĠjakÄħÅĽ": 3296,
      "dÅºcie": 3297,
      "Ġzginie": 3298,
      "Ġgodziny": 3299,
      "ĠgodzinÄĻ": 3300,
      "ĠsÅĤynnych": 3301,
      "ĠVerm": 3302,
      "Ġschro": 3303,
      "ĠwrÃ³ci": 3304,
      "Ġistot": 3305,
      "szÄĻdzie": 3306,
      "ĠuwaÅ¼aÅĤ": 3307,
      "ĠpatrzeÄĩ": 3308,
      "ĠosÃ³b": 3309,
      "ĠwypadÅĤ": 3310,
      "Ġwypadek": 3311,
      "ĠcÃ³rki": 3312,
      "Ġspodnie": 3313,
      "ĠBern": 3314,
      "ĠBeret": 3315,
      "ĠPowietrznych": 3316,
      "ĠPowiedziaÅĤem": 3317,
      "Ġwyobrazi": 3318,
      "Ġautom": 3319,
      "ĠMÃ³wiÅĤ": 3320,
      "ĠlatajÄħcy": 3321,
      "Ġbombardowania": 3322,
      "Ġzwiadowcami": 3323,
      "Ã³zÅĤ": 3324,
      "Ġostatni": 3325,
      "Ġjedynym": 3326,
      "Ġprzeciwko": 3327,
      "Ġszpitala": 3328,
      "Ġdziewczy": 3329,
      "Ġdziewczyn": 3330,
      "ĠwspÃ³l": 3331,
      "Ġ1945": 3332,
      "Ġ1967": 3333,
      "ĠJezus": 3334,
      "ĠJezusa": 3335,
      "Ġokienka": 3336,
      "ĠwyjÄħtkiem": 3337,
      "Ġopuszcz": 3338,
      "ĠpotrafiÅĤ": 3339,
      "ĠtyÅĤu": 3340,
      "ĠtyÅĤem": 3341,
      "Ġoficer": 3342,
      "ĠgÅĤupi": 3343,
      "Ġprzypomina": 3344,
      "Ġspecjali": 3345,
      "ĠzwiÄħz": 3346,
      "ĠnastÄĻpujÄħco": 3347,
      "ĠÅĽniegu": 3348,
      "ĠsprawdziÄĩ": 3349,
      "ĠopowieÅĽci": 3350,
      "dÅĤuÅ¼": 3351,
      "serw": 3352,
      "Ġener": 3353,
      "Ġentuzja": 3354,
      "ĠksztaÅĤcie": 3355,
      "ĠbryÅĤ": 3356,
      "ĠzatrzymaÅĤ": 3357,
      "Ġprzewodnik": 3358,
      "Ġszklan": 3359,
      "ĠszczÄĻÅĽli": 3360,
      "gnajcie": 3361,
      "Ġgabine": 3362,
      "ĠDziÄĻkujÄĻ": 3363,
      "Ġnikogo": 3364,
      "ĠpowtarzaÅĤ": 3365,
      "Ġegzekucyjnym": 3366,
      "Ġokulary": 3367,
      "ĠPalce": 3368,
      "ĠWiÄĻkszoÅĽÄĩ": 3369,
      "Ġstudi": 3370,
      "ĠdziesiÄĻÄĩ": 3371,
      "Ġpiechoty": 3372,
      "ĠChica": 3373,
      "Ġbitwy": 3374,
      "ĠchÅĤopiec": 3375,
      "ĠmÄĻÅ¼czyzn": 3376,
      "Ġtrzas": 3377,
      "Ġnieustan": 3378,
      "ĠWÅĤaÅĽnie": 3379,
      "komoty": 3380,
      "ĠMerble": 3381,
      "ĠJakiÅĽ": 3382,
      "ĠGdyby": 3383,
      "Ġobozowej": 3384,
      "stanowiÅĤ": 3385,
      "ĠKonwojenci": 3386,
      "ĠWrÃ³Å¼ka": 3387,
      "Ġwybuch": 3388,
      "ĠodezwaÅĤ": 3389,
      "Ġchirurg": 3390,
      "Ġmajor": 3391,
      "ĠGluck": 3392,
      "ĠtralfamadoriaÅĦ": 3393,
      "ĠmruknÄħÅĤ": 3394,
      "Ġinforma": 3395,
      "ĠEwang": 3396,
      "ĠweteranÃ³w": 3397,
      "ĠporozmawiaÄĩ": 3398,
      "Magiczne": 3399,
      "Ġmorder": 3400,
      "Ġozdob": 3401,
      "ĠbutÃ³w": 3402,
      "Ġdotychczas": 3403,
      "ĠprzypomnieÄĩ": 3404,
      "Ġwielokrotnie": 3405,
      "ĠVermont": 3406,
      "?\"": 3407,
      "Cz": 3408,
      "bÅĤy": 3409,
      "bso": 3410,
      "cknÄħÅĤ": 3411,
      "dr": 3412,
      "fera": 3413,
      "gÃ³": 3414,
      "hu": 3415,
      "irosz": 3416,
      "jaÅĤ": 3417,
      "jni": 3418,
      "kra": 3419,
      "kÅĤo": 3420,
      "kaÅĤy": 3421,
      "kÄħd": 3422,
      "lnych": 3423,
      "lory": 3424,
      "laty": 3425,
      "lbrzy": 3426,
      "man": 3427,
      "oÅĤo": 3428,
      "oty": 3429,
      "opis": 3430,
      "pÄĻ": 3431,
      "pÃ³w": 3432,
      "pki": 3433,
      "pre": 3434,
      "prowa": 3435,
      "ri": 3436,
      "tka": 3437,
      "tne": 3438,
      "ujÄħc": 3439,
      "wz": 3440,
      "wki": 3441,
      "wnia": 3442,
      "wszy": 3443,
      "zwo": 3444,
      "zwy": 3445,
      "zdu": 3446,
      "zde": 3447,
      "znaÅĤ": 3448,
      "Ġ-": 3449,
      "Ġ2": 3450,
      "Ġ7": 3451,
      "Ġrz": 3452,
      "Ġper": 3453,
      "Ġplan": 3454,
      "Ġpewien": 3455,
      "Ġskie": 3456,
      "Ġset": 3457,
      "Ġsoli": 3458,
      "ĠwÅĤo": 3459,
      "ĠwstaÅĤ": 3460,
      "ĠwdziÄĻ": 3461,
      "ĠwÃ³wczas": 3462,
      "ĠwracaÅĤ": 3463,
      "Ġnos": 3464,
      "ĠnowÄħ": 3465,
      "Ġnowe": 3466,
      "Ġznie": 3467,
      "ĠzÅĤa": 3468,
      "Ġzmi": 3469,
      "Ġzbi": 3470,
      "Ġzbie": 3471,
      "Ġzmu": 3472,
      "ĠznÃ³w": 3473,
      "ĠzÅĤam": 3474,
      "ĠzresztÄħ": 3475,
      "Å¼em": 3476,
      "Å¼one": 3477,
      "czem": 3478,
      "czej": 3479,
      "czona": 3480,
      "ĠtÄħ": 3481,
      "Ġtwar": 3482,
      "Ġtwier": 3483,
      "Ġteren": 3484,
      "Ġterenie": 3485,
      "chnÄħÅĤ": 3486,
      "chaj": 3487,
      "chÃ³d": 3488,
      "Ġdum": 3489,
      "Ġdniu": 3490,
      "Ġdrabi": 3491,
      "ĠmÄĻ": 3492,
      "Ġmle": 3493,
      "ĠmaÅĤa": 3494,
      "Ġmater": 3495,
      "Ġmamy": 3496,
      "Ġono": 3497,
      "Ġobi": 3498,
      "ĠoglÄħda": 3499,
      "Ġkl": 3500,
      "ĠkÅĤo": 3501,
      "Ġkla": 3502,
      "Ġkale": 3503,
      "Ġkim": 3504,
      "ĠkÅĤam": 3505,
      "ram": 3506,
      "ras": 3507,
      "rami": 3508,
      "dzÃ³w": 3509,
      "dzaÄĩ": 3510,
      "Ġidzie": 3511,
      "nione": 3512,
      "nionu": 3513,
      "niwer": 3514,
      "szku": 3515,
      "szÅĤy": 3516,
      "szon": 3517,
      "szajÄħc": 3518,
      "szono": 3519,
      "Ġnasz": 3520,
      "Ġnaszych": 3521,
      "Ġnalot": 3522,
      "liwie": 3523,
      "liwy": 3524,
      "stego": 3525,
      "stki": 3526,
      "stwie": 3527,
      "ĠbÅĤy": 3528,
      "Ġbru": 3529,
      "Ġbos": 3530,
      "Ġbel": 3531,
      "Ġbrzu": 3532,
      "Ġbrytyj": 3533,
      "nieÅĽli": 3534,
      "Ġpos": 3535,
      "Ġpocie": 3536,
      "ĠpokÅĤa": 3537,
      "ĠpoÅĤÄħ": 3538,
      "ĠpojÄĻcie": 3539,
      "robiÅĤ": 3540,
      "ĠBa": 3541,
      "rzeniem": 3542,
      "rzeciwko": 3543,
      "lec": 3544,
      "legÅĤ": 3545,
      "Ġniewi": 3546,
      "Ġniedzie": 3547,
      "Ġniesko": 3548,
      "Ġniebezpie": 3549,
      "Ġdoty": 3550,
      "Ġdostrze": 3551,
      "Ġdopiero": 3552,
      "ĠÅ¼ar": 3553,
      "ĠÅ¼on": 3554,
      "kania": 3555,
      "rzyli": 3556,
      "nastu": 3557,
      "Ġzapu": 3558,
      "Ġzabra": 3559,
      "ĠzajrzaÅĤ": 3560,
      "erry": 3561,
      "wiajÄħc": 3562,
      "wiony": 3563,
      "ĠjechaÅĤ": 3564,
      "neral": 3565,
      "ĠPu": 3566,
      "ĠPos": 3567,
      "ĠPraw": 3568,
      "atr": 3569,
      "atka": 3570,
      "ĠWo": 3571,
      "ĠWs": 3572,
      "ĠWol": 3573,
      "czycy": 3574,
      "Ġwyd": 3575,
      "Ġwyna": 3576,
      "Ġwybi": 3577,
      "Ġwysta": 3578,
      "Ġwysu": 3579,
      "ĠwyszedÅĤ": 3580,
      "Ġwyrzu": 3581,
      "ĠwystÄĻpu": 3582,
      "ĠwyszÅĤa": 3583,
      "ĠstrzaÅĤ": 3584,
      "ĠstwierdziÅĤ": 3585,
      "kom": 3586,
      "Ġgard": 3587,
      "Ġgrom": 3588,
      "ĠgraÅĤ": 3589,
      "Ġprzem": 3590,
      "Ġprzesz": 3591,
      "ĠprzeÅ¼yÅĤ": 3592,
      "Ġprzemawi": 3593,
      "Ġprzechodzi": 3594,
      "Ġprzekazy": 3595,
      "Ġprzerwy": 3596,
      "Ġuda": 3597,
      "Ġudzie": 3598,
      "Ġusi": 3599,
      "Ġupi": 3600,
      "ĠumiaÅĤ": 3601,
      "ÅĤoÅĦce": 3602,
      "Äħcej": 3603,
      "daje": 3604,
      "dzieÅ¼": 3605,
      "dziennie": 3606,
      "waj": 3607,
      "wane": 3608,
      "wajÄħc": 3609,
      "ĠbyÅĤeÅĽ": 3610,
      "nona": 3611,
      "ĠNowym": 3612,
      "lana": 3613,
      "lano": 3614,
      "mina": 3615,
      "miot": 3616,
      "enta": 3617,
      "Ġton": 3618,
      "Ġtony": 3619,
      "ĠTowarzy": 3620,
      "ĠcaÅĤo": 3621,
      "Ġjakich": 3622,
      "ĠoddziaÅĤ": 3623,
      "Ġcza": 3624,
      "ĠczÅĤo": 3625,
      "Ġczwar": 3626,
      "ÅĦskie": 3627,
      "ĠZas": 3628,
      "ĠZnaj": 3629,
      "ĠZjedno": 3630,
      "owani": 3631,
      "kur": 3632,
      "ĠÅĽla": 3633,
      "Ġprzyj": 3634,
      "Ġprzygo": 3635,
      "Ġprzypomni": 3636,
      "ĠprzypomniaÅĤ": 3637,
      "ĠprzybyÅĤ": 3638,
      "tycznie": 3639,
      "siÄĩ": 3640,
      "siada": 3641,
      "Ġrosyj": 3642,
      "ĠmiaÅĤo": 3643,
      "asy": 3644,
      "Ġspi": 3645,
      "ĠspaÄĩ": 3646,
      "wiesz": 3647,
      "Ġchara": 3648,
      "szyÄĩ": 3649,
      "szymi": 3650,
      "Ġlos": 3651,
      "Ġszczu": 3652,
      "ĠMar": 3653,
      "ĠgoÅĽcie": 3654,
      "ĠSu": 3655,
      "ĠStu": 3656,
      "ĠSpot": 3657,
      "ĠSkur": 3658,
      "Ġpodnie": 3659,
      "ĠpodrÃ³": 3660,
      "Ġpodsze": 3661,
      "Ġtaka": 3662,
      "ĠAd": 3663,
      "ĠKos": 3664,
      "ĠKlu": 3665,
      "jeni": 3666,
      "jechali": 3667,
      "ĠOb": 3668,
      "ĠObie": 3669,
      "Ġteore": 3670,
      "biÄĩ": 3671,
      "omy": 3672,
      "omoÅĽÄĩ": 3673,
      "stanawi": 3674,
      "Ġwiesz": 3675,
      "ĠNiech": 3676,
      "szeni": 3677,
      "szenie": 3678,
      "szeÄĩ": 3679,
      "owiÄħ": 3680,
      "owiada": 3681,
      "Ġfurgo": 3682,
      "ĠIstoty": 3683,
      "Ġobja": 3684,
      "Ġmane": 3685,
      "ĠmajÄħc": 3686,
      "zygn": 3687,
      "rzaÄĩ": 3688,
      "mach": 3689,
      "mana": 3690,
      "ĠwidaÄĩ": 3691,
      "ĠwidzÃ³w": 3692,
      "ĠNawet": 3693,
      "ĠNagle": 3694,
      "lutnie": 3695,
      "Ġkapita": 3696,
      "tuje": 3697,
      "Ġlud": 3698,
      "rÄĻÅ¼y": 3699,
      "Å¼yli": 3700,
      "ĠczasÃ³w": 3701,
      "Ġpana": 3702,
      "gich": 3703,
      "giwaÅĤ": 3704,
      "gicznym": 3705,
      "ĠLi": 3706,
      "ĠLwÃ³w": 3707,
      "Ġprak": 3708,
      "Ġpracu": 3709,
      "Ġczyli": 3710,
      "Ġpiecy": 3711,
      "ĠpieniÄĻ": 3712,
      "zane": 3713,
      "Ġprzezna": 3714,
      "czyÅĤem": 3715,
      "ĠrzeÅº": 3716,
      "Ġlecz": 3717,
      "toÅĽÄĩ": 3718,
      "Ġsamego": 3719,
      "Ġbyd": 3720,
      "ĠmiaÅĤem": 3721,
      "Ġranka": 3722,
      "Ġhu": 3723,
      "Ġpiw": 3724,
      "Ġpusty": 3725,
      "ciÄħÅ¼": 3726,
      "ĠAmery": 3727,
      "ĠnosiÅĤ": 3728,
      "Ġnogach": 3729,
      "giem": 3730,
      "ĠAmerykanin": 3731,
      "ĠAmerykanom": 3732,
      "Ġzapa": 3733,
      "Ġrowie": 3734,
      "onymi": 3735,
      "ĠpiÄĻt": 3736,
      "ĠnajwiÄĻ": 3737,
      "Ġdaleka": 3738,
      "syte": 3739,
      "Ġliz": 3740,
      "ĠspytaÄĩ": 3741,
      "niÄĻtego": 3742,
      "oÅĤe": 3743,
      "Ġpowodu": 3744,
      "ĠwzdÅĤuÅ¼": 3745,
      "Ġstrach": 3746,
      "ĠstraciÅĤ": 3747,
      "zuÅĤ": 3748,
      "ĠotwÃ³r": 3749,
      "ĠotrzymaÅĤ": 3750,
      "Ġboga": 3751,
      "ĠMiaÅĤy": 3752,
      "Ġstopy": 3753,
      "terÃ³w": 3754,
      "ĠzdÄħ": 3755,
      "Ġwspomnie": 3756,
      "ĠwspomniaÅĤ": 3757,
      "ĠWyomi": 3758,
      "ĠksiÄħÅ¼kÄħ": 3759,
      "ĠÅĤzy": 3760,
      "Ġludziom": 3761,
      "Ġpiersi": 3762,
      "ĠbiaÅĤe": 3763,
      "Ġresta": 3764,
      "ĠrÄĻku": 3765,
      "ĠrÄĻkÄħ": 3766,
      "Ġimp": 3767,
      "Ġbaw": 3768,
      "Ġdziu": 3769,
      "Ġdzisiaj": 3770,
      "ĠchÅĤodni": 3771,
      "ĠRosjan": 3772,
      "ĠtrzydzieÅĽci": 3773,
      "ĠspojrzaÅĤ": 3774,
      "ÅĽlÄĻ": 3775,
      "ĠdzieciÅĦstwa": 3776,
      "ĠamerykaÅĦskie": 3777,
      "Ġdobre": 3778,
      "Ġchoro": 3779,
      "fonicz": 3780,
      "Ġokno": 3781,
      "Ġokrop": 3782,
      "Ġchwile": 3783,
      "ĠHow": 3784,
      "ĠHirosz": 3785,
      "ĠWiem": 3786,
      "Ġpowiada": 3787,
      "ĠzostaÅĤo": 3788,
      "Ġpierwszego": 3789,
      "ĠsÅĤuÅ¼yÄĩ": 3790,
      "ĠwedÅĤu": 3791,
      "Ġdrob": 3792,
      "ĠjakoÅĽ": 3793,
      "ĠÅ¼oÅĤnierz": 3794,
      "Ġzabije": 3795,
      "Ġzabija": 3796,
      "Ġmatera": 3797,
      "Ġwielkie": 3798,
      "Ġwielkim": 3799,
      "ĠpiÄĻkne": 3800,
      "chana": 3801,
      "ĠNic": 3802,
      "ĠCody": 3803,
      "Ġniemiecki": 3804,
      "Ġniemieckie": 3805,
      "Ġniemieckich": 3806,
      "ĠzasÅĤu": 3807,
      "Ġkobieta": 3808,
      "Ġpoprze": 3809,
      "ĠStraÅ¼": 3810,
      "braÅĤ": 3811,
      "ukaÅĤ": 3812,
      "ĠmÅĤod": 3813,
      "Ġwydaw": 3814,
      "ĠKanionu": 3815,
      "Ġarmia": 3816,
      "nicÄħ": 3817,
      "nictwa": 3818,
      "Ġpierwszym": 3819,
      "Ġtwarzy": 3820,
      "ĠPodobnie": 3821,
      "Ġaksami": 3822,
      "ĠrobiÄĩ": 3823,
      "cyjny": 3824,
      "ĠEdgara": 3825,
      "Ġdrugiego": 3826,
      "czynaÅĤa": 3827,
      "ĠktÃ³remu": 3828,
      "ĠdomÃ³w": 3829,
      "Ġcygara": 3830,
      "Ġrodziny": 3831,
      "ĠDopiero": 3832,
      "Ġskur": 3833,
      "Ġzako": 3834,
      "ĠzakÅĤa": 3835,
      "Ġpokry": 3836,
      "ĠpokÃ³j": 3837,
      "Ġczeko": 3838,
      "tyczny": 3839,
      "ĠLeÅ¼aÅĤ": 3840,
      "Ġhistoria": 3841,
      "ĠCampbella": 3842,
      "Ġprezy": 3843,
      "ĠwrÃ³ciÅĤ": 3844,
      "ĠuwaÅ¼a": 3845,
      "ĠwieczÃ³r": 3846,
      "Ġwieczoru": 3847,
      "ĠpeÅĤne": 3848,
      "Ġpewne": 3849,
      "ĠwpÅĤy": 3850,
      "ĠnaleÅ¼y": 3851,
      "ĠpoÅĽwiÄĻ": 3852,
      "ĠstraÅ¼nicy": 3853,
      "Ġplanety": 3854,
      "ĠzwrÃ³ciÅĤ": 3855,
      "Ġmasak": 3856,
      "Ġwyobra": 3857,
      "ĠwyobraÅ¼": 3858,
      "Ġautorem": 3859,
      "Ġpowietrze": 3860,
      "Ġodpowiedni": 3861,
      "Ġbombardowa": 3862,
      "ĠzwiadowcÃ³w": 3863,
      "Ġdwudziestu": 3864,
      "Ġkrok": 3865,
      "Ġkrew": 3866,
      "Ġkrety": 3867,
      "ĠDziew": 3868,
      "ĠzmieniÄĩ": 3869,
      "ĠstronÄĻ": 3870,
      "Ġfroncie": 3871,
      "ĠstanowiÅĤa": 3872,
      "spery": 3873,
      "Ġdrezde": 3874,
      "Ġniewiel": 3875,
      "Ġgwizd": 3876,
      "Ġukry": 3877,
      "Ġzrozumienia": 3878,
      "ĠdÅĤoni": 3879,
      "Ġpornografi": 3880,
      "Ġprzestali": 3881,
      "ĠMyÅĽlÄĻ": 3882,
      "ĠruszaÄĩ": 3883,
      "ĠwÄĻd": 3884,
      "ĠoÅĽmiu": 3885,
      "ĠokazaÅĤo": 3886,
      "Ġstuden": 3887,
      "ĠudziaÅĤu": 3888,
      "ĠkoÅĤnie": 3889,
      "Ġspokojnie": 3890,
      "ĠpamiÄĻtaÅĤ": 3891,
      "Ġizbie": 3892,
      "ĠdorosÅĤy": 3893,
      "Ġcudow": 3894,
      "Ġmilion": 3895,
      "Ġnikomu": 3896,
      "Ġpacjent": 3897,
      "ĠciemnoÅĽci": 3898,
      "Ġkonwojent": 3899,
      "ĠzmiaÅ¼d": 3900,
      "ĠtworzÄħc": 3901,
      "ĠkÃ³ÅĤko": 3902,
      "niosÅĤa": 3903,
      "Ġnaprzeciwko": 3904,
      "ĠpoÅĤudnie": 3905,
      "ĠprzeczytaÅĤ": 3906,
      "Ġuzbro": 3907,
      "jeÅ¼dÅ¼": 3908,
      "ĠobejrzaÅĤ": 3909,
      "Ġrozmowy": 3910,
      "Ġokrut": 3911,
      "ĠprÃ³bowaÅĤ": 3912,
      "ĠwspÃ³ÅĤczes": 3913,
      "mosu": 3914,
      "ĠpowaÅ¼": 3915,
      "Ġsiedem": 3916,
      "Ġzadowo": 3917,
      "Ġwyboru": 3918,
      "ĠusiÅĤowaÅĤ": 3919,
      "ĠÅĽlubu": 3920,
      "Ġrodzaju": 3921,
      "Ġchleb": 3922,
      "ĠrozpoczÄħ": 3923,
      "ĠNazywaÅĤ": 3924,
      "Ġradio": 3925,
      "Ġramiona": 3926,
      "ĠÅĽcianÄĻ": 3927,
      "ĠwÅĤÃ³czÄĻga": 3928,
      "ĠzÄĻby": 3929,
      "ĠpoÅ¼ar": 3930,
      "ĠzauwaÅ¼yÅĤ": 3931,
      "Ġuwagi": 3932,
      "ĠusiadÅĤ": 3933,
      "ĠOstate": 3934,
      "Ġfantastycz": 3935,
      "ĠheÅĤmu": 3936,
      "ĠmÃ³zgu": 3937,
      "dopod": 3938,
      "ĠWietnamie": 3939,
      "Ġfabryce": 3940,
      "Ġszybko": 3941,
      "Ġnieprzytomny": 3942,
      "ĠmÄħÅ¼": 3943,
      "ĠnieszczÄĻÅĽli": 3944,
      "Ġzatru": 3945,
      "Ġwymiarze": 3946,
      "Ġwystarczy": 3947,
      "owiadaÄĩ": 3948,
      "ĠPozosta": 3949,
      "Ġburszty": 3950,
      "Ġsymbo": 3951,
      "Ġrekl": 3952,
      "ĠpomÃ³gÅĤ": 3953,
      "Ġniezwykle": 3954,
      "ĠKsiÄĻÅ¼yca": 3955,
      "ĠscenÄĻ": 3956,
      "ĠwewnÄħtrz": 3957,
      "Ġzrezygn": 3958,
      "Ġjuni": 3959,
      "ĠpoÅĤoÅ¼yÄĩ": 3960,
      "rzyjaÅºni": 3961,
      "ĠprzywiÄħzany": 3962,
      "Ġtygodni": 3963,
      "Ġmagnety": 3964,
      "ĠpaÅĦstw": 3965,
      "ĠLuksem": 3966,
      "Ġsypialni": 3967,
      "Ġrzeczywisto": 3968,
      "ĠBeretÃ³w": 3969,
      "ĠwspÃ³lnego": 3970,
      "ĠChicago": 3971,
      "ĠEwangeli": 3972,
      "bsolutnie": 3973,
      "Ġrzad": 3974,
      "Ġskierowa": 3975,
      "Ġmateri": 3976,
      "niwersyte": 3977,
      "ĠusiÅĤu": 3978,
      "Ġcharakt": 3979,
      "ĠpodrÃ³Å¼y": 3980,
      "Ġpodszew": 3981,
      "ĠKosmosu": 3982,
      "ĠWyoming": 3983,
      "ĠHiroszim": 3984,
      "ĠwedÅĤug": 3985,
      "ĠStraÅ¼nicy": 3986,
      "arz": 3987,
      "any": 3988,
      "baÅĤ": 3989,
      "cÄħc": 3990,
      "cta": 3991,
      "cej": 3992,
      "cony": 3993,
      "cent": 3994,
      "dÅ¼": 3995,
      "dami": 3996,
      "dkÄħ": 3997,
      "dniem": 3998,
      "dowali": 3999,
      "diana": 4000,
      "eb": 4001,
      "ele": 4002,
      "fe": 4003,
      "fiÄĻ": 4004,
      "for": 4005,
      "fry": 4006,
      "giÄĻ": 4007,
      "gowi": 4008,
      "gÃ³r": 4009,
      "he": 4010,
      "hi": 4011,
      "jad": 4012,
      "jej": 4013,
      "jski": 4014,
      "kre": 4015,
      "kaÅĤa": 4016,
      "kowaÅĤ": 4017,
      "kto": 4018,
      "kowÄħ": 4019,
      "kowaÄĩ": 4020,
      "kowego": 4021,
      "knÄĻÅĤa": 4022,
      "laÅĤa": 4023,
      "lnej": 4024,
      "lowym": 4025,
      "mm": 4026,
      "naÅĤa": 4027,
      "nnych": 4028,
      "naÅĤo": 4029,
      "nkÃ³w": 4030,
      "nkÄħ": 4031,
      "nkt": 4032,
      "nownie": 4033,
      "nstru": 4034,
      "oh": 4035,
      "onie": 4036,
      "ole": 4037,
      "onym": 4038,
      "pl": 4039,
      "prz": 4040,
      "pni": 4041,
      "pcy": 4042,
      "pali": 4043,
      "pel": 4044,
      "rowaÅĤ": 4045,
      "rowego": 4046,
      "se": 4047,
      "tli": 4048,
      "tar": 4049,
      "ten": 4050,
      "tard": 4051,
      "wne": 4052,
      "wÅĤa": 4053,
      "wen": 4054,
      "wsze": 4055,
      "wkami": 4056,
      "ymi": 4057,
      "yta": 4058,
      "zer": 4059,
      "zen": 4060,
      "©li": 4061,
      "Â«": 4062,
      "Â»": 4063,
      "Ã¼": 4064,
      "Ã©li": 4065,
      "Å»": 4066,
      "Ġ(": 4067,
      "Ġ3": 4068,
      "Ġ8": 4069,
      "Ġowa": 4070,
      "ĠciÄħ": 4071,
      "ĠciÄħg": 4072,
      "ĠrzÄĻ": 4073,
      "ĠciÄħgu": 4074,
      "ĠÂ«": 4075,
      "ÅĤku": 4076,
      "ÅĤaki": 4077,
      "ÅĤakaÅĤ": 4078,
      "ien": 4079,
      "ĠpÅĤu": 4080,
      "Ġpsem": 4081,
      "Ġska": 4082,
      "ĠsÄħd": 4083,
      "Ġsali": 4084,
      "Ġsal": 4085,
      "Ġscho": 4086,
      "Ġwst": 4087,
      "Ġwam": 4088,
      "Ġwej": 4089,
      "Ġwsta": 4090,
      "Ġwrzu": 4091,
      "ĠwstÄħpi": 4092,
      "ĠwÅĤoÅ¼yÅĤ": 4093,
      "Ġwraca": 4094,
      "ĠwciÄħÅ¼": 4095,
      "Ġzg": 4096,
      "ĠzaÅĤ": 4097,
      "Ġzem": 4098,
      "Ġzdzi": 4099,
      "Ġzwo": 4100,
      "Ġzje": 4101,
      "Ġzza": 4102,
      "Ġzdarza": 4103,
      "Ġzbo": 4104,
      "Ġzdu": 4105,
      "Ġzrzu": 4106,
      "ĠzarÄĻ": 4107,
      "Ġzoo": 4108,
      "Ġzmarz": 4109,
      "Ġzjad": 4110,
      "aÅĤu": 4111,
      "rzaÅĤa": 4112,
      "rzaÅĤo": 4113,
      "Å¼ÄĻ": 4114,
      "Å¼Äħc": 4115,
      "Å¼ono": 4116,
      "czar": 4117,
      "czajÄħc": 4118,
      "czkach": 4119,
      "czonych": 4120,
      "Ġterm": 4121,
      "owce": 4122,
      "owlÄĻ": 4123,
      "Ġdie": 4124,
      "Ġdam": 4125,
      "Ġder": 4126,
      "Ġdowo": 4127,
      "ĠdajÄħc": 4128,
      "ĠdwÃ³r": 4129,
      "Ġdrap": 4130,
      "Ġdenty": 4131,
      "Ġmak": 4132,
      "ĠmaÅĤych": 4133,
      "ÅĽla": 4134,
      "ÅĽwie": 4135,
      "Ġor": 4136,
      "Ġost": 4137,
      "Ġorze": 4138,
      "Ġoka": 4139,
      "Ġone": 4140,
      "Ġoby": 4141,
      "ĠoÅ¼e": 4142,
      "Ġopie": 4143,
      "Ġozna": 4144,
      "Ġorg": 4145,
      "ĠopisaÅĤ": 4146,
      "Ġolbrzy": 4147,
      "Ġkam": 4148,
      "ĠkÅĤa": 4149,
      "Ġkas": 4150,
      "Ġklu": 4151,
      "Ġkory": 4152,
      "rali": 4153,
      "rawie": 4154,
      "raÅºniej": 4155,
      "raÅĦcz": 4156,
      "rafy": 4157,
      "ĠiÅ¼": 4158,
      "ĠiÅĽÄĩ": 4159,
      "niku": 4160,
      "niaÅĤy": 4161,
      "niony": 4162,
      "szÄħc": 4163,
      "szkÄĻ": 4164,
      "Ġnaro": 4165,
      "Ġnaci": 4166,
      "liÅ¼": 4167,
      "liwe": 4168,
      "strz": 4169,
      "ster": 4170,
      "stami": 4171,
      "staÅĤy": 4172,
      "Ġban": 4173,
      "Ġblu": 4174,
      "Ġpoch": 4175,
      "Ġpora": 4176,
      "Ġpoci": 4177,
      "Ġpolu": 4178,
      "ĠposÅĤu": 4179,
      "ĠpoÅĤoÅ¼yÅĤ": 4180,
      "Ġpopular": 4181,
      "ĠpostanowiÅĤ": 4182,
      "Ġponownie": 4183,
      "rost": 4184,
      "ĠBoba": 4185,
      "ĠBrytyj": 4186,
      "rzej": 4187,
      "rzeli": 4188,
      "rzewaÅĤ": 4189,
      "ler": 4190,
      "lenie": 4191,
      "letnie": 4192,
      "ciarni": 4193,
      "akami": 4194,
      "akowaÅĤ": 4195,
      "Ġnienawi": 4196,
      "ĠniektÃ³": 4197,
      "arowaÅĤ": 4198,
      "emo": 4199,
      "emy": 4200,
      "Ġdoko": 4201,
      "Ġdobie": 4202,
      "Ġdopy": 4203,
      "ĠdodaÅĤ": 4204,
      "ĠdoÅĽwiad": 4205,
      "Ġdodat": 4206,
      "kaja": 4207,
      "kazu": 4208,
      "rzyma": 4209,
      "dzial": 4210,
      "Ġzacie": 4211,
      "Ġzain": 4212,
      "Ġzawiera": 4213,
      "Ġzastanawi": 4214,
      "ĠzaczynaÅĤa": 4215,
      "erb": 4216,
      "erie": 4217,
      "erii": 4218,
      "wiÅĤo": 4219,
      "wiÅĤy": 4220,
      "wiono": 4221,
      "necta": 4222,
      "ĠPla": 4223,
      "ĠPen": 4224,
      "ĠPali": 4225,
      "ĠPew": 4226,
      "ĠPrac": 4227,
      "ĠPit": 4228,
      "ĠPewien": 4229,
      "ĠWÅĽrÃ³d": 4230,
      "ĠWÃ³wczas": 4231,
      "czyby": 4232,
      "czytaÅĤ": 4233,
      "Ġwyt": 4234,
      "Ġwyle": 4235,
      "Ġwystawi": 4236,
      "Ġwyrusz": 4237,
      "ĠwyciÄħgnÄħÅĤ": 4238,
      "ĠwyglÄħdali": 4239,
      "ĠwymyÅĽl": 4240,
      "ÅĤaszcz": 4241,
      "ciej": 4242,
      "Ġge": 4243,
      "Ġgwo": 4244,
      "Ġprzepra": 4245,
      "Ġprzebiera": 4246,
      "Ġust": 4247,
      "Ġuja": 4248,
      "ĠuczyÅĤ": 4249,
      "Ġuzna": 4250,
      "Ġumar": 4251,
      "ĠudaÅĤo": 4252,
      "Ġuszko": 4253,
      "Ġabsolutnie": 4254,
      "dania": 4255,
      "dawano": 4256,
      "orge": 4257,
      "wany": 4258,
      "noÅĽ": 4259,
      "ren": 4260,
      "ĠNat": 4261,
      "ĠNad": 4262,
      "ĠNasy": 4263,
      "lali": 4264,
      "lacji": 4265,
      "lacjÄĻ": 4266,
      "enu": 4267,
      "entem": 4268,
      "ryz": 4269,
      "ĠtobÄħ": 4270,
      "byÅĽ": 4271,
      "byÅĽmy": 4272,
      "Ġcali": 4273,
      "woÅĽÄĩ": 4274,
      "Ġodwa": 4275,
      "ĠodÅ¼y": 4276,
      "Ġczaj": 4277,
      "ÅĦskich": 4278,
      "ÅĦskiego": 4279,
      "ĠZni": 4280,
      "ĠZach": 4281,
      "ĠZgodnie": 4282,
      "owana": 4283,
      "owanÄħ": 4284,
      "owanym": 4285,
      "kujÄħc": 4286,
      "Ġkogo": 4287,
      "Ġkoja": 4288,
      "Ġkolo": 4289,
      "Ġkoszu": 4290,
      "Ġkoszt": 4291,
      "Ġkorzysta": 4292,
      "Ġkolum": 4293,
      "Ġprzychodzi": 4294,
      "Ġprzypuszcz": 4295,
      "sia": 4296,
      "siÅĤa": 4297,
      "Ġroli": 4298,
      "cyd": 4299,
      "cyfik": 4300,
      "ĠmiarÄĻ": 4301,
      "Ġminer": 4302,
      "Ġmiota": 4303,
      "adel": 4304,
      "tali": 4305,
      "Ġtylu": 4306,
      "niajÄħc": 4307,
      "ÅĤynÄĻÅĤa": 4308,
      "Ġspa": 4309,
      "ĠsprÄĻÅ¼y": 4310,
      "wiezi": 4311,
      "ĠDale": 4312,
      "ÅĽciÅĤa": 4313,
      "rusza": 4314,
      "ĠchÄĻ": 4315,
      "Ġchmu": 4316,
      "Ġchory": 4317,
      "szyli": 4318,
      "Ġlamp": 4319,
      "ĠlÅĽni": 4320,
      "Ġszp": 4321,
      "Ġszali": 4322,
      "ĠszkÅĤa": 4323,
      "ĠMim": 4324,
      "ĠMatka": 4325,
      "Ġgod": 4326,
      "Ġgospo": 4327,
      "Ġwoz": 4328,
      "Ġwody": 4329,
      "Ġwozie": 4330,
      "czeka": 4331,
      "mien": 4332,
      "anego": 4333,
      "anÃ³w": 4334,
      "ĠCy": 4335,
      "ĠCzuÅĤ": 4336,
      "ĠCÃ©li": 4337,
      "ĠSch": 4338,
      "ĠSzu": 4339,
      "ĠSche": 4340,
      "ĠSÅĤoÅĦce": 4341,
      "Ġpodko": 4342,
      "Ġpodej": 4343,
      "Ġpowietrz": 4344,
      "Ġpowiedzenia": 4345,
      "ĠJerry": 4346,
      "ĠJoh": 4347,
      "ĠAu": 4348,
      "ĠAni": 4349,
      "ĠKor": 4350,
      "ĠKsiÄħ": 4351,
      "ĠOj": 4352,
      "ĠOni": 4353,
      "ĠOjciec": 4354,
      "cenia": 4355,
      "ÅĤuchaj": 4356,
      "bia": 4357,
      "oma": 4358,
      "ĠwierzyÅĤ": 4359,
      "Ġwiedzieli": 4360,
      "ĠwierzyÄĩ": 4361,
      "rÃ³ciÅĤa": 4362,
      "aleÅĦ": 4363,
      "ĠNiektÃ³": 4364,
      "Åºdzi": 4365,
      "owymi": 4366,
      "owywaÅĤ": 4367,
      "Ġmonografi": 4368,
      "Ġcoraz": 4369,
      "Ġcodziennie": 4370,
      "ĠwojnÄħ": 4371,
      "Ġwojsku": 4372,
      "ĠfaÅĤ": 4373,
      "Ġfar": 4374,
      "Ġfote": 4375,
      "ĠIdÅºcie": 4376,
      "Ġobli": 4377,
      "ĠobjÄĻ": 4378,
      "Ġobaj": 4379,
      "ĠobsÅĤu": 4380,
      "pik": 4381,
      "piaÅĤ": 4382,
      "piÄħ": 4383,
      "Ġrozwo": 4384,
      "Ġroznosi": 4385,
      "ĠrozlegÅĤ": 4386,
      "onowaÄĩ": 4387,
      "Ġmali": 4388,
      "Ġmalu": 4389,
      "rzali": 4390,
      "mysÅĤu": 4391,
      "Ġmiesza": 4392,
      "ĠmiesiÄĻcy": 4393,
      "Ġwisi": 4394,
      "Ġwios": 4395,
      "ĠwidzieÄĩ": 4396,
      "Ġwidzenia": 4397,
      "ĠwidzÄħ": 4398,
      "Ġwidzia": 4399,
      "ĠwisiaÅĤ": 4400,
      "ĠNawiasem": 4401,
      "Ġdzieli": 4402,
      "Ġkabi": 4403,
      "Ġkazano": 4404,
      "Ġkapral": 4405,
      "Ġkalory": 4406,
      "Ġzegara": 4407,
      "tury": 4408,
      "rÄĻcz": 4409,
      "rÄĻdz": 4410,
      "Ġczasopis": 4411,
      "Ġpanie": 4412,
      "gaÄĩ": 4413,
      "Ġznali": 4414,
      "cjata": 4415,
      "cjonowaÄĩ": 4416,
      "ĠLa": 4417,
      "ĠLo": 4418,
      "ĠLuf": 4419,
      "Ġprawo": 4420,
      "Ġopraw": 4421,
      "ĠoprÃ³cz": 4422,
      "Ġpies": 4423,
      "Ġpieca": 4424,
      "Ġpieprz": 4425,
      "zali": 4426,
      "zaÄĩ": 4427,
      "locie": 4428,
      "lonym": 4429,
      "niejszych": 4430,
      "niejszÄħ": 4431,
      "czyÅĤy": 4432,
      "Ġrzeki": 4433,
      "ĠrzeczÄħ": 4434,
      "Ġlegowi": 4435,
      "szczenie": 4436,
      "ĠsamÄħ": 4437,
      "poli": 4438,
      "alaÅĤ": 4439,
      "szczone": 4440,
      "eÅĤko": 4441,
      "Ġram": 4442,
      "Ġrany": 4443,
      "Ġraju": 4444,
      "ĠracjÄĻ": 4445,
      "Ġha": 4446,
      "Ġhi": 4447,
      "ĠhaÅĤa": 4448,
      "Ġhon": 4449,
      "ĠPoÅĤu": 4450,
      "ĠPociÄħg": 4451,
      "azdy": 4452,
      "Ġkuchen": 4453,
      "Ġpistolet": 4454,
      "ewni": 4455,
      "Ġpubli": 4456,
      "ĠpuÅĤku": 4457,
      "Ġprzedmie": 4458,
      "Ġprzedsta": 4459,
      "ĠJedno": 4460,
      "chodzie": 4461,
      "chodziÄĩ": 4462,
      "ĠGo": 4463,
      "achu": 4464,
      "Ġzaple": 4465,
      "Ġzapach": 4466,
      "ĠzaprzyjaÅºni": 4467,
      "gÅĤÄĻ": 4468,
      "ĠrÄħ": 4469,
      "ĠwiÄĻk": 4470,
      "Ġnajp": 4471,
      "ĠnajwyÅ¼": 4472,
      "Ġtaniec": 4473,
      "ĠtaÅĦca": 4474,
      "moc": 4475,
      "Ġlin": 4476,
      "Ġlicz": 4477,
      "Ġlili": 4478,
      "ĠmÃ³wili": 4479,
      "ĠmÃ³wiÅĤa": 4480,
      "gujÄħc": 4481,
      "niÄĻte": 4482,
      "niÄĻcia": 4483,
      "Ġpowstrzy": 4484,
      "ĠmydÅĤo": 4485,
      "ĠEl": 4486,
      "ĠEli": 4487,
      "ĠskÃ³": 4488,
      "Ġsklep": 4489,
      "Ġstraszli": 4490,
      "wÃ³d": 4491,
      "Ġotwiera": 4492,
      "Ġstajni": 4493,
      "ĠTralfamadoriÄĻ": 4494,
      "siÄĻÅ¼": 4495,
      "Ġbutach": 4496,
      "Ġstole": 4497,
      "teres": 4498,
      "Ġzdra": 4499,
      "Ġzdob": 4500,
      "skaki": 4501,
      "ĠsÄħdziÅĤ": 4502,
      "ĠZiemiÄĻ": 4503,
      "burg": 4504,
      "ĠmÃ³c": 4505,
      "ĠUniwersyte": 4506,
      "Ġzamarz": 4507,
      "ĠWyp": 4508,
      "ĠWyglÄħd": 4509,
      "ĠksiÄħÅ¼ce": 4510,
      "onek": 4511,
      "onel": 4512,
      "paÅĽÄĩ": 4513,
      "Ġogni": 4514,
      "Ġognia": 4515,
      "ĠÅĤat": 4516,
      "Ġdrugi": 4517,
      "ĠCho": 4518,
      "Ġsyna": 4519,
      "Ġrepre": 4520,
      "landa": 4521,
      "ĠkaÅ¼da": 4522,
      "ĠPrzecieÅ¼": 4523,
      "ĠPrzepraszam": 4524,
      "ĠsÅĤychaÄĩ": 4525,
      "grania": 4526,
      "sÅĤaÅĤ": 4527,
      "ĠWalencjÄħ": 4528,
      "ĠmoÅ¼emy": 4529,
      "Ġmiejsc": 4530,
      "ĠtrzymaÅĤ": 4531,
      "ĠtrzymaÄĩ": 4532,
      "ĠjakiegoÅĽ": 4533,
      "Ġspoczy": 4534,
      "Ġszes": 4535,
      "Ġszero": 4536,
      "ĠamerykaÅĦskiego": 4537,
      "ĠamerykaÅĦskÄħ": 4538,
      "ĠFil": 4539,
      "Ġrui": 4540,
      "Ġdobry": 4541,
      "ĠgÅĤosy": 4542,
      "lazÅĤ": 4543,
      "Ġkondu": 4544,
      "ĠchodziÅĤ": 4545,
      "garni": 4546,
      "Å¼yÅĤa": 4547,
      "Ġtrzewi": 4548,
      "Ġtrzema": 4549,
      "Ġokna": 4550,
      "ĠchwilÄħ": 4551,
      "Ġznajdzie": 4552,
      "Ġpotrzeb": 4553,
      "ĠÅĽmiertel": 4554,
      "ĠHar": 4555,
      "ĠWiedziaÅĤ": 4556,
      "ĠWiedzieli": 4557,
      "ĠRolanda": 4558,
      "Ġwagonach": 4559,
      "dech": 4560,
      "Ġbomby": 4561,
      "ĠÅĽrodek": 4562,
      "ĠprawdÄĻ": 4563,
      "ĠsÅĤuchaÅĤ": 4564,
      "Ġweszli": 4565,
      "ĠdrogÄħ": 4566,
      "ĠÅ¼oÅĤnierza": 4567,
      "ĠzabiÄĩ": 4568,
      "Ġzabici": 4569,
      "Ġzabitych": 4570,
      "czuÅĤ": 4571,
      "czucie": 4572,
      "Ġbiednego": 4573,
      "mawiaÅĤ": 4574,
      "ĠpiÄĻknych": 4575,
      "ĠpiÄĻknego": 4576,
      "ĠbombowcÃ³w": 4577,
      "ĠÅĤagodnie": 4578,
      "ĠÅĤaÅĦcu": 4579,
      "Ġdanej": 4580,
      "ĠpÃ³j": 4581,
      "ĠpÃ³Åº": 4582,
      "ĠzaÅĽpie": 4583,
      "wieraÅĤa": 4584,
      "ĠCzÄĻ": 4585,
      "ĠpÅĤaszczy": 4586,
      "Ġniemiecku": 4587,
      "Ġniemieckiego": 4588,
      "ĠzasÅĤo": 4589,
      "Ġczub": 4590,
      "ĠRosewatera": 4591,
      "Ġkieszon": 4592,
      "kazaÅĤo": 4593,
      "Ġmarmo": 4594,
      "ĠwydawaÅĤ": 4595,
      "Ġarchi": 4596,
      "ĠBogu": 4597,
      "ĠzÅĤoÅ¼yli": 4598,
      "ĠBardzo": 4599,
      "Ġniezbyt": 4600,
      "Ġprzyjaciela": 4601,
      "ĠÅ»y": 4602,
      "ĠÅ»ad": 4603,
      "Ġlasku": 4604,
      "ĠPodczas": 4605,
      "Ġdziecka": 4606,
      "ksztaÅĤ": 4607,
      "ĠsÅĤoÅĦca": 4608,
      "ĠduÅ¼y": 4609,
      "Ġducha": 4610,
      "ĠrobiÅĤ": 4611,
      "ĠmuszÄĻ": 4612,
      "ĠmuszÄħ": 4613,
      "Ġmusztard": 4614,
      "ĠmieszkaÅĦcy": 4615,
      "Ġzupy": 4616,
      "ĠtÅĤum": 4617,
      "ĠtÅĤuma": 4618,
      "Ġkarmi": 4619,
      "Ġkartof": 4620,
      "niczej": 4621,
      "Ġkolcza": 4622,
      "ĠMoÅ¼e": 4623,
      "Ġtakiej": 4624,
      "Ġznajdowali": 4625,
      "Ġtrum": 4626,
      "Ġgrudki": 4627,
      "ĠcaÅĤym": 4628,
      "Ġrodzinnym": 4629,
      "jÄħcymi": 4630,
      "ĠMaory": 4631,
      "Ġfilmie": 4632,
      "ĠpiÄĻÄĩdziesiÄħt": 4633,
      "ĠpiÄĻÄĩdziesiÄĻ": 4634,
      "ĠwyÅĤoÅ¼": 4635,
      "Ġkraju": 4636,
      "tycznego": 4637,
      "ĠpracÄĻ": 4638,
      "ĠpracowaÅĤ": 4639,
      "ĠpracowaÄĩ": 4640,
      "ĠpracowaÅĤem": 4641,
      "Ġpytania": 4642,
      "Ġwargi": 4643,
      "Ġwarto": 4644,
      "ĠzginÄħÅĤ": 4645,
      "ĠmomentÃ³w": 4646,
      "Ġgrali": 4647,
      "Ġgraciarni": 4648,
      "Ġczarny": 4649,
      "Ġczarne": 4650,
      "ĠÅĽciany": 4651,
      "Ġgodzin": 4652,
      "ĠsÅĤynnÄħ": 4653,
      "ĠsÅĤynnej": 4654,
      "ÅĤkownik": 4655,
      "ĠpÅĤak": 4656,
      "ĠpÃ³ÅĤwy": 4657,
      "ĠwrÃ³ble": 4658,
      "Ġzwyczaj": 4659,
      "ĠbroÅĦ": 4660,
      "ropej": 4661,
      "ĠDzikiego": 4662,
      "ĠÅĤyÅ¼e": 4663,
      "ĠksiÄĻgarni": 4664,
      "ĠpoÅĽwiat": 4665,
      "ĠpomyÅĽlaÅĤ": 4666,
      "Ġwypadku": 4667,
      "ĠsamolotÃ³w": 4668,
      "Ġpowinna": 4669,
      "ĠprÃ³cz": 4670,
      "Ġzwraca": 4671,
      "Ġmasa": 4672,
      "niÄħdze": 4673,
      "ĠMÃ³wiÅĤa": 4674,
      "ĠlatajÄħcego": 4675,
      "Ġpowoli": 4676,
      "Ġpowodzeniem": 4677,
      "Ġzwiadowcy": 4678,
      "Ġkroku": 4679,
      "ĠnapisaÄĩ": 4680,
      "dziano": 4681,
      "Ġprzeciwnika": 4682,
      "ĠDziewi": 4683,
      "ĠIndiana": 4684,
      "ĠznaleÅºli": 4685,
      "ĠwÅĤasnych": 4686,
      "ĠkaÅ¼dej": 4687,
      "Ġ1968": 4688,
      "ĠmÄĻÅ¼czyÅºni": 4689,
      "Ġpasy": 4690,
      "ĠdÅºwi": 4691,
      "Ġpomoc": 4692,
      "ĠwyjÄħÅĤ": 4693,
      "Ġstronie": 4694,
      "ĠupÅĤy": 4695,
      "ĠmogÅĤy": 4696,
      "ĠrozmawiaÅĤ": 4697,
      "Ġrozmawiali": 4698,
      "ĠrozmawiaÄĩ": 4699,
      "ĠNajbardziej": 4700,
      "bieraÄĩ": 4701,
      "ĠpotrafiÄħ": 4702,
      "Ġfaceta": 4703,
      "ĠprowadzÄħc": 4704,
      "ĠwÄħt": 4705,
      "Ġzamiast": 4706,
      "Ġdrzew": 4707,
      "Ġdrzewa": 4708,
      "Ġdrewni": 4709,
      "arÅĤat": 4710,
      "ĠwyglÄħdaÅĤy": 4711,
      "Ġcelu": 4712,
      "ĠprzypominaÅĤ": 4713,
      "ĠprawdziwÄħ": 4714,
      "Ġnazwisko": 4715,
      "ĠwalczyÄĩ": 4716,
      "ĠzwiÄħzane": 4717,
      "Ġdymu": 4718,
      "ĠdÅĤonie": 4719,
      "ĠmaÅĤÅ¼e": 4720,
      "Ġkrwi": 4721,
      "Ġkrwa": 4722,
      "ĠprzekonaÄĩ": 4723,
      "ĠÅĽnieg": 4724,
      "ĠsprawÄĻ": 4725,
      "ĠdzwoniÅĤ": 4726,
      "Ġdzwonek": 4727,
      "ĠobiecaÅĤ": 4728,
      "ĠrozlegaÅĤ": 4729,
      "Ġmaszyn": 4730,
      "Ġmaszyna": 4731,
      "ĠruszyÅĤ": 4732,
      "ĠciÄĻÅ¼ar": 4733,
      "ĠszeregowcÃ³w": 4734,
      "ĠpudeÅĤecz": 4735,
      "Ġdowiedzieli": 4736,
      "Ġokoli": 4737,
      "ĠokoÅĤo": 4738,
      "ĠksztaÅĤt": 4739,
      "ĠpomaraÅĦcz": 4740,
      "Ġdotar": 4741,
      "ĠzaczÄĻli": 4742,
      "ĠzaczÄĻÅĤa": 4743,
      "ĠumrzeÄĩ": 4744,
      "ĠuÅ¼yte": 4745,
      "ĠkoÅĤdry": 4746,
      "ĠkomuÅĽ": 4747,
      "Ġkomuni": 4748,
      "ĠkopuÅĤy": 4749,
      "Ġloka": 4750,
      "ĠszczegÃ³l": 4751,
      "Ġsztuki": 4752,
      "Ġwidok": 4753,
      "Ġludzkie": 4754,
      "Ġlekarz": 4755,
      "Ġspokoju": 4756,
      "Ġartyle": 4757,
      "Ġartyku": 4758,
      "Ġmuszkiete": 4759,
      "Ġsrebrne": 4760,
      "Ġsrebrnych": 4761,
      "gryz": 4762,
      "Ġpluton": 4763,
      "ĠmiÄĻso": 4764,
      "ĠnastÄĻpnego": 4765,
      "Ġpolega": 4766,
      "wiajÄħ": 4767,
      "Ġwykony": 4768,
      "Ġcudownie": 4769,
      "ÅĦczykÃ³w": 4770,
      "ĠMusiaÅĤ": 4771,
      "Ġpowierzchni": 4772,
      "ĠpowierzchniÄĻ": 4773,
      "ĠwziÄĻli": 4774,
      "ĠZapan": 4775,
      "Ġkierownicy": 4776,
      "ĠdÅºwiÄĻk": 4777,
      "ĠdÅºwiÄĻki": 4778,
      "ĠRoberta": 4779,
      "Ġplecami": 4780,
      "Ġkliniki": 4781,
      "Ġkrucyfik": 4782,
      "ĠkrÃ³tko": 4783,
      "ĠpoÅĤudniu": 4784,
      "Ġprzeprowa": 4785,
      "ĠuznaÅĤ": 4786,
      "ĠkoÅĽcioÅĤa": 4787,
      "Ġprzybyli": 4788,
      "Ġprzytomny": 4789,
      "ĠprzytomnoÅĽÄĩ": 4790,
      "Ġszczyt": 4791,
      "ĠSamolot": 4792,
      "ĠobejrzeÄĩ": 4793,
      "ĠwspaniaÅĤych": 4794,
      "Å¼onymi": 4795,
      "Ġorgani": 4796,
      "Ġpogrzeb": 4797,
      "Ġulicy": 4798,
      "ĠusÅĤyszaÅĤ": 4799,
      "ĠprzyszÅĤoÅĽÄĩ": 4800,
      "ĠDrugi": 4801,
      "Ġchleba": 4802,
      "Ġfunk": 4803,
      "ĠfuntÃ³w": 4804,
      "ĠrozpoczÄĻ": 4805,
      "Ġramionami": 4806,
      "Ġpunktu": 4807,
      "ĠskÅĤad": 4808,
      "Ġsytuacji": 4809,
      "ĠRosjanie": 4810,
      "ĠRosjanin": 4811,
      "ĠÅĽrednim": 4812,
      "ĠochotÄĻ": 4813,
      "Ġrozstrzelany": 4814,
      "Ġekspery": 4815,
      "Ġpiln": 4816,
      "ĠwrogÃ³w": 4817,
      "ĠtrÃ³jgrania": 4818,
      "Ġoczeki": 4819,
      "Ġpodziura": 4820,
      "Ġjeziorem": 4821,
      "ĠprzeÅ¼ywaÅĤ": 4822,
      "ĠprzeszÅĤoÅĽÄĩ": 4823,
      "ĠukoÅĦczyÅĤ": 4824,
      "Ġutrzyma": 4825,
      "ĠCadillakiem": 4826,
      "Ġkapelana": 4827,
      "ĠkarabinÃ³w": 4828,
      "ĠÅ¼ywnoÅĽci": 4829,
      "Ġsklepu": 4830,
      "ĠgÅĤÃ³wnie": 4831,
      "ĠbutelkÄĻ": 4832,
      "ĠpozwoliÅĤ": 4833,
      "stoletni": 4834,
      "ĠdÅĤuÅ¼ej": 4835,
      "ĠdzieciÄĻca": 4836,
      "ĠistnieÄĩ": 4837,
      "ĠnaleÅ¼aÅĤo": 4838,
      "ĠYonson": 4839,
      "ĠWszechÅĽwiata": 4840,
      "Ġkatastrofie": 4841,
      "Ġseku": 4842,
      "ĠweÅĤniane": 4843,
      "Ġkamien": 4844,
      "Ġpozycji": 4845,
      "ĠBostonu": 4846,
      "ĠBiedny": 4847,
      "ĠniemowlÄĻ": 4848,
      "Ġzaczyna": 4849,
      "ĠwyraÅºnie": 4850,
      "Ġwybrali": 4851,
      "ĠwystÄħpiÄĩ": 4852,
      "ĠTrumana": 4853,
      "Ġprofes": 4854,
      "Ġproduk": 4855,
      "ĠwziÄħÅĤ": 4856,
      "ĠmoÅ¼liwoÅĽci": 4857,
      "Ġ1958": 4858,
      "Ġatomowej": 4859,
      "ĠzwierzÄĻta": 4860,
      "ĠzrozumieÄĩ": 4861,
      "Ġnieboszczykiem": 4862,
      "ĠEuropie": 4863,
      "tsburg": 4864,
      "ĠÄĩwi": 4865,
      "Ġptaki": 4866,
      "ĠwraÅ¼enie": 4867,
      "Ġnatural": 4868,
      "niesiono": 4869,
      "Ġposzuki": 4870,
      "ĠprzeskoczyÅĤ": 4871,
      "Ġuspokaja": 4872,
      "rednio": 4873,
      "ĠczekaÅĤ": 4874,
      "ĠZostaÅĤ": 4875,
      "Ġmiodowy": 4876,
      "Ġchcesz": 4877,
      "Ġgorzkie": 4878,
      "ĠSpytaÅĤ": 4879,
      "teroo": 4880,
      "ĠwielkoÅĽci": 4881,
      "ĠcofnÄħÅĤ": 4882,
      "Ġfragment": 4883,
      "ĠpapierosÃ³w": 4884,
      "ĠbiaÅĤego": 4885,
      "Ġznakomi": 4886,
      "ĠpoprosiÅĤ": 4887,
      "Ġgazety": 4888,
      "ĠkolekcjÄĻ": 4889,
      "ĠwyobraziÄĩ": 4890,
      "Ġenergii": 4891,
      "Czteroo": 4892,
      "Ġzmian": 4893,
      "Ġbrutal": 4894,
      "ĠpokÅĤadzie": 4895,
      "ĠnieskoÅĦcz": 4896,
      "ĠÅ¼onÄĻ": 4897,
      "ĠzabraÄĩ": 4898,
      "ĠPuÅĤkownik": 4899,
      "ĠPosÅĤuchaj": 4900,
      "Ġgromad": 4901,
      "ĠprzemÃ³wi": 4902,
      "Ġprzemawia": 4903,
      "Ġupior": 4904,
      "nonauk": 4905,
      "Ġczwartym": 4906,
      "ĠZnajdowaÅĤ": 4907,
      "Ġrosyjskich": 4908,
      "ĠStud": 4909,
      "ĠSkurczyby": 4910,
      "Ġmanew": 4911,
      "ĠpieniÄĻdzy": 4912,
      "Ġpiwnicy": 4913,
      "Ġrestaura": 4914,
      "ĠHoward": 4915,
      "Ġcudowne": 4916,
      "ĠrozpoczÄħÄĩ": 4917,
      "ĠOstatecznie": 4918,
      "Ġfantastycznonauk": 4919,
      "Ġsymboli": 4920,
      "Ġjunior": 4921,
      "ĠLuksemburgu": 4922,
      "ĠrzeczywistoÅĽci": 4923,
      "gÃ³rki": 4924,
      "Ġdentystycz": 4925,
      "ĠzastanawiaÅĤ": 4926,
      "nectady": 4927,
      "ĠPewnego": 4928,
      "ĠPittsburg": 4929,
      "ĠNasyfam": 4930,
      "adelfi": 4931,
      "ĠMimo": 4932,
      "ĠCÃ©line": 4933,
      "ĠSchenectady": 4934,
      "ĠKsiÄħÅ¼": 4935,
      "Ġarchitek": 4936,
      "Ġmusztardowego": 4937,
      "ĠpudeÅĤeczko": 4938,
      "ĠPosÅĤuchajcie": 4939,
      "ĠPittsburghu": 4940,
      ".Â»": 4941,
      "41": 4942,
      "?\",": 4943,
      "Je": 4944,
      "Prze": 4945,
      "Sz": 4946,
      "aÅ¼": 4947,
      "anÄħ": 4948,
      "be": 4949,
      "biÄĻ": 4950,
      "bni": 4951,
      "bnÄħ": 4952,
      "brzmi": 4953,
      "bliÄĻ": 4954,
      "ct": 4955,
      "cki": 4956,
      "cono": 4957,
      "cona": 4958,
      "dra": 4959,
      "dna": 4960,
      "dÄħc": 4961,
      "del": 4962,
      "dent": 4963,
      "ela": 4964,
      "eÅĽmy": 4965,
      "fÄħ": 4966,
      "fek": 4967,
      "fory": 4968,
      "ferm": 4969,
      "gÅĤa": 4970,
      "gaÅĤa": 4971,
      "gÅĤy": 4972,
      "gary": 4973,
      "grzany": 4974,
      "imi": 4975,
      "iom": 4976,
      "jny": 4977,
      "jnÄħ": 4978,
      "jnym": 4979,
      "jony": 4980,
      "kni": 4981,
      "krÄĻ": 4982,
      "knÄħÄĩ": 4983,
      "kÅĤych": 4984,
      "lt": 4985,
      "lnÄħ": 4986,
      "laÅĤy": 4987,
      "lnego": 4988,
      "lowany": 4989,
      "me": 4990,
      "mat": 4991,
      "menty": 4992,
      "nf": 4993,
      "ns": 4994,
      "nam": 4995,
      "nnÄħ": 4996,
      "num": 4997,
      "nut": 4998,
      "nÄħcy": 4999,
      "ok": 5000,
      "oni": 5001,
      "orze": 5002,
      "oÅĽci": 5003,
      "paÅĤ": 5004,
      "pry": 5005,
      "paÅĤy": 5006,
      "pet": 5007,
      "paty": 5008,
      "pchniÄĻ": 5009,
      "rv": 5010,
      "rego": 5011,
      "rko": 5012,
      "rkÄĻ": 5013,
      "rowo": 5014,
      "ria": 5015,
      "sh": 5016,
      "sow": 5017,
      "snÄħÅĤ": 5018,
      "tÃ³": 5019,
      "tro": 5020,
      "tam": 5021,
      "tnÄħ": 5022,
      "towy": 5023,
      "tnej": 5024,
      "towaÅĤ": 5025,
      "tkami": 5026,
      "towych": 5027,
      "tnicÄĻ": 5028,
      "tho": 5029,
      "udzi": 5030,
      "uropej": 5031,
      "vre": 5032,
      "wam": 5033,
      "wraca": 5034,
      "ya": 5035,
      "yty": 5036,
      "znÄĻ": 5037,
      "Åļ": 5038,
      "Ġowi": 5039,
      "Ġare": 5040,
      "ÅĤb": 5041,
      "ÅĤej": 5042,
      "ÅĤÃ³d": 5043,
      "ÅĤowÄĻ": 5044,
      "Ġpe": 5045,
      "Ġpami": 5046,
      "ĠprzyÅĤa": 5047,
      "Ġsm": 5048,
      "Ġso": 5049,
      "Ġswa": 5050,
      "Ġsowy": 5051,
      "Ġsmu": 5052,
      "Ġsuk": 5053,
      "Ġsur": 5054,
      "Ġwez": 5055,
      "Ġwali": 5056,
      "Ġwpu": 5057,
      "Ġwsty": 5058,
      "ĠwciÄħgnÄħÅĤ": 5059,
      "Ġwers": 5060,
      "ĠwszÄĻdzie": 5061,
      "Ġner": 5062,
      "Ġnot": 5063,
      "Ġnowego": 5064,
      "Ġnowym": 5065,
      "ĠnÄĻdz": 5066,
      "Ġzi": 5067,
      "Ġzle": 5068,
      "ĠzaÅĤa": 5069,
      "ĠzÅĤy": 5070,
      "Ġzmie": 5071,
      "ĠzÅĤu": 5072,
      "Ġzbli": 5073,
      "ĠzmarÅĤ": 5074,
      "Ġzgot": 5075,
      "rzmie": 5076,
      "Å¼ej": 5077,
      "Å¼owaniu": 5078,
      "czna": 5079,
      "czÄħc": 5080,
      "czami": 5081,
      "czaÅĤo": 5082,
      "czkÄħ": 5083,
      "cznik": 5084,
      "czono": 5085,
      "cznymi": 5086,
      "czÄħcy": 5087,
      "czonego": 5088,
      "cznicÄĻ": 5089,
      "Ġtr": 5090,
      "Ġtre": 5091,
      "Ġtan": 5092,
      "Ġtran": 5093,
      "owbo": 5094,
      "owÃ³d": 5095,
      "chami": 5096,
      "chajÄħc": 5097,
      "Ã³cie": 5098,
      "Ġdar": 5099,
      "ĠdaÅĤo": 5100,
      "ĠdaÄĩ": 5101,
      "Ġdrg": 5102,
      "Ġdrga": 5103,
      "ĠdrÅ¼": 5104,
      "Ġdram": 5105,
      "Ġmro": 5106,
      "ĠmnÄħ": 5107,
      "Ġmaka": 5108,
      "ĠmaleÅĦ": 5109,
      "ĠmgÅĤÄĻ": 5110,
      "ÅĽmi": 5111,
      "ÅĽma": 5112,
      "ÅĽpie": 5113,
      "ÅĽnikÃ³w": 5114,
      "Ġodz": 5115,
      "ĠoÅ¼y": 5116,
      "ĠosiÄħ": 5117,
      "Ġocho": 5118,
      "Ġodzy": 5119,
      "ĠokÅĤad": 5120,
      "Ġoferm": 5121,
      "ĠkaÅĤ": 5122,
      "Ġkrz": 5123,
      "Ġkan": 5124,
      "Ġkwiat": 5125,
      "gor": 5126,
      "gosÅĤu": 5127,
      "rakt": 5128,
      "rator": 5129,
      "raÅºli": 5130,
      "dzwo": 5131,
      "dztwie": 5132,
      "Ġid": 5133,
      "Ġilo": 5134,
      "Ġistoty": 5135,
      "niaÅĤo": 5136,
      "ninem": 5137,
      "szyÅĤ": 5138,
      "szaÅĤy": 5139,
      "szony": 5140,
      "szkaÅĤ": 5141,
      "Ġnar": 5142,
      "Ġnaczy": 5143,
      "Ġnami": 5144,
      "Ġnato": 5145,
      "Ġnauk": 5146,
      "ĠnastÄħpi": 5147,
      "Ġnagro": 5148,
      "Ġnatry": 5149,
      "Ġnawiasem": 5150,
      "Ġnagich": 5151,
      "linÄĻ": 5152,
      "stos": 5153,
      "stwem": 5154,
      "ĠbÄħ": 5155,
      "Ġbato": 5156,
      "nieni": 5157,
      "nierze": 5158,
      "nienia": 5159,
      "niesie": 5160,
      "Ġpona": 5161,
      "Ġpodzie": 5162,
      "ĠpoÅ¼y": 5163,
      "Ġpocho": 5164,
      "Ġpostu": 5165,
      "Ġpopraw": 5166,
      "Ġpokazy": 5167,
      "ĠposÅĤa": 5168,
      "ĠpobliÅ¼": 5169,
      "Ġpoczeka": 5170,
      "roczy": 5171,
      "roku": 5172,
      "rodu": 5173,
      "rolinie": 5174,
      "ĠBob": 5175,
      "ĠBom": 5176,
      "ĠBel": 5177,
      "ĠBere": 5178,
      "rzeÅĽci": 5179,
      "rzebie": 5180,
      "les": 5181,
      "leni": 5182,
      "lega": 5183,
      "cid": 5184,
      "ciak": 5185,
      "ciaÅĤy": 5186,
      "cisk": 5187,
      "akom": 5188,
      "aktu": 5189,
      "ament": 5190,
      "Ġniech": 5191,
      "Ġnieraz": 5192,
      "Ġnieto": 5193,
      "Ġniedo": 5194,
      "Ġniepraw": 5195,
      "Ġniepot": 5196,
      "aria": 5197,
      "Ġdoj": 5198,
      "ĠdoÅĤ": 5199,
      "Ġdomy": 5200,
      "ĠdoÅĤÄħ": 5201,
      "Ġdotk": 5202,
      "ĠÅ¼mi": 5203,
      "ĠÅ¼yÅĤa": 5204,
      "ĠÅ¼onÄħ": 5205,
      "karze": 5206,
      "rzym": 5207,
      "nali": 5208,
      "nasty": 5209,
      "nasto": 5210,
      "nastego": 5211,
      "nastoletni": 5212,
      "Ã³wka": 5213,
      "Ã³wno": 5214,
      "dzik": 5215,
      "dziale": 5216,
      "Ġzaj": 5217,
      "Ġzaro": 5218,
      "ĠzaÅĽcie": 5219,
      "Ġzasa": 5220,
      "Ġzawar": 5221,
      "Ġzazwy": 5222,
      "Ġzawiesz": 5223,
      "eru": 5224,
      "erÄĻ": 5225,
      "erÅ¼y": 5226,
      "eret": 5227,
      "erner": 5228,
      "wiaÅĤ": 5229,
      "wiali": 5230,
      "wiazdy": 5231,
      "ĠjechaÄĩ": 5232,
      "neg": 5233,
      "ĠPe": 5234,
      "ĠPi": 5235,
      "ĠPÃ³": 5236,
      "ĠPat": 5237,
      "ĠPale": 5238,
      "ĠPowi": 5239,
      "ĠPÃ³ÅĤ": 5240,
      "ĠPiÄĻk": 5241,
      "ĠPyta": 5242,
      "ĠPrawie": 5243,
      "kinie": 5244,
      "ĠWszedÅĤ": 5245,
      "ĠWtedy": 5246,
      "ĠWszÄĻdzie": 5247,
      "ĠWerner": 5248,
      "czyli": 5249,
      "czyna": 5250,
      "czykÃ³w": 5251,
      "Ġwym": 5252,
      "Ġwyr": 5253,
      "ĠwyÅ¼": 5254,
      "Ġwych": 5255,
      "Ġwyci": 5256,
      "Ġwypi": 5257,
      "Ġwybie": 5258,
      "Ġwyto": 5259,
      "Ġwypo": 5260,
      "Ġwysy": 5261,
      "Ġwyzna": 5262,
      "ĠwysÅĤ": 5263,
      "Ġwydo": 5264,
      "ĠwyciÄħg": 5265,
      "ĠwypeÅĤ": 5266,
      "ĠwyraÅ¼": 5267,
      "Ġwypra": 5268,
      "Ġwypuszcz": 5269,
      "ĠwydaÅĤo": 5270,
      "ÅĤach": 5271,
      "ÅĤaÄĩ": 5272,
      "ÅĤaniaÅĤy": 5273,
      "Ġstad": 5274,
      "ĠstoÅĤ": 5275,
      "cier": 5276,
      "cielem": 5277,
      "koje": 5278,
      "koÅĽÄĩ": 5279,
      "koÅĦczyÅĤ": 5280,
      "ĠgÄĻ": 5281,
      "Ġgar": 5282,
      "Ġgen": 5283,
      "Ġgim": 5284,
      "Ġgum": 5285,
      "ĠgaÅĤÄħ": 5286,
      "Ġprzech": 5287,
      "Ġprzeko": 5288,
      "Ġprzesu": 5289,
      "ĠprzeszedÅĤ": 5290,
      "ĠprzepeÅĤ": 5291,
      "Ġprzechod": 5292,
      "ĠprzecieÅ¼": 5293,
      "ĠprzepaÅĽÄĩ": 5294,
      "ĠprzeraÅºli": 5295,
      "Ġuj": 5296,
      "Ġur": 5297,
      "Ġusz": 5298,
      "Ġuwie": 5299,
      "Ġuszy": 5300,
      "Ġucze": 5301,
      "Ġuzy": 5302,
      "Ġulu": 5303,
      "ĠuczÄĻ": 5304,
      "ĠudaÄĩ": 5305,
      "Ġuleg": 5306,
      "ĠuwiÄĻ": 5307,
      "Ġustawi": 5308,
      "ĠustÄĻp": 5309,
      "Ġugot": 5310,
      "Ġund": 5311,
      "ĠuÅĽwiad": 5312,
      "ĠunosiÅĤ": 5313,
      "dywaÅĤ": 5314,
      "Ġau": 5315,
      "Ġaudy": 5316,
      "danie": 5317,
      "dano": 5318,
      "orÄĻ": 5319,
      "orst": 5320,
      "ortu": 5321,
      "dziecie": 5322,
      "dzieliÅĽmy": 5323,
      "waniu": 5324,
      "ĠNor": 5325,
      "ĠNew": 5326,
      "lane": 5327,
      "lajÄħcych": 5328,
      "laliÄĻ": 5329,
      "mini": 5330,
      "miar": 5331,
      "mija": 5332,
      "enne": 5333,
      "ryli": 5334,
      "Ġtodze": 5335,
      "ĠTale": 5336,
      "ĠTato": 5337,
      "bysz": 5338,
      "ĠcaÅĤa": 5339,
      "Ġcel": 5340,
      "Ġcent": 5341,
      "ĠcÃ³Å¼": 5342,
      "wodnik": 5343,
      "ĠodrÃ³Å¼": 5344,
      "Ġodczu": 5345,
      "ĠodÅĤam": 5346,
      "ĠodgÅĤo": 5347,
      "ĠodbyÅĤ": 5348,
      "ÅĦczyÄĩ": 5349,
      "ÅĦskim": 5350,
      "ĠZami": 5351,
      "ĠZwiadow": 5352,
      "ĠZrobiÅĤ": 5353,
      "owaliÅĽmy": 5354,
      "kuje": 5355,
      "Ġkot": 5356,
      "Ġkocem": 5357,
      "ĠÅĽle": 5358,
      "ĠÅĽwiÄĻ": 5359,
      "ĠÅĽliz": 5360,
      "Ġprzysz": 5361,
      "Ġprzywie": 5362,
      "Ġprzysta": 5363,
      "Ġprzywy": 5364,
      "ĠprzyszedÅĤ": 5365,
      "Ġprzywar": 5366,
      "Ġprzyszli": 5367,
      "Ġprzyczyn": 5368,
      "ĠprzyszÅĤa": 5369,
      "tykÄĻ": 5370,
      "sik": 5371,
      "Ġrocznie": 5372,
      "ĠrolÄĻ": 5373,
      "Ġrodem": 5374,
      "kier": 5375,
      "cych": 5376,
      "cywaÅĤ": 5377,
      "ĠmiÅĤy": 5378,
      "ĠmiÅĤe": 5379,
      "Ġminut": 5380,
      "tarz": 5381,
      "tania": 5382,
      "taczajÄħc": 5383,
      "Ġtyto": 5384,
      "niach": 5385,
      "Ġspu": 5386,
      "ĠspÄĻ": 5387,
      "ĠspÅĤo": 5388,
      "Ġspry": 5389,
      "Ġsplu": 5390,
      "ĠspÃ³ÅĤ": 5391,
      "Ġspin": 5392,
      "ĠspoÅĤe": 5393,
      "obnÄħ": 5394,
      "obec": 5395,
      "ĠDu": 5396,
      "ĠDwaj": 5397,
      "ÅĽcia": 5398,
      "ÅĽcili": 5399,
      "ÅĽciÃ³ÅĤ": 5400,
      "ÅĽciach": 5401,
      "rum": 5402,
      "Ġchrap": 5403,
      "ĠchcÄĻ": 5404,
      "Ġchudy": 5405,
      "ĠchcÄħc": 5406,
      "ĠchrzeÅĽci": 5407,
      "szysz": 5408,
      "ĠlÃ³d": 5409,
      "Ġszkie": 5410,
      "Ġszos": 5411,
      "ĠszukaÅĤ": 5412,
      "Ġszorst": 5413,
      "ĠMam": 5414,
      "ĠMot": 5415,
      "ĠMaj": 5416,
      "ĠMÄĻÅ¼": 5417,
      "ĠMiÄĻdzy": 5418,
      "Ġgol": 5419,
      "aÅĤymi": 5420,
      "ĠwoÅĤa": 5421,
      "Ġwola": 5422,
      "Ġwozu": 5423,
      "ĠwodÄĻ": 5424,
      "ĠwodÄħ": 5425,
      "ĠwoÅĤaÅĤ": 5426,
      "czeÅĦstwa": 5427,
      "mieÅĦ": 5428,
      "mieniu": 5429,
      "ance": 5430,
      "anowaÄĩ": 5431,
      "antÃ³w": 5432,
      "ĠCie": 5433,
      "ĠSÄħ": 5434,
      "ĠSto": 5435,
      "ĠSkÅĤad": 5436,
      "ĠSÅĤowa": 5437,
      "ĠSkÄħd": 5438,
      "Ġpodu": 5439,
      "ĠpoddaÄĩ": 5440,
      "ĠpodsunÄħÅĤ": 5441,
      "ĠpodarowaÅĤ": 5442,
      "ĠpodÅĽciÃ³ÅĤ": 5443,
      "ĠpowieÅĽÄĩ": 5444,
      "Ġpowiedzieli": 5445,
      "ĠtaksÃ³w": 5446,
      "ĠJank": 5447,
      "ĠAut": 5448,
      "ĠAha": 5449,
      "ĠKwartet": 5450,
      "ĠOczy": 5451,
      "ĠOcknÄħÅĤ": 5452,
      "ĠOkazaÅĤo": 5453,
      "cep": 5454,
      "cenie": 5455,
      "ceniem": 5456,
      "cede": 5457,
      "Ġteat": 5458,
      "ĠteÅĽÄĩ": 5459,
      "bij": 5460,
      "bite": 5461,
      "ĠdziÄĻkujÄĻ": 5462,
      "teli": 5463,
      "tepi": 5464,
      "tesk": 5465,
      "jach": 5466,
      "jajÄħc": 5467,
      "jadali": 5468,
      "jazdu": 5469,
      "Ġwierz": 5470,
      "ĠwiedzÄħc": 5471,
      "rÃ³b": 5472,
      "alenie": 5473,
      "ĠNiewi": 5474,
      "owywaÄĩ": 5475,
      "Ġmocz": 5476,
      "Ġmoje": 5477,
      "Ġmoja": 5478,
      "ĠmojÄħ": 5479,
      "Ġmojej": 5480,
      "ĠmosiÄĻÅ¼": 5481,
      "szenia": 5482,
      "owiad": 5483,
      "osfory": 5484,
      "Ġfran": 5485,
      "Ġfryz": 5486,
      "Ġfosfory": 5487,
      "ĠjesteÅĽmy": 5488,
      "ĠIowa": 5489,
      "ĠIrv": 5490,
      "Ġobcy": 5491,
      "Ġobserw": 5492,
      "ĠobowiÄħ": 5493,
      "ĠoberÅ¼y": 5494,
      "Ġroze": 5495,
      "Ġrozu": 5496,
      "ĠrozciÄħg": 5497,
      "Ġrozgrzany": 5498,
      "onowaÅĤ": 5499,
      "caÄĩ": 5500,
      "cajÄħc": 5501,
      "ĠRe": 5502,
      "mac": 5503,
      "mywaÅĤ": 5504,
      "jÄħÄĩ": 5505,
      "ĠmieszkaÅĤ": 5506,
      "Ġwidni": 5507,
      "Ġwidzieli": 5508,
      "Ġwitami": 5509,
      "ĠwiÃ³zÅĤ": 5510,
      "ĠNasz": 5511,
      "Ġdziel": 5512,
      "Ġdzieje": 5513,
      "ĠdziewiÄĻ": 5514,
      "ĠdziesiÄħt": 5515,
      "bienie": 5516,
      "Ġkawa": 5517,
      "ĠkawÄĻ": 5518,
      "Å¼enie": 5519,
      "ĠbyÅĤoby": 5520,
      "tur": 5521,
      "tura": 5522,
      "Ġlunety": 5523,
      "ode": 5524,
      "odora": 5525,
      "odpor": 5526,
      "Ġczasy": 5527,
      "Ġparze": 5528,
      "ĠpagÃ³rki": 5529,
      "piec": 5530,
      "gaÅ¼": 5531,
      "Ġinnej": 5532,
      "Ġinsty": 5533,
      "Ġindziej": 5534,
      "Ġinteli": 5535,
      "ĠpragnÄħÅĤ": 5536,
      "Ġopar": 5537,
      "ĠopowiadaÄĩ": 5538,
      "Ġoperet": 5539,
      "templ": 5540,
      "Ġpiekie": 5541,
      "ĠpiekÅĤo": 5542,
      "ĠpieniÄħdze": 5543,
      "siÄħÅĽÄĩ": 5544,
      "lody": 5545,
      "lonÄħ": 5546,
      "loodpor": 5547,
      "ezer": 5548,
      "niejszej": 5549,
      "Ġrzekomo": 5550,
      "ÅĽciem": 5551,
      "ĠleÅ¼eli": 5552,
      "szczeniu": 5553,
      "tonie": 5554,
      "Ġbyle": 5555,
      "pujÄħc": 5556,
      "puje": 5557,
      "puÅĽciÅĤ": 5558,
      "borator": 5559,
      "ralne": 5560,
      "alne": 5561,
      "szczonymi": 5562,
      "eÅĤni": 5563,
      "eÅĤny": 5564,
      "Ġhote": 5565,
      "Ġhand": 5566,
      "ĠPoje": 5567,
      "ĠPoczÄħ": 5568,
      "ĠPostawi": 5569,
      "ĠPoniewaÅ¼": 5570,
      "ĠPokÃ³j": 5571,
      "Ġkule": 5572,
      "Ġkucem": 5573,
      "Ġpij": 5574,
      "ĠpiÅĤ": 5575,
      "Ġpija": 5576,
      "Ġpisze": 5577,
      "Ġproble": 5578,
      "Ġpuszka": 5579,
      "Ġpuszek": 5580,
      "Ġpukanie": 5581,
      "Ġpunkt": 5582,
      "ychali": 5583,
      "ĠWearym": 5584,
      "Ġnogami": 5585,
      "ĠnoÅ¼em": 5586,
      "Ġprzedmiot": 5587,
      "ĠJeÅ¼eli": 5588,
      "ĠAmerykanina": 5589,
      "ĠAmerykaninem": 5590,
      "ĠGÃ³wno": 5591,
      "ĠGwiazdy": 5592,
      "Ġkiedykolwiek": 5593,
      "dzony": 5594,
      "dzone": 5595,
      "ciaÅ¼": 5596,
      "Ġzapar": 5597,
      "ĠzapamiÄĻ": 5598,
      "Ġzaprag": 5599,
      "Ġzapobie": 5600,
      "Ġzapyty": 5601,
      "Ġzapalenie": 5602,
      "gÅĤem": 5603,
      "Ġrow": 5604,
      "ĠwiÄĻzie": 5605,
      "ĠwiÄĻksz": 5606,
      "ĠnajwaÅ¼": 5607,
      "Ġnajgor": 5608,
      "Ġtaras": 5609,
      "moÅ¼": 5610,
      "sujÄħc": 5611,
      "syl": 5612,
      "Ġlinia": 5613,
      "ĠliczyÄĩ": 5614,
      "Ġlinii": 5615,
      "ĠlitoÅĽÄĩ": 5616,
      "Ġrazy": 5617,
      "ĠmÃ³wiÄħ": 5618,
      "oÅĤem": 5619,
      "oÅĤÄĻÅ¼": 5620,
      "oÅĤnierze": 5621,
      "Ġciche": 5622,
      "Ġpowszech": 5623,
      "ĠpowtÃ³": 5624,
      "Ġwzmac": 5625,
      "rzyÅĤy": 5626,
      "ĠmyÄĩ": 5627,
      "ĠEak": 5628,
      "ĠEwÄĻ": 5629,
      "ĠstraÅ¼y": 5630,
      "zuje": 5631,
      "Ġbochen": 5632,
      "Ġstara": 5633,
      "Ġpozba": 5634,
      "Ġpozdr": 5635,
      "Ġpoziom": 5636,
      "ĠodpowiadaÅĤ": 5637,
      "ell": 5638,
      "Ġbezpie": 5639,
      "ĠstoÅĤy": 5640,
      "ĠstoÅĤu": 5641,
      "ĠstojÄħcÄħ": 5642,
      "terowie": 5643,
      "Ġzdej": 5644,
      "ĠzdjÄĻ": 5645,
      "ĠzdjÄĻcia": 5646,
      "ÅĽnieÅĦ": 5647,
      "ĠsÄħsie": 5648,
      "ĠsÄħsiad": 5649,
      "Ġwabi": 5650,
      "bud": 5651,
      "bush": 5652,
      "Ġwschod": 5653,
      "Ġwspomina": 5654,
      "ĠwschÃ³d": 5655,
      "Ġ10": 5656,
      "Ġ12": 5657,
      "Ġ18": 5658,
      "ĠZanim": 5659,
      "ĠZawsze": 5660,
      "ĠUmarÅĤ": 5661,
      "Ġzamro": 5662,
      "ĠdwanaÅĽcie": 5663,
      "ĠWyglÄħdali": 5664,
      "ĠbÄĻdziemy": 5665,
      "ĠksiÄħÅ¼kach": 5666,
      "Ġcieka": 5667,
      "Ġogrze": 5668,
      "ĠogÃ³l": 5669,
      "ĠÅĤeb": 5670,
      "Ġdruh": 5671,
      "Ġdruga": 5672,
      "ĠChyba": 5673,
      "ĠChcÄĻ": 5674,
      "Ġludziach": 5675,
      "Ġsyn": 5676,
      "Ġbior": 5677,
      "Ġbibli": 5678,
      "Ġbiur": 5679,
      "Ġbitwa": 5680,
      "ziÄħ": 5681,
      "zione": 5682,
      "Ġela": 5683,
      "Ġefek": 5684,
      "Ġeuropej": 5685,
      "Ġsiedzieli": 5686,
      "ĠrÃ³wnie": 5687,
      "Ġresz": 5688,
      "Ġreli": 5689,
      "Ġreje": 5690,
      "Ġregu": 5691,
      "Ġrezu": 5692,
      "Ġreszty": 5693,
      "ĠpanowaÅĤ": 5694,
      "landz": 5695,
      "Ġbana": 5696,
      "Ġjadal": 5697,
      "ĠPrzewodnik": 5698,
      "ĠsÅĤyszeÄĩ": 5699,
      "ĠTeÅ¼": 5700,
      "ĠdziÅĽ": 5701,
      "Ġdziale": 5702,
      "gramy": 5703,
      "rowadzono": 5704,
      "ÅĤowiek": 5705,
      "Ġjakiego": 5706,
      "ĠspoÅĽrÃ³d": 5707,
      "ĠspokÃ³j": 5708,
      "Ġszep": 5709,
      "ĠNiemcom": 5710,
      "waliÄĩ": 5711,
      "waliÅĽmy": 5712,
      "ĠcaÅĤego": 5713,
      "ĠamerykaÅĦska": 5714,
      "ĠamerykaÅĦskim": 5715,
      "Ġruch": 5716,
      "Ġruchu": 5717,
      "ĠdobrÄħ": 5718,
      "Ġdobrych": 5719,
      "ĠgÅĤosiÅĤ": 5720,
      "ĠgÅĤosem": 5721,
      "laznej": 5722,
      "Ġkonty": 5723,
      "Ġkonserw": 5724,
      "Ġkoncent": 5725,
      "Ġkontempl": 5726,
      "ĠchociaÅ¼": 5727,
      "garbush": 5728,
      "ĠokrÄĻ": 5729,
      "ĠpotÄĻÅ¼": 5730,
      "ĠPrzypomi": 5731,
      "ĠPrzyjechali": 5732,
      "ĠPrzybysz": 5733,
      "padÅĤ": 5734,
      "ĠWiesz": 5735,
      "ĠWiele": 5736,
      "ĠWielu": 5737,
      "ĠmusiaÅĤa": 5738,
      "Ġmusimy": 5739,
      "ĠÅ¼oÅĤÄħd": 5740,
      "ĠAnglika": 5741,
      "ĠzostaÅĤa": 5742,
      "wiÄħz": 5743,
      "wiÄħte": 5744,
      "wiÄħzy": 5745,
      "ĠprawÄħ": 5746,
      "Ġmiast": 5747,
      "Ġmiastem": 5748,
      "Ġpierwszej": 5749,
      "ĠsÅĤup": 5750,
      "ĠsÅĤuÅ¼": 5751,
      "ĠsÅĤuÅ¼yÅĤ": 5752,
      "ĠsÅĤucha": 5753,
      "ĠsÅĤucham": 5754,
      "Ġwest": 5755,
      "ĠjeÅĦcom": 5756,
      "ĠÅ¼oÅĤnierzem": 5757,
      "jemy": 5758,
      "rzÄħt": 5759,
      "ĠÅ¼aden": 5760,
      "ĠzabiÅĤ": 5761,
      "Ġzrobili": 5762,
      "ĠzrobiÅĤy": 5763,
      "ĠzrobiÅĤem": 5764,
      "Ġbiednych": 5765,
      "ĠbiedakÃ³w": 5766,
      "Ġwielka": 5767,
      "Ġwielkiego": 5768,
      "ĠÅĤago": 5769,
      "ereg": 5770,
      "ÅĦstwie": 5771,
      "ĠkoÅĦczyÅĤa": 5772,
      "Ġstart": 5773,
      "Ġstaru": 5774,
      "Ġstarca": 5775,
      "ĠstarcÃ³w": 5776,
      "Ġzostawili": 5777,
      "Ġzostawiono": 5778,
      "ĠCoca": 5779,
      "ĠCzter": 5780,
      "ĠCzwar": 5781,
      "ĠCzerwo": 5782,
      "ĠCzÅĤowiek": 5783,
      "ĠOdp": 5784,
      "ĠOdby": 5785,
      "ĠTralfamadorczyk": 5786,
      "ĠrÃ³Å¼ne": 5787,
      "ĠrÃ³Å¼owÄħ": 5788,
      "ĠsÅĤow": 5789,
      "ĠsÅĤÃ³w": 5790,
      "Ġzdarzy": 5791,
      "Ġzdania": 5792,
      "Ġzdaniem": 5793,
      "Ġniemieckiej": 5794,
      "ĠzasnÄħÄĩ": 5795,
      "ĠczujÄħc": 5796,
      "Ġkobiet": 5797,
      "Ġpowrocie": 5798,
      "ĠpytaÅĤ": 5799,
      "Ġkieszeni": 5800,
      "ĠkieÅĤb": 5801,
      "Ġpopra": 5802,
      "ĠStaÅĤo": 5803,
      "ĠStrach": 5804,
      "ĠchÅĤopcÃ³w": 5805,
      "ĠchÅĤopcem": 5806,
      "ĠsiÅĤ": 5807,
      "ĠmÅĤodzi": 5808,
      "ĠmÅĤoda": 5809,
      "ĠmÅĤode": 5810,
      "ĠwydawaÅĤo": 5811,
      "Ġwydarzenie": 5812,
      "ĠKapral": 5813,
      "ĠKarolinie": 5814,
      "Ġarmi": 5815,
      "ĠBoga": 5816,
      "Ġstarym": 5817,
      "ĠOpowie": 5818,
      "ĠOpowiadaÅĤ": 5819,
      "ĠOprÃ³cz": 5820,
      "stÄħpie": 5821,
      "ĠBarb": 5822,
      "Ġprzyjaciel": 5823,
      "ĠJapo": 5824,
      "Ġtelefonicz": 5825,
      "Ġjednost": 5826,
      "ĠÅ»ona": 5827,
      "ĠÅ»oÅĤnierze": 5828,
      "Ġlaborator": 5829,
      "Ġtwarze": 5830,
      "ĠtwarzÄħ": 5831,
      "ĠMontanie": 5832,
      "ĠMontanÄħ": 5833,
      "Ġaktu": 5834,
      "Ġakura": 5835,
      "Ġdusz": 5836,
      "Ġdusza": 5837,
      "ĠkrzyÅ¼a": 5838,
      "Ġkolei": 5839,
      "ĠrobiÅĤa": 5840,
      "cyjnych": 5841,
      "ĠszybÄĻ": 5842,
      "Ġmieszkali": 5843,
      "ĠmieszkaÅĦ": 5844,
      "ĠmieszkaÅĦcÃ³w": 5845,
      "dzÄħce": 5846,
      "szulek": 5847,
      "ĠpokojÃ³w": 5848,
      "Ġkolce": 5849,
      "Ġkoloru": 5850,
      "ĠtrupÃ³w": 5851,
      "ĠzachÄĻ": 5852,
      "Ġcyf": 5853,
      "ĠMacka": 5854,
      "Ġfilmu": 5855,
      "Ġskonstru": 5856,
      "Ġskurwy": 5857,
      "ĠzakrÄĻ": 5858,
      "Ġdeko": 5859,
      "Ġkraj": 5860,
      "ĠkradzieÅ¼": 5861,
      "ĠnauczyÅĤ": 5862,
      "ĠbraÄĩ": 5863,
      "Ġbramy": 5864,
      "Ġpokra": 5865,
      "Ġpokryty": 5866,
      "ĠczeÅĽÄĩ": 5867,
      "Ġczekali": 5868,
      "ĠczekaÄĩ": 5869,
      "tycznych": 5870,
      "tycznej": 5871,
      "ĠLekarze": 5872,
      "ĠÅ¼yciem": 5873,
      "ĠhistoriÄĻ": 5874,
      "iomie": 5875,
      "Ġsens": 5876,
      "Ġwarstw": 5877,
      "ĠzginÄĻli": 5878,
      "ÅĽmiesz": 5879,
      "Ġgranicy": 5880,
      "Ġczarnego": 5881,
      "ĠÅĽcianach": 5882,
      "ĠsÅĤynnego": 5883,
      "glÄħdajÄħc": 5884,
      "ĠpÅĤakaÅĤ": 5885,
      "ĠpÅĤÃ³cie": 5886,
      "Ġprezent": 5887,
      "Ġprenum": 5888,
      "ĠschowaÅĤ": 5889,
      "Ġzwykle": 5890,
      "racje": 5891,
      "roponowaÅĤ": 5892,
      "Ġdopas": 5893,
      "ĠuwaÅ¼aÅĤa": 5894,
      "ĠDziki": 5895,
      "ĠDziaÅĤo": 5896,
      "telnik": 5897,
      "Ġwieczor": 5898,
      "ĠwiecznoÅĽÄĩ": 5899,
      "Ġnocnym": 5900,
      "Ġnocnej": 5901,
      "ĠmyÅĽliw": 5902,
      "ĠmusiaÅĤby": 5903,
      "Ġataku": 5904,
      "Ġatmos": 5905,
      "ĠpatrzyÅĤ": 5906,
      "ĠpeÅĤni": 5907,
      "Ġpewnie": 5908,
      "Ġwpatru": 5909,
      "Ġwpatry": 5910,
      "ĠwpakowaÅĤ": 5911,
      "ÅĽleÄĩ": 5912,
      "ĠksiÄĻgi": 5913,
      "ĠpomysÅĤ": 5914,
      "ĠpomyÅĽleÄĩ": 5915,
      "ĠcÃ³rkÄħ": 5916,
      "Ġlotnictwa": 5917,
      "Ġlotniczej": 5918,
      "Ġwojskowy": 5919,
      "ĠwojskowÄħ": 5920,
      "Ġwojskowego": 5921,
      "Ġoptyka": 5922,
      "Ġsamolotu": 5923,
      "ĠJestem": 5924,
      "stycznych": 5925,
      "Ġpowinno": 5926,
      "ĠzwrÃ³": 5927,
      "ĠzwÅĤaszcz": 5928,
      "Ġmedali": 5929,
      "Ġmetal": 5930,
      "Ġmelody": 5931,
      "ĠPowiedz": 5932,
      "ĠPowiedzieli": 5933,
      "Ġautor": 5934,
      "Ġauten": 5935,
      "Ġsprawie": 5936,
      "Ġsprawy": 5937,
      "Ġszeregu": 5938,
      "ĠwolnoÅĽÄĩ": 5939,
      "Ġpowietrza": 5940,
      "ĠAleÅ¼": 5941,
      "ĠpisaÄĩ": 5942,
      "ĠpisaÅĤem": 5943,
      "ĠodpowiedÅº": 5944,
      "Ġbombardowaniu": 5945,
      "kÅĤego": 5946,
      "omiÅĤ": 5947,
      "Ġostatnie": 5948,
      "Ġostatnim": 5949,
      "Ġostatniego": 5950,
      "Ġjedynie": 5951,
      "Ġwysokie": 5952,
      "ĠÅĽpiew": 5953,
      "ĠInny": 5954,
      "ĠdziewczÄĻta": 5955,
      "Ġpalce": 5956,
      "ĠpalcÃ³w": 5957,
      "Ġczytania": 5958,
      "ĠprzedstawiaÅĤ": 5959,
      "ĠprzedstawiaÄĩ": 5960,
      "ĠwÅĤasne": 5961,
      "ĠwÅĤasnej": 5962,
      "Ġmiejscach": 5963,
      "Ġ1964": 5964,
      "lator": 5965,
      "ĠtorbÄĻ": 5966,
      "ĠPiec": 5967,
      "ĠPies": 5968,
      "Ġstrony": 5969,
      "siadÅĤ": 5970,
      "ĠmusieliÅĽmy": 5971,
      "Ġmogliby": 5972,
      "Ġparape": 5973,
      "ĠopuÅĽciÄĩ": 5974,
      "ĠRolandem": 5975,
      "Ġstanowisko": 5976,
      "ĠwÄħtpli": 5977,
      "czniku": 5978,
      "Ġtrakt": 5979,
      "Ġdrzewo": 5980,
      "Ġdrewnia": 5981,
      "Ġofice": 5982,
      "Ġoficja": 5983,
      "ĠjÄĻki": 5984,
      "ĠpoczÄħtkowo": 5985,
      "ĠwyglÄħdaÅĤa": 5986,
      "Ġgrona": 5987,
      "Ġgrotesk": 5988,
      "ĠgÅĤupie": 5989,
      "Ġukra": 5990,
      "Ġceny": 5991,
      "ĠleÅ¼Äħc": 5992,
      "Ġkurty": 5993,
      "ĠpozostaÅĤo": 5994,
      "Ġprawdziwego": 5995,
      "torÃ³w": 5996,
      "ĠpÅĤyt": 5997,
      "ĠmaÅĤego": 5998,
      "Ġmorskiej": 5999,
      "ĠnastÄĻpujÄħcÄħ": 6000,
      "stracyj": 6001,
      "Ġporwany": 6002,
      "Ġstalowego": 6003,
      "Ġstalowych": 6004,
      "ĠprzestaÄĩ": 6005,
      "Ġczterysta": 6006,
      "ĠMyÅĽli": 6007,
      "ĠfiliÅ¼": 6008,
      "ĠobietnicÄĻ": 6009,
      "ĠopowiedzieÄĩ": 6010,
      "Ġpozostanie": 6011,
      "ĠFrank": 6012,
      "ĠFrancji": 6013,
      "ĠFrancu": 6014,
      "Ġangielsku": 6015,
      "Ġszeregow": 6016,
      "Ġserce": 6017,
      "Ġserca": 6018,
      "ĠdowiedzieÄĩ": 6019,
      "ĠoÅĽwiad": 6020,
      "Ġokazji": 6021,
      "ĠnazywajÄħ": 6022,
      "ĠbraÅĤa": 6023,
      "ĠdotknÄħÅĤ": 6024,
      "ĠdotarÅĤ": 6025,
      "Ġdoskon": 6026,
      "ĠzatrzymaÄĩ": 6027,
      "ĠWilli": 6028,
      "ĠwyjÅĽÄĩ": 6029,
      "Ġprzewodni": 6030,
      "Ġumil": 6031,
      "ĠumieraÅĤ": 6032,
      "nosili": 6033,
      "ĠTyle": 6034,
      "ĠkoÅĤd": 6035,
      "ĠkopuÅĤÄħ": 6036,
      "Ġlodzie": 6037,
      "Ġlokomoty": 6038,
      "Ġlodem": 6039,
      "ĠlodÃ³wki": 6040,
      "ĠSprze": 6041,
      "ĠStanÃ³w": 6042,
      "Ġobecnych": 6043,
      "Ġlekarza": 6044,
      "ĠwÅĤaÅĽciwie": 6045,
      "ĠwÅĤaÅĽciciel": 6046,
      "ĠbohaterÃ³w": 6047,
      "Ġbudynkiem": 6048,
      "ĠznajdujÄħ": 6049,
      "Ġziemskie": 6050,
      "Ġziemskiej": 6051,
      "Ġkolejowej": 6052,
      "ĠmuszkieterÃ³w": 6053,
      "klej": 6054,
      "Ġprywat": 6055,
      "Ġplutonie": 6056,
      "Ġzbrod": 6057,
      "Ġzniszczone": 6058,
      "ĠtrafiÅĤa": 6059,
      "Ġdwoma": 6060,
      "Ġbliska": 6061,
      "ĠbrzmiaÅĤa": 6062,
      "Ġpolecenia": 6063,
      "Ġwykorzysta": 6064,
      "Ġstrzel": 6065,
      "ĠurzÄħdzenia": 6066,
      "ĠurzÄħdzenie": 6067,
      "ĠTaÅĽma": 6068,
      "ÅĦczycy": 6069,
      "Ġmiliony": 6070,
      "Ġspotka": 6071,
      "ĠDzwo": 6072,
      "ĠMusi": 6073,
      "Ġgorsze": 6074,
      "Ġpowierzchnia": 6075,
      "Ġzebranie": 6076,
      "ĠpacjentÃ³w": 6077,
      "ciÄħgali": 6078,
      "Ġtajemnicy": 6079,
      "ĠtajemnicÄħ": 6080,
      "Ġpowtarza": 6081,
      "ĠÅĽmiesznego": 6082,
      "Ġogromnie": 6083,
      "Ġogromne": 6084,
      "ĠkonwojentÃ³w": 6085,
      "ĠkierownicÄĻ": 6086,
      "ĠmÅĤodych": 6087,
      "ĠksiÄĻÅ¼yca": 6088,
      "ĠÅĤoÅ¼a": 6089,
      "ĠplecÃ³w": 6090,
      "Ġzmianie": 6091,
      "Ġdiabli": 6092,
      "Ġmamo": 6093,
      "Ġklinice": 6094,
      "ĠkrzeÅĽle": 6095,
      "Ġkrucjata": 6096,
      "ĠBibliÄĻ": 6097,
      "Ġubranie": 6098,
      "ĠuÅĽmiechem": 6099,
      "resaria": 6100,
      "ĠtytuÅĤ": 6101,
      "jeÅ¼dÅ¼aÅĤ": 6102,
      "Ġfortepi": 6103,
      "Ġrozpro": 6104,
      "Ġpiechocie": 6105,
      "Ġpiosenki": 6106,
      "ĠpiosenkÄĻ": 6107,
      "Ġstraszne": 6108,
      "Ġstopni": 6109,
      "Ġzdrowy": 6110,
      "ĠChirurg": 6111,
      "Ġbitwie": 6112,
      "Ġokrucie": 6113,
      "ĠpowaÅ¼nie": 6114,
      "sztowany": 6115,
      "Ġblasku": 6116,
      "Ġpogrzebie": 6117,
      "Ġpolicji": 6118,
      "ĠzastrzeliÄĩ": 6119,
      "Ġwybory": 6120,
      "Ġcuch": 6121,
      "Ġkonieczne": 6122,
      "ĠprzyszÅĤoÅĽci": 6123,
      "Ġszaf": 6124,
      "ĠMercede": 6125,
      "ĠSÅĤucham": 6126,
      "ĠSÅĤusznie": 6127,
      "omoÅĽci": 6128,
      "Ġfotografi": 6129,
      "Ġfotografie": 6130,
      "Ġlekka": 6131,
      "Ġpisarz": 6132,
      "Ġpunktem": 6133,
      "ĠskÅĤadaÅĤ": 6134,
      "ĠUwaÅ¼aÅĤ": 6135,
      "ĠsytuacjÄĻ": 6136,
      "ĠÅ»egnajcie": 6137,
      "ĠÅ»elaznej": 6138,
      "Ġlotniczych": 6139,
      "Ġplanecie": 6140,
      "ĠszeÅĽÄĩdziesiÄħtce": 6141,
      "Ġfrontowych": 6142,
      "ĠgÅĤÄĻboko": 6143,
      "ĠKonwojent": 6144,
      "rÅ¼nÄħÅĤ": 6145,
      "ĠrzuciÅĤ": 6146,
      "ĠparÄħ": 6147,
      "ĠnÃ³Å¼kami": 6148,
      "ĠzÄĻb": 6149,
      "ĠzgodziÅĤ": 6150,
      "ĠzaÅĤoÅ¼onymi": 6151,
      "Ġdowci": 6152,
      "ĠdowÃ³d": 6153,
      "Ġoczeku": 6154,
      "Ġkatak": 6155,
      "ĠkrÄĻgosÅĤu": 6156,
      "ĠpogodÄĻ": 6157,
      "ĠÅ¼Ã³ÅĤtej": 6158,
      "ĠuwagÄĻ": 6159,
      "ĠutrzymaÄĩ": 6160,
      "ĠusiadÅĤa": 6161,
      "ĠszukaÄĩ": 6162,
      "Ġsztyw": 6163,
      "Ġsztylet": 6164,
      "ĠSyn": 6165,
      "ĠpodrygiwaÅĤ": 6166,
      "ĠKrzyÅ¼a": 6167,
      "ĠOstatniÄħ": 6168,
      "Ġfantasty": 6169,
      "ĠwindÄħ": 6170,
      "Ġkapelu": 6171,
      "ĠJednak": 6172,
      "Ġzapewne": 6173,
      "Ġwzroku": 6174,
      "Ġwzrostu": 6175,
      "Ġsklepie": 6176,
      "Ġstoliku": 6177,
      "ĠmÃ³zg": 6178,
      "ĠÅģad": 6179,
      "ĠciepÅĤo": 6180,
      "ĠcierpiaÅĤ": 6181,
      "ĠWietnam": 6182,
      "Ġzielonym": 6183,
      "ĠCzasami": 6184,
      "ĠdzieciÄĻcej": 6185,
      "ĠtÅĤuszczu": 6186,
      "ĠÅļwiatÅĤa": 6187,
      "Ġsamochodu": 6188,
      "ĠsamochodÃ³w": 6189,
      "ĠSzkoÅĤy": 6190,
      "ĠÅĤyÅ¼ki": 6191,
      "ĠÅĤyÅ¼kÄĻ": 6192,
      "ĠwysokoÅĽci": 6193,
      "Ġtortur": 6194,
      "Ġtorturach": 6195,
      "ĠjÄĻzyku": 6196,
      "Ġscenie": 6197,
      "ĠwpadaÅĤo": 6198,
      "ĠwÃ³zka": 6199,
      "ĠmÄħdro": 6200,
      "ĠkamieÅĦ": 6201,
      "Ġbiegn": 6202,
      "ĠpokazaÄĩ": 6203,
      "Ġpomieszczenia": 6204,
      "Ġpostaci": 6205,
      "ĠpolegaÅĤa": 6206,
      "ĠpolegÅĤych": 6207,
      "ĠpoczuÅĤ": 6208,
      "ĠpopoÅĤudniem": 6209,
      "ĠBiedna": 6210,
      "Ġzawias": 6211,
      "ĠzaczynaÅĤ": 6212,
      "ĠzajmowaÅĤ": 6213,
      "Ġstrumienia": 6214,
      "ĠTrzeba": 6215,
      "ĠpodÅĤogi": 6216,
      "Ġmundur": 6217,
      "Ġmocno": 6218,
      "Ġmodlit": 6219,
      "Ġwiadomo": 6220,
      "ĠwiadomoÅĽÄĩ": 6221,
      "ĠkupiÅĤ": 6222,
      "ĠciaÅĤami": 6223,
      "ĠwziÄħÄĩ": 6224,
      "ĠwzglÄĻdu": 6225,
      "ĠwzglÄĻdem": 6226,
      "Ġskraj": 6227,
      "Ġotwartym": 6228,
      "Ġbogat": 6229,
      "Ġbogaty": 6230,
      "ĠsÄħsiednim": 6231,
      "Ġzamieszka": 6232,
      "Ġogrodzie": 6233,
      "ĠChÅĤopiec": 6234,
      "Ġzobaczyli": 6235,
      "ĠdziaÅĤaÅĤ": 6236,
      "ĠdziaÅĤka": 6237,
      "Ġtrzymano": 6238,
      "ĠjakiejÅĽ": 6239,
      "ĠamerykaÅĦskimi": 6240,
      "ĠgÅĤoÅĽnik": 6241,
      "ĠsinoÅ¼Ã³ÅĤtymi": 6242,
      "Ġtelewizji": 6243,
      "ĠczÄĻÅĽciowo": 6244,
      "Ġsprzedawca": 6245,
      "ĠwyjaÅĽniÄĩ": 6246,
      "ĠwszelkÄħ": 6247,
      "Ġbrylant": 6248,
      "ĠChrystusa": 6249,
      "ĠodesÅĤano": 6250,
      "gencji": 6251,
      "Ġseksu": 6252,
      "ĠwnÄĻt": 6253,
      "Ġzwis": 6254,
      "Ġzjawi": 6255,
      "Ġopisy": 6256,
      "Ġkordzik": 6257,
      "Ġnakry": 6258,
      "ĠniedoÅĤÄĻÅ¼": 6259,
      "ĠdostaÄĩ": 6260,
      "ĠzawoÅĤaÅĤ": 6261,
      "Ġstylu": 6262,
      "Ġgrzecznie": 6263,
      "ĠprzejÅĽÄĩ": 6264,
      "Ġprzestrzeni": 6265,
      "ĠukÅĤadaÅĤ": 6266,
      "Ġadres": 6267,
      "Ġalkoh": 6268,
      "Ġalkoho": 6269,
      "lachtho": 6270,
      "ĠprzyjÄĻciu": 6271,
      "ĠSÅĤowi": 6272,
      "ĠSÅĤowo": 6273,
      "ĠSpojrzaÅĤ": 6274,
      "Ġmufki": 6275,
      "Ġmuzyka": 6276,
      "ĠOtworzyÅĤ": 6277,
      "ĠRzeczywiÅĽcie": 6278,
      "Ġkanapy": 6279,
      "Ġlatryny": 6280,
      "Ġkulmina": 6281,
      "ĠGeneral": 6282,
      "ĠGeorge": 6283,
      "ĠmyÅĽleli": 6284,
      "ĠmyÅĽleÄĩ": 6285,
      "ĠskrzyÅ¼owaniu": 6286,
      "Ġotwory": 6287,
      "Ġzdecyd": 6288,
      "Ġzamyka": 6289,
      "ĠpierÅĽcion": 6290,
      "ĠpierÅĽcionek": 6291,
      "ĠecholaliÄĻ": 6292,
      "Ġspojrzenia": 6293,
      "ĠFevre": 6294,
      "ĠpotrzÄħsnÄħÅĤ": 6295,
      "Ġzachwytu": 6296,
      "ĠskoÅĦczyÅĤa": 6297,
      "ĠBernard": 6298,
      "ĠBernarda": 6299,
      "Ġdziewczynki": 6300,
      "ĠgÅĤupio": 6301,
      "Ġspecjalista": 6302,
      "ĠzwiÄħzku": 6303,
      "Ġentuzjazmu": 6304,
      "Ġgabinetu": 6305,
      "Ġnieustannie": 6306,
      "Ġozdobi": 6307,
      "wzglÄĻ": 6308,
      "zwoi": 6309,
      "ĠzÅĤamanÄħ": 6310,
      "Ġobiad": 6311,
      "ĠoglÄħdania": 6312,
      "Ġklien": 6313,
      "ĠkÅĤopot": 6314,
      "Ġnaszpik": 6315,
      "Ġbrzuch": 6316,
      "ĠzapukaÅĤ": 6317,
      "ĠPrawdzi": 6318,
      "ĠWoj": 6319,
      "ĠWschod": 6320,
      "Ġwydosta": 6321,
      "ĠoddziaÅĤu": 6322,
      "ĠZjednoczonych": 6323,
      "Ġprzygoda": 6324,
      "ĠprzypomniaÅĤa": 6325,
      "ĠSugarbush": 6326,
      "ĠAdama": 6327,
      "ĠKlubu": 6328,
      "ĠpraktykÄĻ": 6329,
      "ĠbydÅĤa": 6330,
      "Ġhukiem": 6331,
      "Ġpustyni": 6332,
      "ĠAmeryce": 6333,
      "ĠnajwiÄĻksz": 6334,
      "Ġimpresaria": 6335,
      "ĠbaweÅĤnia": 6336,
      "Ġdziury": 6337,
      "Ġdrobne": 6338,
      "Ġaksamitem": 6339,
      "ĠzakoÅĦczyÅĤ": 6340,
      "Ġczekola": 6341,
      "Ġprezyden": 6342,
      "ĠwyobraÅ¼aÄĩ": 6343,
      "Ġbombardowaniem": 6344,
      "ĠDziewczÄĻta": 6345,
      "ĠdrezdeÅĦczykÃ³w": 6346,
      "ĠkoÅĤnierz": 6347,
      "ĠdorosÅĤych": 6348,
      "ĠmilionÃ³w": 6349,
      "Ġramionach": 6350,
      "ĠpoÅ¼arnej": 6351,
      "dopodobnÄħ": 6352,
      "ĠszybkoÅĽciÄħ": 6353,
      "ĠPozostali": 6354,
      "Ġbursztynie": 6355,
      "Ġreklamy": 6356,
      "ĠzrezygnowaÄĩ": 6357,
      "Ġmagnetyzm": 6358,
      "ĠEwangelii": 6359,
      "ĠusiÅĤujÄħc": 6360,
      "Ġcharaktery": 6361,
      "ĠpodszewkÄħ": 6362,
      "ĠHiroszimÄĻ": 6363,
      "pniowo": 6364,
      "Ã¼nf": 6365,
      "ĠciÄħÅ¼y": 6366,
      "ĠpÅĤuc": 6367,
      "ĠzaÅĤat": 6368,
      "Ġzoolo": 6369,
      "ĠokaÅ¼e": 6370,
      "Ġobywat": 6371,
      "ĠkamerÄĻ": 6372,
      "Ġpociski": 6373,
      "ĠniektÃ³rych": 6374,
      "Ġdopyty": 6375,
      "kazujÄħc": 6376,
      "Ġzainteres": 6377,
      "ĠPlacid": 6378,
      "ĠPensyl": 6379,
      "ĠgwoÅºdzi": 6380,
      "ĠNathan": 6381,
      "Ġkolorze": 6382,
      "ĠkorzystajÄħc": 6383,
      "ĠmineraÅĤy": 6384,
      "wieziono": 6385,
      "ĠgodnoÅĽÄĩ": 6386,
      "Ġwozem": 6387,
      "ĠSchlachtho": 6388,
      "Ġpodkoszulek": 6389,
      "ĠpodejrzewaÅĤ": 6390,
      "ĠJohna": 6391,
      "Ġmonografii": 6392,
      "ĠfarbÄħ": 6393,
      "Ġmalutki": 6394,
      "Ġmieszani": 6395,
      "Ġkabiny": 6396,
      "Ġkaloryfera": 6397,
      "Ġczasopism": 6398,
      "ĠLokomoty": 6399,
      "Ġlegowiska": 6400,
      "polis": 6401,
      "Ġhonoru": 6402,
      "ĠPoÅĤudni": 6403,
      "ĠprzedmieÅĽciu": 6404,
      "Ġzaplecze": 6405,
      "ĠnajpiÄĻk": 6406,
      "ĠliczbÄĻ": 6407,
      "ĠEliot": 6408,
      "ĠUniwersytetu": 6409,
      "ĠWyglÄħdaÅĤo": 6410,
      "ĠFiladelfi": 6411,
      "Ġkonduktor": 6412,
      "Ġtrzewiki": 6413,
      "ĠÅĽmiertelnie": 6414,
      "Ġmarmolady": 6415,
      "Ġtrumny": 6416,
      "ĠMaorys": 6417,
      "ĠpiÄĻÄĩdziesiÄĻciu": 6418,
      "ĠpÅĤakaÄĩ": 6419,
      "ĠpÃ³ÅĤwys": 6420,
      "ĠpoÅĽwiata": 6421,
      "ĠDziewicy": 6422,
      "ĠIndianapolis": 6423,
      "ĠokolicznoÅĽci": 6424,
      "Ġlokalu": 6425,
      "Ġartylerzy": 6426,
      "gryzÅĤa": 6427,
      "Ġplutonem": 6428,
      "ĠfunkcjonowaÄĩ": 6429,
      "ĠskÅĤadaÅĤa": 6430,
      "Ġsekun": 6431,
      "Ġprofesorem": 6432,
      "Ġznakomicie": 6433,
      "Czterookich": 6434,
      "ĠnieskoÅĦczono": 6435,
      "ĠSkurczybykÃ³w": 6436,
      "ĠmanewrÃ³w": 6437,
      "Ġfantastycznonaukowych": 6438,
      "Ġaresztowany": 6439,
      "ĠpamiÄħ": 6440,
      "Ġswasty": 6441,
      "ĠzaÅĤad": 6442,
      "Ġtransp": 6443,
      "Ġodzna": 6444,
      "Ġnatomiast": 6445,
      "Ġbatonik": 6446,
      "Ġponad": 6447,
      "ĠpobliÅ¼u": 6448,
      "Ġnietope": 6449,
      "ĠnieprawdopodobnÄħ": 6450,
      "Ġniepotrzeb": 6451,
      "Ġzazwyczaj": 6452,
      "ĠPalesty": 6453,
      "ĠPowin": 6454,
      "Ġwydoby": 6455,
      "Ġgener": 6456,
      "Ġgimnasty": 6457,
      "ĠgaÅĤÄħz": 6458,
      "Ġulubi": 6459,
      "ĠuÅĽwiadomiÅĤ": 6460,
      "ĠTalerz": 6461,
      "Ġcentrum": 6462,
      "ĠZamiast": 6463,
      "ĠZwiadowcy": 6464,
      "ĠÅĽlizgaÅĤ": 6465,
      "ĠprzywykÅĤ": 6466,
      "Ġspinki": 6467,
      "ĠchrzeÅĽcija": 6468,
      "ĠMajor": 6469,
      "ĠMÄĻÅ¼czy": 6470,
      "ĠStopniowo": 6471,
      "Ġfrancu": 6472,
      "Ġfosforyzu": 6473,
      "Ġhotelu": 6474,
      "ĠPoczÄħtkowo": 6475,
      "Ġzapragnie": 6476,
      "ĠsÄħsiedztwie": 6477,
      "Ġskurwysy": 6478,
      "Ġprenumera": 6479,
      "ĠzwÅĤaszcza": 6480,
      "ĠfiliÅ¼an": 6481,
      "ĠSchlachthof": 6482,
      "ĠFiladelfii": 6483,
      "12": 6484,
      "35": 6485,
      "39": 6486,
      "Am": 6487,
      "Ach": 6488,
      "Coli": 6489,
      "Fre": 6490,
      "Gdzie": 6491,
      "It": 6492,
      "Naj": 6493,
      "Pod": 6494,
      "Te": 6495,
      "Trze": 6496,
      "ac": 6497,
      "ag": 6498,
      "asz": 6499,
      "api": 6500,
      "aun": 6501,
      "bÅĤ": 6502,
      "bnie": 6503,
      "brze": 6504,
      "bem": 6505,
      "ber": 6506,
      "bki": 6507,
      "bÅĤa": 6508,
      "bru": 6509,
      "bnego": 6510,
      "bod": 6511,
      "baÄĩ": 6512,
      "bard": 6513,
      "bÅĤÄĻ": 6514,
      "byÅĤa": 6515,
      "brzmie": 6516,
      "ckie": 6517,
      "cone": 6518,
      "caÅĤem": 6519,
      "cÄħcy": 6520,
      "conego": 6521,
      "ctwo": 6522,
      "ckimi": 6523,
      "dro": 6524,
      "dak": 6525,
      "dre": 6526,
      "dby": 6527,
      "dnych": 6528,
      "dom": 6529,
      "dnej": 6530,
      "dol": 6531,
      "dowe": 6532,
      "domy": 6533,
      "ev": 6534,
      "enie": 6535,
      "eta": 6536,
      "ebu": 6537,
      "esie": 6538,
      "eszÅĤa": 6539,
      "elektry": 6540,
      "egnajcie": 6541,
      "fil": 6542,
      "fery": 6543,
      "fel": 6544,
      "fes": 6545,
      "fur": 6546,
      "fszty": 6547,
      "ffe": 6548,
      "fÃ¼nf": 6549,
      "grze": 6550,
      "gne": 6551,
      "gat": 6552,
      "gla": 6553,
      "gnÄħ": 6554,
      "gÅĤu": 6555,
      "hard": 6556,
      "iw": 6557,
      "iÄĩ": 6558,
      "iÅĤo": 6559,
      "iÅĽcie": 6560,
      "iament": 6561,
      "jer": 6562,
      "jaÅĤy": 6563,
      "jskiego": 6564,
      "jonu": 6565,
      "jczycy": 6566,
      "kam": 6567,
      "kar": 6568,
      "krzy": 6569,
      "kcie": 6570,
      "kary": 6571,
      "kowej": 6572,
      "kraw": 6573,
      "kowych": 6574,
      "kaÅĤem": 6575,
      "kowaÅĤa": 6576,
      "kÃ³d": 6577,
      "kowany": 6578,
      "karÅĤat": 6579,
      "ll": 6580,
      "ls": 6581,
      "lÄħ": 6582,
      "lÃ³": 6583,
      "lli": 6584,
      "lak": 6585,
      "lki": 6586,
      "lowaÅĤ": 6587,
      "lÄħd": 6588,
      "lowaÄĩ": 6589,
      "lnoÅĽÄĩ": 6590,
      "lnicz": 6591,
      "lsyj": 6592,
      "mÄħ": 6593,
      "mki": 6594,
      "men": 6595,
      "mami": 6596,
      "met": 6597,
      "nko": 6598,
      "nnego": 6599,
      "nowaÅĤ": 6600,
      "nga": 6601,
      "nowego": 6602,
      "nnymi": 6603,
      "nkach": 6604,
      "nÄħcego": 6605,
      "nÄħcÄħ": 6606,
      "ox": 6607,
      "oz": 6608,
      "oro": 6609,
      "ocie": 6610,
      "olo": 6611,
      "ogni": 6612,
      "ps": 6613,
      "pÅĤ": 6614,
      "piÄĻ": 6615,
      "pnie": 6616,
      "ple": 6617,
      "pla": 6618,
      "pon": 6619,
      "pnÄħÅĤ": 6620,
      "pek": 6621,
      "pter": 6622,
      "pera": 6623,
      "przytom": 6624,
      "ptr": 6625,
      "pchnÄħÅĤ": 6626,
      "ppel": 6627,
      "qu": 6628,
      "rna": 6629,
      "raÅĤa": 6630,
      "rowy": 6631,
      "rowi": 6632,
      "rpu": 6633,
      "rowej": 6634,
      "rche": 6635,
      "ring": 6636,
      "rowiec": 6637,
      "rtne": 6638,
      "sf": 6639,
      "sm": 6640,
      "sch": 6641,
      "sÅĤo": 6642,
      "sen": 6643,
      "snÄħ": 6644,
      "saÅĤy": 6645,
      "sÄħd": 6646,
      "skÄĻ": 6647,
      "skÃ³w": 6648,
      "sek": 6649,
      "seÅĤ": 6650,
      "sych": 6651,
      "sowej": 6652,
      "ssa": 6653,
      "sowe": 6654,
      "syÅĤa": 6655,
      "sji": 6656,
      "sachu": 6657,
      "tra": 6658,
      "tny": 6659,
      "tak": 6660,
      "tre": 6661,
      "tnego": 6662,
      "tkÄĻ": 6663,
      "trÄħ": 6664,
      "tamy": 6665,
      "tniki": 6666,
      "towano": 6667,
      "than": 6668,
      "uli": 6669,
      "uen": 6670,
      "uje": 6671,
      "utem": 6672,
      "uza": 6673,
      "upe": 6674,
      "ujÄħcych": 6675,
      "varda": 6676,
      "vox": 6677,
      "wak": 6678,
      "wza": 6679,
      "wkÄĻ": 6680,
      "wowej": 6681,
      "wemu": 6682,
      "wszÄħ": 6683,
      "wrÃ³ciÅĤ": 6684,
      "wren": 6685,
      "yne": 6686,
      "ymo": 6687,
      "ydra": 6688,
      "zaÅĤa": 6689,
      "znÄħ": 6690,
      "zjÄħ": 6691,
      "zowej": 6692,
      "zel": 6693,
      "zdni": 6694,
      "zji": 6695,
      "zwanie": 6696,
      "zmem": 6697,
      "Ġ4": 6698,
      "Ġ5": 6699,
      "Ġ9": 6700,
      "Ġow": 6701,
      "ĠÃ³w": 6702,
      "Ġew": 6703,
      "ĠrzÄħd": 6704,
      "Ġrzym": 6705,
      "Ġvox": 6706,
      "ÅĤowi": 6707,
      "ÅĤÄħd": 6708,
      "ÅĤowÄħ": 6709,
      "ieÅĤ": 6710,
      "ienie": 6711,
      "ierÄĻ": 6712,
      "Ġpl": 6713,
      "Ġpne": 6714,
      "Ġpta": 6715,
      "Ġpale": 6716,
      "Ġpowy": 6717,
      "Ġpary": 6718,
      "ĠprÄĻ": 6719,
      "ĠprzyÅĤo": 6720,
      "Ġsno": 6721,
      "Ġsowa": 6722,
      "Ġsera": 6723,
      "Ġsnach": 6724,
      "Ġswemu": 6725,
      "Ġwcze": 6726,
      "ĠwÅĽcie": 6727,
      "Ġwet": 6728,
      "Ġwsu": 6729,
      "Ġwsa": 6730,
      "Ġwpraw": 6731,
      "ĠwciÄħg": 6732,
      "ĠwstÄĻp": 6733,
      "Ġwilgo": 6734,
      "Ġwpuszcz": 6735,
      "ĠwchodziÅĤ": 6736,
      "ĠwciÄĻ": 6737,
      "Ġwnios": 6738,
      "Ġwcis": 6739,
      "Ġwpisa": 6740,
      "ĠwrÄĻcz": 6741,
      "Ġwobec": 6742,
      "ĠwtrÄħ": 6743,
      "ÄĻcz": 6744,
      "Ġnowych": 6745,
      "ĠnÃ³g": 6746,
      "Ġzar": 6747,
      "Ġzer": 6748,
      "Ġzor": 6749,
      "Ġzwa": 6750,
      "Ġzej": 6751,
      "Ġzmy": 6752,
      "Ġzwar": 6753,
      "Ġzgra": 6754,
      "Ġzwali": 6755,
      "ĠzÅĤÄħ": 6756,
      "Ġzmienia": 6757,
      "Ġzbiera": 6758,
      "ĠzÅĤych": 6759,
      "ĠzbliÅ¼": 6760,
      "ĠzÅĤego": 6761,
      "ĠznoÅĽ": 6762,
      "aÅĤÄĻ": 6763,
      "aÅĤÃ³w": 6764,
      "aÅĤej": 6765,
      "aÅĤos": 6766,
      "aÅĤek": 6767,
      "rzak": 6768,
      "rzaÅĤy": 6769,
      "rzona": 6770,
      "rzonych": 6771,
      "rzaku": 6772,
      "rzÄħcych": 6773,
      "Äħb": 6774,
      "Å¼on": 6775,
      "Å¼onego": 6776,
      "Å¼noÅĽciÄħ": 6777,
      "Å¼niku": 6778,
      "czak": 6779,
      "czam": 6780,
      "czer": 6781,
      "czkÃ³w": 6782,
      "cznicy": 6783,
      "czÄħce": 6784,
      "czÄħcego": 6785,
      "Ġtow": 6786,
      "Ġtch": 6787,
      "Ġtraw": 6788,
      "ĠtwÃ³r": 6789,
      "Ġtkli": 6790,
      "Ġtato": 6791,
      "owÅĤo": 6792,
      "owod": 6793,
      "owemu": 6794,
      "owsku": 6795,
      "ownikÃ³w": 6796,
      "ownika": 6797,
      "chÄħ": 6798,
      "chat": 6799,
      "chno": 6800,
      "chÅĤy": 6801,
      "chaÅĤy": 6802,
      "chce": 6803,
      "chot": 6804,
      "chaÅĤem": 6805,
      "chnÄĻli": 6806,
      "chanego": 6807,
      "Ã³rz": 6808,
      "Ã³ra": 6809,
      "Ã³Å¼ek": 6810,
      "Ã³stwo": 6811,
      "Ġdem": 6812,
      "ĠdaÅĤa": 6813,
      "Ġdali": 6814,
      "Ġdal": 6815,
      "Ġdaj": 6816,
      "Ġdes": 6817,
      "ĠdwÃ³j": 6818,
      "Ġdamy": 6819,
      "Ġdwoj": 6820,
      "Ġdrzem": 6821,
      "Ġdiament": 6822,
      "Ġmego": 6823,
      "Ġmowa": 6824,
      "Ġmary": 6825,
      "Ġmrok": 6826,
      "ÅĽÅĦ": 6827,
      "ÅĽwiÄĻ": 6828,
      "ÅĽmiu": 6829,
      "ÅĽniÄĻty": 6830,
      "ÅĽrednio": 6831,
      "Ġocie": 6832,
      "Ġokiem": 6833,
      "Ġosu": 6834,
      "ĠoglÄħd": 6835,
      "Ġoszu": 6836,
      "ĠoÅĽle": 6837,
      "Ġostro": 6838,
      "Ġokazy": 6839,
      "ĠoÅĤÃ³w": 6840,
      "ĠocknÄħÅĤ": 6841,
      "ĠodzieÅ¼": 6842,
      "Ġoczami": 6843,
      "ĠotaczajÄħc": 6844,
      "ĠoÅĽmiesz": 6845,
      "ĠkÄħ": 6846,
      "Ġkwi": 6847,
      "Ġkami": 6848,
      "Ġklo": 6849,
      "Ġkraw": 6850,
      "ĠkrÄħ": 6851,
      "Ġkran": 6852,
      "ĠkÅĤÄĻ": 6853,
      "Ġkwarte": 6854,
      "Ġkrop": 6855,
      "ĠkÅĤÃ³": 6856,
      "gon": 6857,
      "iÄĻci": 6858,
      "iÄĻcie": 6859,
      "iÄĻgnÄħÅĤ": 6860,
      "raj": 6861,
      "rak": 6862,
      "raÄĩ": 6863,
      "rane": 6864,
      "raki": 6865,
      "rasu": 6866,
      "racji": 6867,
      "rado": 6868,
      "ranicz": 6869,
      "radny": 6870,
      "rastÃ³w": 6871,
      "dzaÅĤa": 6872,
      "dzce": 6873,
      "dzali": 6874,
      "dzajÄħc": 6875,
      "dzajÄħcych": 6876,
      "Ġina": 6877,
      "Ġide": 6878,
      "Ġiden": 6879,
      "Ġign": 6880,
      "nio": 6881,
      "niny": 6882,
      "niÃ³w": 6883,
      "niÄħc": 6884,
      "niaÅĤa": 6885,
      "nicami": 6886,
      "nikach": 6887,
      "nionych": 6888,
      "niarni": 6889,
      "niczych": 6890,
      "szÃ³w": 6891,
      "szer": 6892,
      "szkie": 6893,
      "sznego": 6894,
      "szczyÅĤ": 6895,
      "szkÃ³w": 6896,
      "szkÄħ": 6897,
      "szpa": 6898,
      "szoÅĽÄĩ": 6899,
      "szyÅĤa": 6900,
      "szalni": 6901,
      "Ġnat": 6902,
      "Ġnarze": 6903,
      "Ġnawo": 6904,
      "Ġnaszy": 6905,
      "Ġnapi": 6906,
      "Ġnapo": 6907,
      "Ġnabo": 6908,
      "Ġnarod": 6909,
      "Ġnastawi": 6910,
      "Ġnapra": 6911,
      "Ġnaszego": 6912,
      "Ġnapot": 6913,
      "ĠnabraÅĤa": 6914,
      "ĠnaÅĽla": 6915,
      "Ġnadawano": 6916,
      "Ġnalocie": 6917,
      "Ġnaklej": 6918,
      "Ġnaelektry": 6919,
      "Ġnawza": 6920,
      "Ġjod": 6921,
      "Ġjach": 6922,
      "Ġjemu": 6923,
      "lili": 6924,
      "lina": 6925,
      "liÅĤo": 6926,
      "liÅĤy": 6927,
      "limet": 6928,
      "stam": 6929,
      "stkÄĻ": 6930,
      "strÃ³j": 6931,
      "ĠbaÅĤ": 6932,
      "Ġbil": 6933,
      "Ġbal": 6934,
      "Ġbet": 6935,
      "ĠbeÅĤko": 6936,
      "ĠbÅĤÄħd": 6937,
      "nienie": 6938,
      "niepoko": 6939,
      "niewieraÅĤa": 6940,
      "Ġpost": 6941,
      "Ġpola": 6942,
      "Ġpoby": 6943,
      "Ġposi": 6944,
      "ĠpoÅĤy": 6945,
      "ĠpodziaÅĤ": 6946,
      "Ġporu": 6947,
      "ĠpoÅ¼e": 6948,
      "Ġpopie": 6949,
      "Ġpogr": 6950,
      "Ġposzcze": 6951,
      "Ġpoto": 6952,
      "Ġpobo": 6953,
      "ĠpociÄħ": 6954,
      "Ġposy": 6955,
      "Ġposa": 6956,
      "ĠpoglÄħd": 6957,
      "Ġporzu": 6958,
      "ĠposiÅĤ": 6959,
      "Ġpojem": 6960,
      "ĠpostÄĻp": 6961,
      "Ġpokaz": 6962,
      "ĠpoÅĽmie": 6963,
      "ĠpoÅĤam": 6964,
      "Ġpochodzi": 6965,
      "ĠpochodziÅĤ": 6966,
      "ĠpociÄħga": 6967,
      "ĠpokazaÅĤ": 6968,
      "ĠposzÅĤy": 6969,
      "Ġpobud": 6970,
      "Ġpoeta": 6971,
      "robi": 6972,
      "rotnie": 6973,
      "rodzenie": 6974,
      "ĠBaÅĤ": 6975,
      "ĠBan": 6976,
      "ĠBrÄħ": 6977,
      "rzekÅĤ": 6978,
      "rzeniami": 6979,
      "rzemija": 6980,
      "ille": 6981,
      "ilerie": 6982,
      "len": 6983,
      "leÄĩ": 6984,
      "lery": 6985,
      "lenia": 6986,
      "letek": 6987,
      "lebÄĻ": 6988,
      "lepiej": 6989,
      "cina": 6990,
      "ciaÅĤo": 6991,
      "ciod": 6992,
      "ciÅĤem": 6993,
      "ciliÅĽmy": 6994,
      "ciaka": 6995,
      "amki": 6996,
      "ampa": 6997,
      "amul": 6998,
      "amkni": 6999,
      "Ġniec": 7000,
      "Ġniena": 7001,
      "Ġniece": 7002,
      "ĠnieÅº": 7003,
      "Ġniebie": 7004,
      "ĠnieÅ¼y": 7005,
      "Ġnieba": 7006,
      "Ġnietk": 7007,
      "Ġniespo": 7008,
      "Ġniedaw": 7009,
      "Ġniepoko": 7010,
      "Ġniewol": 7011,
      "Ġniebia": 7012,
      "ĠnieÅĽmi": 7013,
      "arny": 7014,
      "arwi": 7015,
      "arki": 7016,
      "armi": 7017,
      "arkÄħ": 7018,
      "arsa": 7019,
      "Ġdory": 7020,
      "ĠdorÄĻ": 7021,
      "ĠdokÅĤa": 7022,
      "Ġdotycz": 7023,
      "Ġdokona": 7024,
      "Ġdochodzi": 7025,
      "Ġdopuszcz": 7026,
      "Ġdolny": 7027,
      "Ġdostar": 7028,
      "Ġdoktor": 7029,
      "ĠdokÄħd": 7030,
      "ĠdoznaÅĤ": 7031,
      "ĠdostaÅĤy": 7032,
      "ĠÅ¼er": 7033,
      "ĠÅ¼ÅĤo": 7034,
      "ĠÅ¼alu": 7035,
      "ĠÅ¼onie": 7036,
      "kani": 7037,
      "kane": 7038,
      "kate": 7039,
      "rzyÅ¼": 7040,
      "rzydzenia": 7041,
      "naÅ¼": 7042,
      "naÄĩ": 7043,
      "nady": 7044,
      "narod": 7045,
      "nacje": 7046,
      "Ã³wnieÅ¼": 7047,
      "dzin": 7048,
      "dziny": 7049,
      "dziÅĤy": 7050,
      "dziono": 7051,
      "dziliÅĽmy": 7052,
      "Ġzao": 7053,
      "Ġzady": 7054,
      "Ġzaby": 7055,
      "Ġzacze": 7056,
      "Ġzaga": 7057,
      "ĠzaÅĽli": 7058,
      "Ġzagu": 7059,
      "Ġzask": 7060,
      "Ġzarzu": 7061,
      "Ġzasko": 7062,
      "ĠzadaÄĩ": 7063,
      "Ġzastawi": 7064,
      "ĠzastÄĻp": 7065,
      "ĠzastaÅĤ": 7066,
      "ĠzaszÅĤo": 7067,
      "Ġzarabi": 7068,
      "ĠzadaÅĤ": 7069,
      "Ġzauf": 7070,
      "Ġzastanowi": 7071,
      "Ġzastrzy": 7072,
      "Ġzacis": 7073,
      "ĠzabraÅĤa": 7074,
      "ĠzastanowiÅĤ": 7075,
      "Ġzadzwo": 7076,
      "Ġzastos": 7077,
      "Ġzaniepoko": 7078,
      "erÃ³w": 7079,
      "erre": 7080,
      "erek": 7081,
      "eremo": 7082,
      "erhard": 7083,
      "wiaÅĤy": 7084,
      "widen": 7085,
      "wioru": 7086,
      "wiczki": 7087,
      "wionych": 7088,
      "wialni": 7089,
      "ĠjeÅĽÄĩ": 7090,
      "Ġjedzenia": 7091,
      "Ġjeniec": 7092,
      "Ġjechali": 7093,
      "Ġjedzenie": 7094,
      "Ġjezdni": 7095,
      "ĠPÅĤa": 7096,
      "ĠPÅĤy": 7097,
      "ĠProwa": 7098,
      "ĠPamiÄĻ": 7099,
      "ĠPres": 7100,
      "ĠPine": 7101,
      "ĠPomy": 7102,
      "ĠPÅĤakaÅĤ": 7103,
      "atki": 7104,
      "atali": 7105,
      "ĠWz": 7106,
      "ĠWÄĻ": 7107,
      "ĠWar": 7108,
      "ĠWal": 7109,
      "ĠWin": 7110,
      "ĠWstaÅĤ": 7111,
      "ĠWÅĤoÅ¼yÅĤ": 7112,
      "ĠWcale": 7113,
      "ĠWrÃ³ciÅĤ": 7114,
      "ĠWhi": 7115,
      "ĠWziÄħ": 7116,
      "czysz": 7117,
      "czyny": 7118,
      "czymy": 7119,
      "czysto": 7120,
      "czyliÅĽmy": 7121,
      "czynaÅĤ": 7122,
      "Ġwygo": 7123,
      "Ġwyla": 7124,
      "Ġwywo": 7125,
      "Ġwywie": 7126,
      "Ġwysze": 7127,
      "Ġwymy": 7128,
      "Ġwygi": 7129,
      "ĠwyÅĽcie": 7130,
      "Ġwywar": 7131,
      "ĠwydaÄĩ": 7132,
      "ĠwysiÅĤ": 7133,
      "ĠwystÄĻp": 7134,
      "Ġwychu": 7135,
      "ĠwyjrzaÅĤ": 7136,
      "ĠwydaÅĤ": 7137,
      "Ġwykona": 7138,
      "ĠwychodziÅĤ": 7139,
      "ĠwygÅĤo": 7140,
      "ĠwyciÄħgu": 7141,
      "Ġwytrze": 7142,
      "ĠwynosiÅĤ": 7143,
      "Ġwypisa": 7144,
      "ĠwykÅĤada": 7145,
      "ĠwyjeÅ¼dÅ¼": 7146,
      "ĠwychodziÄĩ": 7147,
      "Ġwydech": 7148,
      "ĠwyksztaÅĤ": 7149,
      "ĠwybieraÄĩ": 7150,
      "ĠwystÄħpie": 7151,
      "ĠwylÄħd": 7152,
      "Ġwyzwanie": 7153,
      "Ġster": 7154,
      "Ġstwo": 7155,
      "ĠstÅĤu": 7156,
      "Ġstale": 7157,
      "ĠstÃ³ÅĤ": 7158,
      "Ġstew": 7159,
      "Ġstet": 7160,
      "Ġstere": 7161,
      "Ġstron": 7162,
      "Ġstuk": 7163,
      "ĠstaÅĤe": 7164,
      "ĠstrÃ³j": 7165,
      "ciem": 7166,
      "cieÄĩ": 7167,
      "cieliÅĽmy": 7168,
      "Ġgrz": 7169,
      "Ġgnia": 7170,
      "Ġgale": 7171,
      "Ġgary": 7172,
      "Ġget": 7173,
      "ĠgnieÅ¼": 7174,
      "Ġgarni": 7175,
      "ĠgieÅĤ": 7176,
      "ĠgaÅĤÄĻ": 7177,
      "ĠglebÄĻ": 7178,
      "Ġprzet": 7179,
      "Ġprzest": 7180,
      "Ġprzewi": 7181,
      "ĠprzeÅĤo": 7182,
      "Ġprzeby": 7183,
      "Ġprzepi": 7184,
      "ĠprzesiÄħ": 7185,
      "ĠprzejÄĻ": 7186,
      "Ġprzenik": 7187,
      "Ġprzebra": 7188,
      "Ġprzeszka": 7189,
      "Ġprzepis": 7190,
      "ĠprzestÄĻp": 7191,
      "ĠprzeraÅ¼": 7192,
      "ĠprzestaÅĤ": 7193,
      "ĠprzeÅĤam": 7194,
      "Ġprzekro": 7195,
      "ĠprzesunÄħÅĤ": 7196,
      "Ġprzenosi": 7197,
      "Ġprzegro": 7198,
      "ĠprzeraÅ¼ajÄħc": 7199,
      "ĠprzemÃ³w": 7200,
      "ĠprzekazaÅĤ": 7201,
      "Ġprzepraszam": 7202,
      "Ġprzelaty": 7203,
      "Ġprzeniesiono": 7204,
      "ĠprzegryzÅĤa": 7205,
      "Ġuci": 7206,
      "Ġuwi": 7207,
      "Ġuczy": 7208,
      "ĠuÅĤo": 7209,
      "Ġury": 7210,
      "Ġuru": 7211,
      "Ġuma": 7212,
      "Ġucho": 7213,
      "ĠuczÄħ": 7214,
      "Ġucha": 7215,
      "Ġudali": 7216,
      "ĠujrzaÅĤ": 7217,
      "ĠusÅĤu": 7218,
      "Ġubezpie": 7219,
      "Ġupoko": 7220,
      "Ġurat": 7221,
      "ĠumysÅĤ": 7222,
      "ĠumysÅĤu": 7223,
      "Ġuczucie": 7224,
      "ĠusiÄħÅĽÄĩ": 7225,
      "ÅĤotniki": 7226,
      "dyn": 7227,
      "dyni": 7228,
      "dywaÄĩ": 7229,
      "dykujÄĻ": 7230,
      "dydat": 7231,
      "Ġapa": 7232,
      "Ġauf": 7233,
      "Ġapat": 7234,
      "Ġapel": 7235,
      "dan": 7236,
      "darzy": 7237,
      "dana": 7238,
      "dacy": 7239,
      "dajÄħc": 7240,
      "dapter": 7241,
      "orny": 7242,
      "orki": 7243,
      "oria": 7244,
      "dzieÅ¼y": 7245,
      "dzielajÄħc": 7246,
      "wani": 7247,
      "wanymi": 7248,
      "wanii": 7249,
      "ĠbyÅĤych": 7250,
      "noty": 7251,
      "nozie": 7252,
      "nois": 7253,
      "noszÄħc": 7254,
      "noll": 7255,
      "reb": 7256,
      "rek": 7257,
      "reny": 7258,
      "rena": 7259,
      "recja": 7260,
      "ĠNan": 7261,
      "ĠNale": 7262,
      "ĠNum": 7263,
      "lany": 7264,
      "laga": 7265,
      "lazna": 7266,
      "miaÅĤem": 7267,
      "miaÅĤe": 7268,
      "mioty": 7269,
      "ryw": 7270,
      "Ġtorze": 7271,
      "Ġtoale": 7272,
      "Ġtobie": 7273,
      "ĠtonÄĻ": 7274,
      "Ġtonem": 7275,
      "ĠtoczyÅĤa": 7276,
      "ĠTej": 7277,
      "ĠTim": 7278,
      "ĠTuÅ¼": 7279,
      "ĠTrafi": 7280,
      "ĠTatu": 7281,
      "ĠTrzymaÅĤ": 7282,
      "ĠTrzyma": 7283,
      "Ġcem": 7284,
      "Ġcyli": 7285,
      "ĠcentÃ³w": 7286,
      "Ġcowbo": 7287,
      "Ġceremo": 7288,
      "wojÄħ": 7289,
      "woÅĽciÄħ": 7290,
      "Ġodk": 7291,
      "Ġoder": 7292,
      "Ġodczy": 7293,
      "Ġodda": 7294,
      "Ġoddzie": 7295,
      "Ġodpo": 7296,
      "ĠodwaÅ¼": 7297,
      "ĠoddaÄĩ": 7298,
      "Ġodgry": 7299,
      "Ġodchy": 7300,
      "Ġodnale": 7301,
      "ĠodczytaÅĤ": 7302,
      "Ġodskaki": 7303,
      "Ġoddech": 7304,
      "Ġoddziale": 7305,
      "ĠodbyÅĤa": 7306,
      "Ġczwo": 7307,
      "ĠczoÅĤ": 7308,
      "ĠczwÃ³r": 7309,
      "Ġcztero": 7310,
      "ĠczoÅĤo": 7311,
      "ÅĦska": 7312,
      "ĠZd": 7313,
      "ĠZu": 7314,
      "ĠZat": 7315,
      "ĠZwie": 7316,
      "ĠZale": 7317,
      "ĠZaÅĤo": 7318,
      "ĠZaz": 7319,
      "ĠZoba": 7320,
      "ĠZosta": 7321,
      "ĠZgÅĤo": 7322,
      "ĠZgro": 7323,
      "ĠZresztÄħ": 7324,
      "ĠZdaje": 7325,
      "ĠZwiÄħz": 7326,
      "ĠZamkni": 7327,
      "Ġkosz": 7328,
      "Ġkota": 7329,
      "ĠkoÅĤy": 7330,
      "Ġkoce": 7331,
      "Ġkopi": 7332,
      "Ġkopy": 7333,
      "Ġkocha": 7334,
      "ĠkolÄĻ": 7335,
      "Ġkostki": 7336,
      "Ġkochana": 7337,
      "ĠkolacjÄĻ": 7338,
      "ĠÅĽcie": 7339,
      "ĠÅĽnia": 7340,
      "ĠÅĽciÄħg": 7341,
      "ĠÅĽmiaÅĤ": 7342,
      "Ġprzym": 7343,
      "Ġprzywi": 7344,
      "Ġprzybi": 7345,
      "Ġprzywil": 7346,
      "Ġprzyzna": 7347,
      "ĠprzyglÄħdaÅĤ": 7348,
      "Ġprzytrzy": 7349,
      "Ġprzyjm": 7350,
      "ĠprzyjÄĻcie": 7351,
      "Ġprzykro": 7352,
      "ĠprzychodziÅĤ": 7353,
      "ĠprzysÅĤa": 7354,
      "ĠprzyglÄħdali": 7355,
      "ĠprzyznaÅĤ": 7356,
      "ĠprzyszÅĤy": 7357,
      "ĠprzynieÅĽli": 7358,
      "ĠprzyniosÅĤa": 7359,
      "ĠprzyÅĽpie": 7360,
      "Ġprzycisk": 7361,
      "Ġprzyzwoi": 7362,
      "Ġprzyczyny": 7363,
      "tyw": 7364,
      "tyfik": 7365,
      "siu": 7366,
      "siÅĤo": 7367,
      "Ġrobie": 7368,
      "Ġrokiem": 7369,
      "Ġrobo": 7370,
      "ĠrosÅĤy": 7371,
      "Ġroman": 7372,
      "Ġrolki": 7373,
      "kiet": 7374,
      "cynacje": 7375,
      "Ġmir": 7376,
      "ĠminÄħÅĤ": 7377,
      "ĠmitÃ³w": 7378,
      "Ġmikro": 7379,
      "ĠmijaÅĤ": 7380,
      "Ġmineral": 7381,
      "Ġmistrz": 7382,
      "adÅĤ": 7383,
      "adÄĻ": 7384,
      "adÅĤa": 7385,
      "adek": 7386,
      "tasa": 7387,
      "tajcie": 7388,
      "tarzem": 7389,
      "Ġtypu": 7390,
      "Ġtylnym": 7391,
      "niarz": 7392,
      "niania": 7393,
      "niajÄħ": 7394,
      "ÅĤyby": 7395,
      "ÅĤynÄħÄĩ": 7396,
      "aski": 7397,
      "asÅĤo": 7398,
      "asÅĤy": 7399,
      "assachu": 7400,
      "ĠspaÅĤ": 7401,
      "Ġspor": 7402,
      "Ġspali": 7403,
      "Ġspada": 7404,
      "ĠspeÅĤni": 7405,
      "obrze": 7406,
      "obem": 7407,
      "wiec": 7408,
      "wiej": 7409,
      "wienie": 7410,
      "wieci": 7411,
      "wienia": 7412,
      "wierzyÅĤ": 7413,
      "ĠDwa": 7414,
      "ĠDwie": 7415,
      "ĠDali": 7416,
      "ĠDowo": 7417,
      "ĠDost": 7418,
      "ĠDrzwi": 7419,
      "ĠDaj": 7420,
      "ĠDlatego": 7421,
      "ĠDela": 7422,
      "ĠDarwi": 7423,
      "ÅĽciÅĤo": 7424,
      "ÅĽciowych": 7425,
      "ÅĽciciel": 7426,
      "rus": 7427,
      "ruch": 7428,
      "ruÅ¼yÅĤ": 7429,
      "rudno": 7430,
      "runku": 7431,
      "Ġchu": 7432,
      "Ġchod": 7433,
      "ĠchowaÅĤ": 7434,
      "ĠchcÄħ": 7435,
      "ĠchÅĤÃ³d": 7436,
      "Ġszar": 7437,
      "ĠszÅĤa": 7438,
      "Ġszan": 7439,
      "Ġszpi": 7440,
      "Ġszet": 7441,
      "Ġsznu": 7442,
      "Ġszuf": 7443,
      "Ġszok": 7444,
      "Ġszampa": 7445,
      "ĠMnie": 7446,
      "ĠMod": 7447,
      "ĠMal": 7448,
      "ĠMyli": 7449,
      "ĠMassachu": 7450,
      "Ġniby": 7451,
      "Ġniski": 7452,
      "Ġniskich": 7453,
      "Ġnikim": 7454,
      "Ġgory": 7455,
      "ĠgoÅĽÄĩ": 7456,
      "ĠgodziÅĤ": 7457,
      "ĠgorÄħ": 7458,
      "ĠgoÅĤÄħ": 7459,
      "Ġgong": 7460,
      "ĠgodÅĤo": 7461,
      "ĠgoliÄĩ": 7462,
      "Ġgorzej": 7463,
      "raziÅĤ": 7464,
      "Ġwod": 7465,
      "Ġwoli": 7466,
      "Ġwoda": 7467,
      "Ġwosk": 7468,
      "czeli": 7469,
      "czeÅĦ": 7470,
      "mieli": 7471,
      "mierzyÅĤ": 7472,
      "miennie": 7473,
      "mienieni": 7474,
      "ĠCod": 7475,
      "ĠCÃ³Å¼": 7476,
      "ĠCaÅĤÄħ": 7477,
      "ĠSen": 7478,
      "ĠSan": 7479,
      "ĠStaÅĤ": 7480,
      "ĠSwego": 7481,
      "ĠSkali": 7482,
      "ĠSina": 7483,
      "ĠSaun": 7484,
      "ĠSqu": 7485,
      "ĠSiÄĻgnÄħÅĤ": 7486,
      "ĠSwojÄħ": 7487,
      "Ġpodwo": 7488,
      "Ġpodpi": 7489,
      "ĠpodrÄĻ": 7490,
      "ĠpodjÄĻ": 7491,
      "Ġpodtrzy": 7492,
      "ĠpodwÃ³r": 7493,
      "ĠpodwyÅ¼": 7494,
      "Ġpodkowy": 7495,
      "ĠpodniosÅĤa": 7496,
      "Ġpoddano": 7497,
      "Ġpodjadali": 7498,
      "Ġpowiedz": 7499,
      "Ġpowieszono": 7500,
      "ĠpowiesiÄĩ": 7501,
      "Ġpowiedziano": 7502,
      "ĠtakÄħ": 7503,
      "Ġmuze": 7504,
      "ĠAl": 7505,
      "ĠAr": 7506,
      "ĠAfry": 7507,
      "ĠKru": 7508,
      "ĠKrÃ³": 7509,
      "ĠKin": 7510,
      "ĠKobie": 7511,
      "ĠKenne": 7512,
      "ĠKnoll": 7513,
      "jera": 7514,
      "jekt": 7515,
      "jechaÅĤ": 7516,
      "ĠOk": 7517,
      "ĠOto": 7518,
      "ĠOfi": 7519,
      "ĠOba": 7520,
      "ĠOzna": 7521,
      "ĠOsie": 7522,
      "ĠOgÃ³l": 7523,
      "ĠOÅĽmiu": 7524,
      "cek": 7525,
      "ceni": 7526,
      "cero": 7527,
      "cewa": 7528,
      "cesie": 7529,
      "cesyj": 7530,
      "Ġteni": 7531,
      "Ġteatru": 7532,
      "ĠteraÅºniej": 7533,
      "ÅĤuma": 7534,
      "bili": 7535,
      "bina": 7536,
      "omos": 7537,
      "omet": 7538,
      "telu": 7539,
      "teran": 7540,
      "tesik": 7541,
      "jaÄĩ": 7542,
      "Ġwiecie": 7543,
      "ĠwieÅĽÄĩ": 7544,
      "ĠwieÅ¼y": 7545,
      "Ġwiejski": 7546,
      "rÃ³bu": 7547,
      "aleÅ¼nie": 7548,
      "ĠNiebie": 7549,
      "ĠNieco": 7550,
      "Åºdzie": 7551,
      "Åºnia": 7552,
      "ÅºniÄĻ": 7553,
      "owywali": 7554,
      "Ġmorzu": 7555,
      "Ġmorzem": 7556,
      "Ġmotor": 7557,
      "Ġmodel": 7558,
      "ĠmogÅĤem": 7559,
      "Ġmotelu": 7560,
      "szeniu": 7561,
      "owiÅĤ": 7562,
      "Ġcokolwiek": 7563,
      "otÃ³w": 7564,
      "osa": 7565,
      "osko": 7566,
      "osob": 7567,
      "Ġwojnach": 7568,
      "Ġfra": 7569,
      "Ġfak": 7570,
      "Ġfas": 7571,
      "Ġforma": 7572,
      "Ġflami": 7573,
      "ĠfrÄĻdz": 7574,
      "Ġflaga": 7575,
      "ĠIt": 7576,
      "ĠIle": 7577,
      "ĠIlli": 7578,
      "Ġobc": 7579,
      "Ġobwie": 7580,
      "Ġobma": 7581,
      "ĠobrÄĻ": 7582,
      "Ġobol": 7583,
      "ĠobÃ³z": 7584,
      "ĠobjÄħÅĤ": 7585,
      "Ġobrzydzenia": 7586,
      "pij": 7587,
      "piÅĤ": 7588,
      "pionego": 7589,
      "Ġrozko": 7590,
      "ĠrozÅĤo": 7591,
      "Ġrozbi": 7592,
      "Ġrozsze": 7593,
      "Ġrozba": 7594,
      "ĠrozdÄĻ": 7595,
      "ĠrozkÅĤa": 7596,
      "ĠrozeÅĽ": 7597,
      "Ġrozjem": 7598,
      "Ġrozczu": 7599,
      "Ġrozkaz": 7600,
      "Ġrozpra": 7601,
      "ĠrozwiÄħzy": 7602,
      "Ġrozbrzmie": 7603,
      "Ġrozryw": 7604,
      "cal": 7605,
      "cali": 7606,
      "ĠRu": 7607,
      "ĠRaz": 7608,
      "ĠRÃ³Å¼": 7609,
      "ĠRany": 7610,
      "ĠRÃ³wnieÅ¼": 7611,
      "eryk": 7612,
      "Ġmanie": 7613,
      "Ġmaci": 7614,
      "Ġmacie": 7615,
      "Ġmaga": 7616,
      "ĠmajÄħcy": 7617,
      "Ġmachi": 7618,
      "zysu": 7619,
      "zyjnÄħ": 7620,
      "rzanym": 7621,
      "madzenie": 7622,
      "Ġjegomo": 7623,
      "Ġmienia": 7624,
      "ĠmieÅĽciÅĤ": 7625,
      "ĠmieÅĽciÅĤa": 7626,
      "ĠwiÄħ": 7627,
      "Ġwina": 7628,
      "Ġwidzi": 7629,
      "Ġwino": 7630,
      "ĠwidzÄħc": 7631,
      "Ġwiatr": 7632,
      "ĠwidywaÅĤ": 7633,
      "Ġwitajcie": 7634,
      "Ġswoimi": 7635,
      "Ġswobod": 7636,
      "ĠNarod": 7637,
      "ĠNapis": 7638,
      "ĠNarodzenie": 7639,
      "Ġdzien": 7640,
      "biego": 7641,
      "biegÅĤ": 7642,
      "bieraÅĤ": 7643,
      "Ġkawy": 7644,
      "Ġkapra": 7645,
      "Ġkaste": 7646,
      "Ġkazali": 7647,
      "Ġkafel": 7648,
      "ĠkazaÅĤa": 7649,
      "Ġkawioru": 7650,
      "Å¼eÄĩ": 7651,
      "wym": 7652,
      "wyciÄĩ": 7653,
      "wyraÅºniej": 7654,
      "Ġzegary": 7655,
      "ĠzepchniÄĻ": 7656,
      "Ġzechce": 7657,
      "tuÅĤ": 7658,
      "tujÄħc": 7659,
      "Ġluk": 7660,
      "Ġlune": 7661,
      "Ġlubi": 7662,
      "Ġlutego": 7663,
      "ĠlubiÅĤ": 7664,
      "Ġlubia": 7665,
      "nÄħÅĤem": 7666,
      "nÄĻdz": 7667,
      "odÃ³w": 7668,
      "odÅº": 7669,
      "Å¼yny": 7670,
      "Å¼ynka": 7671,
      "Ġczasach": 7672,
      "Ġpaczki": 7673,
      "Ġpachni": 7674,
      "Ġpaczka": 7675,
      "Ġpachami": 7676,
      "Ġpauza": 7677,
      "gia": 7678,
      "gicznego": 7679,
      "pieÅĦ": 7680,
      "gali": 7681,
      "ĠznaÄĩ": 7682,
      "Ġznany": 7683,
      "Ġznanej": 7684,
      "cjami": 7685,
      "cjan": 7686,
      "umaty": 7687,
      "ĠLot": 7688,
      "ĠLos": 7689,
      "ĠLance": 7690,
      "Ġinna": 7691,
      "ĠinnÄħ": 7692,
      "Ġinstru": 7693,
      "Ġpraca": 7694,
      "ĠprasÄĻ": 7695,
      "Ġczysto": 7696,
      "ĠczytaÅĤa": 7697,
      "Ġczytelnik": 7698,
      "waÅĤe": 7699,
      "ĠoparÅĤ": 7700,
      "Ġopowiada": 7701,
      "ĠopanowaÄĩ": 7702,
      "Ġoptycznej": 7703,
      "Ġpiec": 7704,
      "zach": 7705,
      "zacji": 7706,
      "logii": 7707,
      "logiÄĻ": 7708,
      "eze": 7709,
      "niejsi": 7710,
      "niejszy": 7711,
      "niejsze": 7712,
      "niejszymi": 7713,
      "Ġprzezroczy": 7714,
      "czyÅĤo": 7715,
      "aliÅĤ": 7716,
      "aliÅĽmy": 7717,
      "Ġrzeka": 7718,
      "ĠrzekÄĻ": 7719,
      "Ġrzezi": 7720,
      "Ġlemo": 7721,
      "Ġlezie": 7722,
      "Ġlewych": 7723,
      "ĠleciaÅĤy": 7724,
      "tora": 7725,
      "tostra": 7726,
      "Ġsamej": 7727,
      "Ġsamych": 7728,
      "Ġsamymi": 7729,
      "poki": 7730,
      "poty": 7731,
      "popular": 7732,
      "poÅĽrednio": 7733,
      "eksu": 7734,
      "boga": 7735,
      "bogat": 7736,
      "alt": 7737,
      "alnie": 7738,
      "alny": 7739,
      "alaÅĤy": 7740,
      "Ġwszystkimi": 7741,
      "szczÄħc": 7742,
      "ĠÅ¼yra": 7743,
      "ĠÅ¼ywi": 7744,
      "ĠÅ¼yczyÅĤ": 7745,
      "ĠÅ¼yrafy": 7746,
      "ĠÅ¼yletek": 7747,
      "uth": 7748,
      "utÄħ": 7749,
      "utkie": 7750,
      "Ġrasy": 7751,
      "ĠradÄĻ": 7752,
      "Ġrado": 7753,
      "Ġrachu": 7754,
      "Ġraczej": 7755,
      "Ġramieniu": 7756,
      "Ġhum": 7757,
      "Ġhalu": 7758,
      "Ġherb": 7759,
      "Ġhydra": 7760,
      "ĠPosiada": 7761,
      "ĠPoczuÅĤ": 7762,
      "Ġlatach": 7763,
      "Ġkup": 7764,
      "Ġkula": 7765,
      "Ġkuca": 7766,
      "Ġkucha": 7767,
      "ĠkulÄĻ": 7768,
      "Ġkulami": 7769,
      "Ġkuchnia": 7770,
      "Ġkuloodpor": 7771,
      "Ġkupuje": 7772,
      "Ġkutasa": 7773,
      "Ġpigu": 7774,
      "ĠpiszÄħ": 7775,
      "Ġpiwni": 7776,
      "ĠpidÅ¼": 7777,
      "ĠpiÃ³ra": 7778,
      "ĠproszÄĻ": 7779,
      "Ġproszku": 7780,
      "Ġprocesie": 7781,
      "ewnie": 7782,
      "Ġpuszcz": 7783,
      "ĠpuÅĤk": 7784,
      "Ġpuste": 7785,
      "Ġpustych": 7786,
      "Ġpurpu": 7787,
      "owoÅĽci": 7788,
      "owoÅĽÄĩ": 7789,
      "ÅĽliÅĤ": 7790,
      "ÅĽliwy": 7791,
      "ĠnoÅ¼y": 7792,
      "ĠnogÄĻ": 7793,
      "Ġnozd": 7794,
      "Ġnocach": 7795,
      "Ġnotesik": 7796,
      "ĠprzedsiÄĻ": 7797,
      "ĠprzedÅĽmie": 7798,
      "ĠprzedpÅĤ": 7799,
      "Ġprzedmioty": 7800,
      "ĠbÄĻdÄĻ": 7801,
      "ĠJean": 7802,
      "ĠJeste": 7803,
      "ĠJechaÅĤ": 7804,
      "ĠJechali": 7805,
      "gier": 7806,
      "ĠAmerykanami": 7807,
      "ĠAmerykaÅĦski": 7808,
      "ĠAmerykaÅĦskich": 7809,
      "chodzono": 7810,
      "ĠksiÄħÅ¼e": 7811,
      "ostrze": 7812,
      "ostatu": 7813,
      "ĠGi": 7814,
      "ĠGÅĤo": 7815,
      "ĠGenu": 7816,
      "ĠGÅĤowÄĻ": 7817,
      "ĠGerhard": 7818,
      "dzeni": 7819,
      "dzeniu": 7820,
      "dzonych": 7821,
      "dzonej": 7822,
      "Ġbarki": 7823,
      "Ġbarwy": 7824,
      "Ġbarwach": 7825,
      "ĠzapÄĻ": 7826,
      "Ġzapro": 7827,
      "Ġzaprze": 7828,
      "ĠzapÅĤa": 7829,
      "ĠzapowiedziaÅĤ": 7830,
      "ĠzaproponowaÅĤ": 7831,
      "ĠzapaÅĤek": 7832,
      "dÅĤem": 7833,
      "gÅĤowie": 7834,
      "Ġrdze": 7835,
      "ĠpiÄĻtrze": 7836,
      "rawe": 7837,
      "ĠnajsÅĤy": 7838,
      "Ġnajlepiej": 7839,
      "ĠnajwyraÅºniej": 7840,
      "Ġnajbogat": 7841,
      "dusz": 7842,
      "duje": 7843,
      "ĠwÅĤadzy": 7844,
      "Ġtacy": 7845,
      "Ġtarasu": 7846,
      "suje": 7847,
      "sym": 7848,
      "cjach": 7849,
      "Ġlinie": 7850,
      "Ġlisty": 7851,
      "Ġlistu": 7852,
      "ĠlistÄĻ": 7853,
      "Ġliczne": 7854,
      "Ġlicznym": 7855,
      "Ġlitera": 7856,
      "ĠmÃ³wisz": 7857,
      "ĠmÃ³wiÅĤo": 7858,
      "ĠmÃ³wiÅĤem": 7859,
      "guerre": 7860,
      "niÄĻcie": 7861,
      "niÄĻta": 7862,
      "niÄĻto": 7863,
      "niÄĻciu": 7864,
      "Ġcicho": 7865,
      "ĠciszÄĻ": 7866,
      "Ġpowsta": 7867,
      "Ġwzru": 7868,
      "ĠwzgÃ³": 7869,
      "rzyÅĤem": 7870,
      "waÅ¼niejszÄħ": 7871,
      "ĠEk": 7872,
      "ĠEner": 7873,
      "Ġskry": 7874,
      "ĠskrÃ³": 7875,
      "ĠskrÄĻ": 7876,
      "ĠstraciÅĤa": 7877,
      "Ġstracili": 7878,
      "ĠgÅĤÄħb": 7879,
      "iedmi": 7880,
      "Ġotwor": 7881,
      "Ġboj": 7882,
      "ĠbojÄĻ": 7883,
      "ĠbolaÅĤ": 7884,
      "ĠbocznicÄĻ": 7885,
      "ĠstawaÅĤ": 7886,
      "Ġstacji": 7887,
      "Ġstaran": 7888,
      "ĠstanÄħÄĩ": 7889,
      "ĠÅĽmiechem": 7890,
      "Ġbudzi": 7891,
      "Ġbunt": 7892,
      "ĠburzÄħcych": 7893,
      "ĠpoznaÅĤ": 7894,
      "ĠMinie": 7895,
      "Ġbezbo": 7896,
      "ĠbezmyÅĽl": 7897,
      "ĠbezwÅĤa": 7898,
      "ĠbezwzglÄĻ": 7899,
      "Ġbezradny": 7900,
      "ĠbezpoÅĽrednio": 7901,
      "ĠÅ¼ebym": 7902,
      "ĠstojÄħcy": 7903,
      "ĠstojÄħcych": 7904,
      "ĠstojÄħco": 7905,
      "ĠstopieÅĦ": 7906,
      "ĠÅĽwiatu": 7907,
      "ĠÅĽwiatowa": 7908,
      "ĠÅĽwiateÅĤ": 7909,
      "ĠÅĽwiatowÄħ": 7910,
      "Ġzdol": 7911,
      "Ġzdrzem": 7912,
      "Ġzdech": 7913,
      "ÅĽnienia": 7914,
      "stosz": 7915,
      "sky": 7916,
      "skaÅĤo": 7917,
      "skowe": 7918,
      "ĠsÄħdzÄĻ": 7919,
      "Ġwah": 7920,
      "Ġwap": 7921,
      "Ġwaszym": 7922,
      "Ġwspi": 7923,
      "Ġwskaz": 7924,
      "Ġwspomni": 7925,
      "Ġwskazy": 7926,
      "ĠwskazujÄħc": 7927,
      "Ġ135": 7928,
      "stuje": 7929,
      "rodku": 7930,
      "ĠZaczÄĻ": 7931,
      "ĠZajazdu": 7932,
      "ĠZaczynaÅĤ": 7933,
      "ĠUsÅĤy": 7934,
      "ĠUnika": 7935,
      "ĠUÅĽmie": 7936,
      "ĠUdaÅĤo": 7937,
      "ĠUkoÅĦczyÅĤ": 7938,
      "ĠUwierzyÅĤ": 7939,
      "Ġzamk": 7940,
      "Ġzamord": 7941,
      "ĠzamoÅ¼": 7942,
      "Ġzamachu": 7943,
      "ĠWyob": 7944,
      "ĠWysta": 7945,
      "ĠWyszedÅĤ": 7946,
      "ĠWyglÄħda": 7947,
      "ĠbÄĻdziesz": 7948,
      "ĠksiÄħÅ¼kami": 7949,
      "pady": 7950,
      "pano": 7951,
      "scypli": 7952,
      "ware": 7953,
      "ĠcieÅĦ": 7954,
      "ĠcieszyÄĩ": 7955,
      "ĠcienkÄħ": 7956,
      "ĠogÅĤu": 7957,
      "Ġogniu": 7958,
      "Ġogrod": 7959,
      "Ġogniem": 7960,
      "Ġogranicz": 7961,
      "ĠCzyn": 7962,
      "ĠCzyli": 7963,
      "ĠÅĤÄħ": 7964,
      "ĠÅĤama": 7965,
      "ĠÅĤÃ³Å¼ek": 7966,
      "Ġdrut": 7967,
      "ĠdrutÃ³w": 7968,
      "ĠdruÅ¼yny": 7969,
      "ĠbyÅĤyby": 7970,
      "ĠChar": 7971,
      "ĠpierÅĽ": 7972,
      "sier": 7973,
      "Ġsymu": 7974,
      "Ġsyrop": 7975,
      "Ġsystem": 7976,
      "Ġsyren": 7977,
      "ĠnadszedÅĤ": 7978,
      "ĠbiaÅĤych": 7979,
      "ĠbiaÅĤym": 7980,
      "ĠbiaÅĤymi": 7981,
      "Ġbicep": 7982,
      "zika": 7983,
      "ziki": 7984,
      "Ġelem": 7985,
      "Ġelekt": 7986,
      "Ġechem": 7987,
      "Ġewiden": 7988,
      "Ġepoki": 7989,
      "Ġsier": 7990,
      "ĠsiedziaÅĤa": 7991,
      "ĠsiedzieÄĩ": 7992,
      "ĠsierÅ¼": 7993,
      "ĠrÃ³wne": 7994,
      "ĠrÃ³wno": 7995,
      "Ġrela": 7996,
      "Ġrezy": 7997,
      "Ġrezer": 7998,
      "Ġredak": 7999,
      "ĠpanowaÅĤa": 8000,
      "ĠrÄĻcznik": 8001,
      "Ġdrzwiczkach": 8002,
      "Ġbawili": 8003,
      "ĠbawiÅĤa": 8004,
      "Ġbarok": 8005,
      "ĠbawiÄĩ": 8006,
      "ĠbawiÅĤo": 8007,
      "Ġbadania": 8008,
      "Ġbagne": 8009,
      "Ġbawialni": 8010,
      "ĠKiedyÅĽ": 8011,
      "Ġjaja": 8012,
      "Ġjapo": 8013,
      "ĠPrzeprowa": 8014,
      "ĠPrzemawiaÅĤ": 8015,
      "brano": 8016,
      "ĠsÅĤyszeli": 8017,
      "ĠTele": 8018,
      "ĠTeÅĽÄĩ": 8019,
      "ĠTeodora": 8020,
      "Ġdziar": 8021,
      "Ġdziwa": 8022,
      "Ġdzikie": 8023,
      "rowadziÅĤ": 8024,
      "rowadziÅĤa": 8025,
      "ĠWalencjÄĻ": 8026,
      "ĠAnn": 8027,
      "ĠAnkary": 8028,
      "ĠmoÅ¼noÅĽci": 8029,
      "olÄĻ": 8030,
      "olami": 8031,
      "skach": 8032,
      "skawi": 8033,
      "Ġtrzynastego": 8034,
      "Ġspoczyn": 8035,
      "ĠNiemcami": 8036,
      "ĠbyliÅĽcie": 8037,
      "Ġdziecinnych": 8038,
      "ĠamerykaÅĦskiej": 8039,
      "nuowaÅĤ": 8040,
      "ĠFotogra": 8041,
      "ĠFanta": 8042,
      "Ġrury": 8043,
      "Ġruin": 8044,
      "ĠruszyÄĩ": 8045,
      "ĠrurkÄĻ": 8046,
      "Ġdobro": 8047,
      "ĠdobraÅĤ": 8048,
      "ĠgÅĤodu": 8049,
      "ĠgÅĤosu": 8050,
      "ĠgÅĤodny": 8051,
      "Ġkonf": 8052,
      "Ġkonwu": 8053,
      "Ġkonser": 8054,
      "Ġkonstru": 8055,
      "Ġchorzy": 8056,
      "ĠTroutowi": 8057,
      "garniÄĻ": 8058,
      "Å¼yÅĤo": 8059,
      "Å¼yÅĤem": 8060,
      "Ġtrzem": 8061,
      "Ġtrzeci": 8062,
      "ĠtrzeciÄħ": 8063,
      "Ġtrzeciej": 8064,
      "Ã³rka": 8065,
      "Ġoknie": 8066,
      "Ġoknem": 8067,
      "Ġokryli": 8068,
      "ardÃ³w": 8069,
      "Ġchwilami": 8070,
      "ĠspytaÅĤem": 8071,
      "ĠPrzyja": 8072,
      "ĠPrzypad": 8073,
      "ĠPrzyjÄĻcie": 8074,
      "ĠczÅĤowieku": 8075,
      "ĠHu": 8076,
      "ĠHand": 8077,
      "ĠHole": 8078,
      "Ġmusicie": 8079,
      "ĠmusiaÅĤo": 8080,
      "ĠmusiaÅĤem": 8081,
      "ĠRoebu": 8082,
      "dechu": 8083,
      "Ġzielone": 8084,
      "Ġbomba": 8085,
      "ordowanych": 8086,
      "ĠTaka": 8087,
      "ĠAnglii": 8088,
      "blia": 8089,
      "blikowaÅĤa": 8090,
      "prawÄĻ": 8091,
      "ĠÅĽrodkÃ³w": 8092,
      "ĠÅĽrodkami": 8093,
      "Ġprawdopod": 8094,
      "ciÄħgaÅĤ": 8095,
      "ĠodpowiedziaÅĤem": 8096,
      "ĠdÅĤugi": 8097,
      "ĠdÅĤugich": 8098,
      "ĠÅĽwiet": 8099,
      "ĠÅĽwietli": 8100,
      "Ġmiano": 8101,
      "Ġmiaste": 8102,
      "Ġpierwsze": 8103,
      "ĠsÅĤupie": 8104,
      "ĠsÅĤuchaÄĩ": 8105,
      "Ġweteran": 8106,
      "ĠjeÅĦca": 8107,
      "Ġjakoby": 8108,
      "rÃ³dÅĤo": 8109,
      "ĠÅ¼adna": 8110,
      "ĠÅ¼adnym": 8111,
      "ĠzabiÅĤy": 8112,
      "Ġzabitymi": 8113,
      "Ġwojenna": 8114,
      "ĠwojennÄħ": 8115,
      "ĠzrobiÄħ": 8116,
      "ĠzrobiÅĤa": 8117,
      "Ġzrobiono": 8118,
      "czuÄĩ": 8119,
      "Ġmatce": 8120,
      "ĠmatkÄĻ": 8121,
      "Ġbiedni": 8122,
      "Ġbiedakiem": 8123,
      "stawiÅĤa": 8124,
      "dencja": 8125,
      "istoria": 8126,
      "orykiem": 8127,
      "Ġwielkiej": 8128,
      "Ġwieloma": 8129,
      "Ġobozie": 8130,
      "Ġobozach": 8131,
      "ĠpiÄĻknym": 8132,
      "ĠpiÄĻknemu": 8133,
      "ĠbombÄĻ": 8134,
      "Ġbombami": 8135,
      "ĠÅĤad": 8136,
      "ĠÅĤadu": 8137,
      "ĠÅĤasko": 8138,
      "chanych": 8139,
      "chanicz": 8140,
      "ÅĦstwem": 8141,
      "ĠkoÅĦczy": 8142,
      "Ġdane": 8143,
      "Ġdano": 8144,
      "Ġdaje": 8145,
      "ĠdajÄĻ": 8146,
      "Ġdawali": 8147,
      "ĠzawdziÄĻ": 8148,
      "ĠstaraÅĤ": 8149,
      "Ġstarczy": 8150,
      "Ġstarszy": 8151,
      "Ġstaremu": 8152,
      "Ġstarszego": 8153,
      "ĠwidziaÅĤy": 8154,
      "trzas": 8155,
      "trznoÅĽci": 8156,
      "ĠzostaÄĩ": 8157,
      "ĠzostanÄħ": 8158,
      "siÄħce": 8159,
      "ĠCoÅĽ": 8160,
      "ĠCope": 8161,
      "ĠCoupe": 8162,
      "ĠCzego": 8163,
      "ĠCzoÅĤ": 8164,
      "ĠCzasem": 8165,
      "dnieni": 8166,
      "dnieniem": 8167,
      "ĠrÃ³Å¼nymi": 8168,
      "ĠrÃ³Å¼nicy": 8169,
      "ĠzdarzyÅĤ": 8170,
      "ĠzdawaÅĤo": 8171,
      "Ġniemieckim": 8172,
      "Ġzasad": 8173,
      "Ġczule": 8174,
      "ĠczuwaÄĩ": 8175,
      "ĠchciaÅĤby": 8176,
      "Ġpyska": 8177,
      "Ġkier": 8178,
      "ĠkierowaÅĤ": 8179,
      "Ġkierunku": 8180,
      "ĠpopÅĤaki": 8181,
      "Ġpopychali": 8182,
      "ronem": 8183,
      "ronne": 8184,
      "Ġstanu": 8185,
      "ĠstanÄĻ": 8186,
      "ĠStar": 8187,
      "ĠStaÅĤy": 8188,
      "ĠchÅĤopcu": 8189,
      "ĠRumfoordowi": 8190,
      "Ġsir": 8191,
      "ĠsiÅĤÄĻ": 8192,
      "Ġdniach": 8193,
      "Ġmarne": 8194,
      "Ġmarki": 8195,
      "ĠmarszaÅĤ": 8196,
      "Ġmarszu": 8197,
      "ĠmÅĤodo": 8198,
      "Ġwydanie": 8199,
      "dzielili": 8200,
      "yliÅĤ": 8201,
      "zeczkÄħ": 8202,
      "Ġarmat": 8203,
      "ĠnazwÄĻ": 8204,
      "Ġpomordowanych": 8205,
      "Ġstarych": 8206,
      "Ġczterdzie": 8207,
      "Ġczternasto": 8208,
      "ĠMontre": 8209,
      "ĠOptycznego": 8210,
      "Ġfabu": 8211,
      "ĠznalazÅĤy": 8212,
      "ĠznalazÅĤem": 8213,
      "pety": 8214,
      "pecja": 8215,
      "ĠzÅĤote": 8216,
      "ĠzÅĤodziej": 8217,
      "ĠzÅĤoÅ¼one": 8218,
      "ĠniezbÄĻ": 8219,
      "Ġniezrozu": 8220,
      "ĠnieznoÅĽ": 8221,
      "Ġniezmien": 8222,
      "ĠniezaleÅ¼nie": 8223,
      "Ġprzyjaz": 8224,
      "Ġprzyjaciele": 8225,
      "Ġtelef": 8226,
      "Ġtelefo": 8227,
      "Ġtelegramy": 8228,
      "Ġjednotom": 8229,
      "Ġjednostki": 8230,
      "Ġhisterii": 8231,
      "Ġhistorykiem": 8232,
      "ĠRosewaterowi": 8233,
      "ĠlaÄĩ": 8234,
      "Ġlazu": 8235,
      "ĠladÄħ": 8236,
      "Ġlalek": 8237,
      "Ġnasil": 8238,
      "ĠPodry": 8239,
      "Ġdzieckiem": 8240,
      "ĠMontany": 8241,
      "Ġakapi": 8242,
      "Ġaktyw": 8243,
      "ĠsÅĤone": 8244,
      "ĠsÅĤodowy": 8245,
      "Ġduszy": 8246,
      "ĠkrzyknÄħÅĤ": 8247,
      "ĠkrzyknÄĻÅĤa": 8248,
      "ĠPara": 8249,
      "ĠPani": 8250,
      "ĠPacj": 8251,
      "ĠrobiÄħ": 8252,
      "cyjnego": 8253,
      "Ġszyi": 8254,
      "Ġszyku": 8255,
      "ĠKoÅĽci": 8256,
      "Ġmieszkanie": 8257,
      "Ġmieszkaniu": 8258,
      "zdku": 8259,
      "ĠzupÄĻ": 8260,
      "ĠkarÄĻ": 8261,
      "Ġkarku": 8262,
      "Ġkarpie": 8263,
      "dzÄħcy": 8264,
      "niczny": 8265,
      "szurÄĻ": 8266,
      "stee": 8267,
      "czynnik": 8268,
      "ĠMoÅ¼": 8269,
      "ĠMoja": 8270,
      "ĠJaka": 8271,
      "ĠJako": 8272,
      "Ġotworzono": 8273,
      "Ġotworzyli": 8274,
      "ĠznajdowaÅĤy": 8275,
      "ĠznajdowaÅĤo": 8276,
      "Ġtrudu": 8277,
      "Ġtrupa": 8278,
      "Ġtrupy": 8279,
      "Ġtrudno": 8280,
      "Ġtrudem": 8281,
      "romny": 8282,
      "Ġdomku": 8283,
      "ĠzachowaÄĩ": 8284,
      "Ġzachowania": 8285,
      "Ġzachowanie": 8286,
      "ĠzachowywaÅĤ": 8287,
      "ĠzachowywaÄĩ": 8288,
      "Ġgrup": 8289,
      "Ġgruby": 8290,
      "Ġgrupa": 8291,
      "ĠgruszkÄĻ": 8292,
      "Ġrodzina": 8293,
      "ĠrodzicÃ³w": 8294,
      "ĠDoszedÅĤ": 8295,
      "ĠDorado": 8296,
      "Ġszkole": 8297,
      "Ġpodobny": 8298,
      "Ġpodobnych": 8299,
      "ĠpodobaÅĤo": 8300,
      "Ġpodobnego": 8301,
      "ĠmoÅ¼esz": 8302,
      "ĠmoÅ¼ecie": 8303,
      "Ġfilmy": 8304,
      "Ġfilmach": 8305,
      "ĠÅļw": 8306,
      "ĠÅļmie": 8307,
      "ĠÅļwiÄĻ": 8308,
      "unki": 8309,
      "unku": 8310,
      "Ġskom": 8311,
      "Ġskoro": 8312,
      "ĠskoÅĦczyÄĩ": 8313,
      "Ġskut": 8314,
      "ĠwyÅĤad": 8315,
      "Å¼ania": 8316,
      "Å¼ajÄħ": 8317,
      "Ġdecy": 8318,
      "Ġkrajem": 8319,
      "ĠnauczyÄĩ": 8320,
      "ĠnauczyÅĤem": 8321,
      "Ġbrak": 8322,
      "Ġbram": 8323,
      "Ġbraci": 8324,
      "Ġpokrowiec": 8325,
      "Ġczeka": 8326,
      "tycznÄħ": 8327,
      "ĠLeÅ¼eli": 8328,
      "Ġpracowali": 8329,
      "ĠsamochÃ³d": 8330,
      "ĠmyÅĽlÄĻ": 8331,
      "ĠmyÅĽlÄħ": 8332,
      "ĠpytaÅĦ": 8333,
      "ĠpytajÄħc": 8334,
      "Ġpytaniem": 8335,
      "ionej": 8336,
      "ioptr": 8337,
      "Ġsennie": 8338,
      "Ġsenne": 8339,
      "Ġsensu": 8340,
      "Ġsensa": 8341,
      "Ġwargami": 8342,
      "ĠzginÄĻÅĤa": 8343,
      "ĠzginÄħÄĩ": 8344,
      "ĠzginÄĻÅĤo": 8345,
      "ĠmÄĻÅ¼owi": 8346,
      "Ġgrana": 8347,
      "ĠczarnÄħ": 8348,
      "Ġczarnym": 8349,
      "Ġgodzina": 8350,
      "ĠwiedziaÅĤem": 8351,
      "ĠVille": 8352,
      "Ġpreten": 8353,
      "ĠpÃ³ÅĤnoc": 8354,
      "ĠpÃ³ÅĤprzytom": 8355,
      "Ġschlu": 8356,
      "ĠschwaÅĤ": 8357,
      "Ġschron": 8358,
      "ĠwrÃ³ciÄĩ": 8359,
      "ĠzwykÅĤych": 8360,
      "racaÅĤy": 8361,
      "ĠistniaÅĤo": 8362,
      "szczymy": 8363,
      "ĠbroniÄħ": 8364,
      "ĠbroszurÄĻ": 8365,
      "Ġdoprowa": 8366,
      "ĠWiad": 8367,
      "ĠWidziaÅĤ": 8368,
      "ĠWido": 8369,
      "ĠWidzÄħ": 8370,
      "ĠWidzÄĻ": 8371,
      "ĠuwaÅ¼ali": 8372,
      "ĠuwaÅ¼aÄĩ": 8373,
      "Äħcymi": 8374,
      "ĠDziaÅĤ": 8375,
      "ĠDziÅĽ": 8376,
      "ĠDzisiaj": 8377,
      "ĠSzkarÅĤat": 8378,
      "Ġwieczorem": 8379,
      "Ġpatrzyli": 8380,
      "ĠpeÅĤen": 8381,
      "ĠpeÅĤnym": 8382,
      "Ġpewno": 8383,
      "Ġpewnych": 8384,
      "Ġpewnego": 8385,
      "Ġpewnemu": 8386,
      "Ġtrony": 8387,
      "Ġtropu": 8388,
      "Ġtronu": 8389,
      "Ġdwiema": 8390,
      "Ġmile": 8391,
      "Ġmilczenie": 8392,
      "Ġmilczenia": 8393,
      "Ġmilczeniu": 8394,
      "ĠnaleÅ¼aÅĤ": 8395,
      "ĠpoÅĽlu": 8396,
      "ĠpoÅĽpie": 8397,
      "ĠpoÅĽredni": 8398,
      "ĠpoÅĽrodku": 8399,
      "ĠpomyÅĽl": 8400,
      "Ġspodni": 8401,
      "Ġspodniami": 8402,
      "ĠlotnikÃ³w": 8403,
      "Ġwojskowych": 8404,
      "Ġsamolotem": 8405,
      "styczny": 8406,
      "styczna": 8407,
      "ĠstraÅ¼nikami": 8408,
      "ĠZiemianin": 8409,
      "ĠdÅĤugoÅĽci": 8410,
      "ĠdÅĤugoletnie": 8411,
      "Ġnumery": 8412,
      "Ġmeble": 8413,
      "Ġmechanicz": 8414,
      "ĠmasÅĤa": 8415,
      "ĠBerlinie": 8416,
      "Ġsprawa": 8417,
      "ĠsprawiÅĤa": 8418,
      "Ġsprawach": 8419,
      "ĠsprawiajÄħ": 8420,
      "ĠMieszka": 8421,
      "ĠMiesiÄħc": 8422,
      "ĠMieÅĽciÅĤa": 8423,
      "Ġwolne": 8424,
      "Ġodpowiedzi": 8425,
      "ĠodpowiedziaÅĤa": 8426,
      "Ġbombardowanie": 8427,
      "kÅĤe": 8428,
      "omilimet": 8429,
      "ĠpowoÅĤa": 8430,
      "Ġpowolne": 8431,
      "ĠzwierzÄħt": 8432,
      "Ġdwuna": 8433,
      "Ġdwudzie": 8434,
      "Ġdwunastu": 8435,
      "Ġojcze": 8436,
      "Ġojcu": 8437,
      "Ġojcem": 8438,
      "Ġkrokiem": 8439,
      "Ġkreda": 8440,
      "dziane": 8441,
      "Ġjedyny": 8442,
      "Ġjedyne": 8443,
      "ĠjedynÄħ": 8444,
      "Ġwysokiego": 8445,
      "Ġprzeciwnie": 8446,
      "ĠÅĽpiewaÅĤ": 8447,
      "ĠÅĽpiewali": 8448,
      "ĠÅĽpiewaÄĩ": 8449,
      "ĠtysiÄħca": 8450,
      "ĠDzieÅĦ": 8451,
      "ĠInni": 8452,
      "ĠInna": 8453,
      "Ġpalnej": 8454,
      "Ġpalcem": 8455,
      "Ġznalezie": 8456,
      "Ġznalezione": 8457,
      "ĠprzedstawiÄĩ": 8458,
      "ĠprzedstawiajÄħc": 8459,
      "ĠwÅĤasny": 8460,
      "ĠwÅĤasnego": 8461,
      "ĠkaÅ¼demu": 8462,
      "ĠotworzyÅĤa": 8463,
      "Ġmomentach": 8464,
      "ĠmÄĻÅ¼czyzna": 8465,
      "Ġpaskami": 8466,
      "Ġpasjonu": 8467,
      "ĠzmieniÅĤ": 8468,
      "ĠzmieniaÅĤ": 8469,
      "Ġzmienili": 8470,
      "ĠduÅ¼a": 8471,
      "ĠduÅ¼ego": 8472,
      "Ġpomocy": 8473,
      "Ġpomogli": 8474,
      "letki": 8475,
      "ĠwyjÄħtku": 8476,
      "Ġupewni": 8477,
      "ĠRobi": 8478,
      "ĠRobiÅĤ": 8479,
      "Ġparawa": 8480,
      "Ġparadny": 8481,
      "Ġopustosz": 8482,
      "ĠopublikowaÅĤa": 8483,
      "ĠpuÅĤkownikÃ³w": 8484,
      "ĠpuÅĤkownika": 8485,
      "Ġbaraki": 8486,
      "ĠbarakÃ³w": 8487,
      "ĠsÅĤyszaÅĤam": 8488,
      "ĠstanowiÅĤ": 8489,
      "Ġstanowiska": 8490,
      "Ġfacetom": 8491,
      "Ġnumerek": 8492,
      "rÃ³wki": 8493,
      "spÃ³ÅĤ": 8494,
      "twaffe": 8495,
      "ĠprowadziÅĤ": 8496,
      "ĠprowadziÅĤa": 8497,
      "Ġzamiatali": 8498,
      "czonÄħ": 8499,
      "czoÅĽci": 8500,
      "czonym": 8501,
      "Ġtram": 8502,
      "Ġtraci": 8503,
      "Ġtrady": 8504,
      "Ġtrage": 8505,
      "ĠtyÅĤach": 8506,
      "ĠpoczÄħtek": 8507,
      "Ġnieprzemija": 8508,
      "Ġniepewnie": 8509,
      "ĠwyglÄħdu": 8510,
      "ĠwyglÄħdaÅĤo": 8511,
      "ĠgÅĤupa": 8512,
      "ĠukrzyÅ¼": 8513,
      "Ġuroczym": 8514,
      "Ġuroczysto": 8515,
      "Ġcelem": 8516,
      "ĠprzypominaÅĤo": 8517,
      "ĠsprzedaÄĩ": 8518,
      "Ġspecjalne": 8519,
      "Ġspecjalnie": 8520,
      "ĠleÅ¼aÅĤa": 8521,
      "Ġkurs": 8522,
      "Ġkurwa": 8523,
      "ĠkurtkÄĻ": 8524,
      "Ġkurczak": 8525,
      "ĠpozostaÅĤ": 8526,
      "ĠRozwo": 8527,
      "Ġprawdziwych": 8528,
      "Ġprawdziwej": 8529,
      "Ġnazwiska": 8530,
      "torium": 8531,
      "ĠpÅĤyn": 8532,
      "ĠpÅĤynÄĻÅĤa": 8533,
      "Ġwkra": 8534,
      "Ġwalki": 8535,
      "Ġdyscypli": 8536,
      "ĠdÅĤoÅĦ": 8537,
      "ĠdÅĤoniÄħ": 8538,
      "ĠmaÅĤej": 8539,
      "Ġmordu": 8540,
      "Ġotoczony": 8541,
      "ĠkrwiÄħ": 8542,
      "ĠnastÄĻpujÄħcej": 8543,
      "Ġjasny": 8544,
      "Ġjaskra": 8545,
      "Ġjasnozie": 8546,
      "ĠstalowÄħ": 8547,
      "Ġstalowe": 8548,
      "ĠprzestajÄħc": 8549,
      "Ġprzestaje": 8550,
      "Ġprzekonanie": 8551,
      "Ġprzekonany": 8552,
      "ĠDobrze": 8553,
      "ĠDobrÄħ": 8554,
      "Ġfir": 8555,
      "Ġfigu": 8556,
      "Ġobiedzie": 8557,
      "ĠrozlegÅĤo": 8558,
      "ĠrozlegaÅĤo": 8559,
      "Ġinteres": 8560,
      "ĠopowieÅĽÄĩ": 8561,
      "ĠgÅĤÄĻbi": 8562,
      "Ġpozostali": 8563,
      "ĠpozostawiajÄħc": 8564,
      "panii": 8565,
      "ĠcaÅĤkowitej": 8566,
      "ĠFrancjÄħ": 8567,
      "ĠciÄĻÅ¼ki": 8568,
      "ĠciÄĻÅ¼ko": 8569,
      "ĠciÄĻÅ¼kie": 8570,
      "Ġangielski": 8571,
      "Ġangielskiego": 8572,
      "Ġangielszczy": 8573,
      "ĠangielskÄħ": 8574,
      "Ġszeregowego": 8575,
      "ĠpudeÅĤko": 8576,
      "conym": 8577,
      "demie": 8578,
      "kliwie": 8579,
      "nkowym": 8580,
      "olikiem": 8581,
      "ĠsÅĤab": 8582,
      "ĠsÅĤabi": 8583,
      "ĠwÄĻgl": 8584,
      "ĠwÄĻgier": 8585,
      "Ġzimny": 8586,
      "Ġzimna": 8587,
      "Ġzimno": 8588,
      "Ġzimowej": 8589,
      "Ġtowarzyszy": 8590,
      "Ġtowarzysza": 8591,
      "Ġtowarzyszem": 8592,
      "Ġtowarzystwie": 8593,
      "ĠdowiedzieliÅĽmy": 8594,
      "ĠoÅĽrod": 8595,
      "Ġnazywa": 8596,
      "ĠnazywaÅĤ": 8597,
      "Ġbrwi": 8598,
      "ĠpomagaÄĩ": 8599,
      "ĠdotÄħd": 8600,
      "ĠdoskonaÅĤ": 8601,
      "ĠzaczÄĻÅĤo": 8602,
      "ĠzaczÄĻÅĤy": 8603,
      "Ġwyjdzie": 8604,
      "ĠwyjÅĽcia": 8605,
      "Ġumrze": 8606,
      "ĠuÅ¼yciu": 8607,
      "ĠTylko": 8608,
      "ĠTysiÄħce": 8609,
      "ĠodwiedziÅĤ": 8610,
      "ĠodwiedziÅĤem": 8611,
      "Ġkomunika": 8612,
      "Ġkopule": 8613,
      "ĠkopuÅĤÄĻ": 8614,
      "Ġlody": 8615,
      "Ġlodowce": 8616,
      "ĠszkarÅĤat": 8617,
      "Ġszklane": 8618,
      "Ġszczekanie": 8619,
      "ĠszczegÃ³": 8620,
      "Ġsztuk": 8621,
      "ĠszczÄĻÅĽcie": 8622,
      "czeniach": 8623,
      "ĠSpÄĻ": 8624,
      "ĠStan": 8625,
      "terami": 8626,
      "Ġobecnie": 8627,
      "Ġobecny": 8628,
      "ĠobecnoÅĽÄĩ": 8629,
      "ĠlubiÄĻ": 8630,
      "ĠludzkÄħ": 8631,
      "Ġludzkich": 8632,
      "Ġlekarze": 8633,
      "Ġlekarzy": 8634,
      "ĠwÅĤaÅĽciciela": 8635,
      "Ġbohaterem": 8636,
      "Ġbohaterowie": 8637,
      "Ġspokojem": 8638,
      "Ġziemskich": 8639,
      "Ġkolejne": 8640,
      "ĠkolejnoÅĽci": 8641,
      "Ġmuszkieterowie": 8642,
      "Ġmuszkieterami": 8643,
      "Ġsrebrnym": 8644,
      "gnanie": 8645,
      "Ġryk": 8646,
      "ĠryczaÅĤ": 8647,
      "Ġpryczy": 8648,
      "Ġprykiem": 8649,
      "ĠpamiÄĻtam": 8650,
      "Ġzbro": 8651,
      "ĠzbÅĤÄħ": 8652,
      "Ġzniszczenia": 8653,
      "ĠmiÄĻsem": 8654,
      "Ġizby": 8655,
      "ĠizbÄĻ": 8656,
      "ĠnastÄĻpnym": 8657,
      "ĠbrzmiaÅĤ": 8658,
      "ĠbrzmiaÅĤy": 8659,
      "ĠdorobiÄĩ": 8660,
      "Ġwykonu": 8661,
      "ĠstrzelaÅĤ": 8662,
      "Ġstrzelec": 8663,
      "Ġgacie": 8664,
      "ĠTastee": 8665,
      "Ġspotkanie": 8666,
      "ĠDziÄĻki": 8667,
      "ĠMurzy": 8668,
      "ĠMuszkie": 8669,
      "ĠgorÄħce": 8670,
      "ĠgorÄħcÄħ": 8671,
      "ĠmiesiÄħca": 8672,
      "ĠmiesiÄħcu": 8673,
      "Ġzebrania": 8674,
      "Ġzebranym": 8675,
      "Ġpacjenta": 8676,
      "szczÄĻÅĽli": 8677,
      "Ġtajemnice": 8678,
      "ĠwziÄĻty": 8679,
      "ĠwziÄĻtym": 8680,
      "ĠÅĽmieszne": 8681,
      "ĠÅĽmiesznÄħ": 8682,
      "ĠZapewni": 8683,
      "Ġciemny": 8684,
      "Ġciemnej": 8685,
      "Ġogromny": 8686,
      "ĠegzekucjÄĻ": 8687,
      "Ġkonwojenci": 8688,
      "Ġkilkunastu": 8689,
      "ĠprzyjacioÅĤo": 8690,
      "ĠdÅºwiÄĻku": 8691,
      "Ġinteresy": 8692,
      "grozi": 8693,
      "ndry": 8694,
      "ĠYmki": 8695,
      "Ġplecy": 8696,
      "Ġsufi": 8697,
      "Ġzbud": 8698,
      "Ġzburzono": 8699,
      "Ġzburzeniem": 8700,
      "Ġzbudowali": 8701,
      "Ġtwoja": 8702,
      "Ġdialo": 8703,
      "ĠokularÃ³w": 8704,
      "ĠostrzeÅ¼enia": 8705,
      "ĠostrzelaÅĤy": 8706,
      "ĠkrzesÅĤa": 8707,
      "Ġkrzepcy": 8708,
      "ĠkrzeseÅĤ": 8709,
      "ĠkÃ³ÅĤkach": 8710,
      "ĠkÃ³ÅĤecz": 8711,
      "ĠkrÃ³tkie": 8712,
      "ĠkrÃ³tszy": 8713,
      "Ġnapal": 8714,
      "stwach": 8715,
      "ĠBitwa": 8716,
      "ĠBiblia": 8717,
      "Ġzabaw": 8718,
      "Ġzabawne": 8719,
      "ĠPall": 8720,
      "ĠWiÄĻc": 8721,
      "Ġwyrazi": 8722,
      "Ġwyrazem": 8723,
      "Ġstosy": 8724,
      "Ġstudia": 8725,
      "ĠprzepÅĤynÄĻÅĤa": 8726,
      "Ġprzeczyta": 8727,
      "Ġubrany": 8728,
      "ĠuÅĽmiech": 8729,
      "ĠoddaliÅĤ": 8730,
      "Ġszczytu": 8731,
      "Ġforsow": 8732,
      "Ġobrazkiem": 8733,
      "Ġobrazek": 8734,
      "ĠrozpÄĻ": 8735,
      "ĠrozpÅĤakaÅĤ": 8736,
      "ĠdziesiÄĻciu": 8737,
      "ĠkawaÅĤki": 8738,
      "ĠkawaÅĤek": 8739,
      "Ġpiosenka": 8740,
      "Ġstrasznie": 8741,
      "Ġstopami": 8742,
      "Ġstopniem": 8743,
      "Ġzdrowie": 8744,
      "Ġzdrowia": 8745,
      "ĠwspaniaÅĤym": 8746,
      "Ġokrutnie": 8747,
      "ĠZiemianami": 8748,
      "ĠkrzyÅ¼u": 8749,
      "ĠfilmowÄħ": 8750,
      "Ġosobist": 8751,
      "ĠosobiÅĽcie": 8752,
      "ĠwspÃ³ÅĤczynnik": 8753,
      "ĠmÄĻÅ¼czyzny": 8754,
      "ĠKopciuszek": 8755,
      "Ġsiedmiu": 8756,
      "Ġtrzon": 8757,
      "ÅĽniaÅĤ": 8758,
      "Ġorganach": 8759,
      "ĠpolicjÄĻ": 8760,
      "ĠzastrzeliÅĤ": 8761,
      "ĠÅ¼elazne": 8762,
      "ĠÅ¼elaznego": 8763,
      "ĠÅ¼elaznej": 8764,
      "ĠulicÄħ": 8765,
      "ĠusiÅĤowaÅĤa": 8766,
      "ĠusÅĤyszeli": 8767,
      "ĠusÅĤyszeÄĩ": 8768,
      "Ġcuda": 8769,
      "Ġcudo": 8770,
      "Ġcukier": 8771,
      "ĠkopaÅĤ": 8772,
      "Ġkopal": 8773,
      "Ġprzypadkowo": 8774,
      "Ġprzypadkowego": 8775,
      "ĠmiÅĤos": 8776,
      "ĠmiÅĤoÅĽÄĩ": 8777,
      "ĠmiÅĤoÅĽnikÃ³w": 8778,
      "ĠmiÅĤosier": 8779,
      "ĠDruga": 8780,
      "ĠDrugÄħ": 8781,
      "Ġszafi": 8782,
      "Ġszacu": 8783,
      "czesne": 8784,
      "ĠCicero": 8785,
      "ĠSÅĤyszaÅĤ": 8786,
      "ĠSÅĤychaÄĩ": 8787,
      "ĠSÅĤyszeli": 8788,
      "ĠOboje": 8789,
      "ĠfotografiÄĻ": 8790,
      "ĠNazywaÅĤa": 8791,
      "Ġlektury": 8792,
      "Ġlekcewa": 8793,
      "Ġradia": 8794,
      "Ġpisarzem": 8795,
      "ĠGdybym": 8796,
      "Ġnajlepsze": 8797,
      "Ġnajlepszych": 8798,
      "ĠUwaÅ¼ali": 8799,
      "ĠHmmm": 8800,
      "ĠobozowÄħ": 8801,
      "Ġkolorowych": 8802,
      "ĠpÅĤciowe": 8803,
      "Ġlotniska": 8804,
      "ĠplanetÄĻ": 8805,
      "Ġfrontowym": 8806,
      "ĠgÅĤÄĻboki": 8807,
      "ĠgÅĤÄĻbokÄħ": 8808,
      "ĠÅĽcianki": 8809,
      "ĠwÅĤÃ³czÄĻgi": 8810,
      "ĠbÅĤÄĻkitne": 8811,
      "ĠbÅĤÄĻkitnej": 8812,
      "ĠprzyjaciÃ³ÅĤmi": 8813,
      "ĠinteresujÄħ": 8814,
      "ĠinteresujÄħcy": 8815,
      "ĠinteresujÄħce": 8816,
      "ĠinteresujÄħcÄħ": 8817,
      "Ġosiemset": 8818,
      "ĠosiemdziesiÄĻ": 8819,
      "broje": 8820,
      "mentowaÅĤ": 8821,
      "patii": 8822,
      "ĠpÄĻkniÄĻ": 8823,
      "Ġpilota": 8824,
      "ĠnowoÅĽci": 8825,
      "Ġzgon": 8826,
      "Ġzgodne": 8827,
      "ĠzaÅĤoÅ¼y": 8828,
      "ĠzaÅĤogi": 8829,
      "ĠzmarÅĤa": 8830,
      "ĠzmarÅĤy": 8831,
      "ĠtrÃ³jogni": 8832,
      "ĠkatowaÅĤ": 8833,
      "Ġkryte": 8834,
      "Ġkryzysu": 8835,
      "ĠkrÄĻciÅĤ": 8836,
      "Ġpolowych": 8837,
      "Ġpodziw": 8838,
      "Ġzadanie": 8839,
      "Ġzadaniem": 8840,
      "Ġzarazem": 8841,
      "Ġjeziorze": 8842,
      "ĠWayne": 8843,
      "ĠWagon": 8844,
      "ĠWrÃ³Å¼kÄĻ": 8845,
      "ĠprzeÅ¼yje": 8846,
      "Ġucieczki": 8847,
      "Ġuciekinie": 8848,
      "ĠukoÅĽ": 8849,
      "ĠjakimÅĽ": 8850,
      "ĠodezwaÅĤa": 8851,
      "ĠczerwonÄħ": 8852,
      "ĠÅĽwiÅĦ": 8853,
      "ĠÅĽwiniarni": 8854,
      "ĠÅĽwiadkiem": 8855,
      "ĠÅĽwiadomoÅĽci": 8856,
      "Ġszuka": 8857,
      "Ġszubie": 8858,
      "ĠCadillaka": 8859,
      "ĠCadillac": 8860,
      "ĠSyrop": 8861,
      "ĠpodrygujÄħc": 8862,
      "ĠKrzyÅ¼": 8863,
      "Ġwindy": 8864,
      "Ġkarabinu": 8865,
      "Ġlepsze": 8866,
      "Ġlepszego": 8867,
      "ĠÅ¼ywnoÅĽÄĩ": 8868,
      "ĠheÅĤm": 8869,
      "Ġprotest": 8870,
      "ĠprotezÄĻ": 8871,
      "ĠJedna": 8872,
      "ĠJednÄħ": 8873,
      "ĠJedynie": 8874,
      "ĠJedyny": 8875,
      "ĠJedyne": 8876,
      "ĠJedynym": 8877,
      "ĠGlucka": 8878,
      "Ġzapewnia": 8879,
      "Ġdalekopis": 8880,
      "Ġskarb": 8881,
      "Ġskarpet": 8882,
      "Ġbutelka": 8883,
      "ĠbutelkÄħ": 8884,
      "Ġstolik": 8885,
      "ĠzamkniÄĻte": 8886,
      "ĠzamkniÄĻto": 8887,
      "ĠÅģa": 8888,
      "ĠciepÅĤe": 8889,
      "Ġcierpli": 8890,
      "ĠWielka": 8891,
      "ĠWielki": 8892,
      "ĠWielkiego": 8893,
      "Ġzieloni": 8894,
      "ĠdÅĤuÅ¼szego": 8895,
      "Ġdawna": 8896,
      "Ġmartw": 8897,
      "Ġfabryki": 8898,
      "Ġszybciej": 8899,
      "ĠtÅĤuszczowÄħ": 8900,
      "Ġcywila": 8901,
      "ĠcywilnÄħ": 8902,
      "ĠÅļwiatÅĤo": 8903,
      "Ġdeszczu": 8904,
      "Ġsamochodem": 8905,
      "ĠSzkole": 8906,
      "ĠÅĤyÅ¼ka": 8907,
      "ĠnaleÅ¼aÅĤa": 8908,
      "Ġokienko": 8909,
      "Ġokienkach": 8910,
      "ĠjÄĻzyk": 8911,
      "Ġgwiazd": 8912,
      "ĠgwiazdÄħ": 8913,
      "ĠrobotÄĻ": 8914,
      "Ġrobotnicy": 8915,
      "Ġkatastrofy": 8916,
      "port": 8917,
      "setts": 8918,
      "Ġsecesyj": 8919,
      "Ġsceny": 8920,
      "Ġscena": 8921,
      "ĠweÅĤnianÄħ": 8922,
      "ĠznikÅĤy": 8923,
      "ĠtarczÄĻ": 8924,
      "ĠtarczÄħ": 8925,
      "Ġdachu": 8926,
      "ĠdachÃ³w": 8927,
      "ĠmÄħdrego": 8928,
      "Ġkitu": 8929,
      "ĠjadÅĤ": 8930,
      "ĠjadÅĤa": 8931,
      "ĠjadÅĤy": 8932,
      "Ġbrzegu": 8933,
      "Ġbrzegiem": 8934,
      "Ġpokale": 8935,
      "ĠpodawaÅĤ": 8936,
      "Ġpomieszczeniu": 8937,
      "ĠpojechaÅĤ": 8938,
      "Ġpojedyn": 8939,
      "Ġponury": 8940,
      "ĠponurÄħ": 8941,
      "Ġpoczucie": 8942,
      "ĠporuszaÅĤy": 8943,
      "ĠpopoÅĤudnie": 8944,
      "ĠBostonie": 8945,
      "leciaÅĤy": 8946,
      "ĠzawiÃ³zÅĤ": 8947,
      "ĠzajmowaÄĩ": 8948,
      "ersonel": 8949,
      "ĠPropa": 8950,
      "ĠProfes": 8951,
      "ĠwysyÅĤa": 8952,
      "Ġwyrasta": 8953,
      "Ġwymalowany": 8954,
      "ĠwystÄħpiÅĤ": 8955,
      "ĠgrywaÅĤ": 8956,
      "ĠuderzyÅĤ": 8957,
      "Ġuderzeniami": 8958,
      "nocnej": 8959,
      "ĠTuilerie": 8960,
      "ĠTrzej": 8961,
      "Ġodegra": 8962,
      "ĠodwrÃ³ciÅĤa": 8963,
      "Ġodwszalni": 8964,
      "ĠodraÅ¼ajÄħce": 8965,
      "ĠodraÅ¼ajÄħcy": 8966,
      "ĠodraÅ¼ajÄħcÄħ": 8967,
      "Ġkompanii": 8968,
      "Ġprzygotowany": 8969,
      "Ġprzygotowywali": 8970,
      "ĠchciaÅĤa": 8971,
      "ĠchciaÅĤy": 8972,
      "ĠchciaÅĤo": 8973,
      "ĠszaleÅĦcy": 8974,
      "ĠgotowÄħ": 8975,
      "Ġgotowe": 8976,
      "ĠSiedziaÅĤ": 8977,
      "ĠpodÅĤogÄĻ": 8978,
      "Ġmundurze": 8979,
      "Ġmundury": 8980,
      "ĠKuppel": 8981,
      "Ġmocne": 8982,
      "ĠNastÄĻpnie": 8983,
      "ĠNastÄĻpna": 8984,
[...]
